const unsigned char gesture_model [] = {  
  0x1c, 0x00, 0x00, 0x00, 0x54, 0x46, 0x4c, 0x33, 0x14, 0x00, 0x20, 0x00,
  0x1c, 0x00, 0x18, 0x00, 0x14, 0x00, 0x10, 0x00, 0x0c, 0x00, 0x00, 0x00,
  0x08, 0x00, 0x04, 0x00, 0x14, 0x00, 0x00, 0x00, 0x1c, 0x00, 0x00, 0x00,
  0x90, 0x00, 0x00, 0x00, 0xe8, 0x00, 0x00, 0x00, 0x10, 0x66, 0x00, 0x00,
  0x20, 0x66, 0x00, 0x00, 0xdc, 0x6b, 0x00, 0x00, 0x03, 0x00, 0x00, 0x00,
  0x01, 0x00, 0x00, 0x00, 0x10, 0x00, 0x00, 0x00, 0x00, 0x00, 0x0a, 0x00,
  0x10, 0x00, 0x0c, 0x00, 0x08, 0x00, 0x04, 0x00, 0x0a, 0x00, 0x00, 0x00,
  0x0c, 0x00, 0x00, 0x00, 0x1c, 0x00, 0x00, 0x00, 0x38, 0x00, 0x00, 0x00,
  0x0f, 0x00, 0x00, 0x00, 0x73, 0x65, 0x72, 0x76, 0x69, 0x6e, 0x67, 0x5f,
  0x64, 0x65, 0x66, 0x61, 0x75, 0x6c, 0x74, 0x00, 0x01, 0x00, 0x00, 0x00,
  0x04, 0x00, 0x00, 0x00, 0x98, 0xff, 0xff, 0xff, 0x0a, 0x00, 0x00, 0x00,
  0x04, 0x00, 0x00, 0x00, 0x07, 0x00, 0x00, 0x00, 0x64, 0x65, 0x6e, 0x73,
  0x65, 0x5f, 0x32, 0x00, 0x01, 0x00, 0x00, 0x00, 0x04, 0x00, 0x00, 0x00,
  0xd2, 0x99, 0xff, 0xff, 0x04, 0x00, 0x00, 0x00, 0x0b, 0x00, 0x00, 0x00,
  0x64, 0x65, 0x6e, 0x73, 0x65, 0x5f, 0x69, 0x6e, 0x70, 0x75, 0x74, 0x00,
  0x02, 0x00, 0x00, 0x00, 0x34, 0x00, 0x00, 0x00, 0x04, 0x00, 0x00, 0x00,
  0xdc, 0xff, 0xff, 0xff, 0x0d, 0x00, 0x00, 0x00, 0x04, 0x00, 0x00, 0x00,
  0x13, 0x00, 0x00, 0x00, 0x43, 0x4f, 0x4e, 0x56, 0x45, 0x52, 0x53, 0x49,
  0x4f, 0x4e, 0x5f, 0x4d, 0x45, 0x54, 0x41, 0x44, 0x41, 0x54, 0x41, 0x00,
  0x08, 0x00, 0x0c, 0x00, 0x08, 0x00, 0x04, 0x00, 0x08, 0x00, 0x00, 0x00,
  0x0c, 0x00, 0x00, 0x00, 0x04, 0x00, 0x00, 0x00, 0x13, 0x00, 0x00, 0x00,
  0x6d, 0x69, 0x6e, 0x5f, 0x72, 0x75, 0x6e, 0x74, 0x69, 0x6d, 0x65, 0x5f,
  0x76, 0x65, 0x72, 0x73, 0x69, 0x6f, 0x6e, 0x00, 0x0e, 0x00, 0x00, 0x00,
  0x24, 0x65, 0x00, 0x00, 0x1c, 0x65, 0x00, 0x00, 0xcc, 0x64, 0x00, 0x00,
  0xa8, 0x64, 0x00, 0x00, 0x18, 0x64, 0x00, 0x00, 0x08, 0x0a, 0x00, 0x00,
  0xf8, 0x01, 0x00, 0x00, 0xa8, 0x00, 0x00, 0x00, 0xa0, 0x00, 0x00, 0x00,
  0x98, 0x00, 0x00, 0x00, 0x90, 0x00, 0x00, 0x00, 0x88, 0x00, 0x00, 0x00,
  0x68, 0x00, 0x00, 0x00, 0x04, 0x00, 0x00, 0x00, 0x82, 0x9a, 0xff, 0xff,
  0x04, 0x00, 0x00, 0x00, 0x54, 0x00, 0x00, 0x00, 0x0c, 0x00, 0x00, 0x00,
  0x08, 0x00, 0x0e, 0x00, 0x08, 0x00, 0x04, 0x00, 0x08, 0x00, 0x00, 0x00,
  0x10, 0x00, 0x00, 0x00, 0x24, 0x00, 0x00, 0x00, 0x00, 0x00, 0x06, 0x00,
  0x08, 0x00, 0x04, 0x00, 0x06, 0x00, 0x00, 0x00, 0x04, 0x00, 0x00, 0x00,
  0x00, 0x00, 0x00, 0x00, 0x00, 0x00, 0x0a, 0x00, 0x10, 0x00, 0x0c, 0x00,
  0x08, 0x00, 0x04, 0x00, 0x0a, 0x00, 0x00, 0x00, 0x02, 0x00, 0x00, 0x00,
  0x02, 0x00, 0x00, 0x00, 0x04, 0x00, 0x00, 0x00, 0x06, 0x00, 0x00, 0x00,
  0x32, 0x2e, 0x31, 0x30, 0x2e, 0x30, 0x00, 0x00, 0xe2, 0x9a, 0xff, 0xff,
  0x04, 0x00, 0x00, 0x00, 0x10, 0x00, 0x00, 0x00, 0x31, 0x2e, 0x35, 0x2e,
  0x30, 0x00, 0x00, 0x00, 0x00, 0x00, 0x00, 0x00, 0x00, 0x00, 0x00, 0x00,
  0xf0, 0x95, 0xff, 0xff, 0xf4, 0x95, 0xff, 0xff, 0xf8, 0x95, 0xff, 0xff,
  0xfc, 0x95, 0xff, 0xff, 0x0e, 0x9b, 0xff, 0xff, 0x04, 0x00, 0x00, 0x00,
  0x40, 0x01, 0x00, 0x00, 0xb2, 0xce, 0xd4, 0x3e, 0x4f, 0xa0, 0x1d, 0x3f,
  0x61, 0x56, 0xe8, 0x3e, 0x35, 0xdf, 0x09, 0xbf, 0x9b, 0xe0, 0x47, 0xbf,
  0x22, 0xef, 0x44, 0xbf, 0xb8, 0x6a, 0x85, 0xbf, 0xce, 0x71, 0x23, 0xbe,
  0xf0, 0xdf, 0xe0, 0x3e, 0xca, 0xa5, 0x6c, 0xbf, 0x29, 0xe9, 0x67, 0x3e,
  0x9e, 0xb3, 0xc3, 0xbf, 0xa3, 0x24, 0x84, 0xbd, 0x6a, 0x82, 0xd7, 0x3e,
  0x89, 0x51, 0x16, 0x3f, 0xb5, 0x10, 0x17, 0x3f, 0xc2, 0x35, 0xfd, 0xbe,
  0xbb, 0xc8, 0x09, 0xbe, 0x30, 0xc8, 0x9e, 0xbf, 0xc1, 0x86, 0xf8, 0xbc,
  0xcb, 0x65, 0x3e, 0x3e, 0x16, 0x52, 0xca, 0x3e, 0x28, 0x8e, 0xa3, 0x3e,
  0x28, 0x28, 0x9a, 0x3d, 0x7a, 0x69, 0xee, 0xbe, 0xa9, 0x8a, 0x37, 0xbe,
  0xcf, 0xde, 0xb0, 0xbf, 0xf9, 0x28, 0x5b, 0xbd, 0x3d, 0x24, 0xab, 0xbe,
  0x75, 0x06, 0x35, 0x3e, 0xeb, 0xd1, 0xe7, 0xbf, 0x4b, 0x69, 0xcf, 0xbf,
  0xce, 0xa8, 0x84, 0x3e, 0x76, 0x44, 0xbd, 0xbe, 0xe6, 0x39, 0x02, 0xbe,
  0xf6, 0x5c, 0xf0, 0x3e, 0xc8, 0x6c, 0x7e, 0xbe, 0x47, 0x35, 0xfc, 0x3e,
  0xd2, 0xda, 0xab, 0xbe, 0x3a, 0x63, 0xe5, 0x3e, 0x20, 0x4f, 0xa9, 0xbe,
  0x8b, 0x31, 0x31, 0x3f, 0xfa, 0x80, 0xea, 0xbe, 0x4d, 0x2e, 0x5f, 0xbe,
  0xb4, 0x8a, 0x1b, 0xbf, 0xc5, 0x2d, 0x43, 0xbf, 0xc5, 0xb7, 0x34, 0x3f,
  0x13, 0xc1, 0xc4, 0x3e, 0x44, 0x27, 0xe0, 0xbd, 0x38, 0x7a, 0x9c, 0x3d,
  0xd9, 0x56, 0x22, 0xbe, 0xdb, 0x69, 0x74, 0x3e, 0x8f, 0x0a, 0xc9, 0x3d,
  0xf5, 0x3f, 0x9b, 0xbf, 0x7b, 0x3b, 0x47, 0xbf, 0x11, 0xdf, 0xe9, 0xbe,
  0xf2, 0x22, 0x3e, 0xbe, 0xb6, 0x1e, 0xcb, 0xbf, 0x9e, 0xee, 0x92, 0x3f,
  0x8e, 0x5c, 0x69, 0x3e, 0xdd, 0x91, 0x39, 0xbe, 0x6f, 0x0f, 0x01, 0x3f,
  0xa3, 0x11, 0xb0, 0xbf, 0x17, 0x24, 0x5e, 0xbf, 0x64, 0x7e, 0xa7, 0xbe,
  0x0c, 0x29, 0xc5, 0xbd, 0x99, 0x90, 0xab, 0x3e, 0x0a, 0x5c, 0x0a, 0xbd,
  0x63, 0xf2, 0x9e, 0xbc, 0xef, 0x92, 0x19, 0xbf, 0x08, 0x18, 0xc4, 0x3d,
  0x32, 0x6f, 0xea, 0x3e, 0xf1, 0x59, 0x8a, 0x3e, 0x40, 0xd1, 0x90, 0xbe,
  0x2b, 0x1a, 0x90, 0xbf, 0xdd, 0xb0, 0xf8, 0xbe, 0xd2, 0xfa, 0xc7, 0x3d,
  0x9e, 0xa5, 0x5b, 0xbd, 0x8a, 0xf3, 0xb3, 0xbe, 0x7d, 0x34, 0xaf, 0xbe,
  0x5a, 0x9c, 0xff, 0xff, 0x04, 0x00, 0x00, 0x00, 0x00, 0x08, 0x00, 0x00,
  0xdb, 0xe6, 0x2b, 0xbe, 0x5d, 0x12, 0xb3, 0xbe, 0x12, 0xae, 0x82, 0xbe,
  0xe0, 0xee, 0x16, 0x3d, 0x7a, 0x5c, 0x27, 0x3e, 0x1c, 0x47, 0x0f, 0x3e,
  0x9c, 0x61, 0x5e, 0xbe, 0x3e, 0x94, 0x54, 0xbe, 0xa0, 0x79, 0x79, 0x3d,
  0x86, 0x95, 0x93, 0xbe, 0xfd, 0x38, 0x80, 0x3e, 0xe0, 0x34, 0xad, 0xbe,
  0x0a, 0xf4, 0x91, 0xbe, 0x12, 0x68, 0x24, 0x3e, 0xdd, 0xfb, 0x5b, 0xbe,
  0xc7, 0x11, 0xa4, 0xbe, 0x20, 0x37, 0xa3, 0x3c, 0xdd, 0x26, 0x75, 0xbe,
  0x92, 0xe8, 0x0b, 0x3e, 0xed, 0x8a, 0x82, 0xbe, 0xb0, 0x50, 0x3f, 0x3d,
  0x3a, 0xd9, 0x19, 0xbe, 0x25, 0x76, 0xb2, 0x3e, 0x86, 0xc7, 0xb3, 0xbe,
  0x37, 0x9a, 0xb3, 0x3e, 0x37, 0x18, 0x9e, 0x3e, 0x66, 0xc0, 0x98, 0xbe,
  0x00, 0x17, 0x61, 0x3d, 0x20, 0xfe, 0x11, 0x3e, 0xf0, 0x6b, 0x5e, 0x3d,
  0xaa, 0x95, 0x77, 0x3e, 0xa9, 0xd4, 0x29, 0xbe, 0x61, 0xdc, 0xa0, 0xbe,
  0xdb, 0xe3, 0x25, 0x3e, 0xb4, 0x39, 0x1a, 0x3d, 0x46, 0x33, 0x33, 0xbe,
  0xc7, 0xf8, 0x1a, 0xbe, 0x60, 0x72, 0x04, 0x3d, 0x63, 0x72, 0x4d, 0x3e,
  0x7e, 0x3c, 0x43, 0xbe, 0x6f, 0xba, 0x63, 0xbe, 0xa8, 0x98, 0xd8, 0xbd,
  0x96, 0x5d, 0x73, 0x3e, 0x2a, 0xf4, 0x6d, 0x3e, 0x08, 0x37, 0xc6, 0x3d,
  0x22, 0xa5, 0x56, 0xbe, 0x57, 0x94, 0x8d, 0x3e, 0x71, 0x4a, 0x80, 0x3e,
  0xd5, 0xcf, 0x4a, 0xbe, 0x86, 0xd0, 0x15, 0x3e, 0x00, 0xfe, 0x12, 0xbd,
  0xb3, 0x48, 0xa2, 0xbe, 0x9c, 0x7c, 0xa7, 0xbd, 0x8c, 0x4f, 0xb5, 0xbd,
  0x74, 0xe2, 0x89, 0xbd, 0x80, 0xc0, 0x2e, 0xbc, 0x58, 0x71, 0x81, 0xbe,
  0x5c, 0xb4, 0xf4, 0xbd, 0x0a, 0x4a, 0xcc, 0x3e, 0xd2, 0xdb, 0x4b, 0x3e,
  0x3d, 0x88, 0xa4, 0xbe, 0xf9, 0x8a, 0x81, 0x3e, 0xc6, 0x38, 0x62, 0x3e,
  0x1f, 0x3a, 0x49, 0xbe, 0xdb, 0x86, 0xb8, 0xbe, 0xeb, 0x95, 0x39, 0x3f,
  0x35, 0x51, 0xd1, 0x3e, 0x27, 0x3f, 0xa8, 0x3e, 0x4b, 0xfd, 0x85, 0x3e,
  0xca, 0xa4, 0xb3, 0xbe, 0xec, 0x4d, 0x5f, 0x3e, 0xf3, 0x6e, 0x96, 0x3e,
  0xc9, 0x57, 0x40, 0x3e, 0xd8, 0x1a, 0xdb, 0x3d, 0xad, 0x10, 0x80, 0x3e,
  0x4a, 0x2a, 0x41, 0x3a, 0x6a, 0x3b, 0x09, 0x3f, 0xfd, 0x05, 0x9a, 0x3e,
  0xdf, 0xea, 0x41, 0xbe, 0x99, 0x98, 0xa0, 0xbe, 0x14, 0x6d, 0x29, 0x3e,
  0xda, 0x3a, 0xd0, 0x3d, 0x8e, 0x35, 0x71, 0xbe, 0xe8, 0xe6, 0x41, 0x3d,
  0xac, 0xca, 0x98, 0xbe, 0x88, 0x86, 0x1e, 0xbd, 0x4f, 0xe5, 0xa1, 0x3e,
  0x72, 0xd2, 0x9c, 0x3d, 0xb6, 0x2a, 0x90, 0xbe, 0x9f, 0x67, 0x3d, 0xbe,
  0x9c, 0xa9, 0xad, 0x3e, 0x54, 0xa8, 0xac, 0xbe, 0x68, 0x14, 0xba, 0x3e,
  0x3e, 0x24, 0x17, 0x3f, 0xb1, 0x4e, 0x8e, 0x3e, 0x64, 0x30, 0x87, 0xbd,
  0x47, 0xcf, 0xae, 0xbe, 0xd1, 0x8e, 0xf7, 0xbd, 0xdb, 0x28, 0x40, 0x3e,
  0xac, 0x35, 0x9a, 0x3d, 0xd3, 0x63, 0x9e, 0x3d, 0xc8, 0x05, 0xe1, 0x3d,
  0xd3, 0xc1, 0x8e, 0xbe, 0xaa, 0xb4, 0x63, 0x3e, 0x02, 0x83, 0xf1, 0x3c,
  0x6a, 0x6b, 0x07, 0xbe, 0x59, 0xcd, 0x4e, 0xbe, 0x22, 0x5e, 0x2b, 0x3e,
  0xe3, 0x5c, 0x24, 0x3e, 0xd6, 0x8c, 0x16, 0x3e, 0x82, 0x99, 0xd6, 0xbd,
  0xfd, 0xb2, 0xaf, 0xbc, 0x05, 0x22, 0x90, 0x3d, 0x9b, 0x46, 0xb6, 0xbc,
  0xcf, 0xda, 0x17, 0xbe, 0x27, 0x09, 0x9d, 0xbe, 0x90, 0x80, 0x9b, 0xbd,
  0x0c, 0xe3, 0x8a, 0x3d, 0x58, 0xc5, 0xfd, 0xbd, 0x58, 0xec, 0x74, 0xbe,
  0x41, 0x73, 0x8e, 0x3e, 0x60, 0x63, 0x31, 0x3e, 0xac, 0x39, 0x68, 0xbe,
  0x6c, 0xeb, 0x88, 0xbd, 0x29, 0x3a, 0x8b, 0x3e, 0x7b, 0x72, 0xc7, 0xbe,
  0x0b, 0x4d, 0x16, 0x3e, 0xf2, 0xe0, 0x5d, 0x3e, 0xce, 0x27, 0x09, 0x3f,
  0x83, 0x74, 0xfc, 0xbe, 0x2d, 0xf0, 0x03, 0x3f, 0x60, 0xce, 0x7a, 0xbc,
  0x25, 0x1d, 0xf2, 0x3c, 0xf0, 0x35, 0xae, 0x3d, 0x8c, 0x42, 0x49, 0x3e,
  0x05, 0xb8, 0x8e, 0x3e, 0xfb, 0x10, 0x59, 0xbe, 0x37, 0xc4, 0x2e, 0xbe,
  0x40, 0xb5, 0xe7, 0x3c, 0xce, 0x90, 0x0b, 0x3f, 0xf4, 0x69, 0x37, 0xbe,
  0x28, 0x58, 0x4c, 0xbe, 0x17, 0x0b, 0xa9, 0xbe, 0xe1, 0xce, 0x6d, 0x3f,
  0x90, 0xae, 0xc5, 0x3e, 0xb6, 0xa7, 0xb6, 0x3c, 0xf6, 0xbc, 0x72, 0x3e,
  0x40, 0x1f, 0x56, 0x3c, 0x9c, 0x53, 0x21, 0xbe, 0x00, 0x35, 0x68, 0xbc,
  0xe2, 0xdf, 0x28, 0x3e, 0xc4, 0x88, 0x47, 0xbe, 0x86, 0x8e, 0x82, 0x3c,
  0x18, 0xc1, 0xe0, 0xbd, 0x93, 0xd3, 0x5e, 0x3d, 0xd8, 0x6f, 0xdc, 0x3d,
  0x3f, 0x89, 0x98, 0x3e, 0x07, 0xe0, 0x4c, 0xbe, 0xa7, 0x89, 0x08, 0xbe,
  0xd3, 0x07, 0x14, 0xbd, 0x14, 0x92, 0xe5, 0x3e, 0x29, 0x69, 0x9c, 0xbe,
  0x3e, 0x3e, 0x16, 0xbf, 0x70, 0xed, 0xa6, 0xbe, 0x64, 0x93, 0x91, 0xbe,
  0xb8, 0x55, 0xce, 0xbd, 0xf1, 0xd1, 0x01, 0xbf, 0xc6, 0xdb, 0x3d, 0x3e,
  0xd2, 0x13, 0x98, 0x3e, 0x19, 0x37, 0x42, 0x3e, 0xcd, 0x7f, 0x97, 0x3e,
  0x7b, 0xd9, 0x06, 0x3e, 0xbc, 0x75, 0xa5, 0x3d, 0x1c, 0x53, 0xd9, 0x3d,
  0x56, 0xe8, 0x0e, 0x3e, 0xd8, 0xe7, 0x98, 0x3d, 0xe9, 0xb8, 0x90, 0x3e,
  0x33, 0xbb, 0x87, 0x3d, 0x60, 0x57, 0xe2, 0x3d, 0x2d, 0x9a, 0xb2, 0xbe,
  0xb0, 0xc0, 0x86, 0xbe, 0xf1, 0x96, 0xa7, 0xbe, 0xd9, 0xfb, 0xa9, 0x3e,
  0x13, 0x0e, 0x9e, 0xbe, 0x61, 0xcc, 0x37, 0xbe, 0xdb, 0x08, 0xa1, 0x3e,
  0x84, 0x0d, 0x16, 0xbf, 0x40, 0x0b, 0x4e, 0xbd, 0x4a, 0x9e, 0x7d, 0x3e,
  0x83, 0x87, 0x6f, 0xbe, 0x48, 0x4b, 0x3c, 0xbe, 0x2b, 0x57, 0x9a, 0xbd,
  0x63, 0xd5, 0x09, 0x3f, 0x20, 0x05, 0xe9, 0xbe, 0x53, 0x85, 0xa0, 0x3e,
  0x2f, 0x7c, 0x4c, 0xbb, 0x44, 0xd0, 0x8a, 0xbe, 0xb5, 0x84, 0x97, 0x3e,
  0x02, 0x00, 0x3a, 0xbe, 0x10, 0x5a, 0x42, 0x3d, 0x71, 0x36, 0xa1, 0xbc,
  0xbe, 0x38, 0x4d, 0x3e, 0x7f, 0x99, 0xb1, 0xbe, 0xa5, 0xe8, 0x27, 0x3f,
  0x0f, 0xc7, 0xf9, 0xbe, 0xc0, 0x03, 0x47, 0xbe, 0xb1, 0xaf, 0x96, 0x3e,
  0x60, 0x9e, 0xdf, 0x3e, 0x23, 0x60, 0x74, 0x3e, 0xac, 0x86, 0xb0, 0x3e,
  0x31, 0x70, 0x88, 0x3e, 0x40, 0x5c, 0x16, 0xbd, 0xdf, 0x3f, 0x48, 0xbe,
  0x00, 0x42, 0xbb, 0x3d, 0x56, 0x26, 0x3e, 0x3e, 0x87, 0x1d, 0x0b, 0xbe,
  0x71, 0xf3, 0x1b, 0x3e, 0x09, 0x94, 0x98, 0x3e, 0x81, 0x9c, 0xdd, 0x3c,
  0x70, 0x53, 0x08, 0x3d, 0xd7, 0xc2, 0xa1, 0xbd, 0x84, 0xc0, 0xcf, 0xbe,
  0xe7, 0x43, 0x4d, 0x3e, 0xee, 0xfd, 0xfc, 0xbd, 0x2d, 0x27, 0x30, 0xbe,
  0xf0, 0xe0, 0x2b, 0xbd, 0x50, 0xfc, 0x60, 0x3e, 0xa2, 0xd7, 0xcc, 0x3a,
  0xa2, 0x06, 0x9d, 0xbe, 0xb3, 0x3f, 0x99, 0x3e, 0x2c, 0x11, 0x84, 0xbe,
  0x66, 0xae, 0x30, 0x3e, 0x15, 0xdb, 0x14, 0x3d, 0xde, 0x25, 0x7b, 0xbe,
  0x9d, 0xdc, 0x89, 0x3e, 0x2a, 0x0f, 0x5a, 0xbe, 0xe2, 0x8c, 0x80, 0x3e,
  0x12, 0x3e, 0x70, 0xbe, 0xfa, 0xc6, 0x6c, 0x3e, 0x3c, 0x78, 0x5d, 0xbe,
  0x7d, 0xce, 0xbb, 0xbe, 0xed, 0xc1, 0x73, 0x3e, 0x11, 0x06, 0x82, 0x3e,
  0xd2, 0x05, 0x6d, 0x3e, 0xa6, 0x41, 0x7d, 0x3e, 0xa8, 0x93, 0x74, 0xbd,
  0x86, 0xcc, 0xfe, 0xbd, 0x02, 0xd5, 0x44, 0x3e, 0xb0, 0x35, 0x94, 0x3e,
  0x4c, 0xef, 0xce, 0x3c, 0x3b, 0xe9, 0x82, 0x3e, 0x90, 0x38, 0x7f, 0xbd,
  0xfe, 0xcb, 0x4a, 0x3e, 0xd0, 0x12, 0xd6, 0x3d, 0x62, 0x7c, 0xa4, 0x3e,
  0xb4, 0x70, 0x93, 0xbd, 0x78, 0x89, 0x4e, 0xbe, 0x52, 0x91, 0x0d, 0xbe,
  0xbc, 0xf7, 0x45, 0xbe, 0x0c, 0xa7, 0x80, 0x3e, 0x86, 0x6b, 0xaf, 0x3e,
  0xec, 0x75, 0x9e, 0xbe, 0x21, 0x66, 0x5e, 0xbe, 0x6c, 0x2b, 0xbc, 0xbd,
  0x69, 0x22, 0x82, 0xbe, 0x23, 0xab, 0xf8, 0x3d, 0x1e, 0x30, 0xee, 0xbd,
  0x7d, 0xf2, 0x2d, 0x3d, 0x53, 0x83, 0x7d, 0x3e, 0xbb, 0xe1, 0x9c, 0x3e,
  0xbb, 0x3a, 0x3a, 0xbe, 0x68, 0x96, 0x40, 0xbe, 0xc5, 0x9b, 0x9d, 0xbe,
  0xbb, 0xd6, 0xe4, 0xbd, 0xa1, 0x7a, 0x8a, 0x3e, 0x7e, 0xa8, 0x3d, 0x3e,
  0x85, 0x51, 0x9d, 0x3e, 0xd0, 0x98, 0x08, 0x3e, 0xe8, 0x24, 0x5d, 0xbd,
  0xa8, 0x9a, 0x3f, 0x3d, 0x0e, 0xb5, 0x83, 0x3e, 0x68, 0xcf, 0xb8, 0xbd,
  0xc8, 0x1c, 0x20, 0x3d, 0x52, 0x63, 0xae, 0xbe, 0x28, 0xd7, 0x40, 0x3e,
  0x80, 0xbd, 0x4f, 0xbe, 0x74, 0xa3, 0x07, 0x3e, 0xa6, 0x34, 0x47, 0x3e,
  0x1c, 0x98, 0x28, 0x3e, 0xba, 0xd0, 0xb9, 0x3d, 0xfc, 0x1b, 0xb3, 0xbe,
  0x32, 0x59, 0x60, 0x3d, 0xd5, 0x5b, 0x50, 0x3e, 0x08, 0x27, 0x12, 0xbe,
  0xa9, 0xe0, 0x1d, 0xbf, 0x08, 0x90, 0xc2, 0xbd, 0x9f, 0xd7, 0xa7, 0x3e,
  0x5e, 0x98, 0x82, 0x3e, 0x7c, 0x45, 0xb8, 0x3d, 0x33, 0x38, 0x39, 0x3e,
  0x87, 0x1f, 0xc1, 0xbe, 0x4c, 0x6b, 0x8b, 0x3d, 0xcf, 0x48, 0x57, 0xbe,
  0x31, 0x0f, 0x9c, 0xbe, 0x5b, 0x2b, 0x0a, 0x3e, 0xc7, 0xdb, 0xed, 0x3e,
  0x1a, 0xd8, 0x5b, 0x3e, 0x7c, 0xfc, 0x9b, 0xbd, 0xdd, 0x03, 0x85, 0x3e,
  0x07, 0xc2, 0x69, 0xbe, 0xc8, 0x83, 0x14, 0x3e, 0x49, 0x85, 0x15, 0x3e,
  0x13, 0x52, 0xa4, 0xbd, 0x7b, 0x77, 0xf4, 0xbd, 0xc3, 0x05, 0xd5, 0xbe,
  0x24, 0x40, 0xb0, 0xbe, 0x25, 0xb9, 0x92, 0xbe, 0xd7, 0x8d, 0xca, 0xbe,
  0xf6, 0x55, 0xab, 0x3e, 0x4d, 0x2f, 0x99, 0x3e, 0x59, 0xe5, 0x65, 0xbe,
  0x5e, 0x39, 0xa0, 0xbe, 0x57, 0xf5, 0xed, 0x3e, 0xe1, 0x0d, 0x8c, 0xbe,
  0x5c, 0x41, 0x53, 0x3e, 0x66, 0x8f, 0x15, 0x3e, 0x84, 0xfe, 0x07, 0x3f,
  0xa0, 0xc7, 0x39, 0xbe, 0xe1, 0x4d, 0xaa, 0x3d, 0xb6, 0x3b, 0xb0, 0xbe,
  0x34, 0xcb, 0x9b, 0xbd, 0x9e, 0x0f, 0x9f, 0xbe, 0x0b, 0x18, 0x11, 0x3f,
  0xa1, 0x15, 0x81, 0x3e, 0xf6, 0xb3, 0x4e, 0x3e, 0xb4, 0x76, 0x18, 0x3e,
  0xf3, 0x5b, 0xde, 0x3e, 0x02, 0x19, 0x9f, 0xbe, 0x41, 0xb7, 0x93, 0x3e,
  0x09, 0xf2, 0x9d, 0x3e, 0x48, 0x1a, 0x95, 0xbd, 0x81, 0x8c, 0x1a, 0xbe,
  0x40, 0xf5, 0x60, 0x3d, 0xea, 0x74, 0xb6, 0xbd, 0x73, 0x73, 0x15, 0x3e,
  0xf1, 0x3e, 0x83, 0x3e, 0x27, 0x7c, 0x09, 0x3f, 0x7e, 0xe9, 0x4f, 0x3e,
  0x80, 0xcb, 0x2f, 0x3d, 0x6e, 0x22, 0xf8, 0x3e, 0xbb, 0xbd, 0xb5, 0xbd,
  0xad, 0x57, 0x22, 0x3e, 0xb6, 0xd1, 0x90, 0x3e, 0x0c, 0x08, 0x0e, 0xbf,
  0x1d, 0x64, 0xb8, 0x3e, 0xe4, 0x76, 0xb0, 0x3e, 0x64, 0x72, 0xd7, 0x3d,
  0xc0, 0x3a, 0x01, 0x3c, 0xef, 0x92, 0x76, 0x3e, 0x82, 0x10, 0x4d, 0x3e,
  0xcd, 0x37, 0xba, 0xbd, 0x7b, 0x82, 0x63, 0x3e, 0xd8, 0xd7, 0x48, 0x3d,
  0x4a, 0xa4, 0xc3, 0x3e, 0x25, 0x9e, 0x84, 0xbe, 0x50, 0x04, 0x9c, 0x3d,
  0x6c, 0x09, 0x7f, 0xbe, 0x4a, 0x03, 0x0a, 0x3e, 0x3e, 0xd8, 0x84, 0x3e,
  0x62, 0x94, 0x3e, 0xbe, 0xd3, 0x0b, 0x99, 0x3e, 0xf0, 0xc5, 0x37, 0xbd,
  0x90, 0x9e, 0x4f, 0x3d, 0xb6, 0xe8, 0x5a, 0x3e, 0x63, 0x0b, 0x9e, 0x3e,
  0xf7, 0x77, 0x9a, 0x3e, 0x36, 0x6b, 0xb2, 0xbd, 0x30, 0xea, 0xb0, 0xbe,
  0x35, 0x09, 0xd6, 0xbe, 0x4b, 0x2d, 0x96, 0x3e, 0x69, 0x8d, 0x92, 0x3e,
  0x00, 0x74, 0xff, 0xbd, 0x66, 0x57, 0x5e, 0xbc, 0x67, 0x6e, 0x9f, 0x3e,
  0x87, 0xfe, 0xae, 0xbe, 0x4c, 0x45, 0x24, 0x3e, 0xef, 0xb0, 0x8c, 0x3e,
  0xa1, 0xb9, 0x6a, 0x3e, 0xbe, 0x53, 0x9f, 0xbd, 0xce, 0x82, 0xfe, 0xbd,
  0xf4, 0x1c, 0x15, 0x3f, 0x80, 0xa7, 0xb2, 0x3c, 0x80, 0xb7, 0x3a, 0xbe,
  0x32, 0x8a, 0x3a, 0x3e, 0x22, 0x0b, 0x4e, 0x3e, 0x6d, 0x57, 0xc9, 0x3e,
  0x01, 0x38, 0xf1, 0x3d, 0x80, 0x73, 0xdb, 0xbd, 0x2c, 0x48, 0xec, 0x3d,
  0x5b, 0x70, 0x39, 0x3e, 0x1c, 0xa7, 0x47, 0x3e, 0xa7, 0xd5, 0x5b, 0xbe,
  0xa0, 0x12, 0xec, 0xbc, 0x54, 0x3b, 0x46, 0xbe, 0xe3, 0xe9, 0x93, 0x3e,
  0xc8, 0x08, 0x3a, 0xbd, 0x9b, 0x00, 0x80, 0x3e, 0x7a, 0x84, 0x2c, 0x3e,
  0xe0, 0x31, 0x8a, 0xbe, 0xbb, 0xba, 0x4b, 0xbe, 0x60, 0xb3, 0x1f, 0x3f,
  0x1e, 0xe4, 0x72, 0xbe, 0x94, 0x4d, 0x1f, 0x3d, 0x22, 0xda, 0x9d, 0xbd,
  0x92, 0x8b, 0x30, 0xbe, 0xdd, 0xe2, 0xeb, 0x3d, 0x56, 0xa6, 0xee, 0x3d,
  0xef, 0xd1, 0x83, 0x3d, 0x3b, 0x85, 0x00, 0x3f, 0x6d, 0x8c, 0x93, 0xbe,
  0xe5, 0xac, 0x33, 0xbe, 0x91, 0xa7, 0x4d, 0xbe, 0x1b, 0x94, 0xda, 0x3e,
  0xf0, 0xfe, 0x94, 0x3d, 0x2c, 0x23, 0x23, 0xbe, 0xdf, 0x36, 0x94, 0xbe,
  0x10, 0xd6, 0x95, 0xbc, 0x05, 0xc8, 0x36, 0x3e, 0xdb, 0x2d, 0x84, 0x3e,
  0xa0, 0xed, 0x4d, 0xbd, 0xae, 0x98, 0x3b, 0xbe, 0x01, 0x43, 0xa3, 0x3e,
  0xf3, 0x2f, 0x8a, 0x3e, 0x9b, 0xfa, 0x93, 0xbd, 0x9a, 0x61, 0x52, 0x3e,
  0x3f, 0x6a, 0x52, 0xbe, 0xc6, 0x8d, 0x49, 0x3e, 0x38, 0x13, 0x5e, 0xbd,
  0xf4, 0xd7, 0x94, 0x3d, 0xba, 0x65, 0x05, 0x3e, 0x71, 0x3b, 0x5a, 0x3e,
  0x2b, 0x1c, 0x1d, 0xbe, 0xb0, 0x5f, 0x4b, 0x3f, 0xd3, 0xaf, 0x93, 0x3e,
  0x8e, 0x34, 0xdf, 0xbb, 0x41, 0x0f, 0x05, 0x3e, 0xbf, 0xba, 0xab, 0x3d,
  0xdd, 0x02, 0xd3, 0xbd, 0x1a, 0x11, 0x70, 0x3e, 0xa6, 0x90, 0xc0, 0x3e,
  0xd0, 0xa8, 0x8e, 0xbe, 0xe5, 0xb2, 0xdb, 0xbd, 0x4a, 0x07, 0xd0, 0xbc,
  0xd4, 0xc1, 0xe4, 0x3d, 0xc4, 0x5d, 0x5e, 0xbd, 0x7c, 0x6c, 0xdc, 0x3d,
  0x09, 0xb3, 0xf8, 0x3c, 0x42, 0xf2, 0xfb, 0x3e, 0xe4, 0x12, 0x9c, 0xbd,
  0x76, 0xb7, 0xd7, 0xbe, 0x93, 0x2d, 0x03, 0x3f, 0xf0, 0xcb, 0xcb, 0xbc,
  0xd0, 0xa1, 0x92, 0xbe, 0x2b, 0x52, 0xf8, 0xbe, 0x00, 0x76, 0x17, 0x3d,
  0xbb, 0xa1, 0xe5, 0x3e, 0xa8, 0xae, 0x55, 0x3d, 0xce, 0x54, 0x45, 0x3e,
  0x9e, 0xf6, 0x36, 0x3e, 0xc0, 0x48, 0x55, 0xbe, 0x4a, 0xe9, 0x32, 0x3e,
  0xc6, 0xef, 0xa4, 0x3c, 0x12, 0xde, 0x37, 0x3e, 0x20, 0x48, 0xa2, 0x3e,
  0xb2, 0x2a, 0x69, 0xbe, 0xf5, 0x9f, 0x03, 0xbe, 0x58, 0xd4, 0x2f, 0x3e,
  0xbd, 0x67, 0x94, 0xbb, 0x4b, 0xde, 0xd3, 0xbd, 0x81, 0x47, 0xa8, 0x3e,
  0x5a, 0xf3, 0x02, 0xbe, 0x5a, 0xa1, 0x36, 0x3e, 0x60, 0x76, 0xdf, 0x3d,
  0xcb, 0xf4, 0xa5, 0x3e, 0x59, 0x89, 0x5c, 0x3e, 0x96, 0xe4, 0xaa, 0xbe,
  0x18, 0xbf, 0xd9, 0xbe, 0x3e, 0x48, 0x77, 0x3e, 0x2d, 0x30, 0x2a, 0x3e,
  0x19, 0xde, 0x94, 0x3e, 0x5a, 0xa6, 0x17, 0x3e, 0x39, 0xde, 0xf3, 0xbb,
  0xcd, 0xc0, 0x1c, 0x3e, 0x69, 0x43, 0xa0, 0x3e, 0xef, 0x1a, 0x8b, 0x3e,
  0xa8, 0x8c, 0x1b, 0xbf, 0xcf, 0x30, 0xb3, 0x3d, 0xa3, 0x14, 0xe1, 0x3d,
  0x94, 0x07, 0xed, 0x3d, 0xc4, 0x9b, 0x93, 0xbe, 0x40, 0xae, 0xdf, 0xbb,
  0x18, 0x33, 0xd5, 0xbd, 0x18, 0x4a, 0x1e, 0x3d, 0xce, 0xe7, 0xa8, 0xbe,
  0x58, 0xd0, 0x93, 0x3e, 0x7c, 0xfe, 0xd3, 0xbd, 0xfa, 0xdf, 0xb7, 0xbe,
  0x56, 0x32, 0x14, 0x3e, 0xe0, 0x45, 0x04, 0x3d, 0xca, 0xe8, 0x73, 0x3e,
  0xb1, 0x64, 0xae, 0xbe, 0xfd, 0xce, 0x67, 0x3e, 0x66, 0xa4, 0xff, 0xff,
  0x04, 0x00, 0x00, 0x00, 0x00, 0x5a, 0x00, 0x00, 0xe5, 0xa4, 0xc8, 0x3e,
  0x47, 0x7e, 0x5e, 0xbd, 0xca, 0x02, 0xef, 0x3e, 0x75, 0xe8, 0x67, 0x3e,
  0x65, 0x9f, 0xd1, 0xbc, 0x59, 0x00, 0x27, 0x3e, 0x7f, 0x74, 0x60, 0x3e,
  0xd9, 0xfb, 0xa8, 0xbc, 0x68, 0x94, 0x9f, 0x3e, 0xe1, 0xe7, 0x79, 0x3d,
  0x3c, 0x01, 0x9e, 0x3d, 0xbb, 0xb4, 0x41, 0x3e, 0xd8, 0x4d, 0x22, 0x3e,
  0x3d, 0x16, 0x95, 0xbe, 0xd2, 0xbd, 0x98, 0x3e, 0x4d, 0x74, 0x44, 0x3d,
  0x1a, 0xd6, 0x78, 0xbe, 0xb0, 0x12, 0x5b, 0x3e, 0x08, 0xbe, 0x83, 0x3e,
  0x97, 0xd3, 0x56, 0xbe, 0xc4, 0x1f, 0xc1, 0x3e, 0x71, 0xf5, 0x10, 0x3e,
  0x5d, 0x6b, 0x1b, 0x3c, 0xd9, 0xb6, 0x87, 0x3e, 0xf3, 0x7c, 0x0c, 0x3e,
  0x9a, 0x6e, 0x70, 0xbd, 0x41, 0x19, 0xa2, 0x3d, 0x54, 0xdd, 0x3f, 0x3c,
  0x8d, 0x79, 0x14, 0xbd, 0x78, 0x0c, 0x58, 0x3e, 0x91, 0x9b, 0x55, 0x3e,
  0x2e, 0xb1, 0x84, 0x3d, 0x6b, 0xb0, 0x45, 0x3e, 0x84, 0x6e, 0x1f, 0x3e,
  0x2e, 0x7d, 0xc6, 0xbd, 0xc2, 0x9c, 0x5a, 0x3e, 0xbb, 0x19, 0x27, 0x3e,
  0x6d, 0xd7, 0x3d, 0x3d, 0x04, 0x2f, 0xb0, 0xbd, 0x4f, 0xc8, 0x78, 0xbd,
  0x82, 0xde, 0x87, 0xbe, 0xbd, 0xcd, 0x2e, 0x3e, 0x18, 0x18, 0x88, 0xbd,
  0x4a, 0xb2, 0x8f, 0xbb, 0xe9, 0x59, 0x04, 0x3d, 0x89, 0x0b, 0xe2, 0x3c,
  0x9a, 0x78, 0x06, 0xbd, 0xb4, 0x5f, 0x3b, 0x3d, 0xeb, 0x29, 0xeb, 0x3d,
  0xa6, 0xb0, 0x81, 0xbc, 0xbe, 0x3f, 0x85, 0xbd, 0x26, 0x3f, 0x65, 0xbd,
  0x1b, 0x00, 0x31, 0xbe, 0xf6, 0x83, 0xb6, 0x3d, 0x97, 0xc1, 0x10, 0xbe,
  0xfc, 0xb3, 0x50, 0xbc, 0xbe, 0x43, 0x54, 0xbe, 0x8d, 0xec, 0x7f, 0xbd,
  0xfd, 0xd9, 0x54, 0xbd, 0x10, 0x70, 0x4f, 0x3e, 0x91, 0x66, 0xc1, 0xbd,
  0x8a, 0x64, 0xb7, 0xbb, 0x4e, 0x2c, 0x82, 0xbe, 0x77, 0xc5, 0x8a, 0x3d,
  0x73, 0x40, 0x1a, 0xbe, 0xf4, 0x07, 0xf2, 0xbb, 0xe0, 0xb5, 0xac, 0xbd,
  0xa5, 0x2d, 0x97, 0xbd, 0x9b, 0xef, 0xc0, 0xbe, 0x8e, 0x68, 0xdc, 0xbc,
  0x11, 0xda, 0x2c, 0xbe, 0x6f, 0x49, 0x40, 0xbd, 0x5d, 0xf5, 0xf2, 0xbd,
  0x25, 0x63, 0xbc, 0xbd, 0x00, 0x1a, 0xb8, 0xbe, 0x9b, 0x6d, 0x30, 0x3e,
  0x35, 0xa2, 0x7b, 0xbd, 0x86, 0xfd, 0x26, 0xbd, 0xaf, 0x7e, 0x2c, 0xbe,
  0x63, 0x38, 0x22, 0xbe, 0xee, 0x4b, 0x9d, 0xbe, 0x34, 0x9c, 0xd0, 0x3a,
  0xd8, 0x38, 0xd7, 0xbc, 0xf5, 0xc1, 0x7a, 0x3e, 0x7e, 0x19, 0x86, 0xbe,
  0x38, 0x54, 0x43, 0xbe, 0xe7, 0xde, 0x53, 0xbe, 0x9e, 0xfa, 0x4a, 0x3e,
  0xb4, 0x3a, 0x98, 0xbd, 0x8b, 0x55, 0x23, 0x3c, 0x0d, 0xa9, 0x30, 0xbe,
  0x0a, 0x1b, 0x69, 0xbe, 0x74, 0x3a, 0xcd, 0xbd, 0x88, 0x90, 0x48, 0x3d,
  0x1b, 0x2c, 0x0d, 0x3e, 0x31, 0x0b, 0x00, 0x3c, 0x12, 0x6b, 0x62, 0xbe,
  0xd5, 0x94, 0x0a, 0xbd, 0x22, 0xb1, 0x15, 0xbe, 0xd2, 0x4e, 0x17, 0x3e,
  0x03, 0x93, 0xbd, 0xbc, 0xf2, 0x9d, 0x51, 0x3e, 0x87, 0x5e, 0xd7, 0xbd,
  0x5a, 0x9b, 0xd6, 0x3d, 0x09, 0x71, 0xfd, 0xbc, 0x11, 0x86, 0x61, 0x3e,
  0x01, 0x96, 0xbe, 0xbd, 0xde, 0x1d, 0xed, 0x3d, 0x62, 0xc3, 0x8b, 0xbd,
  0x7b, 0x16, 0x29, 0xbd, 0x16, 0xce, 0x42, 0x3d, 0x5d, 0x60, 0x4f, 0x3e,
  0x3a, 0x4b, 0x47, 0x3e, 0xcf, 0x49, 0x47, 0x3e, 0xce, 0x36, 0x99, 0xbd,
  0x2a, 0x14, 0xef, 0xbd, 0xfe, 0xa0, 0x8d, 0x3d, 0x56, 0x39, 0x1c, 0x3e,
  0xa8, 0x7a, 0x1b, 0x3e, 0xac, 0x77, 0x06, 0x3e, 0xa5, 0x73, 0xc1, 0xbd,
  0xa1, 0x05, 0x3d, 0xbe, 0x2e, 0x34, 0x25, 0xbe, 0x6d, 0x53, 0xb2, 0x3d,
  0xba, 0xfe, 0x9b, 0xbd, 0xce, 0x51, 0xaa, 0xbc, 0xd7, 0xbf, 0xc0, 0x3d,
  0x21, 0x7a, 0x15, 0xbd, 0x2e, 0x12, 0x9a, 0xbd, 0xa8, 0x3e, 0x58, 0x3e,
  0x22, 0x69, 0xfe, 0x3d, 0x01, 0x00, 0xbb, 0xbd, 0x81, 0x22, 0x2d, 0xbe,
  0x62, 0xd1, 0x83, 0xbc, 0x7b, 0x26, 0xcb, 0x3c, 0x34, 0xf4, 0x44, 0x3e,
  0xc8, 0xb3, 0xba, 0x3d, 0x7d, 0x33, 0x1b, 0x3e, 0x08, 0xe0, 0x0f, 0x3e,
  0x81, 0xd3, 0x8b, 0x3d, 0xf2, 0xe6, 0x4c, 0xbc, 0xcd, 0xd2, 0xfd, 0x3d,
  0xa0, 0x79, 0x5a, 0x3e, 0xf5, 0x8d, 0xf3, 0xbb, 0xe6, 0xeb, 0x06, 0xbd,
  0x67, 0xc9, 0x13, 0x3c, 0x2e, 0x29, 0xc4, 0x3d, 0xeb, 0x4d, 0x33, 0x3e,
  0x0d, 0xb3, 0x1b, 0x3e, 0x83, 0x8c, 0xda, 0x3d, 0xee, 0xa5, 0x2e, 0xbb,
  0xc6, 0xfc, 0x10, 0xbb, 0x10, 0x0e, 0x10, 0x3e, 0x0b, 0x0c, 0x6a, 0x3e,
  0x13, 0xd5, 0x8a, 0xbd, 0x00, 0xa6, 0x33, 0x3e, 0x1b, 0x5d, 0x8c, 0xbd,
  0xad, 0x26, 0xc2, 0xbc, 0xf5, 0xd3, 0x3d, 0xbd, 0x45, 0x73, 0xc2, 0xbb,
  0x0a, 0x2a, 0x6d, 0x3e, 0xe3, 0x7a, 0x62, 0x3d, 0x75, 0x97, 0xdc, 0x3d,
  0xb5, 0x30, 0x04, 0x3e, 0x68, 0xd3, 0x0b, 0x3e, 0xc8, 0x83, 0x3b, 0x3e,
  0x48, 0x14, 0x0d, 0xbd, 0xa0, 0xcb, 0x88, 0x3d, 0xfd, 0x6c, 0x1a, 0xbd,
  0x7c, 0xee, 0x20, 0xbd, 0xf2, 0x94, 0xba, 0x3d, 0xd7, 0x46, 0x4a, 0x3e,
  0x00, 0x4c, 0xba, 0x3d, 0x0d, 0x76, 0xfc, 0x3d, 0xe2, 0xac, 0xd4, 0xbd,
  0xf8, 0x6b, 0x8f, 0xbd, 0xd7, 0x12, 0xbe, 0xbb, 0x8e, 0xa5, 0x6d, 0x3e,
  0x95, 0x11, 0x64, 0x3e, 0x0e, 0x86, 0x5d, 0x3e, 0xe1, 0xdd, 0xcf, 0xbe,
  0x9a, 0x3c, 0x19, 0x3f, 0x17, 0x68, 0x94, 0xbe, 0x92, 0x06, 0x01, 0x3d,
  0xcc, 0x2a, 0xa0, 0x3b, 0x7f, 0x2c, 0xc3, 0xbd, 0xa8, 0xc3, 0x35, 0xbe,
  0xe7, 0x68, 0x43, 0x3f, 0x19, 0xe6, 0x6c, 0xbe, 0xc5, 0x63, 0xb2, 0xbd,
  0x3a, 0x92, 0x6f, 0x3e, 0x86, 0x17, 0x14, 0xbc, 0xc6, 0xc1, 0x81, 0xbe,
  0xc5, 0x86, 0x09, 0x3f, 0xfd, 0xab, 0xbd, 0xbe, 0x87, 0x19, 0x79, 0x3d,
  0x39, 0xdd, 0x2e, 0x3e, 0x9d, 0xda, 0x23, 0x3e, 0xc5, 0x6f, 0x9e, 0xbe,
  0xb2, 0x55, 0xaf, 0x3e, 0x54, 0x5c, 0x89, 0xbe, 0x28, 0xa1, 0x54, 0xba,
  0x38, 0x14, 0x34, 0x3e, 0x52, 0xcd, 0x1d, 0x3d, 0x2c, 0x4b, 0x8c, 0xbe,
  0x35, 0xfd, 0xc8, 0x3e, 0x87, 0xb7, 0x00, 0xbe, 0x6d, 0x82, 0x1b, 0x3d,
  0x67, 0x07, 0x96, 0x3e, 0xde, 0x39, 0x29, 0x3e, 0x7c, 0x7b, 0x61, 0xbe,
  0xff, 0xc8, 0x5c, 0x3e, 0xdf, 0xf8, 0x2f, 0xbe, 0xe4, 0x89, 0x06, 0xbe,
  0xe0, 0x9b, 0x90, 0x3e, 0x9e, 0x20, 0x09, 0x3e, 0x7e, 0xac, 0x36, 0xbe,
  0x96, 0xc8, 0xbc, 0x3e, 0x6e, 0x0f, 0x63, 0xbc, 0x3b, 0xa2, 0xd4, 0x3c,
  0x8e, 0x7a, 0x08, 0x3e, 0x93, 0x66, 0x1c, 0x3d, 0xcd, 0x15, 0x9b, 0x3d,
  0xfb, 0x53, 0x51, 0x3d, 0xe3, 0x7b, 0x9b, 0x3d, 0xbd, 0x27, 0x51, 0xbc,
  0xd6, 0x4f, 0xe1, 0x3d, 0x03, 0xac, 0x60, 0x3d, 0xf4, 0xbf, 0xca, 0x3d,
  0x8f, 0x2a, 0xec, 0x3d, 0xb6, 0x49, 0xf5, 0x3a, 0x41, 0x4e, 0x64, 0xbd,
  0x5c, 0x48, 0x20, 0x3e, 0x44, 0xe7, 0xaa, 0x3c, 0x95, 0x78, 0x87, 0x3d,
  0x8d, 0x3d, 0x65, 0x3d, 0x5f, 0x53, 0x8c, 0x3e, 0xb5, 0x49, 0x28, 0x3d,
  0x51, 0x39, 0x8b, 0x3e, 0x41, 0x81, 0x2b, 0x3e, 0xbf, 0x42, 0xa5, 0x3e,
  0x99, 0x87, 0x8b, 0x3d, 0xfe, 0x3b, 0xb8, 0x3e, 0x9e, 0xf0, 0xca, 0xbd,
  0xcb, 0x87, 0x81, 0x3e, 0x9a, 0xd4, 0x5b, 0x3e, 0x00, 0x86, 0x02, 0x3e,
  0xd6, 0x72, 0x0b, 0x3d, 0x6a, 0x3d, 0x82, 0x3e, 0x77, 0x5e, 0x5f, 0xbd,
  0x95, 0x91, 0x23, 0x3e, 0x87, 0xdb, 0x21, 0x3e, 0x98, 0x7b, 0x96, 0x3e,
  0xca, 0x8f, 0x81, 0xbe, 0x1a, 0xfa, 0xf3, 0x3d, 0xac, 0xfa, 0xfc, 0x3c,
  0x8e, 0x02, 0xbf, 0x3b, 0xfa, 0x25, 0x2a, 0xbc, 0x95, 0x9b, 0x1f, 0x3e,
  0xcc, 0xb3, 0xd9, 0xbd, 0x28, 0x0f, 0x8b, 0x3e, 0xdd, 0x4a, 0x0e, 0xbc,
  0xf8, 0xa1, 0x8e, 0x3d, 0x04, 0xe7, 0xf1, 0x3d, 0xc6, 0xfd, 0x65, 0x3e,
  0x92, 0xda, 0x8a, 0xbd, 0x74, 0x26, 0xe7, 0x3d, 0x2e, 0x4d, 0xf8, 0xbd,
  0x49, 0xea, 0x1c, 0xbe, 0x9b, 0x27, 0x41, 0xbc, 0x32, 0x47, 0xa4, 0x3c,
  0x04, 0x6c, 0x05, 0xbe, 0x0e, 0x8f, 0xa7, 0x3e, 0x56, 0xff, 0x07, 0x3d,
  0xb5, 0x5f, 0x8a, 0x3d, 0x63, 0xb9, 0xec, 0xbc, 0x76, 0x3a, 0x95, 0xbd,
  0x1a, 0x78, 0x8d, 0xbe, 0x13, 0x66, 0x3e, 0x3e, 0xec, 0x09, 0xf5, 0x3d,
  0x1c, 0x1a, 0x26, 0xbd, 0xcb, 0x6c, 0x2c, 0xbe, 0xe9, 0x05, 0xdc, 0x3d,
  0x49, 0xa4, 0xd6, 0x3c, 0x23, 0xeb, 0xb7, 0x3c, 0xb9, 0x7c, 0x11, 0xbe,
  0x65, 0x95, 0xe2, 0x3d, 0xba, 0x42, 0x1e, 0x3d, 0x2e, 0xcb, 0x1d, 0x3e,
  0x02, 0x71, 0x63, 0xbe, 0x1c, 0x48, 0xee, 0x3d, 0x49, 0x4f, 0x36, 0xbe,
  0x23, 0x2e, 0xe1, 0x3d, 0x7b, 0x86, 0xbb, 0x3d, 0x25, 0x12, 0xc9, 0xbc,
  0x0b, 0x2b, 0x77, 0x3d, 0x17, 0x32, 0x25, 0x3c, 0xbe, 0x0c, 0x4f, 0xbe,
  0x16, 0x34, 0xff, 0xbc, 0x95, 0x17, 0x86, 0x3d, 0xb0, 0x0d, 0x08, 0x3e,
  0xc3, 0xba, 0x16, 0x3d, 0x0b, 0x63, 0x57, 0x3d, 0x05, 0xe8, 0x8b, 0xbd,
  0x03, 0x10, 0x04, 0xbe, 0xb1, 0x35, 0x38, 0xbe, 0x6e, 0x75, 0x81, 0x3e,
  0x92, 0x1f, 0x8a, 0x3d, 0x0b, 0x4d, 0x10, 0x3d, 0x2a, 0xe1, 0xf7, 0xbd,
  0x25, 0xb8, 0x17, 0xbd, 0xd4, 0x63, 0xe5, 0x3d, 0xdc, 0xf5, 0xad, 0xbd,
  0xc1, 0x04, 0x17, 0x3d, 0x18, 0x3b, 0x03, 0x3c, 0xdc, 0xaa, 0xa6, 0xbd,
  0xb9, 0x4a, 0x40, 0xbe, 0x3b, 0x8b, 0x0b, 0xbe, 0xfe, 0xb2, 0xfb, 0x3d,
  0x42, 0xf0, 0xb7, 0x3d, 0x66, 0xe2, 0xe7, 0x3d, 0x6d, 0x30, 0x1c, 0x3d,
  0x14, 0x5e, 0xbf, 0xbd, 0x1c, 0xf5, 0x09, 0xbd, 0x6c, 0x45, 0xf7, 0xbc,
  0x3b, 0x46, 0xff, 0xbd, 0x17, 0x69, 0x0d, 0xbe, 0x2b, 0xfd, 0xb6, 0x3d,
  0x27, 0x51, 0x23, 0xbe, 0xb7, 0x1e, 0x32, 0xbd, 0xfd, 0x6c, 0x15, 0x3c,
  0x06, 0xf3, 0xb2, 0xbd, 0x2b, 0xf2, 0x08, 0x3e, 0xed, 0x72, 0xff, 0x3d,
  0x0e, 0xa9, 0x8c, 0x3d, 0x59, 0xb1, 0x2c, 0x3d, 0xa1, 0x1b, 0x89, 0x3d,
  0x45, 0xee, 0x86, 0x3c, 0xb9, 0xad, 0x0f, 0x3e, 0x4c, 0x99, 0x33, 0xbe,
  0x2d, 0xe5, 0xd7, 0x3b, 0x54, 0x34, 0x45, 0xbe, 0xa5, 0x7b, 0xe7, 0x3d,
  0xe7, 0x96, 0xa6, 0x3d, 0x0d, 0x0a, 0x18, 0x3e, 0xff, 0x9d, 0xd0, 0x3c,
  0x31, 0xdb, 0xfc, 0x3c, 0x34, 0x31, 0x59, 0xbe, 0xea, 0xe0, 0xfc, 0xbc,
  0xfd, 0x30, 0xab, 0x3d, 0x83, 0xe8, 0xcd, 0xbc, 0x8a, 0xb3, 0xf0, 0x3d,
  0xa0, 0xad, 0x0d, 0xbd, 0x23, 0x9f, 0xdf, 0x3c, 0x9b, 0x24, 0x10, 0x3e,
  0x7b, 0xd1, 0x45, 0x3d, 0xe2, 0xc1, 0x61, 0xbd, 0xe0, 0xde, 0xd6, 0xbd,
  0x7e, 0xe0, 0x57, 0xbe, 0x78, 0xe8, 0x4e, 0xbd, 0xe6, 0x9d, 0x6c, 0x3d,
  0x6d, 0x73, 0x88, 0xbd, 0xf3, 0xd8, 0x2a, 0xbe, 0xfa, 0x6c, 0x4b, 0xbe,
  0x9c, 0x45, 0x81, 0x3d, 0x1b, 0x5f, 0x60, 0xbe, 0x9b, 0xe7, 0x3d, 0xbe,
  0xf1, 0x06, 0xa4, 0xbc, 0xd2, 0x9a, 0x13, 0xbd, 0xd0, 0xff, 0x55, 0x3a,
  0xcf, 0x5c, 0xac, 0x3d, 0x56, 0x85, 0x33, 0xbe, 0xcb, 0x60, 0xf5, 0x3d,
  0x70, 0xb0, 0xaa, 0xbc, 0x2b, 0x89, 0xb2, 0x3d, 0xc3, 0x17, 0x2c, 0xbe,
  0xa7, 0x1c, 0xf6, 0xbd, 0xa5, 0x0f, 0x48, 0xbe, 0xe3, 0x78, 0xd0, 0xbd,
  0x0c, 0x67, 0x66, 0xbd, 0x90, 0x0b, 0x2a, 0x3d, 0x27, 0x22, 0xa0, 0x3c,
  0x94, 0xbc, 0x06, 0xbd, 0x16, 0xcc, 0xa3, 0xbe, 0x2b, 0x07, 0x94, 0xbc,
  0x21, 0xc0, 0xf4, 0xbd, 0x91, 0x82, 0x8a, 0x3c, 0xdd, 0x01, 0x37, 0xbe,
  0x75, 0x92, 0xbd, 0x3b, 0x36, 0x09, 0x8b, 0xbd, 0x6c, 0x2c, 0xba, 0xbb,
  0x0e, 0xd6, 0x1a, 0x3d, 0x5b, 0xdc, 0x0c, 0x3e, 0x76, 0xcb, 0x1b, 0x3d,
  0x4e, 0x5b, 0x05, 0x3e, 0x0d, 0xcf, 0x8e, 0xbe, 0x09, 0xf7, 0x1a, 0xbd,
  0xb6, 0x03, 0x22, 0x3e, 0x4e, 0xb7, 0xc3, 0x3d, 0xc0, 0x54, 0xf8, 0x3c,
  0x01, 0x04, 0xe9, 0x3d, 0xad, 0xda, 0x3e, 0xbe, 0x58, 0x86, 0x79, 0xbd,
  0x2d, 0x0c, 0x22, 0xbd, 0x93, 0x8a, 0x6a, 0xbd, 0xa0, 0xad, 0x1b, 0xbd,
  0xb4, 0x22, 0x30, 0x3e, 0x48, 0x95, 0x5f, 0xbe, 0x36, 0x10, 0x3e, 0xbd,
  0x75, 0x4f, 0x4c, 0x3e, 0xd2, 0x82, 0x72, 0x3c, 0xc1, 0x1a, 0x35, 0xbe,
  0xa2, 0x1c, 0xa5, 0xbd, 0x7d, 0xf8, 0x2f, 0xbe, 0x8e, 0x8b, 0x58, 0xbd,
  0x5a, 0xc5, 0xae, 0x3e, 0x28, 0x6e, 0x41, 0xbd, 0xf0, 0x22, 0x2c, 0xbd,
  0x13, 0xfb, 0x06, 0x3e, 0xa0, 0x49, 0x2e, 0xbe, 0xde, 0x41, 0xfa, 0x3d,
  0xf5, 0xc8, 0x8e, 0x3e, 0xc1, 0x86, 0xf2, 0x3d, 0x48, 0xa6, 0x0a, 0xbe,
  0x44, 0x48, 0x1f, 0xbe, 0x40, 0xff, 0xcd, 0xbd, 0x25, 0x4a, 0xbf, 0xbc,
  0x36, 0x47, 0x83, 0x3e, 0xef, 0x7b, 0xac, 0xbc, 0x43, 0x53, 0x25, 0xbe,
  0x02, 0xc2, 0xa4, 0x3d, 0x6f, 0x3b, 0x59, 0xbe, 0x70, 0x1c, 0xd6, 0x3d,
  0x0f, 0x5c, 0xc2, 0x3e, 0x85, 0x5f, 0xc8, 0x3d, 0x14, 0x5d, 0x04, 0x3d,
  0x9b, 0xac, 0x9f, 0xbd, 0x16, 0x39, 0x29, 0x3c, 0xb7, 0xad, 0xca, 0x3d,
  0x2a, 0xc5, 0x17, 0x3e, 0xbd, 0xab, 0x12, 0x3e, 0xc2, 0x96, 0xc4, 0x3d,
  0x1d, 0x94, 0xe9, 0x3d, 0x8a, 0xe9, 0x21, 0xbe, 0xa6, 0x94, 0xb1, 0x3d,
  0x4b, 0x6c, 0xce, 0x3e, 0xae, 0x22, 0xf1, 0x3d, 0x1f, 0x3a, 0x4c, 0xbd,
  0xe2, 0xe4, 0x9f, 0x3d, 0x02, 0x68, 0x4e, 0xbd, 0x2f, 0x5d, 0xed, 0x3d,
  0xdb, 0xd4, 0x5e, 0x3e, 0x11, 0x55, 0x19, 0x3e, 0x35, 0xab, 0x24, 0xbe,
  0x31, 0x64, 0xd7, 0xbd, 0x36, 0x05, 0x13, 0xbe, 0x73, 0xe9, 0x46, 0x3e,
  0x7e, 0x5c, 0xad, 0x3e, 0xcf, 0x1d, 0xf4, 0x3d, 0x68, 0x78, 0x37, 0xbe,
  0xb6, 0xc5, 0x42, 0xbc, 0x2c, 0x76, 0xca, 0x3d, 0xb7, 0xfd, 0x95, 0x3d,
  0x8f, 0xe6, 0x65, 0x3e, 0xe4, 0xc9, 0x1b, 0xbd, 0xe5, 0x71, 0x0f, 0xbe,
  0xc6, 0x37, 0xd2, 0x3d, 0x31, 0xe1, 0x14, 0xbe, 0x9d, 0x19, 0x47, 0x3e,
  0xfe, 0x23, 0x37, 0x3e, 0x8f, 0xe5, 0x87, 0xbd, 0x68, 0x0c, 0x49, 0xbe,
  0x8c, 0x08, 0x1d, 0xbd, 0xe2, 0x55, 0x38, 0xbd, 0x5b, 0x23, 0x3c, 0x3e,
  0x6c, 0xfc, 0x4b, 0x3e, 0x6f, 0xdb, 0x0d, 0xbe, 0x40, 0x17, 0xc3, 0x3d,
  0xf7, 0x5f, 0xb6, 0x3d, 0x4d, 0x2d, 0xa6, 0xbd, 0xc4, 0xdc, 0xb7, 0x3d,
  0x8d, 0xd7, 0x20, 0x3c, 0x71, 0xd0, 0x03, 0x3e, 0xfe, 0x4e, 0x5e, 0xbd,
  0xed, 0x1f, 0x1b, 0x3d, 0x84, 0x33, 0x15, 0x3e, 0x6f, 0xf1, 0x3a, 0x3d,
  0xb3, 0x11, 0x78, 0xbc, 0xe1, 0x77, 0x24, 0x3e, 0x49, 0x1f, 0x18, 0xbe,
  0xee, 0x60, 0xb9, 0xbd, 0xf9, 0xfa, 0x42, 0x3d, 0x5b, 0x58, 0x1f, 0x3d,
  0x3f, 0x0a, 0x8f, 0x3d, 0xf8, 0x5a, 0x1e, 0xbe, 0xfd, 0x64, 0xad, 0x3d,
  0x64, 0xfc, 0x9b, 0x3d, 0xff, 0x7a, 0xc0, 0x3d, 0x22, 0xc8, 0x00, 0x3e,
  0xf5, 0x14, 0x28, 0x3e, 0x0a, 0x0f, 0x24, 0x3e, 0x71, 0x87, 0x1d, 0xbe,
  0x7b, 0xf7, 0xcd, 0x3d, 0xb9, 0x7a, 0x8b, 0x3c, 0xa5, 0xd7, 0xf7, 0x3d,
  0xbd, 0x72, 0x87, 0x3d, 0xd1, 0x2a, 0x8b, 0xbd, 0x35, 0xdf, 0x61, 0x3d,
  0x79, 0x9f, 0x42, 0xbe, 0x08, 0x63, 0x1d, 0xbe, 0xb5, 0x83, 0x62, 0xbc,
  0xfc, 0x04, 0x36, 0x3e, 0x6e, 0xf5, 0x32, 0xbe, 0x2b, 0x83, 0xbe, 0x3d,
  0x17, 0x58, 0xbb, 0x3d, 0xad, 0x08, 0x9f, 0x3d, 0x02, 0x14, 0xd1, 0x3d,
  0x7e, 0x75, 0x33, 0xbd, 0x8a, 0x81, 0x06, 0xbe, 0xb8, 0xfd, 0x0e, 0xbe,
  0x01, 0xb4, 0x4f, 0x3a, 0x87, 0xa9, 0xf2, 0xbd, 0x6c, 0xa6, 0x1e, 0xbb,
  0xf7, 0xb8, 0xad, 0x3c, 0x84, 0x1c, 0x86, 0x3d, 0x50, 0x5b, 0xed, 0x3d,
  0x02, 0x3a, 0x32, 0x3d, 0x5d, 0x89, 0x39, 0x3d, 0x89, 0xcd, 0x33, 0x3e,
  0xf2, 0x68, 0x55, 0x3d, 0xae, 0x80, 0xce, 0x3d, 0xe2, 0x70, 0x44, 0xbe,
  0xe2, 0x5e, 0x50, 0x3a, 0xb1, 0xd0, 0x51, 0x3d, 0x5d, 0xc0, 0x07, 0xbe,
  0xf5, 0x4e, 0x30, 0x3e, 0x00, 0x82, 0xf3, 0xbc, 0x01, 0x72, 0x98, 0x3d,
  0xbf, 0x6e, 0x37, 0x3d, 0xca, 0x9d, 0xa3, 0x3c, 0xb1, 0x24, 0x95, 0xbd,
  0x17, 0x44, 0x04, 0x3e, 0x56, 0x18, 0x50, 0xbd, 0xc8, 0x10, 0x9a, 0x3d,
  0x31, 0xb5, 0x0b, 0xbe, 0x43, 0x81, 0x14, 0x3e, 0x1b, 0x9f, 0xb4, 0x3d,
  0x81, 0x05, 0xcc, 0x3d, 0x23, 0xd2, 0x83, 0xbc, 0xc5, 0x10, 0xbc, 0xbc,
  0xce, 0xfe, 0xb9, 0xbc, 0x0e, 0x3c, 0x5a, 0xbc, 0x85, 0xea, 0x68, 0xbd,
  0x1d, 0x0d, 0x79, 0x3d, 0xa5, 0xf7, 0x7a, 0x3d, 0x64, 0x40, 0x12, 0x3e,
  0xbd, 0xea, 0x25, 0xbd, 0x1b, 0x4d, 0xa0, 0x3c, 0xa0, 0xff, 0x9c, 0xbd,
  0xa3, 0x12, 0x15, 0xbe, 0x8a, 0x52, 0x0a, 0xbe, 0xe8, 0x3f, 0xe7, 0x3c,
  0x02, 0xf7, 0xe7, 0xbc, 0x8c, 0xc3, 0xfe, 0xbd, 0x0d, 0xbc, 0x14, 0xbe,
  0x27, 0x03, 0x9b, 0xbd, 0x31, 0xdd, 0x1a, 0x3e, 0x11, 0x21, 0x97, 0x3d,
  0xe9, 0x89, 0x23, 0xbe, 0x47, 0xd5, 0x02, 0xbd, 0x7e, 0xed, 0x25, 0x3d,
  0xa3, 0x3c, 0xb0, 0xbb, 0xf1, 0x64, 0x47, 0x3d, 0x85, 0x39, 0x17, 0x3d,
  0xc6, 0xa9, 0xa6, 0xbc, 0x8a, 0x07, 0xb0, 0xbd, 0x98, 0xa1, 0x61, 0x3d,
  0x91, 0x12, 0x1d, 0x3e, 0x3f, 0x70, 0x6a, 0x3d, 0x9f, 0x4b, 0x0d, 0xbe,
  0xb8, 0x9c, 0xca, 0xbd, 0x83, 0xa6, 0x21, 0x3d, 0x72, 0x6a, 0x12, 0x3c,
  0x27, 0x5e, 0x66, 0xbd, 0x7e, 0xbf, 0x43, 0xbd, 0x6f, 0x01, 0x50, 0xbd,
  0x85, 0x39, 0x40, 0x3d, 0x37, 0xbe, 0xbf, 0x3d, 0xbe, 0xcd, 0xd0, 0x3d,
  0x3a, 0xbc, 0xf8, 0xbd, 0x69, 0x80, 0x21, 0x3e, 0x86, 0x53, 0xfa, 0x3d,
  0xfb, 0x7d, 0xee, 0xbd, 0x00, 0x52, 0x9e, 0xbd, 0x48, 0xc6, 0xc6, 0xbd,
  0x52, 0x18, 0x89, 0xbd, 0xd2, 0x0d, 0xfc, 0x3d, 0x12, 0xc2, 0xff, 0xbd,
  0xac, 0x5d, 0x20, 0xbe, 0x3f, 0xdd, 0xaa, 0xbd, 0xdf, 0x7e, 0x34, 0xbe,
  0x7e, 0xa0, 0x27, 0xbe, 0x88, 0xfd, 0xb2, 0x3c, 0x66, 0x21, 0xec, 0xbd,
  0x5d, 0x39, 0xb9, 0x3d, 0x98, 0x58, 0x4f, 0xbd, 0xe9, 0x06, 0xba, 0xbd,
  0x29, 0xdb, 0xfd, 0x3d, 0xe3, 0x75, 0x1f, 0x3e, 0x60, 0x68, 0xe7, 0x3d,
  0xe6, 0x3a, 0xa8, 0xbd, 0x49, 0x83, 0xc2, 0xbd, 0x3d, 0x3c, 0x60, 0x3d,
  0xd0, 0xc3, 0x22, 0x3c, 0x1d, 0xda, 0x87, 0x3d, 0xae, 0x79, 0x80, 0xbd,
  0xae, 0xdb, 0xa2, 0x3d, 0x1f, 0xa1, 0x9f, 0x3d, 0xdd, 0xe7, 0xbc, 0x3d,
  0x68, 0x52, 0x8b, 0xbc, 0xc8, 0xde, 0x64, 0xbd, 0x3e, 0xeb, 0x02, 0xbd,
  0x02, 0x51, 0xb6, 0xbc, 0xb3, 0xf4, 0xa8, 0xbd, 0xfa, 0x68, 0x1e, 0x3e,
  0x30, 0x2d, 0x0c, 0x3e, 0x1d, 0x64, 0xb6, 0xbd, 0x74, 0x25, 0x09, 0x3e,
  0x7e, 0x49, 0x81, 0xbc, 0x95, 0x59, 0x08, 0xbe, 0x44, 0x04, 0xf0, 0x3d,
  0x38, 0xd8, 0x1e, 0xbd, 0x2a, 0x28, 0x06, 0xbe, 0x47, 0x3b, 0xae, 0xbd,
  0xea, 0x8f, 0xc8, 0xbd, 0x96, 0x7a, 0x0b, 0xbe, 0x20, 0x86, 0x13, 0x3e,
  0x12, 0x64, 0x89, 0x3d, 0xee, 0xbb, 0xa2, 0xbd, 0x7e, 0xad, 0x37, 0x3c,
  0x8e, 0x53, 0x2c, 0xbd, 0xf0, 0x40, 0x0a, 0x3e, 0x65, 0xd6, 0x86, 0x3c,
  0xcc, 0xdd, 0x74, 0xbc, 0x9a, 0x1a, 0x63, 0xbd, 0x60, 0xd7, 0xd8, 0xbc,
  0x85, 0x1c, 0x1c, 0xbe, 0x96, 0x2e, 0x97, 0x3d, 0x1e, 0x1e, 0xc1, 0x3d,
  0xaf, 0x44, 0xc3, 0xbd, 0x47, 0xe9, 0x2d, 0x3d, 0xf2, 0xfa, 0x08, 0xbe,
  0x69, 0xc7, 0x15, 0xbe, 0x1b, 0xe2, 0x21, 0x3d, 0x34, 0x3b, 0x82, 0xbb,
  0x8c, 0x71, 0x9b, 0x3d, 0xf8, 0xf6, 0x16, 0x3e, 0xca, 0xae, 0xc5, 0xbd,
  0x45, 0xd6, 0x07, 0x3e, 0xb2, 0x83, 0x1b, 0x3e, 0x61, 0x7b, 0x29, 0x3d,
  0xe5, 0x3c, 0x94, 0x3d, 0x57, 0x1e, 0x87, 0x3c, 0x21, 0x1e, 0xc9, 0x3d,
  0x9a, 0xdc, 0x4b, 0xbd, 0x9a, 0xf9, 0x8a, 0xbc, 0x91, 0x47, 0x13, 0x3e,
  0x4c, 0xbb, 0x1c, 0x3e, 0x30, 0x96, 0xc3, 0xbd, 0x6b, 0xa8, 0xb9, 0x3d,
  0xd5, 0x2e, 0x6f, 0x3d, 0xe7, 0xa8, 0x0e, 0xbe, 0x2c, 0x56, 0x52, 0x3d,
  0x17, 0x95, 0x00, 0xbd, 0x5e, 0xc2, 0x33, 0xbe, 0xcf, 0xd4, 0xcf, 0x3d,
  0x04, 0x55, 0xc4, 0xbd, 0xe8, 0x2f, 0x16, 0x3e, 0xdf, 0x00, 0x33, 0x3d,
  0xf6, 0xd6, 0x80, 0x3c, 0x62, 0xfa, 0x0d, 0xbe, 0x3a, 0xca, 0x2d, 0xbe,
  0x7a, 0x47, 0xf8, 0x3d, 0x44, 0x92, 0x88, 0xbd, 0x8a, 0xdc, 0x34, 0xbd,
  0x48, 0x60, 0x52, 0x3c, 0xe5, 0x3d, 0xd6, 0x3c, 0x30, 0x1d, 0x8d, 0xbc,
  0xdd, 0x4e, 0xf1, 0xbd, 0xbd, 0x28, 0x11, 0x3e, 0x7a, 0x03, 0x0f, 0x3e,
  0xfc, 0xe6, 0x1f, 0x3d, 0x3e, 0xa2, 0xd2, 0xbc, 0x8f, 0xc4, 0xc6, 0xbc,
  0x44, 0x50, 0xb3, 0x3d, 0x4d, 0x7a, 0x1f, 0x3e, 0x9a, 0x1a, 0x8f, 0x3c,
  0x1c, 0x8c, 0x13, 0x3e, 0xa4, 0x1d, 0x8d, 0xbc, 0xdc, 0xf5, 0xc8, 0xbd,
  0x5e, 0x80, 0x91, 0xbc, 0xc3, 0xfc, 0x8e, 0x3d, 0x45, 0xf8, 0x9e, 0xbd,
  0x30, 0x00, 0xcd, 0xbd, 0x00, 0x61, 0xf7, 0x3d, 0x46, 0x79, 0x21, 0xbe,
  0x6a, 0xb6, 0xb9, 0x3d, 0x72, 0xab, 0x64, 0x3c, 0xe1, 0x49, 0x28, 0xbe,
  0xbc, 0x10, 0x5c, 0x3d, 0x40, 0x77, 0xa7, 0x3c, 0x07, 0x62, 0xcc, 0x3d,
  0x91, 0x08, 0x18, 0xbd, 0xde, 0xec, 0x20, 0xbe, 0xf4, 0x1a, 0xb6, 0xbd,
  0x8e, 0x80, 0x04, 0xbe, 0xb6, 0x7b, 0xe2, 0xbd, 0x40, 0x9b, 0x1c, 0xbe,
  0x73, 0x26, 0xc7, 0x3d, 0xa0, 0xa2, 0xc7, 0xbd, 0x06, 0x14, 0x2a, 0xbe,
  0x53, 0x2e, 0x06, 0xbe, 0xb7, 0xf6, 0xec, 0x3c, 0x7f, 0xb7, 0xd2, 0xbd,
  0x5d, 0x31, 0xb6, 0xbd, 0x8c, 0x2f, 0x01, 0x3e, 0x9e, 0x2b, 0x24, 0x3d,
  0x7c, 0xc6, 0xa8, 0xbc, 0x4e, 0x09, 0xb7, 0xbc, 0xfa, 0xe5, 0x4d, 0x3c,
  0xa3, 0xd2, 0x18, 0xbe, 0xa1, 0x5e, 0x21, 0xbe, 0x22, 0x7c, 0x0a, 0x3e,
  0x4f, 0x14, 0xc5, 0xbd, 0x2d, 0x66, 0x1c, 0xbe, 0x25, 0xab, 0x19, 0xbe,
  0xed, 0xcd, 0xd8, 0xbc, 0x0d, 0x02, 0x1f, 0xbe, 0xe5, 0x70, 0x3d, 0x3c,
  0x24, 0x44, 0x05, 0x3e, 0x61, 0x01, 0x75, 0xbd, 0xed, 0x06, 0xbb, 0x3c,
  0x0a, 0x93, 0xea, 0x3d, 0xa0, 0x59, 0xa8, 0x3d, 0x9d, 0x47, 0x4c, 0x3d,
  0x9a, 0x09, 0xda, 0x3d, 0x7a, 0xc3, 0x2f, 0xbe, 0x17, 0x71, 0x66, 0x3d,
  0x1e, 0x9c, 0x99, 0x3d, 0xda, 0x5f, 0x4c, 0xbd, 0x2c, 0x1b, 0xb8, 0x3c,
  0xb2, 0x72, 0x07, 0xbe, 0x4f, 0xea, 0x16, 0x3e, 0xc7, 0x7d, 0xfa, 0x3c,
  0x5a, 0x59, 0xe6, 0x3d, 0xa7, 0x39, 0xdd, 0x3d, 0xad, 0x0a, 0x03, 0x3e,
  0x0a, 0x4f, 0xb5, 0xbc, 0xfb, 0xc6, 0x99, 0x3d, 0xc2, 0x0c, 0xd6, 0x3d,
  0x4b, 0x2c, 0xa4, 0xbd, 0xb8, 0xc8, 0x98, 0x3d, 0xa7, 0xda, 0x98, 0x3d,
  0x7f, 0xce, 0x96, 0x3d, 0xf0, 0x3b, 0x0e, 0xbe, 0xae, 0x0e, 0xaa, 0x3d,
  0xf2, 0x27, 0xdd, 0x3c, 0xfa, 0x3d, 0xff, 0x3d, 0x1c, 0x7e, 0x16, 0xbe,
  0xff, 0xe0, 0xb8, 0x3c, 0x1d, 0x0a, 0xbd, 0x3d, 0x6a, 0xcb, 0x4a, 0x3d,
  0x29, 0xf4, 0xcf, 0xbd, 0x60, 0x39, 0xee, 0x3d, 0xd8, 0x7b, 0x5e, 0x3d,
  0x5f, 0x16, 0xc3, 0xba, 0x3a, 0x5c, 0x21, 0xbe, 0x1f, 0x84, 0x8c, 0x3d,
  0x93, 0x4c, 0x15, 0x3e, 0x84, 0x4c, 0x1d, 0xbb, 0x27, 0x66, 0x16, 0x3e,
  0x49, 0x45, 0x1b, 0xbd, 0x44, 0x12, 0xae, 0x3d, 0x9d, 0x20, 0xab, 0xbd,
  0xb4, 0xc5, 0x9f, 0x3d, 0x96, 0x26, 0x92, 0xba, 0xc3, 0x35, 0x8e, 0x3d,
  0x11, 0xec, 0x03, 0xbd, 0x8b, 0x65, 0x06, 0xbc, 0x93, 0xe7, 0x38, 0xbd,
  0xc5, 0xc7, 0xb8, 0xbc, 0xaf, 0x2c, 0x4a, 0x3d, 0xaa, 0x60, 0xbc, 0xbd,
  0xb4, 0x11, 0x0f, 0xbe, 0x2f, 0xf5, 0x58, 0xbc, 0xca, 0x21, 0x06, 0x3c,
  0x3f, 0x3b, 0xb0, 0xbd, 0x08, 0x48, 0x0c, 0x3e, 0xbc, 0x46, 0x03, 0xbe,
  0x43, 0x01, 0x10, 0xbd, 0x04, 0xa5, 0x9e, 0xbd, 0x91, 0xac, 0xf8, 0x3b,
  0x1e, 0xf0, 0x99, 0x3d, 0x50, 0x6f, 0x19, 0xbe, 0x82, 0x93, 0x09, 0x3e,
  0x4d, 0xc8, 0x4d, 0xbc, 0x6d, 0xd6, 0x0c, 0xbe, 0xec, 0x33, 0xbe, 0xbd,
  0xab, 0xa2, 0x1b, 0x3e, 0x68, 0xc1, 0xfe, 0x3c, 0x71, 0x8c, 0xa5, 0x3d,
  0x9d, 0xa4, 0xbf, 0xbd, 0xf8, 0xaa, 0x10, 0xbe, 0xf1, 0x09, 0xfc, 0x3c,
  0x72, 0xcd, 0x88, 0x3d, 0x9d, 0x12, 0xbf, 0x3d, 0x34, 0x1a, 0x20, 0xbe,
  0x2c, 0xc5, 0x1c, 0x3e, 0x79, 0x8f, 0x25, 0xbe, 0x30, 0x41, 0x05, 0xbe,
  0xce, 0xf2, 0xfb, 0x3d, 0xbb, 0x52, 0x47, 0x3d, 0x1a, 0x46, 0xd3, 0xbc,
  0xd9, 0x5b, 0x10, 0x3e, 0xa7, 0x4f, 0x35, 0xbe, 0x84, 0x4f, 0xd0, 0x3d,
  0xe0, 0xa7, 0x59, 0xb9, 0xc2, 0x7b, 0x73, 0xbd, 0xb8, 0x70, 0x6b, 0x3d,
  0x7c, 0xd1, 0xd1, 0xbd, 0x25, 0xae, 0x75, 0xbc, 0x59, 0x23, 0xae, 0x3d,
  0xc4, 0x15, 0xdb, 0x3d, 0x55, 0xa1, 0xfa, 0xbc, 0xb1, 0x4b, 0x94, 0x3c,
  0xb9, 0xfc, 0x10, 0x3e, 0xe2, 0x9c, 0x62, 0xbd, 0xe8, 0xcd, 0xd0, 0x39,
  0xba, 0x9a, 0x0c, 0x3e, 0x19, 0xcc, 0x16, 0xbe, 0x1a, 0x3a, 0xc3, 0x3d,
  0xb1, 0xe3, 0x3f, 0x3d, 0xdf, 0x50, 0xb9, 0x3d, 0x1c, 0x48, 0x04, 0xbe,
  0x90, 0xf2, 0x08, 0xb9, 0xeb, 0xbc, 0x19, 0x3e, 0x83, 0x3d, 0xf6, 0x3d,
  0xe4, 0xb0, 0x12, 0x3e, 0x5e, 0x3e, 0xca, 0xbc, 0x79, 0x9e, 0x73, 0xbc,
  0x1b, 0xef, 0xdc, 0x3d, 0xfb, 0x55, 0xef, 0xbd, 0x26, 0xfd, 0xb8, 0x3d,
  0x8d, 0xd9, 0x0b, 0xbe, 0x22, 0x87, 0xae, 0x3d, 0x7a, 0xea, 0xd9, 0xbd,
  0xb2, 0x4f, 0x82, 0xbd, 0xf2, 0x4f, 0x49, 0xbd, 0xb0, 0xe8, 0x33, 0xbe,
  0xb4, 0x9a, 0xad, 0xbb, 0xe5, 0xda, 0x8f, 0xbc, 0x7e, 0xf0, 0x46, 0x3b,
  0xe6, 0x11, 0xf6, 0xbc, 0x40, 0x0a, 0xe8, 0xbc, 0x00, 0xa4, 0x15, 0x3d,
  0x5c, 0x11, 0x00, 0x3c, 0xc8, 0xc6, 0x06, 0x3e, 0xd5, 0x79, 0x9e, 0xbd,
  0xc5, 0x2c, 0xc5, 0xbd, 0x8d, 0xe8, 0x3e, 0x3d, 0xa7, 0x7b, 0x50, 0xbd,
  0x41, 0xf1, 0x61, 0xbd, 0x1d, 0xfb, 0x1a, 0xbe, 0x3c, 0x76, 0x52, 0x3c,
  0xdb, 0x54, 0x5e, 0xbb, 0x19, 0xaa, 0xf7, 0x3d, 0x63, 0x6f, 0x98, 0x3c,
  0xa2, 0x2a, 0x91, 0xbd, 0x90, 0x43, 0x72, 0xbc, 0xc9, 0x09, 0xaa, 0x3d,
  0x70, 0xb8, 0xd7, 0xbd, 0x7b, 0x40, 0x31, 0x3d, 0x80, 0xbd, 0xe8, 0x3a,
  0x97, 0x26, 0xb5, 0xbd, 0x9f, 0xe8, 0x8a, 0xbd, 0x93, 0x7f, 0x27, 0xbe,
  0xd0, 0x24, 0xce, 0x3d, 0xe3, 0x61, 0xc6, 0x3c, 0xb9, 0x49, 0x36, 0xbe,
  0xc5, 0x8e, 0x36, 0xbe, 0x67, 0x13, 0x12, 0xbe, 0x89, 0x81, 0x21, 0xbd,
  0x07, 0xcc, 0xd3, 0xbd, 0x60, 0x1b, 0xc5, 0xbd, 0xdf, 0x0a, 0x19, 0x3c,
  0x8a, 0x66, 0xfc, 0xbd, 0x36, 0xd8, 0xce, 0x3d, 0x1d, 0x3c, 0x2f, 0xbd,
  0xfd, 0xeb, 0x3c, 0xbc, 0xcf, 0x12, 0x05, 0x3e, 0x1d, 0x7b, 0xa6, 0xbd,
  0xf6, 0xb1, 0xe7, 0xbd, 0xfd, 0x33, 0xbf, 0xbd, 0x28, 0x56, 0x98, 0xbd,
  0x48, 0x20, 0x11, 0xbd, 0x08, 0x2b, 0xc8, 0xbc, 0xc0, 0x4b, 0x56, 0xbb,
  0xf0, 0xf4, 0xaf, 0xbc, 0xab, 0x75, 0x23, 0xbe, 0x54, 0xbe, 0x64, 0xbd,
  0x76, 0x14, 0xbb, 0x3d, 0x3a, 0xd3, 0xaa, 0x3d, 0x78, 0x47, 0xcc, 0x3c,
  0x2c, 0x1d, 0x2b, 0xbd, 0x28, 0x5e, 0x00, 0x3d, 0x18, 0x7e, 0x4f, 0x3d,
  0x6e, 0x13, 0xf2, 0x3d, 0xa7, 0x87, 0x15, 0xbe, 0xc2, 0x50, 0xbd, 0x3d,
  0x10, 0xdc, 0x18, 0xbd, 0x6a, 0x05, 0xb6, 0xbd, 0xea, 0x7b, 0x8c, 0x3d,
  0x60, 0xde, 0xf3, 0xbb, 0x80, 0x28, 0x02, 0x3d, 0xc9, 0x23, 0x1c, 0x3e,
  0xee, 0xe5, 0xcb, 0xbd, 0x80, 0x72, 0xff, 0x3c, 0xe0, 0xb9, 0xbe, 0x3b,
  0xc1, 0xb0, 0x22, 0x3e, 0xba, 0x80, 0xa6, 0x3d, 0x46, 0x5c, 0xff, 0x3d,
  0xc2, 0x01, 0xc6, 0x3d, 0x18, 0x7c, 0xff, 0xbd, 0x46, 0x58, 0xcb, 0x3d,
  0x06, 0x7d, 0xc6, 0x3d, 0xe8, 0xfd, 0x76, 0xbd, 0x3a, 0x73, 0xaa, 0x3d,
  0x13, 0xd7, 0x29, 0x3e, 0x37, 0x5c, 0xc2, 0xbd, 0xc9, 0xf5, 0x02, 0x3e,
  0x48, 0xdd, 0x8c, 0x3c, 0x81, 0xf3, 0xd3, 0xbd, 0x60, 0x1c, 0x84, 0xbc,
  0x4b, 0xf5, 0xa3, 0xbd, 0x97, 0x77, 0x1e, 0xbe, 0xab, 0x61, 0xa3, 0xbd,
  0x55, 0x4b, 0x14, 0x3e, 0x62, 0x2b, 0xf5, 0xbd, 0xb8, 0xf4, 0xd4, 0xbc,
  0x20, 0x65, 0x0e, 0xbc, 0x8e, 0x73, 0xd9, 0x3d, 0xa6, 0x2f, 0xd1, 0x3d,
  0x0f, 0x8c, 0xac, 0xbd, 0x20, 0x7f, 0x71, 0x3c, 0xa2, 0x59, 0x9f, 0xbd,
  0xd9, 0x8c, 0x02, 0x3e, 0xd6, 0x36, 0x8a, 0x3d, 0x90, 0xdf, 0x2c, 0x3d,
  0x20, 0x9e, 0x97, 0x3b, 0xc6, 0xd6, 0x0f, 0xbe, 0xa9, 0xbb, 0xa4, 0xbd,
  0x2f, 0x5b, 0x00, 0xbe, 0xa9, 0x02, 0x29, 0x3e, 0xdf, 0x65, 0xf3, 0xbd,
  0x77, 0xd0, 0x28, 0x3e, 0x82, 0x41, 0xd2, 0x3d, 0x5c, 0x5a, 0x25, 0x3d,
  0xcc, 0xb8, 0x28, 0xbd, 0xab, 0x17, 0x26, 0x3e, 0x90, 0xed, 0x6f, 0xbc,
  0x4b, 0xe8, 0x04, 0xbe, 0xd8, 0x50, 0x1d, 0xbd, 0x99, 0x3e, 0xfe, 0xbd,
  0xf4, 0x95, 0x72, 0xbd, 0x18, 0x93, 0x94, 0x3d, 0x68, 0x03, 0xa0, 0x3c,
  0xa6, 0xca, 0x6a, 0xbd, 0x7c, 0x9a, 0x05, 0xbe, 0x70, 0x17, 0x71, 0xbd,
  0x57, 0x2e, 0xb0, 0xbd, 0x4a, 0xe0, 0x9d, 0x3d, 0x98, 0x01, 0x97, 0xbd,
  0x88, 0xa3, 0xde, 0x3c, 0x76, 0xa9, 0x63, 0xbd, 0x94, 0x31, 0x26, 0xbd,
  0x89, 0x8b, 0x0b, 0x3e, 0x7e, 0x90, 0x58, 0xbd, 0x76, 0x94, 0x68, 0xbd,
  0xd2, 0xd9, 0x95, 0xbd, 0xb6, 0x83, 0xbc, 0x3d, 0x76, 0x23, 0x88, 0x3d,
  0xf0, 0x91, 0x13, 0xbd, 0xb7, 0x7f, 0x07, 0xbe, 0xee, 0x84, 0x6c, 0xbd,
  0x48, 0x68, 0x57, 0x3d, 0x4c, 0xdc, 0x68, 0x3d, 0x5a, 0x9c, 0xe5, 0xbd,
  0xf0, 0x65, 0xa6, 0xbc, 0x20, 0x34, 0x9d, 0x3c, 0xea, 0xa0, 0xd2, 0xbd,
  0x94, 0x2d, 0x5a, 0xbd, 0x5e, 0xc9, 0xc7, 0xbd, 0x91, 0x09, 0x02, 0x3e,
  0x16, 0x1b, 0xc8, 0x3d, 0x00, 0x40, 0x34, 0xba, 0x63, 0x99, 0xcf, 0xbd,
  0x57, 0xb3, 0xc9, 0xbd, 0xd6, 0x33, 0x84, 0x3d, 0x70, 0xba, 0xde, 0xbd,
  0x5c, 0xb2, 0x96, 0x3d, 0x53, 0x05, 0xa2, 0xbd, 0x1c, 0xa1, 0x24, 0xbe,
  0x0c, 0x2c, 0x7d, 0x3d, 0xa8, 0x33, 0xc3, 0xbd, 0xd0, 0xca, 0x0c, 0xbc,
  0xac, 0xb4, 0xc7, 0xbd, 0x20, 0x41, 0x3c, 0xbc, 0x06, 0x88, 0xcd, 0x3d,
  0x58, 0x7e, 0x75, 0x3d, 0xab, 0x83, 0xc6, 0xbd, 0x60, 0xaf, 0x0e, 0x3d,
  0xd0, 0xfa, 0x85, 0xbc, 0x58, 0x04, 0x23, 0xbe, 0x96, 0x69, 0x26, 0xbe,
  0xb2, 0x01, 0x05, 0xbe, 0x70, 0xe2, 0x80, 0x3c, 0xb2, 0x17, 0xcb, 0x3d,
  0x99, 0x07, 0x1e, 0x3e, 0x2c, 0x67, 0x2f, 0x3d, 0x9a, 0x2b, 0x06, 0xbe,
  0xf8, 0xd0, 0x18, 0xbe, 0x7e, 0xfb, 0xbf, 0x3d, 0x00, 0x51, 0xa7, 0x3d,
  0x3d, 0xc1, 0x10, 0x3e, 0x00, 0x7f, 0xa2, 0xba, 0x48, 0xb7, 0x48, 0x3d,
  0x0b, 0xf3, 0x18, 0xbe, 0x4a, 0x35, 0x8b, 0x3d, 0x9e, 0xad, 0xd2, 0xbd,
  0xaf, 0x16, 0x1a, 0x3e, 0x76, 0x88, 0x03, 0xbe, 0x25, 0x74, 0x1f, 0x3e,
  0x36, 0xda, 0xc4, 0xbd, 0x8b, 0x4e, 0x16, 0xbe, 0x0e, 0x81, 0xce, 0x3d,
  0xff, 0xcb, 0x28, 0x3e, 0x70, 0x05, 0x58, 0x3c, 0x98, 0x1b, 0xa2, 0x3d,
  0x70, 0x2a, 0xdb, 0x3c, 0x18, 0xd7, 0x06, 0xbe, 0x4a, 0xd6, 0xda, 0x3d,
  0x9c, 0x3c, 0x62, 0xbd, 0xf0, 0xdb, 0x62, 0x3c, 0xef, 0x03, 0x1b, 0x3e,
  0x72, 0xcd, 0xba, 0x3d, 0x00, 0x5d, 0xba, 0x3a, 0x00, 0x0a, 0x17, 0x3a,
  0x90, 0x65, 0xf1, 0xbd, 0x8b, 0xec, 0x24, 0x3e, 0x00, 0x00, 0x09, 0xb6,
  0x60, 0xd6, 0xde, 0xbb, 0xa0, 0xc6, 0x1a, 0xbe, 0x04, 0x4d, 0x2a, 0x3d,
  0x96, 0x36, 0x47, 0xbd, 0xca, 0x2c, 0xdb, 0xbd, 0xdc, 0x7f, 0x1c, 0x3d,
  0x20, 0xf2, 0x9c, 0xbb, 0x7a, 0x66, 0xb4, 0x3d, 0x9b, 0x84, 0x2a, 0x3e,
  0x7f, 0x18, 0x16, 0x3e, 0x3e, 0x12, 0xd3, 0x3d, 0x5b, 0x0e, 0xca, 0xbd,
  0x28, 0xfd, 0x4a, 0x3d, 0x80, 0xea, 0xbb, 0xbc, 0xbb, 0x40, 0xe9, 0xbd,
  0xc0, 0xb6, 0x2f, 0xbd, 0x4b, 0xc6, 0x20, 0xbe, 0x2d, 0x8d, 0xf0, 0xbd,
  0x62, 0xe5, 0x0e, 0xbe, 0xa0, 0xf3, 0xe5, 0xbc, 0x2c, 0x53, 0x39, 0xbe,
  0xf5, 0x44, 0xf9, 0xbd, 0x6c, 0x26, 0x96, 0xbe, 0x58, 0xcc, 0x3a, 0xbe,
  0x74, 0xcf, 0xd8, 0x3d, 0x61, 0x22, 0x8c, 0x3d, 0xbc, 0x66, 0xfd, 0xbb,
  0x0f, 0xc6, 0x4e, 0x3e, 0xb5, 0xe9, 0xe1, 0x3c, 0x78, 0x99, 0xe7, 0xbd,
  0x8b, 0xfe, 0x9d, 0x3d, 0xc6, 0x37, 0x13, 0xbe, 0xc0, 0x4e, 0x31, 0xbd,
  0xad, 0x75, 0x87, 0x3e, 0x15, 0x50, 0x80, 0xbe, 0xe5, 0xfe, 0x4c, 0x3d,
  0xe3, 0x56, 0x85, 0xbd, 0x1a, 0x6a, 0x6e, 0xbe, 0xac, 0xdb, 0x7d, 0xbd,
  0xf5, 0xe3, 0x52, 0xbb, 0x41, 0x0c, 0x62, 0xbc, 0x0d, 0xc8, 0x94, 0xbd,
  0xde, 0x69, 0xa2, 0xbd, 0x7b, 0x8e, 0x33, 0xbe, 0xeb, 0xad, 0xe5, 0x3c,
  0x57, 0xa2, 0xb6, 0x3d, 0x92, 0xcb, 0xc7, 0x3b, 0x34, 0xaa, 0x5d, 0xbc,
  0x7d, 0x3f, 0x60, 0x3e, 0x01, 0x83, 0xfc, 0xbd, 0x8e, 0x73, 0x0d, 0xbd,
  0xf5, 0xd0, 0xb4, 0xbd, 0x2e, 0xb7, 0xab, 0x3c, 0x23, 0x31, 0x63, 0xbd,
  0xa8, 0xbb, 0x09, 0x3e, 0x25, 0x64, 0x75, 0xbe, 0x21, 0x5f, 0xf6, 0x3d,
  0x70, 0xd5, 0x5d, 0xbd, 0xa1, 0xf0, 0x62, 0xbd, 0x24, 0x10, 0x0d, 0xbd,
  0x77, 0x42, 0x14, 0x3e, 0x8c, 0xdc, 0x67, 0xbe, 0x2c, 0x78, 0x19, 0x3d,
  0x93, 0x20, 0x11, 0x3e, 0xd6, 0x61, 0xec, 0xbd, 0x25, 0x21, 0xf9, 0xbd,
  0x4f, 0xc1, 0xe3, 0x3d, 0x5c, 0xe3, 0x6b, 0xbe, 0x17, 0xd9, 0x3f, 0x3e,
  0xc3, 0x65, 0x50, 0xb9, 0x47, 0x39, 0xdc, 0xbc, 0x0d, 0x3c, 0xdd, 0x3d,
  0x43, 0x78, 0x5e, 0xbd, 0x7f, 0x22, 0x00, 0xbe, 0x40, 0xbb, 0x1c, 0x3e,
  0x8f, 0xb9, 0xaf, 0x3e, 0xb4, 0x80, 0x8d, 0x3e, 0x08, 0xf6, 0xc5, 0xbc,
  0x93, 0xcc, 0xaf, 0xbd, 0x39, 0x9a, 0x9e, 0xbc, 0xc5, 0xbb, 0x77, 0xbd,
  0x2c, 0xf7, 0xb2, 0x3e, 0xc2, 0x03, 0xfa, 0x3c, 0xc7, 0x26, 0xe1, 0xbd,
  0xc8, 0xca, 0xf4, 0x3d, 0x41, 0x56, 0x7d, 0xbd, 0xff, 0x26, 0x78, 0x3e,
  0x4d, 0xf8, 0xe8, 0x3d, 0xd7, 0x99, 0x6c, 0x3e, 0xef, 0x93, 0x13, 0xbe,
  0x3a, 0xff, 0x8b, 0xbd, 0xcb, 0xee, 0xbb, 0x3c, 0xaf, 0xfe, 0x36, 0x3d,
  0x24, 0x6f, 0xaa, 0x3e, 0x85, 0x5f, 0xd4, 0x3d, 0x49, 0xb4, 0xd8, 0x3d,
  0xcd, 0xef, 0x22, 0x3e, 0xcb, 0x4f, 0xbf, 0xbd, 0x24, 0x4f, 0x27, 0x3c,
  0x56, 0x9c, 0xb6, 0x3e, 0x6e, 0xea, 0x7d, 0x3e, 0xac, 0x16, 0x5a, 0xbe,
  0x9d, 0x7c, 0x03, 0xbe, 0x21, 0x9d, 0xf9, 0x3c, 0xfe, 0x02, 0x23, 0xbd,
  0xb2, 0xab, 0xb5, 0x3e, 0x82, 0x31, 0x0b, 0x3e, 0xc2, 0x24, 0x7f, 0x3d,
  0x34, 0x84, 0x91, 0x3c, 0x77, 0xc1, 0xcd, 0xbd, 0x1f, 0x8c, 0xc7, 0xbc,
  0x01, 0x46, 0x69, 0x3e, 0xb7, 0xff, 0x07, 0x3e, 0x4d, 0xce, 0x5d, 0x3d,
  0xaf, 0xa4, 0x1b, 0xbe, 0xf5, 0xf7, 0x15, 0xbe, 0x37, 0xba, 0x0d, 0x3b,
  0xa2, 0xba, 0x4c, 0x3e, 0x43, 0x14, 0x02, 0x3e, 0x4f, 0xbd, 0x33, 0xbe,
  0x60, 0x7f, 0x10, 0xbd, 0x78, 0x1a, 0x95, 0x3d, 0x69, 0xa0, 0x12, 0x3e,
  0xc4, 0x8d, 0x21, 0x3e, 0x00, 0xb1, 0x3e, 0x3d, 0xd5, 0x97, 0x73, 0x3d,
  0x83, 0x88, 0xd1, 0xbd, 0xa2, 0x71, 0x89, 0xbd, 0x2a, 0xc2, 0x5f, 0x3d,
  0xeb, 0x6a, 0x54, 0x3e, 0xab, 0xf8, 0x7b, 0x3c, 0x95, 0xeb, 0x19, 0xbe,
  0xc7, 0x53, 0x01, 0x3d, 0x28, 0x0a, 0xe3, 0x3d, 0x6d, 0x7b, 0x8d, 0xbd,
  0xea, 0xa2, 0x87, 0x3e, 0x31, 0xce, 0xdb, 0xbd, 0xe0, 0x8a, 0x21, 0xbd,
  0x9d, 0x91, 0x19, 0xbe, 0xa7, 0x9a, 0xc0, 0xbd, 0x55, 0x51, 0x1f, 0x3e,
  0xd4, 0x65, 0x1d, 0xbd, 0xef, 0x99, 0x49, 0x3e, 0x2d, 0x05, 0x55, 0xbd,
  0xd3, 0x99, 0x9f, 0xbd, 0x65, 0xbd, 0xa7, 0x3d, 0xfa, 0xe2, 0x32, 0x3c,
  0x00, 0x09, 0x60, 0xbc, 0xb2, 0xf0, 0xf8, 0xbd, 0x76, 0xa4, 0x03, 0xbd,
  0x4c, 0x49, 0x9d, 0x3d, 0xe5, 0xee, 0x26, 0x3e, 0x48, 0x03, 0xb4, 0xbd,
  0x01, 0xc9, 0xa1, 0xbd, 0x9e, 0xc2, 0xc7, 0xbc, 0xc6, 0xce, 0x37, 0xbe,
  0x30, 0xe0, 0xb0, 0xbc, 0x67, 0x17, 0x74, 0x3d, 0x35, 0xba, 0x6c, 0x3c,
  0xf7, 0x19, 0xf6, 0x3a, 0x1c, 0xb8, 0xf6, 0x3d, 0xc1, 0x37, 0x8d, 0xbd,
  0xb2, 0x52, 0x88, 0x3d, 0x92, 0x74, 0x65, 0x3b, 0xe3, 0xb5, 0xdb, 0xbd,
  0x2a, 0x8c, 0x93, 0xbd, 0x7a, 0xdc, 0xf1, 0xbd, 0xc6, 0xad, 0x8e, 0xbd,
  0x03, 0x25, 0xf4, 0xbc, 0x61, 0x83, 0x03, 0xbd, 0x13, 0xdc, 0x17, 0xbd,
  0x8f, 0xd2, 0x07, 0xbe, 0x76, 0x6e, 0xf1, 0xbc, 0xf5, 0xb1, 0xd6, 0xbd,
  0xfb, 0x2c, 0x22, 0xbd, 0x4b, 0x83, 0xb3, 0x3d, 0x58, 0x05, 0x1a, 0xbe,
  0xe9, 0xa1, 0x0a, 0x3e, 0xc8, 0x9c, 0x06, 0xbe, 0x0a, 0x58, 0x29, 0x3d,
  0x40, 0xde, 0x44, 0xbd, 0xb8, 0x2d, 0x8e, 0x3d, 0xb5, 0xb6, 0x11, 0x3e,
  0xf2, 0xbf, 0x05, 0x3b, 0xd5, 0xb9, 0xe4, 0x3d, 0x30, 0xf3, 0x5e, 0xbc,
  0x90, 0xd5, 0x93, 0x3d, 0x97, 0x9c, 0x29, 0x3e, 0xc0, 0xf4, 0x07, 0xbe,
  0x76, 0x0c, 0x61, 0x3d, 0xc0, 0xd8, 0xce, 0xbd, 0xc0, 0xd8, 0x9c, 0x3d,
  0xef, 0xba, 0xdf, 0xbd, 0x33, 0xd7, 0x37, 0x3d, 0x92, 0xfa, 0xcc, 0x3d,
  0x50, 0x6f, 0x0a, 0xbe, 0x1e, 0x41, 0xed, 0xbd, 0xf8, 0xb8, 0xd5, 0x3d,
  0x1a, 0x75, 0xb1, 0x3d, 0xb6, 0x87, 0xc1, 0xbd, 0x32, 0x3b, 0xef, 0x3d,
  0x12, 0xe3, 0x23, 0xbe, 0x12, 0x72, 0x99, 0xbd, 0x44, 0x66, 0x23, 0xbe,
  0xc5, 0x14, 0x1a, 0x3e, 0x36, 0xba, 0xcb, 0xbd, 0xe0, 0x47, 0xd9, 0xbc,
  0x20, 0x97, 0x37, 0xbd, 0x7a, 0x0f, 0xf5, 0x3d, 0x70, 0xcb, 0x88, 0xbd,
  0xc0, 0x26, 0x0a, 0xbe, 0x80, 0x29, 0x44, 0xbc, 0x88, 0x27, 0xcc, 0x3c,
  0x36, 0x8a, 0xac, 0x3d, 0x80, 0xae, 0xb5, 0xbc, 0xc7, 0x68, 0x28, 0x3e,
  0x72, 0xae, 0x47, 0xbd, 0x26, 0x66, 0x93, 0x3d, 0xc6, 0x4f, 0xb0, 0xbd,
  0x30, 0x03, 0x0a, 0x3c, 0x60, 0x0d, 0x55, 0x3c, 0x41, 0x49, 0x24, 0x3e,
  0xe8, 0x3e, 0x1e, 0xbe, 0x72, 0x64, 0xfe, 0x3d, 0xc5, 0x57, 0xb1, 0xbd,
  0x9a, 0xec, 0x0d, 0xbe, 0x8e, 0x25, 0x97, 0xbd, 0x40, 0xde, 0x67, 0xbb,
  0xc0, 0x1b, 0x6e, 0x3d, 0xa2, 0x7e, 0x9a, 0x3d, 0x5e, 0xd4, 0xc1, 0x3d,
  0xef, 0x32, 0x13, 0x3e, 0x9c, 0x83, 0xbd, 0xbd, 0x8d, 0x83, 0x13, 0x3e,
  0xb0, 0x57, 0x62, 0xbd, 0xec, 0x78, 0x99, 0x3d, 0xef, 0x2a, 0x02, 0x3e,
  0x42, 0x25, 0xc0, 0x3d, 0x2c, 0x65, 0x7f, 0xbd, 0x11, 0x5e, 0x2a, 0xbe,
  0x4a, 0xb2, 0xbd, 0x3d, 0x92, 0x04, 0xd2, 0x3d, 0x56, 0x70, 0x1e, 0xbe,
  0xde, 0x54, 0x8a, 0x3d, 0x05, 0x0b, 0x28, 0x3e, 0x41, 0x1e, 0xc4, 0xbd,
  0x07, 0x97, 0x14, 0xbe, 0xe2, 0x53, 0xdb, 0x3d, 0x02, 0xfd, 0xcf, 0x3d,
  0xe8, 0xe0, 0x79, 0xbd, 0xe8, 0xc9, 0x0a, 0xbe, 0xa8, 0x3e, 0xbb, 0xbc,
  0x4d, 0x63, 0x20, 0x3e, 0xad, 0x85, 0xc1, 0xbd, 0x1c, 0x81, 0x4d, 0x3d,
  0xe8, 0x71, 0x2a, 0xbd, 0x94, 0x5d, 0x13, 0xbe, 0x09, 0xd8, 0x88, 0xbd,
  0xa8, 0x7e, 0xf2, 0xbc, 0x9c, 0xc9, 0x8b, 0x3d, 0x71, 0xb1, 0x19, 0xbe,
  0x60, 0x99, 0xc2, 0xbb, 0xa0, 0x65, 0x6b, 0x3d, 0x8e, 0xc9, 0xf8, 0x3d,
  0x10, 0x83, 0xa3, 0x3c, 0x60, 0xce, 0x8c, 0xbb, 0x23, 0x9a, 0x1a, 0x3e,
  0xd2, 0x0d, 0x8c, 0x3d, 0x40, 0xd5, 0x27, 0xbe, 0xfe, 0x4b, 0xa7, 0x3d,
  0x16, 0xfc, 0x89, 0x3d, 0x8f, 0x92, 0xb9, 0xbd, 0xb7, 0xf8, 0x02, 0x3e,
  0x3d, 0x5f, 0x23, 0x3e, 0x6e, 0xe2, 0x0b, 0xbe, 0x61, 0x56, 0x05, 0x3e,
  0x94, 0x58, 0x08, 0xbe, 0x90, 0x9b, 0x13, 0xbe, 0x66, 0xe5, 0xd1, 0x3d,
  0x06, 0x37, 0xf7, 0xbd, 0x10, 0xf2, 0x96, 0xbc, 0x34, 0xec, 0x1f, 0xbe,
  0x0e, 0x74, 0x8a, 0x3d, 0xe8, 0x9b, 0xee, 0x3c, 0x6b, 0xba, 0xa4, 0xbd,
  0x20, 0x87, 0x5a, 0xbd, 0x88, 0xdb, 0x6d, 0x3d, 0x00, 0x6b, 0xbc, 0xbd,
  0x5c, 0xd8, 0xa3, 0x3d, 0x40, 0x70, 0xf1, 0x3b, 0xb7, 0x69, 0x18, 0xbe,
  0x62, 0x7f, 0xdd, 0x3d, 0xb6, 0xe9, 0xe1, 0x3d, 0xb8, 0x51, 0x1b, 0xbe,
  0xcc, 0x5c, 0xa1, 0xbd, 0x72, 0x82, 0xc0, 0x3d, 0xb5, 0xf4, 0x1d, 0x3e,
  0xc1, 0x64, 0x28, 0x3e, 0xc6, 0xc5, 0xa8, 0x3d, 0x58, 0x98, 0x99, 0xbd,
  0x52, 0xac, 0x06, 0xbe, 0x7e, 0xc8, 0x3c, 0xbd, 0x1c, 0x31, 0x12, 0x3d,
  0xc0, 0xb7, 0xc6, 0xbc, 0x8b, 0x10, 0xc4, 0xbd, 0xc8, 0xaa, 0x1a, 0xbe,
  0x2f, 0xeb, 0x08, 0x3e, 0x36, 0x94, 0x41, 0xbd, 0x47, 0x44, 0xae, 0xbd,
  0x67, 0x86, 0x1e, 0x3e, 0xf7, 0xfb, 0x00, 0x3e, 0xce, 0x11, 0xa7, 0xbd,
  0xb8, 0x4f, 0xab, 0xbc, 0x03, 0xb2, 0x03, 0x3e, 0x9c, 0x25, 0xda, 0xbd,
  0xf0, 0x89, 0x3f, 0x3d, 0x7c, 0xaa, 0x65, 0xbd, 0x48, 0x82, 0xcc, 0xbc,
  0x38, 0x32, 0x43, 0x3d, 0xa8, 0x3a, 0x2c, 0xbe, 0x05, 0x75, 0x9d, 0xbd,
  0x4c, 0xc0, 0x63, 0x3d, 0x82, 0x5f, 0x1f, 0xbe, 0x30, 0x89, 0xb4, 0xbc,
  0x8a, 0x05, 0xc2, 0x3d, 0x88, 0x19, 0xc1, 0x3c, 0xa8, 0x4c, 0x53, 0xbd,
  0xf6, 0xf7, 0x26, 0xbe, 0x7a, 0x1c, 0xcf, 0x3d, 0xbd, 0xaf, 0x26, 0x3e,
  0xc6, 0xa0, 0xc3, 0x3d, 0x80, 0xf4, 0x8d, 0x3d, 0x98, 0x7c, 0xf5, 0xbd,
  0xa2, 0x92, 0x4b, 0xbd, 0x03, 0x45, 0xb7, 0xbd, 0x30, 0x0d, 0x5b, 0x3c,
  0x50, 0xf1, 0x16, 0xbc, 0x72, 0xfc, 0xaa, 0x3d, 0x82, 0xdc, 0xef, 0x3d,
  0xbb, 0x50, 0x26, 0xbe, 0xf4, 0x98, 0xfd, 0xbd, 0xd0, 0x2f, 0x86, 0x3c,
  0x10, 0x31, 0x10, 0xbc, 0xd1, 0x8d, 0x29, 0xbe, 0x38, 0xc8, 0xe5, 0x3c,
  0x38, 0x27, 0xf2, 0xbd, 0xf0, 0x00, 0x43, 0x3d, 0x30, 0x35, 0xf3, 0x3c,
  0xe8, 0xe6, 0x82, 0xbc, 0x12, 0xee, 0xfb, 0x3d, 0x50, 0x78, 0x35, 0xbc,
  0x32, 0xb2, 0xad, 0x3d, 0x70, 0xca, 0xdf, 0xbc, 0x20, 0x70, 0x2b, 0xbe,
  0xda, 0xc5, 0xe7, 0xbd, 0xf8, 0xb0, 0x20, 0x3d, 0x24, 0x8a, 0x24, 0x3d,
  0x01, 0x4e, 0x09, 0x3e, 0x98, 0x78, 0x37, 0xbd, 0x51, 0xa6, 0x14, 0xbe,
  0x78, 0x95, 0x14, 0x3d, 0xb6, 0x06, 0x13, 0xbe, 0xc1, 0x99, 0xb0, 0xbd,
  0x6a, 0xac, 0xeb, 0x3d, 0x98, 0x5c, 0xc5, 0xbc, 0xb0, 0x9b, 0x05, 0xbd,
  0x62, 0xdd, 0x1e, 0xbe, 0xa3, 0xfb, 0x24, 0x3e, 0x70, 0x13, 0x29, 0xbe,
  0x75, 0xd5, 0x09, 0x3e, 0x97, 0x00, 0x2b, 0xbe, 0x20, 0xc5, 0x11, 0xbc,
  0x40, 0x3e, 0xc8, 0x3b, 0xda, 0x68, 0xf2, 0x3d, 0x83, 0xe3, 0x0b, 0x3e,
  0x51, 0x1e, 0x08, 0x3e, 0xfe, 0x58, 0xbb, 0xbd, 0x88, 0x40, 0x22, 0xbe,
  0xfa, 0x4b, 0x98, 0x3d, 0x40, 0x3a, 0x10, 0xbb, 0xdd, 0x19, 0x93, 0x3d,
  0x48, 0xc4, 0x85, 0x3d, 0x55, 0xb3, 0x13, 0x3e, 0xf8, 0xa8, 0x8a, 0x3d,
  0xb2, 0x65, 0x1b, 0xbb, 0xf2, 0x9a, 0x03, 0xbd, 0x02, 0x33, 0x3c, 0x3d,
  0x56, 0xd2, 0xf5, 0xbd, 0x23, 0xc9, 0x54, 0xbd, 0xa0, 0x50, 0x63, 0x3d,
  0xc0, 0xe9, 0x29, 0xbe, 0xdf, 0x80, 0x12, 0xbe, 0xfe, 0x16, 0x1f, 0xbe,
  0x71, 0x3a, 0xf7, 0x3d, 0x30, 0x66, 0xdc, 0x3d, 0x97, 0xdc, 0xc8, 0x3d,
  0x6b, 0x3c, 0xf6, 0xbd, 0xbf, 0xb5, 0x6e, 0x3d, 0xaf, 0x40, 0x69, 0xbb,
  0xbc, 0xeb, 0x9d, 0x3d, 0x3c, 0x06, 0xcd, 0x3d, 0x16, 0x91, 0x61, 0x3d,
  0x4e, 0x17, 0x22, 0xbe, 0x83, 0xb3, 0xd9, 0x3d, 0xeb, 0x62, 0x0f, 0xbe,
  0x15, 0xdc, 0xc8, 0xbd, 0x53, 0x4f, 0x0d, 0xbd, 0x0a, 0x5f, 0x2e, 0xbe,
  0xfb, 0xaa, 0x8c, 0xbd, 0x81, 0x88, 0xbc, 0x3d, 0xd7, 0x60, 0x03, 0x3e,
  0x17, 0x6d, 0x15, 0xbe, 0x24, 0xe7, 0x21, 0x3c, 0x7b, 0xaf, 0x23, 0xbd,
  0x57, 0x75, 0xa6, 0xbd, 0x5f, 0xf1, 0x00, 0xbd, 0x2f, 0x1e, 0x8c, 0x3d,
  0x48, 0xf1, 0x69, 0x3d, 0x95, 0xba, 0x2f, 0x3d, 0x59, 0x91, 0xcb, 0xbc,
  0xbf, 0xf1, 0xb2, 0x3c, 0x24, 0xad, 0x03, 0x3e, 0x09, 0x47, 0x03, 0xbe,
  0xdc, 0x81, 0x11, 0xbe, 0x9d, 0x02, 0xe3, 0xbd, 0xe7, 0x42, 0xf0, 0xbd,
  0x22, 0x80, 0x01, 0x3d, 0x29, 0x74, 0x24, 0x3d, 0x1a, 0x78, 0x11, 0xbd,
  0x38, 0x89, 0xb0, 0xbd, 0x08, 0xa5, 0xb7, 0xbd, 0x02, 0x18, 0x0d, 0xbe,
  0x63, 0x5e, 0x24, 0xbe, 0xea, 0x47, 0xb4, 0x3c, 0xd2, 0xd8, 0x79, 0xbd,
  0x13, 0x8e, 0x9e, 0x3d, 0xe1, 0xde, 0x5c, 0x3d, 0x69, 0xb5, 0xe8, 0xbd,
  0xbc, 0x10, 0x68, 0x3d, 0x07, 0xd4, 0xe3, 0xbd, 0xc8, 0xbc, 0xdd, 0xbd,
  0x6f, 0x21, 0x20, 0xbe, 0xce, 0xdf, 0xbc, 0x3d, 0x29, 0x7f, 0x9b, 0x3d,
  0x5b, 0x28, 0x00, 0x3e, 0x98, 0x9f, 0xea, 0x3d, 0xc7, 0x18, 0xdb, 0x3d,
  0x30, 0x2a, 0x32, 0xbd, 0x6c, 0xfb, 0xcc, 0xbd, 0xe9, 0x48, 0xce, 0xbd,
  0x41, 0x01, 0x70, 0xbd, 0x5f, 0xfb, 0xd9, 0x3d, 0xc5, 0x2a, 0xd8, 0x3d,
  0xe6, 0x21, 0xd6, 0x3d, 0x6a, 0x5b, 0x13, 0xbd, 0x42, 0x16, 0x92, 0x3b,
  0xf5, 0xe5, 0x12, 0x3d, 0x2e, 0x6b, 0x8c, 0xbd, 0x40, 0x9d, 0x12, 0x3e,
  0xdf, 0x10, 0xe2, 0xbc, 0x51, 0x6c, 0x89, 0x3c, 0x0e, 0x8f, 0xfc, 0x3d,
  0x2b, 0x6f, 0xce, 0x3d, 0xd9, 0x19, 0xb0, 0x3d, 0x3c, 0xa0, 0x85, 0x3d,
  0x68, 0xe2, 0x5a, 0x3d, 0x0d, 0x26, 0x4a, 0xbd, 0x39, 0x6f, 0xf3, 0x3d,
  0x3a, 0xd5, 0x32, 0x3d, 0x58, 0x90, 0x2c, 0xbb, 0xce, 0x80, 0x80, 0xbd,
  0x06, 0x85, 0x22, 0xbe, 0x68, 0x82, 0xd4, 0x3d, 0xf2, 0xad, 0x01, 0x3e,
  0x4c, 0x71, 0x28, 0xbd, 0xe2, 0xfc, 0x1b, 0xbe, 0x0f, 0xf7, 0x77, 0x3d,
  0x0e, 0xa9, 0x32, 0xbe, 0xcf, 0x94, 0x89, 0x3d, 0x1e, 0x49, 0x46, 0x3d,
  0xb1, 0xd4, 0x92, 0xbd, 0x3b, 0xbd, 0xe3, 0xbd, 0xba, 0x38, 0x9a, 0x3d,
  0x28, 0x9f, 0x37, 0xbe, 0x72, 0x5b, 0xde, 0x3d, 0x3b, 0x70, 0xe9, 0x3d,
  0x31, 0x0b, 0x0e, 0xbc, 0x79, 0x6a, 0x9e, 0xbd, 0xcb, 0xd1, 0xde, 0x3c,
  0xb8, 0xc1, 0x8e, 0xbd, 0x0a, 0xcc, 0x33, 0x3d, 0x42, 0x52, 0xa2, 0x3d,
  0x7e, 0xcd, 0xed, 0xbd, 0xf8, 0x00, 0x16, 0x3e, 0x0b, 0xd1, 0x01, 0x3e,
  0xee, 0xf7, 0x67, 0x3d, 0x84, 0xd7, 0x17, 0xbe, 0x2e, 0x88, 0xdb, 0xbc,
  0xb4, 0x24, 0xc8, 0x3d, 0x71, 0xa4, 0x96, 0xbd, 0x69, 0x5b, 0x2e, 0x3d,
  0x4a, 0x01, 0x74, 0x3d, 0x49, 0x49, 0xab, 0xbd, 0xc4, 0xcd, 0x0b, 0x3e,
  0x30, 0x48, 0xe4, 0xbc, 0x14, 0x8d, 0x01, 0xbe, 0x87, 0x57, 0xf4, 0xbd,
  0x3f, 0x7c, 0x09, 0x3e, 0x2f, 0x17, 0x18, 0xbe, 0xc8, 0xba, 0xd2, 0xbc,
  0xab, 0x02, 0x2e, 0x3d, 0xe6, 0x9d, 0x9f, 0xbd, 0xb1, 0xd8, 0x8d, 0xbd,
  0xf7, 0x06, 0x91, 0x3d, 0x8c, 0x49, 0xf5, 0xbd, 0x8b, 0x08, 0x18, 0x3e,
  0x47, 0x9b, 0xf7, 0x3c, 0x6f, 0x40, 0xf8, 0xbd, 0x75, 0x9e, 0x36, 0xbe,
  0x41, 0xec, 0x1f, 0xbe, 0x7a, 0x19, 0x87, 0x3d, 0x7e, 0x8f, 0x01, 0x3e,
  0xa8, 0xad, 0x92, 0xbd, 0x4c, 0xe8, 0x30, 0xbe, 0xee, 0x78, 0x09, 0x3e,
  0x2b, 0xdf, 0xc5, 0x3d, 0xe6, 0xd2, 0xf9, 0xbd, 0x3c, 0x74, 0xf3, 0xbd,
  0xff, 0x0f, 0x0d, 0x3e, 0xab, 0xf1, 0x21, 0x3d, 0x48, 0x83, 0xf6, 0x3d,
  0x49, 0x91, 0xf7, 0x3d, 0xea, 0x3c, 0x01, 0xbe, 0x43, 0x76, 0xd2, 0x3d,
  0xd9, 0x7f, 0x07, 0x3e, 0x4a, 0x35, 0xf0, 0xbd, 0x8b, 0x9f, 0x02, 0xbd,
  0x49, 0x1d, 0x42, 0x3b, 0x4e, 0x2e, 0x31, 0xbe, 0x3e, 0xa4, 0x15, 0x3e,
  0xdb, 0x61, 0x1a, 0xbe, 0x68, 0xf5, 0x54, 0xbd, 0x63, 0xbb, 0x33, 0xbe,
  0x0e, 0x2c, 0x93, 0xbd, 0xe2, 0xa3, 0x19, 0x3e, 0x7f, 0xa5, 0x1e, 0x3d,
  0x4d, 0x1b, 0x04, 0x3e, 0x4a, 0x96, 0x1e, 0x3e, 0xd6, 0xa4, 0xff, 0x3c,
  0x6a, 0xb0, 0xf0, 0x3c, 0xee, 0xec, 0x7a, 0x3d, 0x85, 0xe7, 0xd3, 0x3d,
  0xae, 0xc1, 0x34, 0xbe, 0x7e, 0x82, 0x1d, 0x3e, 0xdb, 0xab, 0x34, 0x3c,
  0xd6, 0x12, 0x69, 0x3b, 0x1d, 0x99, 0xfa, 0x3c, 0xdb, 0x45, 0xaf, 0xbc,
  0xa5, 0x90, 0x23, 0xbe, 0xf1, 0x40, 0x7a, 0xbb, 0x92, 0x0a, 0xa4, 0xbd,
  0x59, 0xc6, 0xd3, 0x3e, 0x6e, 0x81, 0x62, 0xbd, 0xc2, 0xfc, 0x24, 0x3e,
  0x7d, 0x58, 0x40, 0x3e, 0xb0, 0x88, 0x4c, 0x3e, 0x88, 0xc3, 0xd6, 0xbd,
  0x6a, 0x03, 0x0a, 0x3b, 0xba, 0xea, 0x50, 0x3e, 0x62, 0x10, 0xaf, 0x3c,
  0x91, 0xf8, 0xa5, 0x3d, 0x1a, 0xcd, 0x3c, 0x3e, 0x44, 0x53, 0x89, 0x3d,
  0xf5, 0x6e, 0x78, 0xbd, 0x72, 0xb7, 0x38, 0xbc, 0x1b, 0x7e, 0x46, 0xbd,
  0x43, 0x0f, 0xa3, 0x3d, 0xbe, 0x61, 0x96, 0x3e, 0xfb, 0xa1, 0x0e, 0x3c,
  0x7e, 0x37, 0x07, 0x3e, 0x85, 0x83, 0xcd, 0x3d, 0x2e, 0xc3, 0x34, 0x3e,
  0xf5, 0x3e, 0x9d, 0x3b, 0xb1, 0x76, 0xa5, 0x3e, 0x5f, 0xf8, 0x8c, 0xbd,
  0x37, 0xe5, 0xb1, 0x3d, 0x33, 0xec, 0x8e, 0xbc, 0x68, 0xcc, 0xea, 0x38,
  0x31, 0x4e, 0x12, 0x3d, 0xa1, 0xd0, 0xb2, 0x3e, 0xf8, 0x0c, 0x83, 0x3d,
  0x6b, 0xd4, 0x18, 0x3e, 0x92, 0xfa, 0x02, 0x3e, 0xd9, 0xa0, 0x7e, 0x3e,
  0x19, 0xbe, 0x1d, 0x3e, 0xaa, 0x94, 0xe1, 0x3d, 0xab, 0xbc, 0x6f, 0x3d,
  0x45, 0x4c, 0x14, 0x3e, 0x79, 0xf9, 0x0a, 0x3e, 0xdd, 0xe6, 0x80, 0x3e,
  0xe5, 0xd3, 0x10, 0x3e, 0x30, 0xd0, 0xd3, 0x3e, 0xcd, 0x99, 0x37, 0x3e,
  0x5c, 0xad, 0x48, 0xbe, 0xb1, 0x14, 0x50, 0x3e, 0x79, 0x4f, 0x3d, 0x3e,
  0xe6, 0x76, 0x6a, 0x3c, 0x38, 0xc7, 0xd3, 0x3e, 0xed, 0x61, 0xf9, 0xbc,
  0xea, 0xce, 0xc7, 0xbd, 0x57, 0x1e, 0x2d, 0x3e, 0x52, 0x0f, 0x59, 0xbd,
  0xd7, 0xe8, 0x89, 0xbd, 0x16, 0x3a, 0x7d, 0x3e, 0x3e, 0x6e, 0x23, 0x3e,
  0x1a, 0x22, 0xd5, 0xbe, 0x9f, 0x3b, 0x68, 0xbd, 0x09, 0x86, 0x6f, 0x3e,
  0x2b, 0x06, 0x02, 0xbd, 0xc0, 0x8d, 0x79, 0x3e, 0x7f, 0x2c, 0xf8, 0xbc,
  0xfd, 0x19, 0xc3, 0xbe, 0xd9, 0x1c, 0x94, 0xbd, 0x50, 0xe6, 0xb6, 0x3d,
  0x8a, 0xc5, 0x85, 0x3d, 0xb1, 0x85, 0xfa, 0x3d, 0x90, 0x86, 0x9a, 0x3c,
  0x7c, 0x1d, 0x91, 0xbe, 0x4b, 0x51, 0x08, 0xbe, 0x40, 0x5e, 0x47, 0x3e,
  0xc7, 0x62, 0x0a, 0x3e, 0xdc, 0xe6, 0xfe, 0x3d, 0xea, 0x96, 0x53, 0x3c,
  0x57, 0x88, 0xf0, 0xbe, 0x04, 0xf3, 0x9e, 0x3d, 0x31, 0x5c, 0x5f, 0x3e,
  0xa2, 0x97, 0xf4, 0xbd, 0xb4, 0xc3, 0x5b, 0x3e, 0x6f, 0x0e, 0xf6, 0xbd,
  0x78, 0x32, 0x2b, 0xbe, 0x08, 0x6a, 0x08, 0x3d, 0xde, 0x0c, 0x6b, 0x3e,
  0x00, 0x40, 0x38, 0x3e, 0xdb, 0x5d, 0x00, 0xbd, 0x8d, 0xd1, 0x2a, 0x3c,
  0x6c, 0x93, 0x91, 0xbe, 0x27, 0xe8, 0xdc, 0x3c, 0xda, 0xf0, 0xc8, 0xbc,
  0x43, 0xd4, 0xc6, 0xbd, 0xa4, 0x99, 0x6e, 0xbd, 0x41, 0x42, 0x98, 0xbd,
  0xbb, 0x52, 0x14, 0xbe, 0xbf, 0xe0, 0x6e, 0x3c, 0xf5, 0x89, 0x64, 0x3d,
  0xe6, 0x6d, 0x1f, 0x3e, 0xa8, 0xa3, 0xb4, 0x3c, 0xd2, 0x4b, 0x5a, 0xbd,
  0x13, 0xc1, 0xa0, 0xbe, 0xbc, 0x68, 0x62, 0xbd, 0x50, 0xbb, 0xea, 0x3d,
  0x2e, 0x81, 0xd5, 0xbd, 0x2b, 0x94, 0x27, 0x3e, 0xa1, 0x10, 0x24, 0xbe,
  0xc2, 0x91, 0x97, 0xbe, 0x8a, 0x61, 0x39, 0xbc, 0xb5, 0x67, 0xf6, 0x3d,
  0x3a, 0xc3, 0xca, 0xbd, 0x5b, 0x8c, 0xda, 0x3d, 0x57, 0x5c, 0xcd, 0x3c,
  0x90, 0xfa, 0x06, 0xbd, 0xd1, 0x16, 0xb6, 0xbd, 0xac, 0x88, 0x6c, 0x3e,
  0xbc, 0x4d, 0x3b, 0xbd, 0x4f, 0xb7, 0xe8, 0x3c, 0xbc, 0xb7, 0x95, 0xbc,
  0xbb, 0xc3, 0x55, 0xbe, 0x2c, 0x04, 0x18, 0x3e, 0x9e, 0xba, 0x55, 0x3e,
  0x93, 0xce, 0x26, 0xbd, 0xa4, 0x33, 0x2d, 0xbd, 0x7e, 0x1b, 0x08, 0x3e,
  0x48, 0xca, 0x98, 0x3c, 0x3a, 0xfb, 0x2d, 0xbe, 0x23, 0xcb, 0x30, 0xbd,
  0x9d, 0x01, 0xf6, 0x3c, 0xd1, 0x6f, 0x23, 0x3e, 0x4a, 0x68, 0xa0, 0xbd,
  0x98, 0xaf, 0x66, 0xbe, 0x89, 0x59, 0xd6, 0xbd, 0x8b, 0x88, 0x62, 0x3e,
  0x6b, 0x61, 0x15, 0xbd, 0x4f, 0x2c, 0x04, 0x3e, 0x1b, 0xee, 0x84, 0xbd,
  0x51, 0x54, 0x22, 0xbe, 0xd2, 0x89, 0x1c, 0x3e, 0xd7, 0xab, 0x33, 0x3d,
  0x3f, 0x29, 0x1b, 0xbc, 0xb9, 0x16, 0x03, 0x3e, 0x80, 0xda, 0x23, 0xbd,
  0x0d, 0x0f, 0xa4, 0x3d, 0x66, 0x7a, 0x23, 0xbd, 0x4d, 0xe2, 0xcd, 0xbc,
  0x5a, 0xb7, 0xf9, 0x3d, 0x15, 0xaf, 0x15, 0x3e, 0xa4, 0x63, 0x2c, 0x3e,
  0xe5, 0x3a, 0xdd, 0x3d, 0x28, 0xe4, 0x62, 0x3d, 0x44, 0x8b, 0x3d, 0x3e,
  0xa4, 0x52, 0x78, 0xbd, 0x3e, 0x0c, 0x66, 0xbd, 0x75, 0x49, 0xdd, 0x3d,
  0x2b, 0x2e, 0xd3, 0xbd, 0xdf, 0x3f, 0x7c, 0xbd, 0x3c, 0xfc, 0x36, 0x3e,
  0x5d, 0x62, 0x43, 0x3e, 0x13, 0x2a, 0xe5, 0x3d, 0xa3, 0xdb, 0x3a, 0x3e,
  0x67, 0x0f, 0x0a, 0xbe, 0x78, 0x7a, 0xe4, 0x3d, 0x94, 0x59, 0x68, 0xbd,
  0xb1, 0x3e, 0x2f, 0xbd, 0xd4, 0x78, 0xd6, 0x3c, 0x9c, 0x77, 0x08, 0xbe,
  0x97, 0x9f, 0xb7, 0x3d, 0x2b, 0x87, 0x12, 0x3e, 0xcf, 0xdc, 0xee, 0x3d,
  0x95, 0x6c, 0x4e, 0x3d, 0xe9, 0x77, 0x95, 0x3d, 0x69, 0x2c, 0x06, 0xbe,
  0x09, 0x51, 0x00, 0x3d, 0x63, 0x85, 0xc2, 0xbc, 0x74, 0x63, 0x4e, 0x3e,
  0x2c, 0xef, 0xbc, 0x3c, 0x36, 0x74, 0x95, 0x3d, 0xfb, 0x61, 0xc9, 0x3d,
  0xbd, 0xad, 0x41, 0xbe, 0x18, 0x8c, 0xcf, 0x3b, 0x92, 0x9e, 0x8f, 0xbd,
  0xed, 0xd1, 0xb2, 0xbd, 0x5a, 0xca, 0x9e, 0x3d, 0xca, 0xb7, 0xe1, 0xbd,
  0x90, 0x60, 0x64, 0xbc, 0x75, 0x81, 0xb2, 0xbd, 0xc0, 0xef, 0x11, 0xbe,
  0x75, 0xa4, 0x26, 0x3e, 0x06, 0x71, 0x9d, 0x3d, 0xd2, 0x37, 0x19, 0xbe,
  0xe4, 0xad, 0x19, 0xbd, 0xec, 0xbe, 0x79, 0xbd, 0x06, 0x63, 0x81, 0xbd,
  0xa8, 0xcd, 0x14, 0x3d, 0xf9, 0xd7, 0xe6, 0xbd, 0x2c, 0x90, 0xf8, 0xbd,
  0x9e, 0x86, 0x16, 0xbe, 0xf8, 0xe2, 0x65, 0x3d, 0x8e, 0x6b, 0xb0, 0x3d,
  0x7e, 0x89, 0xd6, 0x3d, 0x55, 0x2b, 0x1e, 0x3e, 0xfc, 0x42, 0x67, 0x3d,
  0xe0, 0x5e, 0xe7, 0xbd, 0xdc, 0x53, 0xc1, 0xbd, 0x68, 0xde, 0x9a, 0x3c,
  0xd5, 0xe6, 0xf8, 0xbd, 0xbd, 0x1e, 0x1c, 0x3e, 0x0f, 0x62, 0x1e, 0x3e,
  0xb9, 0x6a, 0xff, 0xbd, 0xf8, 0x68, 0x91, 0x3c, 0xde, 0xa2, 0xe9, 0x3d,
  0x0c, 0x05, 0x63, 0x3d, 0xb2, 0xef, 0xd9, 0x3d, 0x07, 0x8f, 0xc0, 0xbd,
  0x3a, 0x05, 0xa6, 0x3d, 0xad, 0x7e, 0xbe, 0xbd, 0x54, 0xe6, 0x1f, 0x3d,
  0xb5, 0x4e, 0x02, 0x3e, 0x8c, 0xc6, 0x54, 0x3d, 0x8a, 0xdb, 0xab, 0x3d,
  0x6c, 0xc4, 0x1d, 0xbe, 0x2e, 0x3a, 0xbd, 0xbd, 0xbf, 0x15, 0x08, 0x3e,
  0x45, 0x88, 0x09, 0x3e, 0x08, 0x8c, 0x7e, 0x3d, 0x2b, 0xe4, 0x9f, 0xbd,
  0x6c, 0xd8, 0xe4, 0xbd, 0xda, 0x30, 0x38, 0xbd, 0xa7, 0x6d, 0xb6, 0xbd,
  0x62, 0x5b, 0xc7, 0xbd, 0x58, 0x9c, 0x03, 0xbe, 0x2d, 0x71, 0x16, 0xbe,
  0xf1, 0xb0, 0x22, 0xbe, 0x21, 0x3e, 0x21, 0xbe, 0xd0, 0x48, 0x1b, 0xbc,
  0x32, 0xf0, 0xed, 0x3d, 0x00, 0x90, 0x59, 0xb9, 0xd4, 0x3c, 0x16, 0xbd,
  0x2f, 0xf2, 0x2a, 0x3e, 0x0b, 0x36, 0x19, 0xbe, 0x10, 0xe5, 0x22, 0xbe,
  0x08, 0x82, 0xb9, 0x3c, 0xf0, 0xe8, 0x14, 0xbc, 0xd0, 0x28, 0x58, 0x3d,
  0x52, 0x70, 0xea, 0x3d, 0x14, 0x08, 0x02, 0xbd, 0xfc, 0x6f, 0xec, 0xbd,
  0xd0, 0x20, 0x5d, 0x3d, 0xcb, 0x81, 0x10, 0xbe, 0x00, 0xf0, 0x13, 0x3a,
  0x02, 0x98, 0x1e, 0xbe, 0x32, 0x14, 0x0f, 0xbe, 0x37, 0x9b, 0x0d, 0x3e,
  0x32, 0x1a, 0xa7, 0xbd, 0x25, 0x55, 0x1b, 0x3e, 0xb4, 0xbd, 0x17, 0xbd,
  0xfc, 0x73, 0x18, 0xbd, 0x37, 0x3b, 0x04, 0xbe, 0x21, 0x3d, 0x11, 0xbe,
  0xcf, 0x43, 0x10, 0x3e, 0x1d, 0xbb, 0x1b, 0x3e, 0xc1, 0xe3, 0x04, 0x3e,
  0x20, 0xd5, 0xb8, 0x3b, 0x2f, 0xed, 0x21, 0xbe, 0x4c, 0xe0, 0x35, 0xbd,
  0x61, 0x46, 0x12, 0xbe, 0x35, 0xcc, 0x02, 0xbe, 0xe6, 0x03, 0x60, 0xbd,
  0x57, 0x3f, 0x01, 0x3e, 0x00, 0xf1, 0x2c, 0x3a, 0x98, 0xa4, 0xeb, 0xbc,
  0x1c, 0x0c, 0xa1, 0x3d, 0xc1, 0x7e, 0x86, 0xbd, 0xf5, 0xcd, 0x1d, 0x3e,
  0x19, 0xc3, 0xb0, 0xbd, 0x20, 0x24, 0x94, 0xbd, 0xf4, 0x99, 0x18, 0xbd,
  0xe3, 0x05, 0x04, 0xbe, 0xa0, 0xd3, 0xbb, 0x3b, 0x58, 0x0b, 0x23, 0xbe,
  0x01, 0x5f, 0x11, 0x3e, 0x30, 0x89, 0xb2, 0xbc, 0x70, 0x47, 0x11, 0xbd,
  0xee, 0x91, 0xda, 0x3d, 0x82, 0x6c, 0xca, 0x3d, 0x4c, 0xde, 0x1f, 0xbd,
  0xc8, 0x9f, 0x48, 0x3d, 0x10, 0xcb, 0x49, 0x3c, 0x78, 0x8d, 0x09, 0xbe,
  0x20, 0x2f, 0x92, 0xbb, 0xc1, 0x8b, 0x17, 0xbe, 0x99, 0x18, 0x2a, 0xbe,
  0xf4, 0x25, 0xa1, 0x3d, 0x95, 0xb8, 0xa0, 0xbd, 0xf2, 0x8b, 0xe4, 0x3d,
  0x48, 0x29, 0xb8, 0xbd, 0x02, 0x97, 0x6c, 0xbd, 0xde, 0x9d, 0xb5, 0x3d,
  0x7e, 0x3d, 0x42, 0xbd, 0xe4, 0xfe, 0x3e, 0x3d, 0x80, 0x99, 0x1a, 0xbc,
  0x51, 0xd5, 0x09, 0x3e, 0x00, 0x16, 0xeb, 0x39, 0x00, 0xde, 0x38, 0xbd,
  0x80, 0x01, 0xe4, 0xbc, 0x20, 0x27, 0xae, 0xbb, 0x2b, 0xd7, 0x00, 0x3e,
  0x16, 0x32, 0xd8, 0x3d, 0xac, 0x98, 0xcf, 0xbd, 0xde, 0x40, 0xb7, 0xbd,
  0xe8, 0x91, 0xb5, 0x3c, 0x9b, 0x41, 0x1f, 0xbe, 0x9b, 0xae, 0x03, 0xbe,
  0x3e, 0x0b, 0x8d, 0x3d, 0xba, 0x06, 0xb8, 0x3d, 0x37, 0xa3, 0xc6, 0xbd,
  0x76, 0x63, 0x1d, 0xbe, 0x00, 0xb5, 0xec, 0xbb, 0x60, 0x42, 0xbe, 0xbb,
  0xd0, 0x78, 0x8d, 0xbc, 0x88, 0x50, 0xa0, 0x3d, 0x0f, 0x7f, 0x0b, 0x3e,
  0x29, 0xf7, 0xa9, 0xbd, 0x2a, 0x61, 0xcd, 0xbd, 0x58, 0xe6, 0xb7, 0xbd,
  0xd8, 0x79, 0x69, 0xbd, 0xa8, 0x51, 0xb2, 0x3c, 0x8f, 0x26, 0x0a, 0x3e,
  0xf0, 0xbb, 0x12, 0xbd, 0x7e, 0x46, 0xec, 0xbd, 0xc0, 0x3f, 0x34, 0x3c,
  0x70, 0x04, 0x01, 0xbc, 0x0a, 0x56, 0x1e, 0xbe, 0x55, 0xa6, 0x18, 0xbe,
  0x28, 0x87, 0x9c, 0x3d, 0xb8, 0x5b, 0xc8, 0xbc, 0xbb, 0x21, 0x04, 0x3e,
  0xc0, 0x6c, 0xa1, 0x3c, 0xae, 0xa4, 0xf8, 0x3d, 0x06, 0x45, 0x9f, 0xbd,
  0x30, 0x70, 0x4c, 0x3c, 0x88, 0x5a, 0x24, 0x3d, 0xf0, 0xa1, 0x44, 0xbd,
  0x8c, 0x9d, 0x07, 0xbd, 0x58, 0x7c, 0x44, 0x3d, 0x3a, 0xe8, 0x9b, 0x3d,
  0xa4, 0x00, 0x29, 0xbd, 0x2f, 0xdc, 0x89, 0xbd, 0x60, 0xa6, 0xfc, 0xbb,
  0x06, 0x94, 0xbe, 0x3d, 0x43, 0x02, 0x26, 0x3e, 0x16, 0x82, 0xbf, 0x3d,
  0xae, 0xfc, 0x21, 0xbe, 0x9a, 0xc0, 0xd2, 0x3d, 0x00, 0xdd, 0xa3, 0x3a,
  0x85, 0xe0, 0x00, 0xbe, 0x78, 0xe8, 0x29, 0xbd, 0xb7, 0xd4, 0x2b, 0x3e,
  0x00, 0xe9, 0x22, 0x3a, 0x33, 0x05, 0x19, 0x3e, 0xef, 0xa6, 0xbc, 0xbd,
  0xf5, 0x77, 0xd3, 0xbd, 0x32, 0x46, 0x0b, 0xbe, 0x0f, 0x1c, 0xa9, 0x3e,
  0xdd, 0x4e, 0x8c, 0x3e, 0x8d, 0x50, 0x13, 0x3e, 0x74, 0x39, 0xcf, 0x3d,
  0x8a, 0xca, 0xa8, 0x3d, 0xfc, 0x7f, 0xda, 0x3d, 0x70, 0x52, 0xa7, 0x3e,
  0x63, 0x3b, 0x8c, 0x3e, 0x03, 0xd6, 0xb1, 0x3e, 0xe7, 0x6d, 0x1a, 0x3d,
  0x76, 0xd2, 0x9b, 0x3c, 0xbf, 0x95, 0x49, 0xbe, 0xf8, 0x10, 0xd1, 0x3e,
  0x9a, 0xba, 0x16, 0x3f, 0xf8, 0x08, 0x51, 0x3e, 0x1e, 0x00, 0xa1, 0xbc,
  0x09, 0xb4, 0x95, 0xbd, 0xe4, 0x11, 0xae, 0x3d, 0x55, 0xfe, 0xbe, 0x3e,
  0x5c, 0x8a, 0x8a, 0x3e, 0x5f, 0xa3, 0x0c, 0x3e, 0x6b, 0x12, 0xcd, 0x3d,
  0x19, 0xfa, 0x8b, 0xbe, 0xcc, 0x1e, 0x02, 0xbe, 0x18, 0x41, 0x1c, 0x3e,
  0x31, 0xda, 0xa7, 0x3e, 0xb2, 0x2b, 0xa7, 0x3e, 0xf2, 0x19, 0x6a, 0xbc,
  0xea, 0xf0, 0x1b, 0xbe, 0x27, 0x89, 0x76, 0x3b, 0x14, 0x4c, 0xbb, 0x3d,
  0x75, 0x11, 0xa9, 0x3e, 0xc5, 0xfe, 0x7c, 0x3e, 0x88, 0xf6, 0x70, 0x3d,
  0x8f, 0x1b, 0xc7, 0xbd, 0x8e, 0xab, 0xe6, 0xbc, 0xa2, 0x88, 0xf7, 0x3d,
  0x84, 0x77, 0xa4, 0x3d, 0x57, 0x7b, 0x00, 0x3e, 0xdd, 0x27, 0xa5, 0x3d,
  0xe6, 0xb9, 0x41, 0xbe, 0xa9, 0x77, 0x10, 0xbe, 0xf8, 0x85, 0x66, 0xbe,
  0x47, 0x59, 0x97, 0x3e, 0x1c, 0xe5, 0x0b, 0xbc, 0xf6, 0x6c, 0x80, 0x3a,
  0xc3, 0x4e, 0x0e, 0xbe, 0x21, 0x84, 0x0d, 0xbe, 0x69, 0xc1, 0x64, 0xbe,
  0x92, 0x29, 0xb4, 0x3e, 0x8b, 0x10, 0x8d, 0xbe, 0x4a, 0xb9, 0x69, 0xbb,
  0x06, 0xa9, 0x3b, 0xbe, 0xe3, 0x9e, 0xb6, 0x3d, 0xdc, 0xbb, 0x26, 0xbe,
  0x40, 0x5e, 0xa1, 0x3e, 0x29, 0x5e, 0x50, 0xbe, 0xa7, 0xba, 0x06, 0xbe,
  0x0b, 0x51, 0x09, 0xbe, 0xc2, 0x42, 0xdd, 0x3d, 0xe6, 0xfe, 0x11, 0xbe,
  0x96, 0x3f, 0x89, 0x3e, 0xa0, 0x9d, 0x48, 0xbe, 0x3d, 0x30, 0xfb, 0x3d,
  0x4a, 0xb9, 0x9d, 0xbd, 0xbb, 0xbf, 0x2a, 0xbd, 0x51, 0x27, 0x38, 0x3c,
  0x91, 0xcc, 0xce, 0x3e, 0x66, 0x47, 0x11, 0xbe, 0x59, 0x9d, 0xad, 0x3b,
  0x54, 0x80, 0xee, 0xbd, 0xc3, 0x42, 0x3a, 0xbe, 0xff, 0x38, 0xf3, 0x3d,
  0x8b, 0xdc, 0xe2, 0x3e, 0x18, 0x14, 0xa3, 0xbe, 0x5f, 0x05, 0x1b, 0x3e,
  0x2b, 0xc8, 0xa5, 0xbd, 0x25, 0xb5, 0x7e, 0x3d, 0xeb, 0x1f, 0x8b, 0x3c,
  0x4a, 0xd2, 0x17, 0x3e, 0xfb, 0xa9, 0x54, 0xbe, 0x4f, 0xfe, 0xd7, 0x3d,
  0xc3, 0x27, 0xe2, 0xbc, 0x09, 0x5a, 0xa1, 0x3c, 0xf9, 0xf2, 0x84, 0x3c,
  0x1b, 0x36, 0x9f, 0x3e, 0xc1, 0xc0, 0x3c, 0xbe, 0x0d, 0xea, 0xe7, 0xbd,
  0x43, 0x0e, 0x43, 0x3d, 0x6d, 0xd4, 0x10, 0x3e, 0x3a, 0xc5, 0x97, 0x3d,
  0x2e, 0x4a, 0xaa, 0x3e, 0x8e, 0xbc, 0x9f, 0xbd, 0x6f, 0x01, 0xa1, 0xbd,
  0xf8, 0x3e, 0xfa, 0xbd, 0xf1, 0xaa, 0xd7, 0x3d, 0x31, 0xcb, 0x2a, 0x3c,
  0xdc, 0x09, 0x15, 0x3e, 0x57, 0x4b, 0x1d, 0xbd, 0x19, 0xd6, 0xe6, 0xbd,
  0xbc, 0x71, 0x0a, 0xbe, 0xe5, 0xd9, 0x8b, 0xbd, 0x49, 0x36, 0x34, 0x3e,
  0xea, 0xc1, 0x39, 0x3e, 0xe2, 0x8a, 0x51, 0xbe, 0x81, 0x85, 0xce, 0xbc,
  0x4c, 0xb5, 0xa8, 0x3d, 0x12, 0x81, 0x58, 0xbd, 0xd4, 0x11, 0x2d, 0x3c,
  0xb7, 0x4e, 0xc6, 0xbb, 0x8c, 0xc5, 0x3d, 0x3d, 0x98, 0x34, 0x39, 0x3e,
  0xa9, 0x63, 0x66, 0xbd, 0x67, 0xa1, 0x25, 0x3e, 0x6b, 0x1c, 0x11, 0xbd,
  0x05, 0x6c, 0x1b, 0x3e, 0xd7, 0xbf, 0x16, 0x3d, 0x61, 0xc3, 0x38, 0xbb,
  0x54, 0x62, 0x17, 0x3e, 0xa8, 0xf9, 0x48, 0x3e, 0x12, 0xcf, 0x0c, 0x3e,
  0x89, 0x9a, 0x29, 0x3e, 0x9b, 0xca, 0xa4, 0xbd, 0x93, 0xb3, 0x05, 0x3c,
  0x67, 0xb8, 0x94, 0x3d, 0xf9, 0x7c, 0x24, 0x3e, 0xab, 0x45, 0x71, 0xbc,
  0xbc, 0xf1, 0xdd, 0x3d, 0x4c, 0x8a, 0x9d, 0x3d, 0xaa, 0x3a, 0xa1, 0x3c,
  0xe2, 0x5e, 0x90, 0xbd, 0xe1, 0x78, 0x70, 0xbd, 0xba, 0xe4, 0x35, 0x3e,
  0x11, 0x1e, 0x14, 0x3d, 0x70, 0x29, 0x5f, 0x3c, 0x2d, 0xcd, 0x57, 0xbc,
  0xa3, 0x77, 0x92, 0x3d, 0x5b, 0xe7, 0xda, 0x3b, 0x0a, 0xfa, 0x87, 0x3e,
  0x3f, 0x28, 0x37, 0xbd, 0xf4, 0xa4, 0x61, 0xbd, 0x62, 0x67, 0x93, 0x3c,
  0x59, 0x94, 0x01, 0xba, 0x77, 0x9a, 0x83, 0xbd, 0x24, 0x63, 0x84, 0x3e,
  0x00, 0xc5, 0x26, 0x3c, 0x67, 0x89, 0x57, 0x3e, 0x55, 0xc4, 0x2e, 0x3e,
  0x87, 0x1f, 0x71, 0x3d, 0x45, 0x6e, 0x07, 0xbd, 0x9f, 0x46, 0x89, 0x3e,
  0xa8, 0x2c, 0x23, 0x3e, 0x5e, 0xe6, 0x97, 0xbc, 0x64, 0x29, 0x17, 0xbd,
  0x53, 0xa5, 0xc5, 0xbd, 0xee, 0xf5, 0x77, 0x3d, 0xec, 0x78, 0x94, 0x3d,
  0xb7, 0x80, 0x5b, 0x3d, 0x64, 0x2c, 0x33, 0x3e, 0x3c, 0xca, 0x8c, 0x3d,
  0xf7, 0x86, 0x32, 0x3d, 0x10, 0x10, 0x24, 0x3a, 0x4e, 0x31, 0x87, 0x3d,
  0xbc, 0xaa, 0x65, 0x3e, 0xcc, 0xca, 0x8b, 0xbc, 0xfe, 0x44, 0xb9, 0xbd,
  0x9c, 0x47, 0x1a, 0x3e, 0x9c, 0x6d, 0xa4, 0x3c, 0x27, 0x13, 0x17, 0x3e,
  0x72, 0xb1, 0x7e, 0x3e, 0x47, 0x05, 0xde, 0x3d, 0x6d, 0xd0, 0xb7, 0x3d,
  0x7f, 0x21, 0x0b, 0x3c, 0xfe, 0x1c, 0x7a, 0x3d, 0x79, 0x28, 0x05, 0xbc,
  0x83, 0xad, 0xeb, 0xbc, 0x88, 0x7e, 0x57, 0xbc, 0x40, 0x64, 0xc2, 0xbd,
  0x72, 0xbc, 0x52, 0x3e, 0x2c, 0x4c, 0x0e, 0x3e, 0x56, 0x76, 0x11, 0xbe,
  0x29, 0x7c, 0x9e, 0xbd, 0xfe, 0x25, 0x27, 0xbe, 0x41, 0x4b, 0x55, 0xbd,
  0x4e, 0x44, 0x5e, 0x3e, 0x08, 0xd2, 0x1e, 0x3e, 0xab, 0x70, 0x7a, 0xbe,
  0x34, 0x4c, 0x82, 0xbe, 0x37, 0x7d, 0x4f, 0xbe, 0xd3, 0xc2, 0x2f, 0xbd,
  0x92, 0xf2, 0x58, 0x3e, 0x74, 0xb8, 0x6c, 0x3e, 0x9e, 0x8f, 0x9e, 0xbe,
  0x09, 0x06, 0x13, 0xbf, 0x93, 0x33, 0x04, 0xbf, 0x4e, 0xf4, 0x06, 0xbe,
  0x54, 0xc1, 0x0d, 0x3e, 0xc8, 0xb1, 0x5f, 0x3e, 0x0d, 0xae, 0xfc, 0xbd,
  0x93, 0x88, 0x8f, 0xbe, 0x69, 0x43, 0xc0, 0xbe, 0x22, 0x8a, 0x95, 0xbc,
  0x92, 0x63, 0xfa, 0x3d, 0x23, 0x1f, 0x99, 0x3d, 0x90, 0x53, 0x65, 0x3c,
  0x1a, 0xc8, 0x14, 0xbd, 0xb3, 0xea, 0xec, 0xbe, 0xc1, 0x1c, 0xf3, 0x3c,
  0xa9, 0x52, 0x08, 0x3e, 0xfe, 0x51, 0x67, 0xbd, 0xec, 0x5e, 0x56, 0x3c,
  0x49, 0x98, 0x32, 0xbe, 0x91, 0xa8, 0xb1, 0xbe, 0xd2, 0x66, 0x16, 0xbd,
  0x23, 0x68, 0xb4, 0x3e, 0xe9, 0xec, 0x43, 0x3e, 0xd3, 0x09, 0xb4, 0xbc,
  0x00, 0xd4, 0x1f, 0xbe, 0xfb, 0xc4, 0x63, 0xbe, 0x35, 0x0a, 0xc5, 0xbd,
  0x04, 0x42, 0x0d, 0x3e, 0xca, 0x93, 0x80, 0x3d, 0xee, 0xca, 0x95, 0x3e,
  0x5e, 0x1c, 0x5a, 0xbd, 0x3d, 0xb9, 0x98, 0x3d, 0x7e, 0xb1, 0x1e, 0x3e,
  0xcd, 0xe1, 0x9f, 0x3d, 0x68, 0xee, 0x21, 0x3d, 0x07, 0x50, 0x80, 0x3e,
  0x0f, 0x41, 0xf7, 0x3c, 0x51, 0x51, 0x91, 0x3e, 0x3e, 0x52, 0xa8, 0x3d,
  0x58, 0xb4, 0x98, 0x3e, 0xbe, 0x82, 0x0d, 0x3e, 0x59, 0x74, 0x7b, 0x3e,
  0xe0, 0x21, 0x8e, 0x3d, 0xf9, 0x35, 0x24, 0x3d, 0xa0, 0x78, 0x95, 0xbd,
  0x87, 0x42, 0x16, 0x3e, 0x8b, 0x25, 0x82, 0xbd, 0x09, 0xac, 0x7a, 0x3d,
  0xd8, 0x86, 0x5b, 0x3d, 0x5b, 0x82, 0xaa, 0x3e, 0x8e, 0xdc, 0x18, 0x3e,
  0x89, 0x9a, 0x1c, 0x3e, 0x85, 0xab, 0x07, 0xbd, 0x28, 0xd1, 0x5e, 0x3e,
  0xf4, 0x5b, 0x66, 0xbe, 0xe3, 0x34, 0xe0, 0x3d, 0xcc, 0x68, 0x36, 0x3e,
  0x57, 0x8d, 0xf2, 0x3d, 0x9d, 0x0f, 0x8f, 0xbc, 0x99, 0x1b, 0x28, 0x3e,
  0xd8, 0x81, 0x74, 0xbd, 0xc2, 0x76, 0x96, 0x3e, 0xff, 0xef, 0xad, 0x3d,
  0xdc, 0x68, 0x65, 0xbd, 0xa4, 0x03, 0x19, 0xbd, 0xde, 0x81, 0x19, 0x3e,
  0xc6, 0xbc, 0x70, 0xbd, 0xee, 0x9e, 0xcf, 0x3e, 0xef, 0x3c, 0xb6, 0x3d,
  0x61, 0xdb, 0x27, 0x3e, 0x55, 0xe3, 0x1e, 0xbc, 0x41, 0x5f, 0x1f, 0xbd,
  0xd6, 0xd4, 0xc4, 0xbd, 0x39, 0xd5, 0x1f, 0x3e, 0x40, 0xf7, 0x24, 0x3e,
  0xa8, 0x32, 0x22, 0x3e, 0xed, 0x38, 0x9f, 0x3d, 0x91, 0x14, 0x1b, 0xbc,
  0x7c, 0x7e, 0x17, 0xbd, 0x06, 0x3e, 0x9b, 0x3d, 0xea, 0x15, 0x18, 0x3e,
  0xf6, 0xb1, 0x33, 0x3e, 0x0e, 0x88, 0x17, 0xbe, 0x5b, 0x4c, 0x01, 0xbd,
  0x96, 0x75, 0x65, 0xbe, 0xd4, 0x9e, 0x9c, 0x3e, 0xe0, 0x5f, 0x19, 0x3e,
  0x6e, 0x64, 0x29, 0xbd, 0x76, 0x93, 0x97, 0x3d, 0x48, 0xe2, 0xe4, 0xbd,
  0x67, 0xee, 0xbd, 0x3d, 0xec, 0x33, 0xee, 0x3d, 0x1b, 0xce, 0xde, 0xbb,
  0x15, 0xd7, 0xeb, 0xbc, 0xb5, 0x7a, 0xa9, 0x3c, 0x94, 0xa9, 0x03, 0x3e,
  0x24, 0x32, 0x3a, 0x3d, 0x3f, 0x9f, 0x07, 0x3e, 0x7e, 0xb7, 0xa9, 0x3d,
  0xaa, 0x47, 0x2a, 0x3e, 0xd6, 0x33, 0x84, 0xbc, 0x34, 0x22, 0x23, 0xbc,
  0x53, 0x98, 0x51, 0xbc, 0xfa, 0x36, 0x20, 0x3e, 0xb3, 0x80, 0x52, 0x3d,
  0xae, 0x95, 0xf4, 0xbc, 0xd5, 0xf6, 0xfe, 0x3d, 0x58, 0xbe, 0xbc, 0x3d,
  0x02, 0xa5, 0xac, 0x3d, 0x81, 0xae, 0x75, 0x3e, 0xd6, 0xcd, 0x23, 0x3c,
  0x8e, 0xc5, 0xc8, 0x3c, 0x4a, 0x27, 0x1d, 0x3e, 0x88, 0xb3, 0x1e, 0x3e,
  0xa2, 0x8d, 0x8f, 0xbc, 0x9e, 0xfa, 0xbf, 0xbd, 0x8e, 0x70, 0x17, 0x3c,
  0xeb, 0xbc, 0xa2, 0x3d, 0xae, 0x36, 0x84, 0x3c, 0x87, 0x8c, 0xfe, 0x39,
  0x1f, 0xab, 0x13, 0x3d, 0x7b, 0x8b, 0x30, 0x3d, 0xac, 0x12, 0xb1, 0x3b,
  0x8b, 0x51, 0xf8, 0x3d, 0x2a, 0x44, 0xa7, 0x3d, 0x92, 0xd6, 0x05, 0xbe,
  0xba, 0x3e, 0xb7, 0x3c, 0x0a, 0xc9, 0x4b, 0x3d, 0xe4, 0x73, 0x8b, 0x3b,
  0x91, 0xdc, 0xea, 0x3d, 0x11, 0x4f, 0x13, 0x3e, 0xe7, 0x1e, 0xa5, 0x3d,
  0x50, 0x64, 0x12, 0x3e, 0x0e, 0x2f, 0x0e, 0x3d, 0x40, 0x8e, 0xce, 0x3d,
  0x2d, 0xc3, 0x71, 0x3d, 0xd1, 0x1c, 0x87, 0xbd, 0x55, 0x91, 0x05, 0x3d,
  0xec, 0x0b, 0xc0, 0x3b, 0x5c, 0xf4, 0x3b, 0xbe, 0x32, 0xbf, 0xa9, 0x3c,
  0xb6, 0x6f, 0x9a, 0xbd, 0x6a, 0x2e, 0xa2, 0x3d, 0xdd, 0x95, 0x51, 0x3d,
  0x75, 0xb8, 0x07, 0x3b, 0x14, 0xbe, 0xae, 0xbd, 0xbc, 0x0c, 0x08, 0xbe,
  0x5f, 0xb9, 0x12, 0xbe, 0x75, 0xf4, 0x15, 0xbe, 0xa0, 0xcb, 0x12, 0xbe,
  0x40, 0xdd, 0xf1, 0x3c, 0x09, 0x6c, 0x38, 0x3d, 0x66, 0xe1, 0xd0, 0xbd,
  0x85, 0x92, 0xdc, 0x3d, 0xda, 0xfe, 0xbb, 0xbd, 0xee, 0x09, 0x04, 0x3d,
  0xea, 0x0e, 0x76, 0x3d, 0x17, 0x1e, 0x6e, 0xbd, 0x12, 0x5b, 0x03, 0xbd,
  0x1e, 0xe4, 0xeb, 0xbd, 0x5c, 0xb3, 0xb4, 0x39, 0xe0, 0x2a, 0xc1, 0xbd,
  0x48, 0x17, 0xf6, 0xbd, 0xad, 0x0c, 0x92, 0xbd, 0x69, 0xa9, 0x1a, 0xbd,
  0xa0, 0x35, 0x1a, 0xbe, 0xdb, 0xac, 0x82, 0x3d, 0x54, 0xec, 0x7d, 0xbd,
  0x80, 0xe5, 0xc8, 0xbc, 0xe2, 0x8d, 0xd4, 0x3d, 0xb6, 0x88, 0xcc, 0x3d,
  0xab, 0x3d, 0x0e, 0xbe, 0x5e, 0x8e, 0xdc, 0xbd, 0xba, 0x0c, 0x8b, 0x3d,
  0xfa, 0x7a, 0xb5, 0x3d, 0xa2, 0xe5, 0xaa, 0x3d, 0xfc, 0x52, 0x14, 0xbd,
  0x41, 0xa2, 0xb7, 0xbd, 0x84, 0x7e, 0x8f, 0x3d, 0xf7, 0xb8, 0x24, 0xbe,
  0xba, 0xc0, 0xde, 0x3d, 0x0c, 0x80, 0x44, 0x3d, 0xfe, 0x13, 0x51, 0xbd,
  0x66, 0x55, 0xee, 0x3d, 0x21, 0xf8, 0xb9, 0xbd, 0xd3, 0xa8, 0xcc, 0xbd,
  0xe2, 0x7f, 0x82, 0x3d, 0x66, 0x6e, 0x87, 0xbd, 0x94, 0xd4, 0x3d, 0x3d,
  0xe0, 0x31, 0xc0, 0x3c, 0x96, 0x65, 0xfe, 0xbd, 0xfa, 0xfa, 0xd1, 0xbd,
  0x88, 0x74, 0x0d, 0xbd, 0xe5, 0x03, 0xac, 0xbd, 0xe1, 0xee, 0x06, 0x3e,
  0x21, 0x8f, 0xa2, 0xbd, 0xfc, 0x7c, 0x40, 0x3d, 0xc2, 0x9b, 0xfe, 0xbd,
  0x80, 0x6f, 0x43, 0x3b, 0x60, 0xc9, 0x93, 0xbc, 0x83, 0x89, 0x25, 0xbe,
  0xd0, 0x39, 0x36, 0xbc, 0xa1, 0xd7, 0x26, 0xbe, 0xc6, 0x79, 0x0a, 0xbe,
  0xde, 0x24, 0x27, 0xbe, 0x6f, 0xcd, 0x8b, 0xbd, 0x5e, 0x83, 0xaf, 0x3d,
  0xda, 0xc7, 0x10, 0xbe, 0x4a, 0xb8, 0x99, 0x3d, 0x63, 0xeb, 0x1c, 0x3e,
  0x00, 0xa2, 0xa8, 0x39, 0xaa, 0xc3, 0xb0, 0xbd, 0x3a, 0x82, 0x31, 0xbd,
  0x6c, 0x5a, 0x81, 0x3d, 0xc2, 0x75, 0x0a, 0xbe, 0x37, 0x7c, 0x0a, 0x3e,
  0x7f, 0xbd, 0x00, 0xbe, 0x3e, 0xbc, 0x16, 0xbe, 0xa2, 0x82, 0xb5, 0x3d,
  0x09, 0x20, 0xd3, 0xbd, 0x3b, 0x10, 0xa4, 0xbd, 0x02, 0xa5, 0xe1, 0x3d,
  0x57, 0x20, 0x1c, 0xbe, 0x96, 0xf4, 0xd4, 0x3d, 0x1e, 0xdf, 0x55, 0xbd,
  0x1e, 0xed, 0x41, 0xbd, 0x2d, 0xec, 0x23, 0x3e, 0xb2, 0x5a, 0xb4, 0x3d,
  0x3c, 0x70, 0x19, 0x3d, 0xde, 0x35, 0xea, 0x3d, 0x84, 0xbe, 0x2a, 0xbe,
  0x08, 0xf7, 0xbc, 0xbd, 0xac, 0xf4, 0x0b, 0xbe, 0xd8, 0x20, 0x24, 0xbe,
  0xb3, 0xb3, 0x07, 0xbe, 0x1c, 0x89, 0xfc, 0xbd, 0x5e, 0x6f, 0xff, 0xbd,
  0xad, 0xb7, 0x07, 0x3e, 0xe7, 0x12, 0x1e, 0xbe, 0x11, 0xef, 0x1c, 0x3e,
  0x68, 0x15, 0xb5, 0xbc, 0xd8, 0x64, 0x20, 0x3d, 0x6b, 0x72, 0x19, 0xbe,
  0x34, 0x9c, 0x16, 0xbe, 0x78, 0xe1, 0x84, 0x3d, 0x3a, 0x53, 0xc6, 0x3d,
  0x41, 0x50, 0x0e, 0x3e, 0x15, 0xca, 0x28, 0x3e, 0xd8, 0x91, 0x2d, 0x3d,
  0xab, 0x83, 0x21, 0x3e, 0x6e, 0xd1, 0x9b, 0x3d, 0x38, 0x2c, 0x9b, 0x3c,
  0xea, 0x59, 0xb4, 0xbd, 0x53, 0x48, 0x07, 0xbe, 0x0e, 0xac, 0xf5, 0x3d,
  0xfb, 0xa1, 0x0d, 0xbe, 0x75, 0xf7, 0x23, 0x3e, 0x08, 0x40, 0xbf, 0xbc,
  0x59, 0xc2, 0x16, 0x3e, 0x55, 0x4e, 0x01, 0xbe, 0x63, 0xf5, 0x1d, 0x3e,
  0xc4, 0xf7, 0x3c, 0xbd, 0xfe, 0x1a, 0xae, 0x3d, 0xe2, 0x5c, 0xeb, 0xbd,
  0x00, 0x43, 0x04, 0xbc, 0xa7, 0x34, 0xf8, 0xbd, 0x00, 0x3a, 0xcc, 0x3b,
  0x24, 0xa7, 0x29, 0xbd, 0x2c, 0x09, 0x88, 0x3d, 0xab, 0x0f, 0x21, 0x3e,
  0xe7, 0x2b, 0xb4, 0xbd, 0x0c, 0x39, 0x22, 0xbe, 0x3c, 0xc3, 0x75, 0xbd,
  0xb6, 0xb1, 0xf5, 0x3d, 0xfe, 0xcb, 0xc9, 0x3d, 0x43, 0x71, 0x13, 0x3e,
  0x20, 0x90, 0xe8, 0x3b, 0xc3, 0x4a, 0x13, 0x3e, 0x18, 0x2e, 0xda, 0x3c,
  0x9c, 0xaa, 0xec, 0xbd, 0x66, 0x4e, 0xac, 0x3d, 0x32, 0x02, 0xd2, 0x3d,
  0x63, 0xf4, 0x1e, 0xbe, 0x7e, 0x79, 0xa9, 0xbd, 0xfc, 0x14, 0x48, 0xbd,
  0xc1, 0x35, 0x27, 0xbe, 0xcb, 0x0c, 0x22, 0x3e, 0x81, 0xd3, 0x29, 0x3e,
  0x55, 0xe0, 0x02, 0x3e, 0x74, 0x30, 0x35, 0x3d, 0xfe, 0x3c, 0x36, 0xbd,
  0xe1, 0x35, 0xb5, 0xbd, 0x8a, 0x01, 0xb3, 0x3d, 0xab, 0x75, 0xd0, 0xbd,
  0x75, 0x55, 0x12, 0xbe, 0x30, 0x80, 0x76, 0x3c, 0xd0, 0x31, 0x42, 0xbc,
  0x88, 0x26, 0xe0, 0xbd, 0x20, 0x2c, 0xee, 0xbc, 0xb4, 0x85, 0x2b, 0xbe,
  0xa5, 0x7c, 0xc6, 0xbd, 0xda, 0x3b, 0xf6, 0xbd, 0x8f, 0xc5, 0x27, 0x3e,
  0x1e, 0x9d, 0xf4, 0xbd, 0xd2, 0x8b, 0xe9, 0x3d, 0x10, 0xd5, 0xed, 0x3c,
  0x2a, 0x3d, 0xdd, 0xbd, 0x90, 0x60, 0xfb, 0x3c, 0x64, 0x1e, 0x1f, 0x3d,
  0x0a, 0xe2, 0xc5, 0xbd, 0xa0, 0xfd, 0x81, 0xbb, 0xd4, 0x2b, 0x88, 0x3d,
  0xc0, 0x5e, 0x96, 0x3b, 0x0a, 0xbb, 0xfc, 0x3d, 0x38, 0x0c, 0x88, 0x3d,
  0x63, 0xd8, 0x1c, 0x3e, 0x68, 0x68, 0xf1, 0xbc, 0x20, 0x1d, 0xce, 0xbb,
  0x96, 0xad, 0xc1, 0x3d, 0xa8, 0xf9, 0x70, 0x3d, 0xe0, 0x5d, 0xa0, 0x3b,
  0x48, 0xb9, 0x4b, 0xbd, 0x56, 0xb9, 0x01, 0xbe, 0x62, 0xc2, 0xfb, 0x3d,
  0xa4, 0xbf, 0x24, 0xbd, 0xf0, 0xfe, 0x05, 0xbd, 0x28, 0xc6, 0x37, 0x3d,
  0x91, 0x13, 0xb0, 0xbd, 0x8c, 0x31, 0x2a, 0xbe, 0x50, 0xe5, 0xaf, 0x3c,
  0x64, 0xd2, 0xf1, 0xbd, 0xe0, 0x1a, 0xcf, 0x3c, 0xe0, 0x9e, 0x0e, 0xbe,
  0xf2, 0x49, 0xa2, 0x3d, 0x59, 0x5f, 0x17, 0x3e, 0xdb, 0xaf, 0xda, 0xbd,
  0x32, 0xe4, 0xd1, 0x3d, 0x52, 0x33, 0x99, 0x3d, 0x03, 0xe4, 0x12, 0xbe,
  0x31, 0xeb, 0x1f, 0x3e, 0xfb, 0x11, 0x03, 0xbe, 0x10, 0x16, 0xd7, 0x3c,
  0xd3, 0x8a, 0x10, 0xbe, 0x80, 0xe7, 0x95, 0xba, 0x4e, 0xfc, 0xac, 0x3d,
  0x30, 0xa3, 0x0b, 0x3c, 0x18, 0xc5, 0x71, 0xbd, 0x58, 0x94, 0x6f, 0x3d,
  0xb0, 0x22, 0x8d, 0x3c, 0x3e, 0x4d, 0xb1, 0x3d, 0xe5, 0x7e, 0x24, 0xbe,
  0x8e, 0x6c, 0x20, 0xbe, 0xb6, 0xf8, 0xbe, 0x3d, 0xb0, 0xeb, 0x12, 0xbe,
  0x32, 0x7a, 0x91, 0x3d, 0x40, 0x54, 0x93, 0xbb, 0x78, 0xcd, 0xb0, 0x3c,
  0x48, 0xd5, 0xa9, 0xbc, 0x08, 0xd0, 0x86, 0x3d, 0x04, 0xbc, 0x07, 0xbe,
  0xad, 0xf3, 0x8d, 0xbd, 0x96, 0xcd, 0xc8, 0x3d, 0x18, 0xac, 0x41, 0xbd,
  0x78, 0xcc, 0xd3, 0xbc, 0x20, 0xa5, 0x2c, 0x3c, 0x98, 0xeb, 0xa1, 0xbc,
  0x50, 0xbf, 0x23, 0xbe, 0x6d, 0xb1, 0xd9, 0xbd, 0x35, 0x26, 0x27, 0x3e,
  0x48, 0xfb, 0xba, 0x3c, 0xcd, 0xf6, 0x10, 0x3e, 0xba, 0x25, 0x55, 0xbd,
  0xdd, 0xb1, 0x20, 0x3e, 0x98, 0x31, 0x8a, 0x3c, 0x18, 0x25, 0x89, 0xbc,
  0x42, 0xe9, 0xdb, 0x3d, 0xb2, 0xd4, 0xfa, 0xbd, 0xe0, 0xf8, 0x05, 0x3d,
  0x9c, 0x7f, 0x9f, 0xbd, 0xbb, 0x5f, 0x0c, 0x3e, 0x40, 0x1e, 0x03, 0x3b,
  0x30, 0x24, 0xe3, 0xbc, 0x3e, 0xc0, 0xea, 0x3d, 0xd4, 0x99, 0x24, 0x3d,
  0xbf, 0x4d, 0x8b, 0xbd, 0x0a, 0xa4, 0x89, 0x3d, 0xc4, 0xc5, 0x96, 0x3d,
  0x40, 0xf9, 0x09, 0xbb, 0x58, 0x85, 0xfd, 0x3c, 0xd9, 0x30, 0xb1, 0xbd,
  0x20, 0xac, 0x1e, 0x3d, 0x80, 0x8e, 0x14, 0xbb, 0x92, 0xe5, 0x7e, 0xbd,
  0xb8, 0xaf, 0x3c, 0x3d, 0xaf, 0x82, 0xfa, 0xbd, 0x10, 0x25, 0x9c, 0x3d,
  0xc3, 0x1b, 0x85, 0xbd, 0x6a, 0x51, 0xe0, 0xbd, 0x70, 0x37, 0x8e, 0x3c,
  0x67, 0x19, 0xbb, 0xbd, 0xb2, 0xda, 0xba, 0x3d, 0x40, 0xef, 0x06, 0x3b,
  0xa6, 0x70, 0xae, 0xbd, 0x04, 0xb5, 0x6f, 0x3d, 0x7e, 0x9f, 0xcf, 0x3d,
  0x12, 0x49, 0xd5, 0x3d, 0xa3, 0xd2, 0x20, 0xbe, 0x30, 0x4c, 0x87, 0x3d,
  0x8e, 0xe7, 0x17, 0xbe, 0x94, 0xd1, 0x6f, 0x3d, 0x70, 0x8a, 0x59, 0x3d,
  0x74, 0xbb, 0x4f, 0xbd, 0x49, 0xad, 0x15, 0x3e, 0xed, 0x48, 0x0c, 0x3e,
  0xb7, 0x15, 0x00, 0x3e, 0xb9, 0x0f, 0x0d, 0x3e, 0xe7, 0xed, 0x16, 0x3e,
  0xa4, 0x83, 0x87, 0x3d, 0xce, 0xba, 0x05, 0xbe, 0x0c, 0x73, 0xb1, 0xbd,
  0xff, 0xe1, 0x26, 0xbe, 0x7a, 0x0a, 0x98, 0x3d, 0xa7, 0xca, 0xeb, 0xbd,
  0x4e, 0xd3, 0xe9, 0xbd, 0x53, 0xe0, 0x2b, 0xbe, 0x7d, 0xb9, 0x17, 0x3e,
  0x48, 0x9d, 0xf2, 0x3c, 0xb6, 0x72, 0x1c, 0xbe, 0x7a, 0x74, 0x44, 0xbd,
  0xd6, 0x09, 0xd7, 0x3d, 0x6e, 0x12, 0xe6, 0xbd, 0x3c, 0x41, 0x18, 0xbe,
  0xf2, 0xb9, 0xd5, 0x3d, 0x40, 0xc8, 0x7b, 0xbc, 0x3d, 0x06, 0x07, 0x3e,
  0x00, 0xba, 0x0b, 0xbd, 0xbe, 0x01, 0xf5, 0xbd, 0x7d, 0xdb, 0x0c, 0x3e,
  0x3f, 0x4b, 0x2a, 0xbe, 0x67, 0xa6, 0x81, 0xbd, 0x24, 0x66, 0xa5, 0x3d,
  0xfb, 0x37, 0x08, 0xbe, 0x92, 0xcc, 0xfd, 0x3d, 0x4c, 0x57, 0x13, 0x3d,
  0x36, 0xbc, 0x69, 0xbd, 0x2c, 0x63, 0x1a, 0x3d, 0x08, 0xeb, 0x1c, 0xbd,
  0xed, 0x2f, 0x0b, 0x3e, 0x70, 0x7c, 0x0c, 0xbd, 0x2b, 0x74, 0x1a, 0x3e,
  0x90, 0x8e, 0xc9, 0xbd, 0x5d, 0xd0, 0x8c, 0xbd, 0xa0, 0x98, 0x02, 0xbe,
  0xba, 0xc7, 0x00, 0xbe, 0xbf, 0xdc, 0x12, 0xbe, 0xfb, 0x47, 0x1e, 0xbe,
  0x4e, 0xec, 0xf2, 0xbd, 0x7e, 0x82, 0x9c, 0xbd, 0xa7, 0x57, 0xdc, 0xbd,
  0xa3, 0xbe, 0x18, 0x3e, 0x31, 0x6a, 0xb7, 0xbd, 0x7f, 0x3a, 0x1f, 0xbe,
  0x03, 0x08, 0xd8, 0xbd, 0x7d, 0xf5, 0x87, 0xbd, 0xd0, 0xb7, 0x9b, 0x3d,
  0x32, 0x3c, 0x99, 0x3d, 0xc8, 0x5b, 0x9c, 0x3d, 0xbc, 0x6e, 0x3a, 0x3d,
  0x20, 0x3e, 0xf0, 0xbc, 0xa0, 0x8d, 0xb7, 0xbd, 0xd4, 0x01, 0x4b, 0xbd,
  0x54, 0x6d, 0xef, 0xbd, 0x7e, 0x52, 0x84, 0x3d, 0x84, 0x79, 0x96, 0xbd,
  0x84, 0x22, 0x9c, 0x3d, 0x8e, 0xfb, 0xc2, 0x3d, 0xe8, 0x05, 0xec, 0xbc,
  0x08, 0xb6, 0xf9, 0xbd, 0xcc, 0x0c, 0xed, 0xbd, 0x94, 0xf4, 0x16, 0xbd,
  0x67, 0x01, 0x00, 0xbe, 0x4a, 0x9f, 0xfc, 0x3d, 0x63, 0x78, 0x27, 0x3e,
  0x0a, 0x93, 0xe6, 0x3d, 0xc5, 0x8b, 0xa0, 0xbd, 0xb2, 0x61, 0xde, 0x3d,
  0x12, 0x21, 0x28, 0xbe, 0x40, 0xa5, 0xa2, 0xbd, 0xf2, 0xca, 0xef, 0x3d,
  0x50, 0xd2, 0x0f, 0x3c, 0x83, 0x55, 0x28, 0x3e, 0x8e, 0x76, 0xc7, 0xbd,
  0x8c, 0x55, 0x48, 0x3d, 0xc3, 0x05, 0x00, 0x3e, 0x52, 0x34, 0x88, 0x3d,
  0x5c, 0x09, 0x1b, 0xbe, 0x58, 0xa5, 0x24, 0xbd, 0x24, 0x4a, 0x2c, 0xbd,
  0x00, 0x14, 0xd9, 0xbb, 0x32, 0x30, 0xa8, 0x3d, 0xe2, 0xdb, 0x03, 0xbe,
  0xce, 0xfd, 0xa2, 0x3d, 0x00, 0x49, 0x7e, 0xbb, 0xe6, 0x63, 0x64, 0xbd,
  0x94, 0xb0, 0x04, 0x3d, 0xf9, 0x96, 0x1a, 0xbe, 0x11, 0x27, 0x27, 0xbe,
  0x80, 0xf7, 0xa7, 0x3c, 0x0a, 0x5e, 0xfb, 0xbd, 0x3b, 0x2e, 0x09, 0x3e,
  0x60, 0xe3, 0x91, 0x3b, 0xac, 0x8c, 0x39, 0xbd, 0xaa, 0x8d, 0xdd, 0x3d,
  0x49, 0x6d, 0x0b, 0x3e, 0x9c, 0x2a, 0x0f, 0xbe, 0xfc, 0xef, 0x41, 0x3d,
  0x7f, 0xe3, 0x85, 0xbd, 0xe0, 0xc4, 0xbb, 0xbb, 0x80, 0x18, 0x97, 0xbc,
  0x55, 0x16, 0x1c, 0x3e, 0x4e, 0x91, 0x08, 0xbe, 0x37, 0x94, 0x2a, 0xbe,
  0xbe, 0xbf, 0xeb, 0x3d, 0x52, 0x08, 0xc7, 0x3d, 0x8e, 0xab, 0x9b, 0x3d,
  0xf8, 0xc1, 0xaf, 0x3c, 0x1c, 0xc8, 0x28, 0xbd, 0xe2, 0x00, 0x4c, 0x3e,
  0x35, 0x77, 0x0a, 0x3d, 0x6c, 0x70, 0x97, 0x3e, 0x49, 0x76, 0xce, 0x3d,
  0x6f, 0xd2, 0xba, 0x3b, 0x57, 0xc8, 0x5b, 0xbe, 0xc0, 0x48, 0x4e, 0x3e,
  0x9f, 0x21, 0xf6, 0x3d, 0xc5, 0xe5, 0x09, 0x3e, 0x3d, 0xb9, 0x46, 0x3d,
  0x6f, 0xb0, 0xc8, 0x3d, 0x16, 0xf6, 0x5f, 0x3c, 0xf7, 0x6a, 0xda, 0x3d,
  0xdd, 0x8a, 0x70, 0x3e, 0xbd, 0x73, 0x26, 0x3e, 0x27, 0x13, 0xdd, 0xbd,
  0x9e, 0x9e, 0x32, 0xbd, 0x68, 0x8c, 0x0c, 0x3d, 0x87, 0xbd, 0x43, 0x3e,
  0x3b, 0xe8, 0x95, 0x3e, 0xc1, 0xb0, 0xc5, 0x3d, 0xab, 0xa1, 0xa4, 0xbd,
  0x80, 0x84, 0x0e, 0xbe, 0xf6, 0xa5, 0x53, 0xbe, 0x8b, 0xd2, 0x1d, 0x3e,
  0xf3, 0xec, 0x21, 0x3e, 0xa9, 0x3c, 0x40, 0x3e, 0xb9, 0xac, 0x95, 0x3c,
  0x8f, 0xed, 0x84, 0xbe, 0x2d, 0xbb, 0xff, 0xbd, 0x30, 0x87, 0x58, 0x3e,
  0x4c, 0x71, 0x1d, 0x3e, 0x6d, 0xc5, 0x30, 0xbd, 0xa4, 0x72, 0x31, 0xbd,
  0x68, 0x70, 0xd1, 0x3b, 0xa3, 0x01, 0xb0, 0xbc, 0xa9, 0x89, 0xe8, 0x3c,
  0xa6, 0xd7, 0xda, 0x3d, 0xf5, 0x70, 0xad, 0xbd, 0x10, 0xa5, 0x3e, 0xbc,
  0xf1, 0x26, 0xa4, 0xbb, 0x64, 0xe3, 0x89, 0xbe, 0xd7, 0x26, 0x42, 0xbe,
  0xd0, 0x13, 0xe9, 0x3c, 0x6c, 0x39, 0x4a, 0xbe, 0x9c, 0xbf, 0x63, 0x3d,
  0xb4, 0x24, 0x9d, 0xbc, 0x4e, 0x81, 0x7a, 0xbe, 0x1f, 0xb2, 0x90, 0x3d,
  0xbd, 0x0f, 0x42, 0x3e, 0x6b, 0xb2, 0x08, 0xbe, 0x4c, 0x25, 0x72, 0x3d,
  0x00, 0x0d, 0x21, 0xbd, 0x0a, 0x30, 0x61, 0xbe, 0xef, 0x26, 0x6c, 0xbd,
  0x1b, 0x0f, 0x18, 0x3e, 0x42, 0xa3, 0x8e, 0xbe, 0x74, 0x41, 0x16, 0xbe,
  0x60, 0x99, 0x05, 0x3d, 0x3c, 0x53, 0xc8, 0x3c, 0xf4, 0xc8, 0x05, 0xbe,
  0x15, 0x2b, 0xca, 0x3e, 0xd8, 0x03, 0x2c, 0xbe, 0x8b, 0xd9, 0x0b, 0xbe,
  0xec, 0x55, 0x82, 0x3d, 0x9c, 0xbe, 0x18, 0xbe, 0x34, 0x9a, 0x39, 0xbb,
  0x8b, 0xdc, 0x88, 0x3e, 0xf3, 0xd1, 0x12, 0xbe, 0x54, 0x27, 0x6b, 0xbd,
  0xe8, 0x45, 0xdd, 0xbd, 0xd0, 0xb7, 0xa1, 0xbd, 0x27, 0x01, 0x69, 0xbc,
  0xcc, 0x33, 0x99, 0x3e, 0xd4, 0x40, 0xea, 0xbd, 0x46, 0x5a, 0x25, 0xbe,
  0x4d, 0xbb, 0x84, 0xbd, 0x3d, 0xcd, 0x00, 0x3d, 0xc3, 0x12, 0x0f, 0xbd,
  0xfb, 0xc4, 0x4d, 0x3e, 0xfe, 0x0c, 0x9f, 0xbe, 0xee, 0x0c, 0xbc, 0x3b,
  0x2a, 0x70, 0x97, 0xbd, 0xe8, 0xcd, 0xbc, 0x3d, 0x5d, 0x06, 0x96, 0x3d,
  0x50, 0x82, 0xe0, 0x3e, 0x05, 0xd7, 0x3d, 0xbd, 0x0a, 0x3a, 0x15, 0xbe,
  0x87, 0x9e, 0xf2, 0xbd, 0xf6, 0x40, 0x24, 0x3e, 0xb0, 0x84, 0x13, 0x3e,
  0x0d, 0x92, 0xc9, 0x3e, 0xa8, 0x21, 0xef, 0xbb, 0x70, 0x94, 0xf4, 0xbc,
  0xbf, 0xb0, 0x40, 0x3c, 0x1c, 0x74, 0x4d, 0x3c, 0x58, 0x28, 0xfd, 0x3d,
  0xe0, 0x03, 0x16, 0x3e, 0x9c, 0x5f, 0xf7, 0xbd, 0x19, 0x43, 0xe8, 0xbc,
  0x8c, 0x1d, 0x20, 0xbe, 0x09, 0xf4, 0xa8, 0x3d, 0x33, 0x7b, 0xba, 0x3d,
  0x20, 0x61, 0x9b, 0x3e, 0xec, 0x2c, 0xb6, 0x3d, 0xf5, 0xeb, 0x55, 0x3c,
  0x67, 0xf9, 0xef, 0xbd, 0xcc, 0x59, 0x6b, 0xbd, 0x24, 0x7e, 0x17, 0x3e,
  0x83, 0x3d, 0x91, 0x3c, 0xad, 0x75, 0xb7, 0xbc, 0x31, 0xe9, 0xd4, 0x3c,
  0x06, 0xba, 0xb9, 0xbd, 0x03, 0x87, 0xb1, 0x3d, 0xdb, 0xd8, 0x12, 0x3e,
  0xb9, 0xa2, 0x80, 0x3e, 0x37, 0x8b, 0x11, 0xbe, 0x6f, 0x2e, 0x1c, 0x3e,
  0xb6, 0x82, 0x6f, 0x3b, 0x01, 0x94, 0x6d, 0x3d, 0xdf, 0x1a, 0x9d, 0xbc,
  0x86, 0x4c, 0x41, 0x3e, 0x26, 0x4a, 0x1c, 0xbe, 0x7d, 0x9d, 0xb3, 0xbd,
  0x80, 0x7f, 0xa8, 0xbd, 0x62, 0x22, 0xee, 0x3c, 0x76, 0x93, 0xb6, 0xbd,
  0xcc, 0x73, 0x39, 0x3e, 0x30, 0xb0, 0x02, 0x3e, 0x77, 0x46, 0xb8, 0xbd,
  0x83, 0x85, 0x90, 0xbd, 0x1c, 0x4d, 0x30, 0x3e, 0xb3, 0x96, 0xdb, 0x3c,
  0xd7, 0xd4, 0xe5, 0xbc, 0x1b, 0x35, 0x34, 0x3e, 0xe7, 0xdf, 0x17, 0x3d,
  0xa2, 0x47, 0xa8, 0x3d, 0x40, 0x1e, 0x06, 0x3e, 0x72, 0x64, 0x74, 0x3d,
  0x16, 0xde, 0x2e, 0x3d, 0x0e, 0xa2, 0x2a, 0x3e, 0xf0, 0x3f, 0x42, 0xbd,
  0x1f, 0x04, 0x18, 0x3e, 0x10, 0x34, 0x19, 0x3e, 0x3f, 0xad, 0xd9, 0xbd,
  0x86, 0xca, 0x0b, 0x3e, 0xa2, 0x3d, 0x63, 0xbd, 0xb1, 0x0c, 0x83, 0xbc,
  0x95, 0xbb, 0xb2, 0x3d, 0xd9, 0xc2, 0x56, 0x3e, 0x87, 0xb7, 0x66, 0x3d,
  0x1d, 0xdd, 0xd1, 0xbc, 0xfe, 0x93, 0x18, 0x3e, 0x04, 0x93, 0xf5, 0x3c,
  0xb7, 0x1f, 0xb6, 0xbd, 0x00, 0xa3, 0xd7, 0xbd, 0xd0, 0xf7, 0x66, 0x3e,
  0xc4, 0xd5, 0x45, 0x3e, 0xe1, 0x2f, 0xac, 0x3d, 0x7b, 0x5a, 0x9a, 0x3d,
  0xd1, 0x49, 0xf9, 0x3d, 0x93, 0x8a, 0xca, 0x3c, 0x6c, 0x54, 0xba, 0xbc,
  0x23, 0xb0, 0x02, 0xbc, 0x76, 0x2c, 0x20, 0x3e, 0x07, 0xa2, 0xf9, 0xbd,
  0x09, 0x13, 0x7b, 0x3c, 0xff, 0xb4, 0x53, 0xbd, 0x6a, 0x58, 0x24, 0x3e,
  0xea, 0x75, 0xcd, 0x3d, 0xc2, 0x16, 0xb0, 0xbd, 0x53, 0x84, 0x63, 0x3d,
  0xc6, 0x93, 0x1e, 0xbd, 0x1f, 0xd2, 0xa9, 0x3d, 0x3e, 0x36, 0x2d, 0x3c,
  0xc6, 0xfd, 0xf1, 0x3d, 0x82, 0x55, 0xcf, 0x3d, 0x27, 0xc2, 0x0c, 0x3e,
  0x76, 0x06, 0xe2, 0xbd, 0xcd, 0x71, 0x43, 0x3e, 0x29, 0x62, 0x22, 0x3e,
  0xb3, 0x58, 0xc3, 0xbe, 0x14, 0x7d, 0xc0, 0x3e, 0x2e, 0x32, 0x8a, 0x3e,
  0xce, 0x0f, 0xcb, 0x3d, 0xef, 0x6f, 0xf7, 0x3c, 0x9f, 0x62, 0x62, 0x3e,
  0x29, 0x1a, 0x49, 0xbf, 0x5d, 0xe4, 0x97, 0x3e, 0xa9, 0x09, 0x62, 0x3e,
  0x36, 0xc9, 0xf7, 0x3d, 0x31, 0x54, 0x19, 0x3e, 0xad, 0x65, 0xc2, 0x3d,
  0x0d, 0xbe, 0x49, 0xbf, 0xff, 0xbe, 0xbd, 0x3e, 0x7f, 0x63, 0x7f, 0xbc,
  0x37, 0xf4, 0x39, 0xbd, 0x74, 0x50, 0x87, 0x3c, 0x7a, 0xf3, 0x31, 0x3e,
  0xc2, 0xe8, 0x0f, 0xbf, 0x4d, 0x18, 0x76, 0x3d, 0x9f, 0x72, 0x2f, 0xbd,
  0x95, 0xc9, 0xee, 0x3d, 0x06, 0xf8, 0xa8, 0xbb, 0x20, 0xfb, 0x81, 0x3e,
  0x87, 0xd8, 0x98, 0xbe, 0x4d, 0x47, 0x3b, 0x3e, 0xbe, 0x16, 0x5d, 0xbd,
  0x9b, 0x56, 0x39, 0x3d, 0xac, 0x12, 0x38, 0xbe, 0xde, 0x67, 0x62, 0x3e,
  0xad, 0xc1, 0x2f, 0xbe, 0x67, 0xe8, 0xd2, 0x3b, 0x62, 0x06, 0xfc, 0x3d,
  0x57, 0x5d, 0xfd, 0x3d, 0xcd, 0x1b, 0x52, 0xbe, 0x02, 0x55, 0xb5, 0x3d,
  0x3a, 0x05, 0xd2, 0xbd, 0x65, 0xea, 0x1f, 0xbd, 0x41, 0x7f, 0x31, 0x3e,
  0x36, 0x45, 0xbc, 0xbd, 0x1d, 0x02, 0x36, 0xbc, 0xf7, 0x8c, 0x42, 0x3e,
  0x2c, 0xb7, 0x8e, 0xbe, 0x3d, 0x43, 0x38, 0x3e, 0x2c, 0xcf, 0x8c, 0x3e,
  0x2c, 0xf3, 0xb8, 0x3c, 0x10, 0xf5, 0x23, 0xbd, 0x69, 0x53, 0x28, 0x3e,
  0xc0, 0xb3, 0xaf, 0x3c, 0x9b, 0xc1, 0x0f, 0xbe, 0xd3, 0x9f, 0x81, 0x3e,
  0x20, 0x14, 0xd4, 0x3d, 0x7d, 0xd7, 0x2d, 0xbe, 0xb3, 0x48, 0x8c, 0xbd,
  0x2c, 0x9e, 0xd6, 0xbd, 0x05, 0x66, 0x25, 0x3d, 0x58, 0xf5, 0x65, 0xbc,
  0x5a, 0xad, 0x1a, 0x3e, 0x02, 0x83, 0xfd, 0xbd, 0x13, 0xaa, 0x1f, 0xbe,
  0x07, 0x33, 0x69, 0x3c, 0xcc, 0x94, 0xed, 0x3c, 0xee, 0x6f, 0xb0, 0xbd,
  0xa9, 0xd5, 0x30, 0x3e, 0x39, 0xb0, 0x02, 0x3e, 0x79, 0x3a, 0x11, 0x3e,
  0x36, 0x7b, 0x34, 0x3d, 0xd1, 0x17, 0xfc, 0xbd, 0x47, 0x79, 0x46, 0x3e,
  0xa9, 0x9f, 0x1f, 0x3e, 0xeb, 0xc8, 0xd9, 0xbd, 0x6d, 0x3b, 0x46, 0xbd,
  0x30, 0xa2, 0x52, 0x3d, 0x43, 0x27, 0x20, 0xbd, 0x0d, 0xd6, 0xac, 0xbd,
  0x1d, 0x9b, 0xfc, 0x3c, 0xfe, 0x7a, 0xa5, 0x3d, 0x41, 0xa0, 0x22, 0x3e,
  0xd0, 0xd5, 0xa5, 0x3e, 0xbd, 0xf5, 0x37, 0xbc, 0xbc, 0x40, 0x24, 0x3e,
  0x08, 0x41, 0x2c, 0x3e, 0xa4, 0xb8, 0x25, 0x3e, 0x20, 0x04, 0x74, 0x3b,
  0xff, 0xb8, 0xb0, 0x3e, 0x9a, 0xb5, 0xda, 0xbd, 0x09, 0xe3, 0xec, 0xbc,
  0x8a, 0x7e, 0x3c, 0x3e, 0xb1, 0x8c, 0xc6, 0x3d, 0x95, 0x59, 0x2e, 0x3e,
  0x32, 0x2a, 0xb7, 0x3e, 0x29, 0xa3, 0x50, 0xbd, 0x57, 0xf4, 0x01, 0x3e,
  0x11, 0x38, 0xee, 0x3d, 0xb2, 0x9e, 0x25, 0x3e, 0xea, 0xd6, 0x0f, 0x3e,
  0xcc, 0x38, 0xfb, 0x3d, 0x04, 0x36, 0xd1, 0x3d, 0x9b, 0x4a, 0x39, 0x3e,
  0xd5, 0xf2, 0x2e, 0xbc, 0x61, 0x17, 0x55, 0x3e, 0xad, 0x90, 0x11, 0x3e,
  0xce, 0x00, 0x8c, 0x3e, 0xd0, 0xb6, 0x1e, 0xbe, 0xb5, 0xd9, 0xd1, 0x3d,
  0x8c, 0x2c, 0x18, 0x3c, 0x7b, 0xcd, 0x3e, 0xbd, 0x43, 0x6a, 0x12, 0x3e,
  0xf5, 0xd0, 0x04, 0x3e, 0x8a, 0xcd, 0x02, 0xbe, 0x9c, 0x45, 0x68, 0xbc,
  0x5d, 0x1d, 0x2f, 0x3e, 0xfd, 0xbf, 0x5f, 0x3e, 0x39, 0x21, 0x98, 0x3d,
  0xc4, 0x36, 0xb5, 0x3d, 0xd9, 0xcd, 0xd1, 0xbc, 0xac, 0x56, 0x87, 0xbd,
  0xda, 0x12, 0x7c, 0x3e, 0x71, 0x8d, 0x58, 0x3e, 0xdb, 0x05, 0x50, 0x3d,
  0x02, 0x04, 0x0f, 0x3d, 0x26, 0x58, 0x2c, 0x3e, 0x0c, 0xbe, 0x41, 0x3e,
  0x48, 0xc6, 0x42, 0x3e, 0x61, 0x4a, 0x90, 0x3d, 0xd3, 0xdf, 0x16, 0x3d,
  0x11, 0x31, 0xf3, 0x3d, 0x59, 0x64, 0xac, 0xbd, 0xb4, 0xca, 0x0d, 0x3e,
  0x0c, 0x4d, 0xc1, 0x3d, 0x33, 0xca, 0x8e, 0x3e, 0x1b, 0xa6, 0x80, 0xbc,
  0x2c, 0xcd, 0x57, 0x3e, 0x42, 0xf0, 0xa0, 0xbc, 0xc5, 0x89, 0x3a, 0xbd,
  0xbd, 0xad, 0x82, 0x3c, 0x06, 0x49, 0x75, 0x3e, 0x18, 0xcd, 0xe7, 0xbc,
  0xae, 0x80, 0xec, 0xba, 0x5a, 0xaf, 0x25, 0x3e, 0x2a, 0x4f, 0x05, 0x3e,
  0xa7, 0xfa, 0x9d, 0x3b, 0xff, 0xb2, 0x21, 0xbc, 0x6b, 0x7d, 0x31, 0xbd,
  0xf9, 0x88, 0x0a, 0x3d, 0x3a, 0x09, 0x50, 0xbc, 0xbd, 0xbf, 0x2a, 0x3e,
  0x8f, 0xb7, 0x09, 0x3e, 0x5a, 0x40, 0x04, 0xbd, 0x46, 0xaa, 0x36, 0xbd,
  0x9b, 0x53, 0x95, 0xbd, 0x62, 0x93, 0x3f, 0x3e, 0xa2, 0xd0, 0x30, 0x3d,
  0x48, 0x13, 0x25, 0x3e, 0xcb, 0xfe, 0xa6, 0x3d, 0xfd, 0x1c, 0x09, 0x3e,
  0x24, 0x13, 0x2b, 0x3e, 0xf5, 0xea, 0xba, 0x3d, 0x1f, 0x96, 0x33, 0x3e,
  0x96, 0x41, 0x1d, 0x3e, 0xd1, 0x27, 0x15, 0x3e, 0x97, 0x84, 0x1e, 0x3e,
  0x2a, 0xcd, 0x62, 0x3e, 0xe0, 0x3e, 0x13, 0x3e, 0xd3, 0xb9, 0xcd, 0xbc,
  0x84, 0x01, 0x2c, 0xbd, 0x07, 0x9b, 0x82, 0x3e, 0x1d, 0xe2, 0x74, 0x3c,
  0x81, 0x30, 0xb5, 0xbd, 0xad, 0xe2, 0x65, 0x3e, 0xfe, 0x0f, 0x6d, 0x3e,
  0xc7, 0xc0, 0xd4, 0x3d, 0xd4, 0x14, 0x6d, 0x3e, 0x64, 0xba, 0xff, 0x3d,
  0xaa, 0xe9, 0x3d, 0x3e, 0x7d, 0xe6, 0x2e, 0x3e, 0x54, 0x8d, 0x87, 0x3e,
  0xc0, 0x64, 0x47, 0x3c, 0x7e, 0x75, 0x0b, 0xbd, 0xaf, 0x6f, 0x7f, 0x3c,
  0x13, 0xf8, 0xd2, 0x3e, 0x6c, 0x2c, 0x52, 0x3e, 0xb0, 0x69, 0x27, 0x3e,
  0xb2, 0x43, 0xca, 0x3d, 0x15, 0x0b, 0xdb, 0x3d, 0xcb, 0x44, 0xa8, 0xbb,
  0xcb, 0x57, 0x91, 0x3e, 0x94, 0xc7, 0x12, 0x3e, 0xfd, 0xce, 0x5a, 0x3d,
  0x67, 0x2a, 0xbd, 0xbd, 0xdb, 0x7f, 0x9c, 0x3e, 0x19, 0xfd, 0xa2, 0x38,
  0x46, 0x54, 0x42, 0x3e, 0x0a, 0x4b, 0x35, 0x3e, 0x8d, 0xf6, 0x9a, 0x3c,
  0xb1, 0xb7, 0xad, 0xbc, 0x9e, 0xb2, 0xc0, 0x3e, 0x51, 0xd2, 0xb7, 0xbd,
  0xbc, 0x40, 0xca, 0x3d, 0xa4, 0x0c, 0xf2, 0xbd, 0x29, 0x83, 0x27, 0x3e,
  0xf0, 0x1b, 0x19, 0xbc, 0xe9, 0xe6, 0x80, 0x3e, 0xfe, 0xc7, 0xe1, 0x3d,
  0xfa, 0x1e, 0x94, 0x3d, 0x84, 0x35, 0x71, 0x3e, 0x25, 0x16, 0x29, 0x3e,
  0x6e, 0xdd, 0x17, 0xbc, 0x4e, 0x0f, 0xb9, 0x3e, 0x61, 0x50, 0xe3, 0x3c,
  0x76, 0xb1, 0x62, 0xba, 0x36, 0xdb, 0xca, 0xbc, 0x70, 0xb5, 0x82, 0x3e,
  0x7d, 0x89, 0xa0, 0x3c, 0x66, 0x1f, 0xc1, 0x3e, 0x9f, 0x7f, 0xef, 0xbb,
  0x95, 0x78, 0x2d, 0x3d, 0xb4, 0xed, 0x7c, 0x3e, 0xcb, 0xdd, 0x5d, 0x3e,
  0x2b, 0x52, 0x7f, 0xbd, 0x51, 0x91, 0xe0, 0x3e, 0xc5, 0x1c, 0x51, 0x3e,
  0xad, 0x72, 0xa2, 0xbc, 0x8b, 0xc7, 0x9e, 0x3e, 0x0b, 0x72, 0x60, 0x3d,
  0xdd, 0x6d, 0xf6, 0xbd, 0xf5, 0x66, 0xb2, 0x3e, 0x97, 0x3d, 0x5f, 0x3e,
  0xff, 0xb1, 0x32, 0xbd, 0x6c, 0x66, 0x52, 0x3d, 0x3d, 0x67, 0x6d, 0xbd,
  0xca, 0x28, 0x3f, 0x3d, 0xd5, 0x2a, 0xdf, 0x3e, 0x95, 0x08, 0xcf, 0xbd,
  0x15, 0xa8, 0x9e, 0xbe, 0xd5, 0x6c, 0x61, 0x3e, 0x77, 0x56, 0x7b, 0x3e,
  0xbe, 0x54, 0x2b, 0x3d, 0x49, 0xbc, 0x76, 0x3e, 0xb3, 0xa7, 0x18, 0xbd,
  0xca, 0x5c, 0x23, 0xbe, 0xa7, 0x0e, 0x25, 0x3d, 0x91, 0x1f, 0xbf, 0x3d,
  0x2a, 0x1d, 0xb3, 0x3d, 0x57, 0xa5, 0x09, 0x3e, 0x45, 0xf8, 0x59, 0xbd,
  0x62, 0x29, 0xd7, 0xbe, 0xf4, 0xd6, 0x30, 0xbd, 0x76, 0xb5, 0x0b, 0x3d,
  0x0d, 0x1e, 0x0d, 0x3e, 0x60, 0x22, 0x00, 0x3e, 0x17, 0xe0, 0xaa, 0xbd,
  0x58, 0xc2, 0x90, 0xbe, 0x5f, 0x24, 0x12, 0xbe, 0xa6, 0xfd, 0xf9, 0x3d,
  0x74, 0xec, 0xf5, 0x3c, 0xb0, 0xf3, 0x81, 0x3e, 0x09, 0x66, 0x1e, 0xbe,
  0x37, 0xda, 0x41, 0xbe, 0x12, 0xe0, 0x68, 0xbd, 0x78, 0x9d, 0x8b, 0x3c,
  0x05, 0x89, 0xff, 0xb8, 0x68, 0xec, 0xdc, 0x3d, 0x5e, 0x9c, 0x43, 0xbc,
  0x9e, 0x6d, 0x8c, 0xbe, 0xb2, 0x43, 0x0c, 0xbe, 0x06, 0x6f, 0xcc, 0x3c,
  0xa7, 0xcf, 0x2a, 0x3d, 0xfe, 0xbc, 0x63, 0x3d, 0x32, 0xa9, 0x83, 0xbd,
  0xbb, 0x28, 0xa1, 0xbe, 0xf2, 0xb7, 0x19, 0xbe, 0x51, 0xc8, 0x50, 0x3e,
  0x62, 0x2d, 0x49, 0x3e, 0x33, 0xec, 0x21, 0x3e, 0x2e, 0xd2, 0x56, 0x3d,
  0xb0, 0x71, 0x9e, 0xbe, 0xee, 0x53, 0x24, 0xbe, 0xcc, 0xb5, 0x07, 0x3d,
  0xda, 0x39, 0xc8, 0x3d, 0x1a, 0x75, 0x73, 0xbd, 0x15, 0xba, 0xaf, 0xbd,
  0x01, 0x84, 0x45, 0xbe, 0xff, 0x01, 0xd0, 0x3b, 0x28, 0x2e, 0xcb, 0x3c,
  0x0f, 0xea, 0x85, 0xbc, 0x1a, 0x66, 0x9b, 0x3c, 0x0c, 0x28, 0x00, 0xbe,
  0xc4, 0x2b, 0x64, 0xbe, 0xa4, 0xe5, 0xff, 0xbb, 0x30, 0xff, 0xf8, 0x3b,
  0xb7, 0xdf, 0x0a, 0x3c, 0x8c, 0xca, 0x0c, 0x3e, 0x38, 0xdd, 0x28, 0xbd,
  0x4c, 0xa4, 0x3f, 0xbe, 0x1f, 0x64, 0xe3, 0xbd, 0xc3, 0x89, 0x37, 0x3e,
  0x68, 0x06, 0x9d, 0xbd, 0x53, 0xc6, 0x83, 0x3d, 0xc7, 0x17, 0x0c, 0xbd,
  0x05, 0x97, 0x28, 0xbd, 0xa9, 0xaf, 0x1f, 0x3e, 0xd0, 0x69, 0xec, 0x3c,
  0x98, 0x32, 0xc2, 0xbd, 0x0a, 0xfe, 0x23, 0x3e, 0x92, 0x48, 0x04, 0x3e,
  0xd3, 0x3a, 0x46, 0xbe, 0x2a, 0x44, 0xc2, 0x3c, 0xe2, 0x38, 0x69, 0x3e,
  0x73, 0x70, 0x1c, 0x3e, 0xf7, 0x10, 0xb8, 0xbd, 0xa3, 0x50, 0x8b, 0x3d,
  0x6b, 0x2c, 0xeb, 0xbd, 0x2f, 0x36, 0x9c, 0x3d, 0xa8, 0x6f, 0x42, 0x3e,
  0x44, 0x53, 0x18, 0x3e, 0x15, 0x17, 0xbc, 0x3d, 0x17, 0x5e, 0xf0, 0xbc,
  0x2b, 0x77, 0x06, 0x3e, 0x1a, 0x12, 0x58, 0xbc, 0x8a, 0xb0, 0x1e, 0x3e,
  0xbf, 0x87, 0x2d, 0xbd, 0xbf, 0x30, 0x3d, 0x3e, 0xf8, 0xee, 0xeb, 0x3d,
  0x53, 0xc8, 0xdd, 0xbd, 0x32, 0x9f, 0x4a, 0xbc, 0xbe, 0xdc, 0xfa, 0x3d,
  0x7a, 0x1e, 0x57, 0xbd, 0xcc, 0x8d, 0x5a, 0x3d, 0x9b, 0x2f, 0xc9, 0xbd,
  0x82, 0xad, 0xff, 0xbd, 0x54, 0xd0, 0x1a, 0x3e, 0x64, 0x73, 0xe6, 0x3d,
  0x28, 0xed, 0x57, 0x3e, 0xc8, 0x72, 0xd1, 0x3d, 0xe8, 0x7d, 0xb2, 0xbc,
  0xe2, 0xbf, 0x88, 0xbd, 0xdc, 0x63, 0x91, 0x3c, 0xe6, 0xef, 0xc9, 0xbd,
  0x5d, 0xdd, 0x27, 0x3e, 0x92, 0x34, 0xbe, 0x3d, 0xc7, 0x20, 0x82, 0x3d,
  0xbb, 0x63, 0xf0, 0x3d, 0x9b, 0xcb, 0x83, 0x3d, 0xad, 0x1c, 0x41, 0xbd,
  0xe6, 0xdd, 0x37, 0x3e, 0x8c, 0x1d, 0x53, 0x3d, 0x95, 0x68, 0xe5, 0xbd,
  0xd1, 0x49, 0xe3, 0xbd, 0x59, 0xb6, 0xc0, 0x3d, 0x64, 0x86, 0xa8, 0xbd,
  0xc9, 0x63, 0x94, 0x3d, 0xd8, 0x7f, 0x3e, 0x3d, 0xee, 0x16, 0xf0, 0xbc,
  0x6e, 0xfb, 0x13, 0x3e, 0x32, 0xc0, 0xa5, 0x3c, 0x3b, 0x7d, 0xb5, 0x3d,
  0x71, 0x9b, 0x3f, 0x3e, 0x19, 0xe0, 0x2d, 0x3e, 0xbe, 0x70, 0x24, 0xbe,
  0x48, 0x08, 0x7b, 0x3d, 0xca, 0x09, 0x83, 0xbd, 0x18, 0x01, 0xc9, 0x3c,
  0xee, 0x63, 0xde, 0x3d, 0x80, 0x1c, 0x5b, 0x3c, 0x6f, 0x58, 0x07, 0xbe,
  0xb1, 0x1a, 0xd9, 0xbd, 0xb3, 0xf4, 0xac, 0xbd, 0x60, 0xd6, 0x83, 0xbc,
  0x74, 0xef, 0x72, 0x3d, 0x6d, 0x17, 0x03, 0x3e, 0x8e, 0x3f, 0xbc, 0xbd,
  0xcf, 0xff, 0x25, 0x3e, 0xe8, 0x49, 0x1e, 0xbe, 0x40, 0x29, 0x4a, 0xbc,
  0xdc, 0x3f, 0x4a, 0x3d, 0x16, 0x9f, 0x13, 0xbe, 0xea, 0x51, 0x9c, 0x3d,
  0x40, 0x5f, 0x93, 0x3b, 0xaf, 0xbe, 0xf1, 0xbd, 0xb4, 0xc6, 0x6b, 0x3d,
  0xe8, 0xbd, 0x1d, 0xbe, 0xdb, 0xd5, 0x1d, 0x3e, 0x68, 0x05, 0x81, 0x3d,
  0xd8, 0x50, 0x04, 0xbe, 0x90, 0x95, 0x42, 0x3d, 0xe9, 0xc0, 0x25, 0x3e,
  0xc2, 0x95, 0xda, 0xbd, 0xd0, 0x1a, 0xca, 0x3c, 0x16, 0x54, 0xaa, 0xbd,
  0x30, 0x29, 0x26, 0x3c, 0x6a, 0x85, 0xb2, 0x3d, 0x1a, 0x50, 0xf6, 0xbd,
  0x30, 0xf0, 0xdd, 0x3c, 0x84, 0x16, 0xf1, 0xbd, 0x00, 0x2a, 0xe4, 0x3b,
  0x6c, 0x97, 0x5e, 0x3d, 0x1a, 0xf3, 0xf3, 0xbd, 0x90, 0xb7, 0x81, 0x3d,
  0x56, 0x4f, 0x90, 0xbd, 0xe6, 0x60, 0xba, 0x3d, 0x50, 0x4b, 0xfc, 0x3c,
  0xe0, 0xa3, 0x0c, 0xbe, 0xe5, 0x92, 0x09, 0x3e, 0xc8, 0x87, 0xf8, 0xbd,
  0x10, 0xf3, 0x1d, 0xbd, 0x00, 0x85, 0x40, 0xba, 0xc8, 0x58, 0x21, 0xbe,
  0xe0, 0xe6, 0x24, 0x3c, 0x52, 0x3e, 0x2b, 0xbe, 0x35, 0x46, 0x1f, 0x3e,
  0xd0, 0x8e, 0xbf, 0xbd, 0x3b, 0xb4, 0xf4, 0xbd, 0x10, 0x9f, 0xe1, 0x3c,
  0xfd, 0xee, 0x22, 0xbe, 0x28, 0x33, 0xc4, 0x3c, 0xd0, 0x0b, 0xec, 0x3c,
  0x91, 0x86, 0x08, 0x3e, 0x46, 0xa5, 0xab, 0x3d, 0xc1, 0x6a, 0x09, 0x3e,
  0x82, 0xc7, 0xca, 0x3d, 0xe0, 0xea, 0x90, 0x3c, 0xea, 0xac, 0x8d, 0xbd,
  0xee, 0x47, 0xf7, 0xbd, 0xd0, 0xa6, 0xa3, 0xbc, 0x60, 0x89, 0xca, 0xbb,
  0xaf, 0x48, 0x0e, 0x3e, 0x85, 0xd7, 0x02, 0x3e, 0x79, 0x5a, 0x1a, 0x3e,
  0x08, 0x4d, 0x3f, 0xbd, 0xc6, 0x80, 0xb7, 0xbd, 0xa6, 0x68, 0xd3, 0x3d,
  0x58, 0x1f, 0xea, 0xbd, 0xca, 0x8e, 0x62, 0xbd, 0xdf, 0x40, 0x05, 0x3e,
  0xc8, 0x66, 0x5a, 0x3d, 0xe9, 0xa9, 0xbe, 0xbd, 0xf8, 0x5b, 0xea, 0xbd,
  0xae, 0x1a, 0x97, 0xbd, 0xa2, 0x76, 0x0f, 0xbe, 0x59, 0xed, 0xb4, 0xbd,
  0x18, 0xd2, 0x24, 0x3d, 0x20, 0xb4, 0xa7, 0xbc, 0xfa, 0xa8, 0xde, 0x3d,
  0x80, 0xe6, 0x58, 0xbb, 0x40, 0x14, 0x3d, 0xbb, 0x67, 0xe6, 0x10, 0x3e,
  0x68, 0x5e, 0x66, 0x3d, 0xc0, 0x0f, 0x5c, 0xbc, 0xe6, 0x43, 0xe1, 0xbd,
