const unsigned char gesture_model [] = {  
  0x1c, 0x00, 0x00, 0x00, 0x54, 0x46, 0x4c, 0x33, 0x14, 0x00, 0x20, 0x00,
  0x1c, 0x00, 0x18, 0x00, 0x14, 0x00, 0x10, 0x00, 0x0c, 0x00, 0x00, 0x00,
  0x08, 0x00, 0x04, 0x00, 0x14, 0x00, 0x00, 0x00, 0x1c, 0x00, 0x00, 0x00,
  0x90, 0x00, 0x00, 0x00, 0xe8, 0x00, 0x00, 0x00, 0xb4, 0x1b, 0x00, 0x00,
  0xc4, 0x1b, 0x00, 0x00, 0x80, 0x21, 0x00, 0x00, 0x03, 0x00, 0x00, 0x00,
  0x01, 0x00, 0x00, 0x00, 0x10, 0x00, 0x00, 0x00, 0x00, 0x00, 0x0a, 0x00,
  0x10, 0x00, 0x0c, 0x00, 0x08, 0x00, 0x04, 0x00, 0x0a, 0x00, 0x00, 0x00,
  0x0c, 0x00, 0x00, 0x00, 0x1c, 0x00, 0x00, 0x00, 0x38, 0x00, 0x00, 0x00,
  0x0f, 0x00, 0x00, 0x00, 0x73, 0x65, 0x72, 0x76, 0x69, 0x6e, 0x67, 0x5f,
  0x64, 0x65, 0x66, 0x61, 0x75, 0x6c, 0x74, 0x00, 0x01, 0x00, 0x00, 0x00,
  0x04, 0x00, 0x00, 0x00, 0x98, 0xff, 0xff, 0xff, 0x0a, 0x00, 0x00, 0x00,
  0x04, 0x00, 0x00, 0x00, 0x07, 0x00, 0x00, 0x00, 0x64, 0x65, 0x6e, 0x73,
  0x65, 0x5f, 0x32, 0x00, 0x01, 0x00, 0x00, 0x00, 0x04, 0x00, 0x00, 0x00,
  0x2e, 0xe4, 0xff, 0xff, 0x04, 0x00, 0x00, 0x00, 0x0b, 0x00, 0x00, 0x00,
  0x64, 0x65, 0x6e, 0x73, 0x65, 0x5f, 0x69, 0x6e, 0x70, 0x75, 0x74, 0x00,
  0x02, 0x00, 0x00, 0x00, 0x34, 0x00, 0x00, 0x00, 0x04, 0x00, 0x00, 0x00,
  0xdc, 0xff, 0xff, 0xff, 0x0d, 0x00, 0x00, 0x00, 0x04, 0x00, 0x00, 0x00,
  0x13, 0x00, 0x00, 0x00, 0x43, 0x4f, 0x4e, 0x56, 0x45, 0x52, 0x53, 0x49,
  0x4f, 0x4e, 0x5f, 0x4d, 0x45, 0x54, 0x41, 0x44, 0x41, 0x54, 0x41, 0x00,
  0x08, 0x00, 0x0c, 0x00, 0x08, 0x00, 0x04, 0x00, 0x08, 0x00, 0x00, 0x00,
  0x0c, 0x00, 0x00, 0x00, 0x04, 0x00, 0x00, 0x00, 0x13, 0x00, 0x00, 0x00,
  0x6d, 0x69, 0x6e, 0x5f, 0x72, 0x75, 0x6e, 0x74, 0x69, 0x6d, 0x65, 0x5f,
  0x76, 0x65, 0x72, 0x73, 0x69, 0x6f, 0x6e, 0x00, 0x0e, 0x00, 0x00, 0x00,
  0xc8, 0x1a, 0x00, 0x00, 0xc0, 0x1a, 0x00, 0x00, 0x90, 0x1a, 0x00, 0x00,
  0x68, 0x1a, 0x00, 0x00, 0x18, 0x1a, 0x00, 0x00, 0x88, 0x03, 0x00, 0x00,
  0x78, 0x01, 0x00, 0x00, 0xa8, 0x00, 0x00, 0x00, 0xa0, 0x00, 0x00, 0x00,
  0x98, 0x00, 0x00, 0x00, 0x90, 0x00, 0x00, 0x00, 0x88, 0x00, 0x00, 0x00,
  0x68, 0x00, 0x00, 0x00, 0x04, 0x00, 0x00, 0x00, 0xde, 0xe4, 0xff, 0xff,
  0x04, 0x00, 0x00, 0x00, 0x54, 0x00, 0x00, 0x00, 0x0c, 0x00, 0x00, 0x00,
  0x08, 0x00, 0x0e, 0x00, 0x08, 0x00, 0x04, 0x00, 0x08, 0x00, 0x00, 0x00,
  0x10, 0x00, 0x00, 0x00, 0x24, 0x00, 0x00, 0x00, 0x00, 0x00, 0x06, 0x00,
  0x08, 0x00, 0x04, 0x00, 0x06, 0x00, 0x00, 0x00, 0x04, 0x00, 0x00, 0x00,
  0x00, 0x00, 0x00, 0x00, 0x00, 0x00, 0x0a, 0x00, 0x10, 0x00, 0x0c, 0x00,
  0x08, 0x00, 0x04, 0x00, 0x0a, 0x00, 0x00, 0x00, 0x02, 0x00, 0x00, 0x00,
  0x02, 0x00, 0x00, 0x00, 0x04, 0x00, 0x00, 0x00, 0x06, 0x00, 0x00, 0x00,
  0x32, 0x2e, 0x31, 0x30, 0x2e, 0x30, 0x00, 0x00, 0x3e, 0xe5, 0xff, 0xff,
  0x04, 0x00, 0x00, 0x00, 0x10, 0x00, 0x00, 0x00, 0x31, 0x2e, 0x35, 0x2e,
  0x30, 0x00, 0x00, 0x00, 0x00, 0x00, 0x00, 0x00, 0x00, 0x00, 0x00, 0x00,
  0x4c, 0xe0, 0xff, 0xff, 0x50, 0xe0, 0xff, 0xff, 0x54, 0xe0, 0xff, 0xff,
  0x58, 0xe0, 0xff, 0xff, 0x6a, 0xe5, 0xff, 0xff, 0x04, 0x00, 0x00, 0x00,
  0xc0, 0x00, 0x00, 0x00, 0xb3, 0x0e, 0xc7, 0x3e, 0x34, 0x41, 0xc3, 0xbf,
  0x73, 0x07, 0xec, 0x3e, 0xf6, 0xd7, 0xc7, 0x3e, 0x86, 0xbf, 0x2a, 0xbe,
  0x50, 0xfc, 0x29, 0x3e, 0xc1, 0x12, 0x33, 0xbf, 0x43, 0x8e, 0x36, 0x3f,
  0x35, 0xb0, 0xa6, 0x3e, 0xa8, 0xff, 0x01, 0x3f, 0xac, 0x59, 0x20, 0x3f,
  0xe6, 0x5e, 0x97, 0xbf, 0x2d, 0x7d, 0xa2, 0xbf, 0xd0, 0xff, 0x14, 0xbf,
  0xa3, 0x4a, 0xd7, 0xbe, 0x7b, 0x6b, 0x38, 0xbf, 0xa6, 0x40, 0xa7, 0xbf,
  0x5a, 0x78, 0x07, 0x3f, 0x1e, 0xd3, 0x4e, 0xbf, 0xfb, 0x24, 0x24, 0xbc,
  0x1c, 0xe6, 0x36, 0x3f, 0x6b, 0xe8, 0xc0, 0xbe, 0x99, 0xa7, 0x98, 0x3e,
  0xeb, 0x7a, 0xa7, 0x3e, 0xb5, 0xdd, 0x28, 0x3e, 0xf2, 0x1a, 0xed, 0xbd,
  0x84, 0x74, 0x03, 0xbf, 0x9d, 0x3d, 0x4a, 0x3f, 0x8e, 0x7f, 0x08, 0xbe,
  0x45, 0x83, 0x09, 0xbf, 0x1f, 0x11, 0xfe, 0xbf, 0x2f, 0x81, 0x03, 0xc0,
  0x0b, 0x1f, 0xf0, 0x3e, 0xac, 0x17, 0x2f, 0xbf, 0xdc, 0xa7, 0x36, 0x3f,
  0xe8, 0xc3, 0x78, 0xbf, 0x60, 0x90, 0xd7, 0x3e, 0xc3, 0xa2, 0x0e, 0xbf,
  0xf6, 0xfc, 0x80, 0xbf, 0x35, 0x22, 0xa0, 0xbe, 0x6c, 0x4f, 0x19, 0xbe,
  0xef, 0x3e, 0x59, 0x3e, 0x93, 0x70, 0x7c, 0xbe, 0xf5, 0x56, 0x87, 0xbf,
  0x89, 0x46, 0xb4, 0xbe, 0x57, 0xb1, 0x12, 0xbf, 0xb7, 0x0a, 0x51, 0x3f,
  0x2e, 0x89, 0x96, 0x3f, 0x36, 0xe6, 0xff, 0xff, 0x04, 0x00, 0x00, 0x00,
  0x00, 0x02, 0x00, 0x00, 0x84, 0xb8, 0xb6, 0xbe, 0xd1, 0x36, 0x81, 0x3f,
  0x80, 0x7f, 0xb5, 0x3c, 0xa8, 0x73, 0xfc, 0xbe, 0x18, 0xf2, 0x06, 0xbe,
  0x50, 0xd0, 0xe3, 0x3d, 0x91, 0xab, 0xf9, 0xbe, 0x5d, 0xe6, 0x3a, 0xbe,
  0xba, 0x19, 0xf0, 0x3d, 0x8d, 0xd0, 0xab, 0xbe, 0x69, 0x57, 0x9c, 0x3d,
  0xa8, 0x84, 0x31, 0x3e, 0x81, 0xbb, 0x2b, 0x3f, 0x52, 0xa0, 0x50, 0x3f,
  0x70, 0x1e, 0x98, 0x3d, 0xd5, 0x04, 0xf5, 0x3e, 0x2f, 0x56, 0x53, 0xbe,
  0xba, 0x18, 0x03, 0xbe, 0x04, 0x80, 0x80, 0x3e, 0xb8, 0x16, 0xf3, 0xbe,
  0x48, 0xa8, 0xd3, 0xbe, 0xe8, 0xe9, 0xd2, 0xbe, 0x20, 0x6d, 0xbe, 0x3d,
  0x86, 0xcb, 0xe7, 0x3e, 0xdb, 0xa4, 0x39, 0x3f, 0x4f, 0x73, 0x8f, 0x3e,
  0xf5, 0xd5, 0x42, 0xbe, 0xdb, 0x3e, 0x88, 0x3f, 0x1e, 0x2d, 0x6d, 0xbf,
  0x9d, 0x23, 0xc5, 0xbe, 0x80, 0xfa, 0x16, 0x3e, 0x4c, 0x0c, 0xf7, 0x3e,
  0xde, 0x75, 0xd3, 0xbe, 0x6c, 0xf1, 0x6a, 0x3f, 0x60, 0xcd, 0x74, 0xbe,
  0x4c, 0x5e, 0xff, 0x3e, 0xd8, 0x0a, 0xe3, 0x3e, 0xb0, 0x4f, 0x51, 0xbe,
  0x9b, 0x72, 0x5d, 0xbf, 0x98, 0xd1, 0x5b, 0x3e, 0x01, 0xae, 0x4f, 0x3d,
  0x7c, 0x55, 0x29, 0x3b, 0xf9, 0x96, 0x0f, 0x3f, 0x40, 0xbd, 0xf6, 0xbe,
  0x9d, 0x3e, 0xfa, 0x3d, 0x46, 0x92, 0x03, 0x3f, 0xa8, 0x27, 0x44, 0x3e,
  0x3d, 0x95, 0xbe, 0x3c, 0xf2, 0x81, 0x87, 0xbc, 0x0c, 0xcf, 0x0b, 0xbf,
  0x90, 0x1a, 0x2e, 0xbe, 0x10, 0x37, 0x0a, 0xbe, 0xe8, 0x6b, 0x8b, 0xbe,
  0x80, 0x55, 0x80, 0xbc, 0x07, 0x1f, 0x01, 0x3f, 0xb0, 0xad, 0x85, 0xbf,
  0x4b, 0xeb, 0xc1, 0xbe, 0xd3, 0xfd, 0x68, 0x3f, 0xff, 0x9a, 0x03, 0x3e,
  0x01, 0x8c, 0xfb, 0x3d, 0xb7, 0x49, 0x18, 0x3f, 0x0b, 0xd1, 0x09, 0xbd,
  0xe0, 0x6a, 0x9f, 0xbe, 0x39, 0x0f, 0x2a, 0x3f, 0x65, 0x1e, 0x60, 0x3e,
  0xdb, 0xd7, 0xda, 0xbd, 0x60, 0x29, 0x5d, 0x3d, 0x80, 0xd5, 0x57, 0xbe,
  0x9c, 0xef, 0xf5, 0x3e, 0x08, 0xc1, 0xbd, 0x3e, 0xfa, 0x5f, 0x93, 0x3f,
  0xf5, 0xce, 0x02, 0x3f, 0x16, 0xd6, 0x45, 0x3d, 0xad, 0xb7, 0x2e, 0x3f,
  0x42, 0xcc, 0xe6, 0x3e, 0x35, 0xde, 0x0f, 0xbe, 0xc0, 0x7f, 0x3c, 0x3f,
  0x42, 0x09, 0xa8, 0xbe, 0x7c, 0x9a, 0xa5, 0xbe, 0xcb, 0xf1, 0x64, 0xbe,
  0xe6, 0x09, 0x81, 0x3e, 0xe0, 0x40, 0xbe, 0xbe, 0xd8, 0x97, 0x2c, 0xbe,
  0x80, 0x4a, 0x12, 0xbc, 0xd8, 0x04, 0x7a, 0x3e, 0x40, 0x8a, 0x36, 0x3e,
  0x55, 0x9f, 0xd3, 0x3e, 0x8a, 0xea, 0x39, 0xbe, 0x21, 0x63, 0xe5, 0xbe,
  0xd3, 0x04, 0x59, 0x3e, 0x1d, 0xa8, 0xde, 0xbe, 0xf0, 0x65, 0xd7, 0x3e,
  0x21, 0x26, 0x88, 0xbd, 0xf3, 0xd5, 0x8b, 0x3e, 0x00, 0xb0, 0x5b, 0x3d,
  0xdb, 0x22, 0x70, 0xbe, 0x79, 0xbf, 0x88, 0x3e, 0x27, 0x87, 0xca, 0xbe,
  0xb0, 0x51, 0xa9, 0xbe, 0x50, 0xb5, 0xb9, 0xbd, 0xd0, 0x6e, 0x6f, 0x3e,
  0xf0, 0x7b, 0x7b, 0xbe, 0x5d, 0xcc, 0x07, 0x3e, 0x7e, 0xd3, 0xd9, 0x3e,
  0xeb, 0xfa, 0x7a, 0xbe, 0x70, 0xac, 0x21, 0xbf, 0x36, 0x2b, 0xe7, 0x3e,
  0x43, 0xd2, 0xb2, 0x3e, 0xda, 0xb7, 0x95, 0xbe, 0x81, 0x37, 0xf4, 0xbe,
  0xc0, 0x43, 0xd2, 0xbe, 0x6d, 0xd8, 0xb6, 0x3e, 0xf9, 0x82, 0x8e, 0x3d,
  0xad, 0x4c, 0x77, 0xbf, 0x54, 0x46, 0xa6, 0x3e, 0xb8, 0xa5, 0x99, 0xbe,
  0x28, 0x34, 0x3b, 0x3e, 0x80, 0x24, 0x21, 0x3c, 0x9d, 0xc3, 0xfa, 0xbd,
  0x51, 0xcd, 0xaa, 0x3e, 0xed, 0xdc, 0xc9, 0xbe, 0xee, 0x3a, 0xef, 0xbe,
  0xbe, 0xe6, 0x1b, 0x3f, 0x76, 0x07, 0xf6, 0x3e, 0x5c, 0xa5, 0x43, 0x3f,
  0x8a, 0x13, 0xd0, 0xbe, 0xa8, 0x51, 0xc5, 0x3e, 0x9e, 0x59, 0x80, 0x3e,
  0x42, 0xe8, 0xff, 0xff, 0x04, 0x00, 0x00, 0x00, 0x80, 0x16, 0x00, 0x00,
  0x84, 0x72, 0x01, 0x3e, 0x13, 0x15, 0x21, 0x3e, 0x7a, 0xb6, 0x01, 0xbe,
  0x59, 0xb9, 0xde, 0xbc, 0xd6, 0xce, 0xf4, 0xbd, 0x80, 0xcf, 0xc9, 0x3c,
  0x03, 0x82, 0x75, 0xbd, 0x74, 0xbb, 0x56, 0x3d, 0x7c, 0xe6, 0xee, 0x3d,
  0xca, 0x4a, 0x3c, 0x3e, 0x42, 0x00, 0xd4, 0xbd, 0xf6, 0xad, 0x8d, 0x3d,
  0xa5, 0x2f, 0x01, 0x3b, 0x68, 0x04, 0xcc, 0xbb, 0xee, 0xe1, 0xa0, 0x3d,
  0x54, 0xb1, 0xa6, 0x3d, 0xf1, 0x9a, 0x5d, 0x3e, 0x64, 0x68, 0x82, 0x3c,
  0xa5, 0x15, 0xaa, 0xbd, 0xf5, 0xd6, 0x02, 0xbe, 0xd3, 0x64, 0xea, 0x3d,
  0xf4, 0x19, 0x68, 0xbe, 0xf7, 0xe5, 0xda, 0xbd, 0xcf, 0x4a, 0x6f, 0xbd,
  0x91, 0x90, 0xf4, 0xbd, 0xdc, 0xa4, 0x71, 0xbe, 0x71, 0x21, 0x05, 0x3e,
  0xad, 0x6d, 0x1a, 0xbe, 0x29, 0x62, 0x5b, 0xbe, 0xae, 0xbc, 0xd9, 0x3d,
  0x73, 0x8d, 0x11, 0x3e, 0x5c, 0x2f, 0x24, 0x3e, 0x96, 0xb5, 0x44, 0x3e,
  0xa8, 0xd9, 0x37, 0x3e, 0x1f, 0x2f, 0x81, 0xbe, 0x10, 0xd6, 0xcc, 0xbd,
  0x02, 0xe0, 0x37, 0xbc, 0x72, 0x94, 0x5d, 0xbc, 0xb1, 0x4d, 0xf5, 0x3c,
  0x4e, 0x9e, 0x58, 0xbe, 0x12, 0xbc, 0x3e, 0x3e, 0x20, 0xcd, 0x5a, 0x3e,
  0x90, 0xfb, 0x40, 0xbe, 0x64, 0x17, 0x0d, 0x3e, 0xcf, 0xe7, 0x17, 0xbe,
  0x6a, 0xbe, 0x95, 0xbd, 0xa5, 0x06, 0xc4, 0xbc, 0xd1, 0xf9, 0x50, 0x3e,
  0x84, 0x94, 0x2a, 0x3e, 0x1f, 0x94, 0x63, 0xbe, 0x00, 0xad, 0xe7, 0xbd,
  0x3f, 0x90, 0x5f, 0xbd, 0xc5, 0xfb, 0xf0, 0x3d, 0x11, 0xce, 0x55, 0x3e,
  0x9e, 0x81, 0xb5, 0x3d, 0x10, 0x82, 0xb2, 0xbd, 0x27, 0xc9, 0xd0, 0xbd,
  0x1f, 0xab, 0xa9, 0xbb, 0x39, 0x41, 0x57, 0x3e, 0x37, 0xcf, 0xbb, 0x3d,
  0x94, 0x83, 0xc9, 0xbb, 0x64, 0xfd, 0xd3, 0x3a, 0xb7, 0xfb, 0x27, 0x3d,
  0x9b, 0xaa, 0x68, 0x3d, 0x3b, 0xe3, 0x56, 0xbd, 0x2b, 0xc0, 0x5f, 0xbe,
  0x2f, 0xf3, 0x1b, 0xbe, 0x65, 0x61, 0x74, 0xbd, 0xab, 0xcf, 0xea, 0xbd,
  0x81, 0x3f, 0x9f, 0xbd, 0xc0, 0xb1, 0x2c, 0x3e, 0x87, 0x0f, 0xaf, 0xbd,
  0x9c, 0xb3, 0x32, 0xbd, 0x08, 0xe0, 0xcc, 0xbd, 0x0c, 0xb2, 0x58, 0x3e,
  0x2a, 0x59, 0x07, 0x3d, 0x43, 0x6e, 0x62, 0xbe, 0x58, 0x03, 0x5f, 0x3e,
  0xc0, 0x75, 0x58, 0xbe, 0xef, 0x60, 0x4d, 0xbe, 0xf2, 0x2c, 0x42, 0xbe,
  0x3c, 0xbf, 0x16, 0x3e, 0x4e, 0x9e, 0x1a, 0xbe, 0x5a, 0x41, 0x3d, 0x3e,
  0x33, 0x91, 0x06, 0x3e, 0x65, 0xe4, 0x10, 0xbe, 0xf6, 0x99, 0xdf, 0x3d,
  0xa3, 0x39, 0x3d, 0xbd, 0x57, 0x5e, 0xc6, 0xbd, 0x69, 0x26, 0xf3, 0x3d,
  0xe1, 0x1a, 0x22, 0x3e, 0xbd, 0x9f, 0xb3, 0x3d, 0xb7, 0xa1, 0x94, 0x3e,
  0x8f, 0xf3, 0x5d, 0xbe, 0x48, 0xcd, 0x21, 0x3e, 0xf5, 0xc4, 0x2e, 0x3e,
  0xe6, 0xff, 0x95, 0xbe, 0x8f, 0x38, 0x0a, 0x3e, 0xc0, 0xe4, 0xfc, 0x3e,
  0x1e, 0x57, 0x9c, 0xbe, 0xb9, 0xc8, 0x13, 0x3d, 0x0a, 0xeb, 0x22, 0x3c,
  0xed, 0x28, 0x62, 0x39, 0x62, 0x76, 0x21, 0xbd, 0x75, 0x71, 0xc6, 0x3e,
  0x35, 0x88, 0x4c, 0xbe, 0xcd, 0x70, 0x44, 0xbe, 0x15, 0xdd, 0x0b, 0x3e,
  0x46, 0x38, 0x88, 0xbe, 0xb3, 0x77, 0xd3, 0x3d, 0xa6, 0x0b, 0xf4, 0x3d,
  0xc0, 0x5c, 0xfc, 0xbd, 0x18, 0xca, 0xe9, 0xbd, 0xa1, 0x12, 0xf6, 0x3d,
  0x1a, 0xb4, 0x83, 0xbe, 0xf1, 0xa7, 0x8a, 0x3e, 0xc2, 0x97, 0xe3, 0x3e,
  0x13, 0x80, 0x46, 0x3e, 0xbf, 0x31, 0x91, 0xbd, 0xb5, 0x22, 0x48, 0xbe,
  0x2d, 0x2a, 0xae, 0xbd, 0x40, 0x74, 0x6e, 0x3e, 0x33, 0x1f, 0x35, 0x3e,
  0xa8, 0xcd, 0x06, 0xbc, 0x38, 0x18, 0x45, 0x3d, 0x81, 0x38, 0x77, 0xbe,
  0xa5, 0xfc, 0xbe, 0xbd, 0x14, 0xec, 0xce, 0x3d, 0xec, 0xed, 0xa6, 0x3e,
  0x46, 0xa3, 0xd4, 0xbd, 0xdc, 0xce, 0x12, 0x3e, 0xf8, 0x7c, 0x5a, 0xbe,
  0x28, 0x1e, 0x63, 0x3e, 0xb2, 0x4d, 0x6b, 0xbe, 0x8c, 0x99, 0x86, 0x3e,
  0xb3, 0xee, 0xd9, 0xbc, 0xbf, 0x31, 0x7b, 0x3d, 0xce, 0x1e, 0x7b, 0xbe,
  0xb1, 0x19, 0x83, 0x3e, 0x83, 0x4e, 0x4c, 0xbd, 0xd7, 0xb7, 0x80, 0x3e,
  0x0c, 0x78, 0x00, 0xbe, 0xad, 0xbd, 0x5b, 0x3e, 0xa0, 0xd5, 0x7f, 0xbe,
  0x10, 0x94, 0x1c, 0x3d, 0xe6, 0xd5, 0xc6, 0xbe, 0xf1, 0x56, 0xc2, 0xbd,
  0x69, 0x28, 0xc6, 0xbd, 0xf1, 0xe6, 0x9c, 0xbd, 0x8e, 0xa3, 0x06, 0xbe,
  0x7a, 0xf4, 0x42, 0xbc, 0x53, 0xff, 0xe9, 0x3c, 0x34, 0x37, 0x95, 0x3d,
  0xc9, 0x81, 0x2f, 0x3e, 0x5d, 0xe8, 0x61, 0xbd, 0x5c, 0x94, 0x06, 0x3e,
  0x29, 0xfc, 0x72, 0xbc, 0x47, 0xfd, 0xc7, 0x3d, 0x23, 0x3a, 0xdd, 0xbc,
  0x05, 0x15, 0xcd, 0x3c, 0x8c, 0x2c, 0x8e, 0x3e, 0xdd, 0x06, 0x80, 0xbe,
  0xa9, 0xdb, 0x84, 0xbc, 0xf0, 0xe0, 0xaf, 0xbd, 0xd1, 0x28, 0x15, 0xbe,
  0x2e, 0x99, 0x1e, 0x3e, 0x67, 0xd9, 0x49, 0xbd, 0x5e, 0x50, 0x3b, 0xbe,
  0xe2, 0x7d, 0x9d, 0xbc, 0x18, 0x79, 0x64, 0xbe, 0x39, 0x3e, 0x82, 0xbe,
  0xa0, 0x54, 0xf2, 0x3c, 0x6b, 0x9a, 0x3b, 0x3e, 0xee, 0x39, 0x18, 0x3e,
  0x53, 0xa5, 0xe1, 0xbb, 0xa2, 0xa1, 0x25, 0xbe, 0xc2, 0xf1, 0x7d, 0xbe,
  0x91, 0xc3, 0x58, 0xbd, 0xd5, 0x94, 0xbd, 0x3c, 0x47, 0x8b, 0x58, 0x3d,
  0xf8, 0x7d, 0x72, 0xbd, 0xb4, 0x89, 0x47, 0xbe, 0xf6, 0x90, 0xbe, 0x3d,
  0x60, 0xdc, 0xe5, 0xbd, 0xc0, 0xac, 0x0a, 0xbe, 0x81, 0x32, 0x47, 0x3e,
  0x83, 0x49, 0x69, 0x3e, 0x07, 0x08, 0x59, 0xbe, 0xa0, 0xa8, 0xdd, 0xbc,
  0xaa, 0xb1, 0xf2, 0xbd, 0x96, 0xbc, 0xc7, 0xbd, 0x3c, 0x31, 0x1b, 0xbe,
  0x06, 0x61, 0xd8, 0xbd, 0xf0, 0x2b, 0x0e, 0xbe, 0xab, 0x37, 0x68, 0x3e,
  0x08, 0x7d, 0xca, 0x3c, 0x3b, 0xe3, 0x0b, 0xbe, 0x88, 0x73, 0x95, 0xbc,
  0x40, 0xb4, 0x93, 0xbc, 0xf8, 0xf0, 0xb9, 0x3c, 0x74, 0xa2, 0x2e, 0x3d,
  0x7a, 0x44, 0xe1, 0x3d, 0xe0, 0x79, 0x0c, 0xbe, 0x45, 0xf2, 0x1d, 0xbe,
  0xc0, 0x96, 0x36, 0x3c, 0x57, 0x77, 0x2d, 0xbe, 0x51, 0x08, 0x58, 0x3e,
  0xb7, 0x42, 0x73, 0x3e, 0x7f, 0xca, 0x27, 0x3e, 0xa4, 0x90, 0x4e, 0xbe,
  0xf6, 0xae, 0xb6, 0x3d, 0xf4, 0x6f, 0x71, 0x3d, 0x68, 0x72, 0x97, 0xbd,
  0xc7, 0x16, 0x28, 0x3e, 0x24, 0x58, 0x0f, 0xbd, 0xa8, 0xa8, 0x8c, 0xbd,
  0xc0, 0xa7, 0xfb, 0xbb, 0x5e, 0xa5, 0x89, 0x3d, 0x11, 0x2a, 0x25, 0x3e,
  0xde, 0x02, 0xb2, 0x3d, 0x51, 0xa4, 0x11, 0x3e, 0x5b, 0xa4, 0x1c, 0x3e,
  0xa9, 0x99, 0x09, 0xbe, 0x26, 0x7d, 0xdb, 0x3d, 0x53, 0xd9, 0x25, 0xbe,
  0x14, 0xdd, 0x6f, 0x3d, 0x70, 0x89, 0xe3, 0xbd, 0x6c, 0x09, 0x7c, 0xbd,
  0xf6, 0xed, 0x88, 0x3d, 0xa8, 0x11, 0x90, 0xbc, 0x03, 0xe1, 0x2a, 0xbe,
  0x90, 0x64, 0x13, 0xbe, 0x06, 0x8e, 0x16, 0xbe, 0x9b, 0x28, 0x08, 0x3e,
  0xee, 0x58, 0xa9, 0xbd, 0x5d, 0xe1, 0x2c, 0xbe, 0x24, 0x8a, 0xd2, 0xbd,
  0x04, 0x79, 0x39, 0xbe, 0x02, 0x9f, 0xec, 0x3d, 0x17, 0xe0, 0xfb, 0xbd,
  0xb0, 0x47, 0x54, 0xbe, 0x7b, 0xb8, 0x65, 0xbe, 0xf0, 0xee, 0x6c, 0xbd,
  0x95, 0xdc, 0x3e, 0x3e, 0x9a, 0x5a, 0x6d, 0xbe, 0x31, 0x66, 0x1e, 0x3e,
  0xdb, 0xef, 0x2a, 0x3e, 0x20, 0x2c, 0x4a, 0xbd, 0x9a, 0xee, 0x39, 0xbe,
  0xf3, 0x4a, 0x56, 0xbe, 0xdd, 0xb4, 0x43, 0x3e, 0xdd, 0x33, 0x12, 0x3e,
  0xcf, 0x8f, 0x66, 0xbe, 0xa8, 0x69, 0x1a, 0xbe, 0x58, 0x2e, 0x5b, 0xbe,
  0xa2, 0xbe, 0xfa, 0x3d, 0xb2, 0x0b, 0xc6, 0xbd, 0x54, 0x6e, 0x37, 0x3d,
  0x35, 0x37, 0x3b, 0x3e, 0x8d, 0x6f, 0x59, 0xbe, 0xed, 0xc0, 0x29, 0x3e,
  0x0a, 0xe4, 0x99, 0x3d, 0x2f, 0x4f, 0x1b, 0x3e, 0xb4, 0xd6, 0x17, 0xbe,
  0x62, 0xde, 0xb8, 0xbd, 0xb8, 0xa1, 0x72, 0xbd, 0x2c, 0xd8, 0x00, 0xbe,
  0xb0, 0x4a, 0xa7, 0xbd, 0x71, 0x94, 0x09, 0x3e, 0x4d, 0xf7, 0x17, 0x3e,
  0xc5, 0xc9, 0x15, 0x3e, 0x68, 0x31, 0xb6, 0x3c, 0x1c, 0x24, 0x29, 0xbe,
  0x92, 0x29, 0x13, 0xbe, 0x38, 0x87, 0x98, 0xbd, 0xf8, 0xf7, 0x5f, 0xbd,
  0x28, 0x3d, 0x13, 0xbe, 0x22, 0x86, 0xa0, 0x3d, 0x1b, 0xf3, 0x12, 0x3e,
  0xa8, 0xd3, 0x8e, 0xbd, 0x18, 0xdb, 0xfc, 0xbc, 0x7f, 0x70, 0x15, 0x3e,
  0xab, 0x55, 0x43, 0xbe, 0xe9, 0xb3, 0x2a, 0x3e, 0x1c, 0x33, 0xf6, 0xbd,
  0xce, 0x2d, 0x1f, 0xbe, 0x78, 0x58, 0x82, 0xbc, 0xcb, 0xd9, 0x4f, 0x3e,
  0xd0, 0x94, 0xad, 0xbd, 0x96, 0x82, 0xca, 0x3d, 0x11, 0x91, 0x45, 0x3e,
  0x78, 0xf3, 0x30, 0xbd, 0xd0, 0x42, 0x3a, 0xbe, 0xf9, 0xee, 0x68, 0x3e,
  0xce, 0xdf, 0xb2, 0x3d, 0x6e, 0x0e, 0xf0, 0x3d, 0x67, 0x19, 0x71, 0x3e,
  0xe5, 0xfa, 0x54, 0xbe, 0x18, 0x18, 0x89, 0xbc, 0x44, 0xb2, 0x43, 0x3d,
  0x63, 0xe4, 0x30, 0x3e, 0xa2, 0xb1, 0x35, 0xbe, 0x54, 0x45, 0x3a, 0x3d,
  0x0b, 0x6e, 0x6f, 0xbe, 0x8f, 0xed, 0x21, 0xbe, 0x5b, 0x29, 0x2b, 0x3e,
  0x1c, 0xf0, 0x60, 0xbd, 0x92, 0xee, 0xab, 0x3d, 0xac, 0x00, 0x6d, 0xbd,
  0xa8, 0xa0, 0x8c, 0xbc, 0x80, 0x8a, 0x6f, 0xbc, 0x15, 0xd8, 0x2d, 0x3e,
  0xe0, 0x38, 0x17, 0xbe, 0x22, 0xba, 0xac, 0x3d, 0x58, 0xb7, 0x93, 0x3c,
  0xa4, 0x79, 0x9f, 0xbd, 0x18, 0x05, 0x3c, 0xbe, 0x16, 0x4e, 0x57, 0xbe,
  0x5b, 0xe6, 0x0e, 0x3e, 0x5c, 0x2a, 0x1c, 0xbd, 0x64, 0x22, 0xbc, 0xbd,
  0xdf, 0xbb, 0x1f, 0x3e, 0xcd, 0x2a, 0x24, 0xbe, 0x80, 0x2c, 0xf1, 0xbb,
  0x84, 0x31, 0x17, 0x3d, 0xb2, 0x0f, 0x42, 0xbe, 0xc4, 0x9d, 0x03, 0xbd,
  0x98, 0x09, 0x87, 0xbd, 0x18, 0x9f, 0xb0, 0xbd, 0xd0, 0x94, 0x03, 0x3c,
  0x13, 0x0d, 0x4c, 0x3e, 0xbc, 0xa6, 0x91, 0xbd, 0xc6, 0x59, 0x10, 0xbe,
  0x32, 0x6a, 0xb5, 0x3d, 0xbf, 0xc5, 0x56, 0x3e, 0x7e, 0x5f, 0xf0, 0x3d,
  0x44, 0x78, 0x22, 0xbd, 0xcb, 0xd1, 0x59, 0x3e, 0xd2, 0xb1, 0x51, 0xbe,
  0x2f, 0x6d, 0x37, 0x3e, 0xa2, 0x69, 0xf4, 0x3d, 0x16, 0x59, 0x67, 0xbe,
  0x76, 0x1b, 0xa8, 0xbd, 0x0f, 0x93, 0x22, 0xbe, 0x20, 0x35, 0xe6, 0xbb,
  0x12, 0xb4, 0x4f, 0xbe, 0xcf, 0xe3, 0xf0, 0xbd, 0xaf, 0xd2, 0x4b, 0xbe,
  0x88, 0xf0, 0xf7, 0x3c, 0x80, 0xed, 0x35, 0xbb, 0xae, 0x92, 0xac, 0x3d,
  0x5a, 0xa2, 0xdd, 0xbd, 0xbc, 0xd7, 0x9f, 0xbd, 0xe3, 0x46, 0x2a, 0xbe,
  0xb3, 0x18, 0x54, 0x3e, 0x14, 0x86, 0x0d, 0x3d, 0xc1, 0x0e, 0x34, 0xbe,
  0xb8, 0xcb, 0xdd, 0xbc, 0x80, 0x53, 0x21, 0x3c, 0xd5, 0x7d, 0x20, 0x3e,
  0x5e, 0x5f, 0x85, 0x3d, 0x3b, 0xc3, 0x1a, 0xbe, 0x4b, 0xd3, 0x00, 0xbe,
  0x8b, 0xe6, 0x6b, 0x3e, 0x04, 0x87, 0x5f, 0x3d, 0xc1, 0x36, 0xfa, 0xbd,
  0xac, 0x35, 0xe1, 0xbd, 0xc5, 0x16, 0x21, 0x3e, 0x2c, 0xdd, 0xa0, 0xbd,
  0xa6, 0xb2, 0xb4, 0xbd, 0x39, 0x98, 0x39, 0x3e, 0x84, 0xcc, 0x28, 0x3d,
  0x12, 0x16, 0x8b, 0xbd, 0x4e, 0x75, 0x73, 0xbe, 0x9e, 0x59, 0x18, 0xbe,
  0x75, 0xa1, 0x6c, 0x3e, 0xf0, 0xc3, 0x3e, 0xbc, 0xc2, 0x27, 0xd3, 0x3d,
  0x3c, 0x9c, 0x7c, 0x3d, 0xc8, 0xaa, 0x20, 0xbe, 0x96, 0xd2, 0x0d, 0xbe,
  0xc2, 0x7b, 0xa8, 0xbd, 0x25, 0x7d, 0xe7, 0xbd, 0x7a, 0x4a, 0xe4, 0x3d,
  0xb1, 0x85, 0x3b, 0x3e, 0xc1, 0xcd, 0x02, 0x3e, 0x74, 0xc2, 0x71, 0x3d,
  0x19, 0xd3, 0xfa, 0xbd, 0x60, 0xb2, 0xa4, 0x3b, 0xa6, 0x05, 0xd5, 0xbd,
  0xbe, 0x85, 0xa1, 0x3d, 0x72, 0x2c, 0xc4, 0x3d, 0xc0, 0x59, 0xad, 0xbd,
  0xe0, 0x52, 0x9b, 0xbd, 0xfd, 0xeb, 0x0c, 0x3e, 0xa2, 0x35, 0xb1, 0x3d,
  0xec, 0x70, 0x15, 0xbd, 0x19, 0x56, 0x3f, 0x3e, 0x47, 0x6a, 0x4e, 0x3e,
  0xd7, 0x7b, 0x65, 0x3e, 0x60, 0xad, 0x4b, 0xbe, 0x66, 0x3d, 0x2a, 0xbe,
  0x3a, 0xb6, 0xee, 0x3d, 0xec, 0x9d, 0xb4, 0xbd, 0xff, 0xfc, 0x0c, 0xbe,
  0x4c, 0x45, 0xa1, 0xbd, 0x3f, 0x89, 0x5e, 0xbe, 0x1c, 0x4b, 0x88, 0xbd,
  0x60, 0xde, 0xff, 0xbb, 0x51, 0xe7, 0x34, 0x3e, 0x08, 0xb8, 0xa7, 0x3c,
  0x18, 0x79, 0xaa, 0x3c, 0xbe, 0x60, 0x68, 0xbe, 0xbd, 0x5c, 0x04, 0x3e,
  0x41, 0x5f, 0x21, 0x3e, 0x33, 0x0f, 0x10, 0x3e, 0xd3, 0xd2, 0x6c, 0xbe,
  0x02, 0x42, 0x85, 0x3d, 0x17, 0x8a, 0x6a, 0xbe, 0xf3, 0x6d, 0x17, 0x3e,
  0x43, 0xb9, 0x59, 0x3e, 0x98, 0x64, 0x2e, 0xbd, 0x72, 0x7e, 0x2d, 0xbe,
  0x77, 0x5c, 0x1b, 0x3e, 0xda, 0x8c, 0x57, 0xbe, 0x62, 0xc5, 0x8c, 0xbd,
  0xad, 0xcc, 0x6f, 0xbe, 0xfa, 0x2d, 0xc8, 0x3d, 0xfb, 0x0f, 0x3b, 0x3e,
  0x66, 0x45, 0x8a, 0x3d, 0x00, 0xfa, 0x65, 0x3a, 0x86, 0x0d, 0x91, 0x3d,
  0x7a, 0xc4, 0x90, 0xbd, 0x60, 0xac, 0x6f, 0xbd, 0x67, 0xd2, 0x55, 0xbe,
  0xf6, 0x84, 0xca, 0xbd, 0xa0, 0xdd, 0x6b, 0xbe, 0x0b, 0x1a, 0x56, 0xbe,
  0xfc, 0x13, 0x1c, 0xbe, 0x08, 0x5e, 0xdf, 0xbd, 0xc3, 0x82, 0x05, 0x3e,
  0xec, 0xe4, 0x5d, 0x3d, 0x09, 0x87, 0x34, 0xbe, 0x72, 0x8d, 0xfa, 0xbd,
  0x06, 0x3e, 0x86, 0x3d, 0xc6, 0xbf, 0x26, 0xbe, 0x3b, 0xe3, 0x56, 0x3e,
  0xbc, 0x23, 0x12, 0xbe, 0xa2, 0x19, 0xa3, 0x3d, 0xff, 0xcc, 0x4f, 0x3e,
  0xe2, 0x51, 0x55, 0xbe, 0x10, 0xc0, 0xb3, 0xbc, 0xe6, 0x47, 0xb0, 0xbd,
  0x80, 0xdd, 0xf0, 0xbc, 0x36, 0xcd, 0x41, 0xbe, 0x48, 0xd7, 0x7c, 0xbd,
  0x48, 0x29, 0xa1, 0xbc, 0x34, 0xfd, 0x0f, 0x3d, 0xb5, 0x20, 0x33, 0x3e,
  0x4c, 0x34, 0x6f, 0xbd, 0x94, 0x4d, 0x86, 0xbd, 0x5e, 0x2c, 0xc3, 0x3d,
  0xd0, 0x04, 0x6c, 0x3c, 0x3a, 0x68, 0x20, 0xbe, 0xd5, 0xa4, 0x16, 0x3e,
  0x38, 0x6f, 0xa8, 0x3c, 0x67, 0x31, 0x1b, 0x3e, 0x64, 0x7c, 0x9b, 0xbd,
  0x06, 0x71, 0xcf, 0xbd, 0xb0, 0xf8, 0x62, 0x3c, 0x6d, 0x2f, 0x4c, 0xbe,
  0xf1, 0x59, 0x0a, 0xbe, 0xba, 0x7b, 0xef, 0x3d, 0xbb, 0x33, 0x4a, 0xbe,
  0xf2, 0x53, 0xcb, 0x3d, 0x04, 0x0f, 0x1d, 0xbe, 0x7c, 0x33, 0x62, 0x3d,
  0x94, 0x66, 0x7d, 0x3d, 0x89, 0x5e, 0x19, 0xbe, 0x1c, 0x80, 0xf5, 0xbd,
  0xb2, 0xe7, 0x27, 0xbe, 0xda, 0x90, 0x9c, 0x3d, 0xe0, 0x43, 0xb2, 0xbc,
  0x11, 0xd7, 0x57, 0xbe, 0x00, 0xb0, 0xc3, 0x38, 0xee, 0x0a, 0xe0, 0x3d,
  0xe0, 0xd2, 0x8f, 0xbb, 0x3e, 0x90, 0x1b, 0xbe, 0x5f, 0x36, 0x73, 0x3e,
  0x64, 0x2c, 0x34, 0x3d, 0x4a, 0xec, 0xb2, 0xbd, 0xeb, 0xbe, 0x01, 0xbe,
  0x4a, 0xaa, 0xf1, 0xbd, 0xc4, 0xdf, 0x74, 0x3d, 0xf4, 0x07, 0x88, 0xbd,
  0x48, 0x7a, 0xfc, 0x3c, 0x11, 0x9e, 0x35, 0x3e, 0xfb, 0x34, 0x49, 0x3e,
  0x54, 0x88, 0x5a, 0x3d, 0x34, 0xd0, 0x53, 0xbd, 0x70, 0x89, 0x05, 0xbe,
  0xa4, 0x30, 0xbb, 0xbd, 0xc0, 0x92, 0xb1, 0xbc, 0xf1, 0xa7, 0x3a, 0x3e,
  0x78, 0xfb, 0x36, 0xbd, 0x54, 0x13, 0x41, 0xbe, 0x16, 0xd5, 0xe9, 0x3d,
  0x98, 0x56, 0x15, 0xbe, 0xc8, 0xe8, 0xf5, 0xbc, 0x74, 0x81, 0x7c, 0x3d,
  0x0f, 0x07, 0x55, 0x3e, 0x5c, 0x97, 0x38, 0x3d, 0x1a, 0x96, 0xbe, 0xbd,
  0x7c, 0x00, 0x0c, 0x3d, 0x1d, 0xa2, 0x66, 0xbe, 0xb3, 0x27, 0x5a, 0xbe,
  0x86, 0x15, 0xcc, 0xbd, 0x1d, 0x65, 0x04, 0x3e, 0x7c, 0x6d, 0x76, 0x3d,
  0x80, 0x51, 0x53, 0xbe, 0x51, 0x7b, 0x4d, 0x3e, 0x20, 0x28, 0x3f, 0xbc,
  0xac, 0x7a, 0x41, 0x3d, 0xf6, 0x83, 0xda, 0x3d, 0x4a, 0xfe, 0x6c, 0xbe,
  0x0b, 0x81, 0x0c, 0xbe, 0x9b, 0xda, 0x6a, 0x3e, 0x1b, 0xaa, 0x59, 0x3e,
  0xd0, 0x7d, 0x93, 0xbd, 0x88, 0x97, 0xe5, 0xbd, 0x18, 0x8e, 0xac, 0xbd,
  0xe8, 0xc1, 0x06, 0xbe, 0x89, 0xf2, 0x0f, 0x3e, 0x78, 0xf8, 0x56, 0xbd,
  0x00, 0x94, 0x91, 0xbd, 0x12, 0xee, 0xe4, 0x3d, 0x34, 0xfc, 0x54, 0x3d,
  0xae, 0x39, 0xec, 0xbd, 0xf0, 0xf1, 0x70, 0x3c, 0x8a, 0x71, 0xcc, 0xbd,
  0x05, 0xe2, 0x1b, 0xbd, 0x5b, 0x5f, 0x71, 0xbe, 0xea, 0x08, 0x25, 0x3e,
  0x81, 0x73, 0x41, 0xbe, 0xd1, 0x37, 0x3a, 0x3e, 0xef, 0x8d, 0x05, 0xbd,
  0xc5, 0x86, 0xed, 0x3d, 0x19, 0xc3, 0xb7, 0xbe, 0x33, 0xf0, 0x1a, 0xbe,
  0x2f, 0x24, 0xce, 0xbc, 0x23, 0x88, 0x07, 0x3e, 0x2a, 0x21, 0xd0, 0x3d,
  0xd2, 0xf8, 0xde, 0xbd, 0xea, 0x22, 0x7e, 0xba, 0x08, 0x72, 0x77, 0xbc,
  0x22, 0x33, 0x66, 0x3d, 0xb6, 0xbe, 0xa2, 0xbe, 0x29, 0x1d, 0x3c, 0x3d,
  0xf1, 0x46, 0x4c, 0x3e, 0xb1, 0x87, 0xe6, 0xbe, 0x38, 0x20, 0xf3, 0xbd,
  0x7e, 0xa3, 0x61, 0xbe, 0x79, 0x1d, 0xa6, 0xbe, 0xdf, 0x51, 0x94, 0x3e,
  0xe8, 0xa3, 0xbd, 0x3d, 0xf7, 0x89, 0x72, 0xbe, 0x8e, 0x0d, 0x0b, 0xbd,
  0x00, 0x83, 0x6e, 0x3d, 0x96, 0x37, 0x53, 0xbe, 0xff, 0xc2, 0xa9, 0x3e,
  0x53, 0xa4, 0x30, 0x3e, 0x0b, 0x69, 0x32, 0xbe, 0xd4, 0x23, 0x68, 0xbc,
  0x66, 0xaa, 0x41, 0xbe, 0x16, 0x0a, 0x3b, 0xbe, 0xeb, 0xc4, 0x9d, 0x3e,
  0x18, 0x71, 0x85, 0x3d, 0xbe, 0x15, 0x54, 0xbe, 0x8c, 0xb6, 0x60, 0x3c,
  0x06, 0xf5, 0x95, 0x3c, 0xd3, 0xac, 0x16, 0xbe, 0x92, 0xaa, 0x09, 0x3e,
  0xbc, 0x9b, 0x1c, 0xbe, 0xc7, 0x58, 0xbb, 0x3d, 0xfe, 0x86, 0xe4, 0xbc,
  0x2a, 0x88, 0xfa, 0x3d, 0xa8, 0x28, 0xd7, 0xbc, 0xe1, 0x04, 0x14, 0x3e,
  0xba, 0x9e, 0x1f, 0x3e, 0x73, 0xa0, 0xe8, 0x3e, 0x5f, 0x1b, 0x70, 0xbd,
  0xda, 0x08, 0xf3, 0xbd, 0x66, 0xdd, 0x06, 0xbe, 0x75, 0x5e, 0x35, 0xbc,
  0xeb, 0x62, 0xcb, 0xbd, 0x22, 0x04, 0xe8, 0x3e, 0x32, 0x85, 0x41, 0x3e,
  0x84, 0x18, 0x12, 0xbe, 0x38, 0x7d, 0xd3, 0x3d, 0xbf, 0x33, 0xa8, 0x3c,
  0x11, 0xa8, 0x9a, 0xbe, 0x2f, 0xf1, 0x0b, 0x3f, 0xd6, 0x95, 0x78, 0x3e,
  0x04, 0x48, 0x50, 0xbc, 0x3c, 0xae, 0x31, 0xbe, 0x58, 0x21, 0xda, 0xbb,
  0xe2, 0xb4, 0xa0, 0xbb, 0x71, 0x31, 0x88, 0x3e, 0x2c, 0xdb, 0x5c, 0x3e,
  0x87, 0x3b, 0x3d, 0x3d, 0x74, 0x57, 0x40, 0x3e, 0x1c, 0x98, 0x2a, 0xbd,
  0x79, 0x9b, 0x82, 0xbd, 0x36, 0x86, 0xaa, 0x3e, 0x18, 0xc4, 0xbf, 0x3e,
  0x9e, 0x30, 0x1c, 0x3b, 0xef, 0x5a, 0xaa, 0x3d, 0x70, 0x94, 0x6c, 0x3e,
  0xe8, 0x16, 0x6d, 0xbd, 0xab, 0x5e, 0xc0, 0x3e, 0x1b, 0x5f, 0x6e, 0x3d,
  0x20, 0xc3, 0xf2, 0xbc, 0x48, 0x89, 0x97, 0xbc, 0xd6, 0x30, 0xcb, 0xbd,
  0x88, 0xe0, 0x46, 0x3d, 0x59, 0x04, 0xd0, 0x3e, 0xe8, 0x0d, 0xf6, 0x3c,
  0x83, 0xdb, 0x8d, 0x3d, 0x29, 0x2f, 0x17, 0xbd, 0x60, 0x82, 0x5b, 0xbc,
  0x10, 0x6f, 0xde, 0xbe, 0xef, 0xc2, 0xc1, 0x3e, 0x26, 0xd2, 0xd0, 0x3d,
  0xc5, 0xbd, 0x0e, 0x3e, 0x71, 0x77, 0x99, 0xbd, 0x97, 0x58, 0xa1, 0x3e,
  0xb9, 0x85, 0x45, 0xbe, 0x48, 0x00, 0xd8, 0x3e, 0xeb, 0x48, 0x2f, 0x3e,
  0xa9, 0x5a, 0xcc, 0x3d, 0xa5, 0xd6, 0x8a, 0x3d, 0x8a, 0x0e, 0x82, 0x3e,
  0x2b, 0xe2, 0x87, 0xbc, 0x9d, 0x97, 0xda, 0x3e, 0xa9, 0xaf, 0xa2, 0xbc,
  0x2a, 0x24, 0x86, 0x3c, 0x26, 0xd5, 0x46, 0x3e, 0x23, 0x91, 0x9d, 0x3e,
  0x9e, 0x1b, 0x21, 0xbd, 0xf1, 0xaf, 0x1b, 0x3f, 0x8b, 0x46, 0xc3, 0x3d,
  0x64, 0xa5, 0xac, 0xbd, 0xc9, 0x30, 0xcc, 0x3d, 0xcf, 0xaa, 0x20, 0x3e,
  0xe6, 0x7a, 0x3f, 0xbe, 0xcd, 0xb1, 0x14, 0x3f, 0x75, 0x0b, 0xcb, 0x3d,
  0x96, 0x44, 0xf8, 0xbc, 0x58, 0x41, 0x4a, 0x3e, 0xb9, 0xb1, 0xaf, 0x3e,
  0xb2, 0x17, 0x65, 0xbe, 0xb3, 0x1c, 0xd6, 0x3e, 0x9c, 0xd9, 0x16, 0x3e,
  0xcd, 0x48, 0x97, 0x3c, 0xb5, 0x37, 0xdd, 0x3d, 0x76, 0x45, 0xee, 0xbd,
  0xda, 0xcc, 0xc2, 0xbd, 0xe7, 0x86, 0x2e, 0x3e, 0x87, 0xf5, 0x4b, 0xbe,
  0x9d, 0x69, 0x69, 0xbe, 0xc3, 0xdc, 0x26, 0x3e, 0x49, 0xc5, 0x72, 0xbd,
  0x2c, 0xd6, 0xab, 0xbe, 0x16, 0x4e, 0x05, 0x3f, 0x33, 0x3c, 0x4a, 0x3d,
  0x65, 0xbd, 0xa2, 0xbe, 0xd2, 0x0d, 0x37, 0x3e, 0x60, 0x27, 0x65, 0x3e,
  0xfc, 0x19, 0xcd, 0x3c, 0x16, 0xa6, 0x87, 0x3e, 0x98, 0x7a, 0xb1, 0xbe,
  0x63, 0xf9, 0x59, 0xbd, 0x10, 0x93, 0x3d, 0x3c, 0xdd, 0xf0, 0x06, 0xbc,
  0x3b, 0xc7, 0xc1, 0xbe, 0x66, 0x49, 0xb7, 0x3e, 0x62, 0x48, 0x9d, 0xbe,
  0x20, 0x3b, 0x60, 0x3d, 0x48, 0x06, 0x73, 0x3e, 0x7a, 0xdf, 0x3c, 0xbd,
  0x2e, 0xde, 0x0b, 0xbe, 0x5a, 0x7f, 0x48, 0x3e, 0xb9, 0x24, 0x8f, 0x3b,
  0x22, 0x8a, 0x9b, 0x3b, 0x61, 0x76, 0x5b, 0xbe, 0x30, 0xd2, 0xa0, 0x3d,
  0xec, 0xff, 0x16, 0xbe, 0x02, 0xfb, 0xb0, 0x3e, 0xc4, 0x4e, 0xa6, 0xbe,
  0x5b, 0x24, 0x4f, 0xbe, 0xb8, 0x68, 0x28, 0x3e, 0x8b, 0xea, 0x6d, 0x3e,
  0xd2, 0x34, 0x69, 0xbe, 0x73, 0x71, 0x0a, 0x3f, 0xbb, 0x8a, 0x80, 0xbe,
  0xbd, 0x6a, 0x2b, 0xbd, 0xbf, 0xb2, 0x70, 0xbe, 0x66, 0x4d, 0x6a, 0xbe,
  0x87, 0xea, 0xc3, 0xbc, 0x60, 0x31, 0xb9, 0x3e, 0x18, 0xdc, 0x04, 0xbd,
  0x3d, 0x66, 0x1f, 0x3d, 0xbc, 0x3b, 0x61, 0xbe, 0x5f, 0x33, 0x26, 0xbe,
  0xbc, 0x3d, 0x5a, 0xbe, 0x13, 0x4e, 0x14, 0x3f, 0x72, 0x88, 0x16, 0xbd,
  0x74, 0x4e, 0xb4, 0x39, 0x90, 0xf5, 0xb8, 0xbd, 0xe4, 0x04, 0x51, 0xbe,
  0xc6, 0x61, 0x2f, 0xbe, 0x56, 0x38, 0x56, 0xbe, 0xf5, 0x55, 0x3b, 0x3f,
  0xed, 0x13, 0x44, 0xbe, 0x1d, 0xd8, 0x98, 0x3d, 0x42, 0xcb, 0x63, 0x3e,
  0xd3, 0xa5, 0x9a, 0xbe, 0xbb, 0x4f, 0x93, 0xbd, 0x19, 0xfd, 0xad, 0x3e,
  0x9b, 0xfe, 0x82, 0xbd, 0xa7, 0x2e, 0x8c, 0x3d, 0xa6, 0x3b, 0x51, 0xbd,
  0xed, 0xd9, 0x2c, 0xbe, 0x05, 0xaf, 0x5b, 0x3e, 0x85, 0xf4, 0xb9, 0x3e,
  0x1b, 0x3a, 0x07, 0x3d, 0x47, 0x69, 0x94, 0x3e, 0x80, 0x5b, 0x7c, 0x3c,
  0x07, 0xbb, 0x05, 0x3e, 0x2d, 0xed, 0x11, 0x3e, 0xed, 0x3a, 0x20, 0x3f,
  0x62, 0x6d, 0x88, 0xbe, 0x04, 0x78, 0xd7, 0x3e, 0x68, 0xae, 0x2b, 0x3e,
  0x66, 0x97, 0x06, 0x3e, 0x82, 0xc4, 0x34, 0xbe, 0xcb, 0xfd, 0x7f, 0x3e,
  0x96, 0xef, 0xca, 0xbd, 0x56, 0x60, 0xd7, 0x3e, 0x55, 0xed, 0x4a, 0x3e,
  0x32, 0xd2, 0x00, 0xbe, 0x4c, 0x84, 0x08, 0xbb, 0xae, 0xc4, 0x1e, 0x3e,
  0x35, 0xc9, 0x3f, 0xbe, 0xce, 0x3f, 0xab, 0x3e, 0x29, 0x95, 0x1d, 0x3e,
  0x0f, 0x2b, 0x23, 0x3e, 0xaa, 0xa5, 0x09, 0xbe, 0x58, 0x7d, 0x75, 0x3e,
  0x85, 0xfe, 0x15, 0x3d, 0x03, 0x2d, 0x89, 0x3e, 0xeb, 0xaf, 0x16, 0xbe,
  0x61, 0x61, 0xb2, 0x3e, 0xb2, 0xa9, 0x56, 0x3c, 0xaf, 0x3b, 0x50, 0x3e,
  0x56, 0x7c, 0x25, 0xbd, 0xf6, 0xf2, 0x0e, 0x3f, 0xaf, 0x99, 0xf4, 0x3d,
  0xcf, 0x9b, 0x04, 0x3e, 0x4f, 0x1d, 0x8a, 0xbd, 0x9b, 0xc9, 0xec, 0x3d,
  0xf5, 0x67, 0xef, 0x3c, 0x18, 0x49, 0x51, 0x3e, 0x6b, 0x5c, 0x3d, 0x3e,
  0x2f, 0x24, 0xe3, 0x3d, 0x6f, 0xb8, 0x13, 0x3e, 0x9e, 0x68, 0x55, 0xbd,
  0xbe, 0x34, 0x35, 0x3d, 0xc7, 0x9d, 0x93, 0x3e, 0x3b, 0x93, 0x61, 0x3d,
  0x68, 0xbf, 0xad, 0x3e, 0xa9, 0x3a, 0x91, 0x3e, 0xa9, 0x8b, 0x7a, 0xbd,
  0x06, 0xe0, 0x4a, 0x3e, 0x73, 0x48, 0xca, 0x3e, 0x1c, 0x42, 0x13, 0xbd,
  0x3a, 0x76, 0x61, 0x3e, 0x8a, 0xc7, 0x0c, 0xbd, 0xea, 0xf4, 0x5d, 0xbe,
  0x1c, 0x31, 0x80, 0x3d, 0x74, 0x79, 0xb4, 0x3d, 0xd6, 0x56, 0x4d, 0x3c,
  0xe4, 0xb6, 0xa1, 0x3e, 0x03, 0x8f, 0x33, 0x3e, 0x7e, 0xf8, 0xdf, 0xbe,
  0xf1, 0x97, 0x94, 0x3d, 0x74, 0x6b, 0x1a, 0x3e, 0xa0, 0x2e, 0x02, 0xbe,
  0x3d, 0xe1, 0xb2, 0x3d, 0x20, 0x79, 0xcf, 0x3e, 0x19, 0x75, 0xbb, 0xbd,
  0x4c, 0x82, 0xc5, 0x3c, 0xe5, 0xb9, 0x12, 0x3d, 0x3a, 0xa6, 0x93, 0xbd,
  0x7c, 0x89, 0xcd, 0x3d, 0x19, 0xfe, 0x1c, 0x3d, 0x18, 0x2d, 0x34, 0xbc,
  0x49, 0xb2, 0xa4, 0x3c, 0x2c, 0xc9, 0xdb, 0x3d, 0x40, 0xc0, 0x36, 0xbd,
  0x88, 0x05, 0x68, 0xbe, 0xe7, 0x15, 0xcb, 0xbe, 0xd1, 0x15, 0x57, 0xbc,
  0x5a, 0xee, 0xe1, 0xbd, 0x26, 0xf9, 0xfc, 0x3c, 0xdd, 0x93, 0x05, 0x3e,
  0x86, 0x09, 0x41, 0x3e, 0x73, 0x4c, 0x4d, 0xbf, 0x66, 0xae, 0xc2, 0x3d,
  0x45, 0x84, 0x5f, 0xbe, 0x6a, 0x1b, 0x73, 0x3c, 0x25, 0x84, 0xf1, 0xbc,
  0xa6, 0xa4, 0xd3, 0xbd, 0x22, 0xe2, 0x2e, 0xbf, 0x86, 0xa7, 0x49, 0x3e,
  0x1f, 0xcb, 0x41, 0x3d, 0x00, 0x99, 0xab, 0xbe, 0xa1, 0xc8, 0x52, 0xbd,
  0x46, 0x6b, 0xe3, 0x3c, 0x00, 0x0b, 0xc1, 0xbe, 0xf4, 0x11, 0x97, 0x3e,
  0xb9, 0x31, 0x66, 0x3d, 0xfb, 0xa1, 0xbf, 0x3d, 0xb7, 0x51, 0x80, 0x3d,
  0xae, 0x59, 0x80, 0x3e, 0xa7, 0xa3, 0xaa, 0xbe, 0xd8, 0x35, 0x4e, 0x3e,
  0xe9, 0xb9, 0x8c, 0xbb, 0x64, 0x13, 0x10, 0xbe, 0x4a, 0xb4, 0xf2, 0x3d,
  0xc7, 0x35, 0x0c, 0x3d, 0x59, 0xce, 0x8d, 0xbe, 0xd3, 0x73, 0x9b, 0x3e,
  0xe4, 0x9d, 0x1c, 0xbe, 0x0b, 0x20, 0x6e, 0xbe, 0xa4, 0x7c, 0x67, 0x3d,
  0x18, 0x54, 0x87, 0x3e, 0x03, 0xc2, 0xe0, 0xbe, 0x5f, 0x65, 0x90, 0x3e,
  0xeb, 0xf9, 0xd3, 0xbd, 0xdc, 0x8e, 0x27, 0x3d, 0xb9, 0x9e, 0x78, 0x3e,
  0x9f, 0xf9, 0x31, 0x3d, 0xb3, 0x45, 0x84, 0xbe, 0x2b, 0x25, 0x9c, 0x3e,
  0x26, 0x1a, 0x86, 0x3d, 0x91, 0x9a, 0x5b, 0xbe, 0x9c, 0x6d, 0x8a, 0x3e,
  0x02, 0x52, 0x68, 0x3d, 0x2a, 0x51, 0x41, 0xbe, 0xc6, 0xa0, 0xdf, 0x3b,
  0xda, 0x0e, 0x0e, 0x3e, 0x3c, 0xce, 0xf7, 0x3c, 0xd8, 0x51, 0xa3, 0x3e,
  0x25, 0x9e, 0x38, 0x3e, 0xf9, 0xe0, 0xbc, 0x3e, 0xcc, 0x6b, 0xaf, 0x3e,
  0xe4, 0x0a, 0x1e, 0x3e, 0x80, 0x66, 0xa9, 0x3c, 0x49, 0x11, 0x8a, 0x3d,
  0x67, 0x18, 0x81, 0xbc, 0x50, 0x78, 0x86, 0x3d, 0xfb, 0x60, 0xdb, 0x3c,
  0xb2, 0xd6, 0x62, 0xbe, 0x79, 0x9e, 0xab, 0x3d, 0x16, 0x5d, 0x54, 0x3e,
  0xd9, 0xfb, 0xfe, 0x3d, 0x10, 0xa5, 0x3d, 0x3e, 0x1b, 0xce, 0xdb, 0x3e,
  0x94, 0xee, 0x45, 0xbe, 0x52, 0x00, 0xb2, 0x3c, 0xeb, 0xe9, 0x4c, 0x3d,
  0xd9, 0x78, 0x74, 0x3e, 0xc7, 0x4f, 0x7c, 0x3e, 0x01, 0x2b, 0xa0, 0x3e,
  0x1f, 0xf9, 0x05, 0x3e, 0xaf, 0x0b, 0xb2, 0x3c, 0xe7, 0x8f, 0x4f, 0x3e,
  0x76, 0xea, 0x4d, 0xbe, 0x28, 0x2e, 0xfa, 0x3d, 0xa6, 0x13, 0x88, 0x3d,
  0xf3, 0x2c, 0x58, 0xbe, 0x32, 0xd5, 0x26, 0x3e, 0x89, 0x4e, 0x36, 0xbe,
  0x7d, 0xab, 0x06, 0xbe, 0xba, 0xee, 0x0d, 0x3e, 0x03, 0x70, 0xb0, 0x3e,
  0xa9, 0xce, 0x39, 0x3e, 0x43, 0xbc, 0xa2, 0x3d, 0x59, 0x92, 0x9d, 0x3d,
  0xdb, 0xf1, 0xf6, 0x3d, 0xd6, 0xff, 0xab, 0x3e, 0x0f, 0xac, 0xeb, 0xbe,
  0x2c, 0x73, 0x0e, 0x3e, 0xd1, 0x8a, 0xd5, 0xbd, 0xa1, 0x5c, 0x93, 0x3e,
  0x00, 0xcd, 0xc8, 0x3e, 0x66, 0x1d, 0xa8, 0x3e, 0xbe, 0x01, 0x42, 0xbe,
  0x0c, 0xbb, 0x7d, 0x3e, 0x5b, 0xbd, 0x8f, 0xbe, 0xe4, 0x91, 0x82, 0x3e,
  0x74, 0x17, 0x76, 0x3e, 0xd6, 0x52, 0xce, 0x3e, 0xe8, 0x88, 0x8d, 0xbe,
  0x48, 0x58, 0x98, 0x3e, 0x44, 0x35, 0xda, 0x3c, 0x22, 0x7a, 0xb7, 0x3e,
  0x53, 0x85, 0x84, 0x3c, 0xb3, 0x00, 0x03, 0x3f, 0x03, 0x9a, 0x24, 0xbe,
  0xcd, 0x42, 0xcc, 0x3e, 0x61, 0x38, 0x93, 0x3c, 0xfd, 0xfb, 0xc9, 0x3d,
  0x34, 0xb5, 0x45, 0x3e, 0x6b, 0x64, 0xca, 0x3e, 0x17, 0x75, 0x97, 0xbe,
  0xb2, 0xf4, 0x1d, 0x3e, 0x65, 0x87, 0x28, 0xbe, 0xb4, 0x69, 0x29, 0x3e,
  0x29, 0xa4, 0xe9, 0xbd, 0x6a, 0xe2, 0xb1, 0x3e, 0x4e, 0x40, 0x25, 0xbd,
  0xc2, 0xc4, 0xa5, 0x3d, 0xc1, 0xfa, 0x94, 0xbe, 0xb2, 0x6e, 0x19, 0x3e,
  0x80, 0xbe, 0x89, 0xbe, 0xde, 0xdd, 0x13, 0x3f, 0x76, 0x92, 0x4f, 0xbd,
  0xfb, 0xc4, 0x2e, 0x3e, 0x19, 0x9d, 0x18, 0xbe, 0x86, 0xd2, 0x3e, 0xbd,
  0x50, 0x00, 0x16, 0xbe, 0x44, 0xbf, 0x4f, 0x3e, 0x7b, 0x2d, 0xa7, 0x3d,
  0x0f, 0x88, 0x66, 0xbe, 0xf2, 0x43, 0xcb, 0xbe, 0xcd, 0xf3, 0x3d, 0x3e,
  0xbf, 0xd5, 0x3b, 0xbe, 0x7a, 0x8a, 0x86, 0x3e, 0x9e, 0x66, 0x71, 0xbd,
  0x9a, 0xcb, 0x88, 0x3d, 0x62, 0x42, 0x7b, 0xbe, 0x6b, 0xa3, 0x2f, 0xbc,
  0xfb, 0x71, 0x0a, 0x3d, 0x2e, 0xdf, 0x42, 0x3e, 0x60, 0x4c, 0x38, 0x3e,
  0x15, 0xc2, 0x21, 0x3e, 0xa1, 0x25, 0x53, 0xbd, 0xd2, 0x6a, 0x68, 0x3e,
  0x79, 0x86, 0xa2, 0xbe, 0x61, 0x31, 0x64, 0x3e, 0x1c, 0xbe, 0x9f, 0x3e,
  0xb1, 0x51, 0xf8, 0xbd, 0x1c, 0x21, 0x8d, 0xbe, 0x19, 0x23, 0x84, 0x3e,
  0xb2, 0xc3, 0x99, 0x3d, 0x01, 0x9a, 0x09, 0x3e, 0xb0, 0xdb, 0x4a, 0x3e,
  0x94, 0x9f, 0x17, 0xbe, 0x50, 0x0d, 0x68, 0xba, 0xd3, 0x25, 0xaa, 0xbd,
  0x68, 0x8b, 0x93, 0x3d, 0xed, 0x18, 0x29, 0xbd, 0x16, 0xb9, 0xce, 0x3e,
  0xb8, 0x49, 0x85, 0xbd, 0x9c, 0x23, 0xc0, 0x3c, 0x87, 0x42, 0x7c, 0x3e,
  0xab, 0xd2, 0x2a, 0xbc, 0x57, 0xad, 0xd1, 0x3d, 0xe7, 0x8e, 0xa7, 0x3e,
  0x39, 0x7d, 0x04, 0xbd, 0xaa, 0x68, 0x9b, 0x3d, 0x50, 0x46, 0x81, 0x3e,
  0xf7, 0x72, 0x35, 0xbe, 0x30, 0xb0, 0x1e, 0x3e, 0xd3, 0x96, 0x86, 0x3d,
  0x38, 0x7e, 0x9a, 0x3e, 0xfa, 0xd5, 0x48, 0x3d, 0xd0, 0x30, 0x74, 0x3d,
  0x9b, 0x11, 0xec, 0x3c, 0xe9, 0xa8, 0x10, 0xbe, 0x7d, 0x03, 0xff, 0xbd,
  0x98, 0xad, 0x8b, 0x3e, 0x54, 0x80, 0x7e, 0x3e, 0x99, 0xcf, 0x4c, 0xbc,
  0xad, 0xdf, 0xfb, 0x3d, 0x4a, 0xb6, 0x1b, 0x3b, 0x37, 0xdf, 0x9f, 0xbe,
  0x87, 0x4a, 0x48, 0x3e, 0x5f, 0x3d, 0xc6, 0x3e, 0x80, 0x38, 0x46, 0x3e,
  0xe4, 0x7f, 0x3d, 0x3e, 0x55, 0xcf, 0x28, 0x3e, 0xaa, 0x2e, 0xc4, 0x3d,
  0x9d, 0xe0, 0x0f, 0xbd, 0xba, 0xa3, 0xca, 0x3d, 0x99, 0x79, 0xfa, 0xbd,
  0x64, 0x9b, 0x85, 0x3e, 0xa0, 0x2e, 0x04, 0x3e, 0xe5, 0xef, 0x9f, 0xbe,
  0xab, 0x47, 0x0b, 0xbd, 0x76, 0xec, 0x85, 0x3d, 0x47, 0x03, 0x40, 0x3e,
  0x25, 0x53, 0xc7, 0x3e, 0x88, 0x99, 0x33, 0xbe, 0x43, 0xd8, 0x0e, 0xbd,
  0xa0, 0xc8, 0x0c, 0x3e, 0xca, 0x77, 0xd8, 0x3d, 0x5b, 0x00, 0x3e, 0x3e,
  0xed, 0xf0, 0xf8, 0x3d, 0xe9, 0x58, 0x55, 0xbe, 0x69, 0xaa, 0xb9, 0xbd,
  0x2e, 0xb7, 0xd9, 0xbd, 0x93, 0x09, 0x59, 0x3e, 0xbb, 0x1f, 0xa7, 0x3d,
  0xf9, 0x96, 0xaa, 0x3e, 0xe2, 0x93, 0x36, 0xbe, 0xc1, 0x7e, 0xba, 0xbd,
  0xc4, 0xec, 0x0d, 0x3e, 0x2b, 0x72, 0x21, 0xbd, 0x5b, 0xa2, 0x10, 0x3e,
  0x18, 0xc5, 0x4a, 0x3e, 0x09, 0xfb, 0x91, 0x3d, 0x44, 0xca, 0x1c, 0xbe,
  0xf4, 0x93, 0xf3, 0xbd, 0xf4, 0x7a, 0x0e, 0x3d, 0x4c, 0x0c, 0x64, 0x3d,
  0x81, 0x29, 0x4b, 0x3e, 0x4d, 0xf9, 0x7d, 0x3e, 0xa8, 0x44, 0x89, 0xbe,
  0x02, 0xf9, 0x0c, 0x3d, 0xe9, 0x86, 0x09, 0xbd, 0xcf, 0x10, 0x92, 0x3c,
  0xda, 0xfd, 0x96, 0x3d, 0x20, 0x1a, 0x74, 0x3e, 0x65, 0x7b, 0xf5, 0xbe,
  0xfd, 0x3a, 0x48, 0x3d, 0x22, 0x11, 0x5c, 0x3e, 0xa0, 0xfb, 0xd8, 0x3c,
  0x43, 0x61, 0xcf, 0x3d, 0x2f, 0xe0, 0x3d, 0x3e, 0x8a, 0xfd, 0xc9, 0xbe,
  0xdc, 0x34, 0x46, 0xbe, 0x4a, 0x29, 0x1c, 0xbe, 0x69, 0x21, 0x3e, 0x3d,
  0x56, 0x68, 0x0f, 0xbe, 0x5a, 0x70, 0x92, 0x3e, 0xf6, 0x15, 0xf7, 0xbd,
  0x43, 0xf4, 0x1c, 0xbe, 0xeb, 0x43, 0x13, 0xbd, 0x7c, 0x5d, 0x38, 0x3e,
  0xc8, 0x85, 0x24, 0xbe, 0x50, 0x60, 0xb6, 0x3e, 0xe0, 0xb0, 0xc4, 0xbe,
  0x80, 0x41, 0x89, 0xbc, 0x5b, 0x03, 0x88, 0x3d, 0x82, 0x95, 0x1e, 0x3d,
  0x78, 0x1e, 0x8b, 0xbd, 0x9e, 0x65, 0xa1, 0x3e, 0x49, 0x4b, 0xa1, 0xbd,
  0xa2, 0x12, 0xa7, 0x3c, 0x4e, 0xf4, 0x02, 0x3e, 0x40, 0x7c, 0xa6, 0x3e,
  0xe9, 0xd0, 0x19, 0xbd, 0x40, 0xd8, 0x89, 0x3d, 0x4e, 0x99, 0xab, 0xbe,
  0x42, 0xc6, 0x90, 0x3d, 0x16, 0x99, 0xf6, 0x3d, 0x67, 0xf1, 0x50, 0x3c,
  0x4a, 0x41, 0xc4, 0x3d, 0x4f, 0x14, 0x88, 0x3e, 0x26, 0x60, 0xb9, 0xbe,
  0xb3, 0xbe, 0xa1, 0x3e, 0xe3, 0xf2, 0x1b, 0x3e, 0x8a, 0x8a, 0xd6, 0x3d,
  0xe8, 0x75, 0x90, 0x3e, 0x41, 0x1e, 0xc1, 0x3d, 0x82, 0x30, 0x9f, 0xbe,
  0xef, 0x06, 0xb0, 0x3e, 0xab, 0x71, 0xe2, 0x3c, 0xd1, 0xa6, 0x92, 0xbd,
  0xc5, 0x9b, 0x0d, 0x3e, 0x35, 0x69, 0x63, 0x3d, 0x21, 0xc6, 0xf9, 0xbd,
  0xbb, 0x49, 0xa6, 0x3e, 0x43, 0x2d, 0xad, 0xbe, 0x57, 0x22, 0x2a, 0x3e,
  0x81, 0x43, 0x8f, 0x3e, 0xc8, 0xaa, 0x89, 0x3e, 0xfe, 0x75, 0x15, 0xbe,
  0x2f, 0x97, 0xa9, 0x3e, 0x9c, 0x2f, 0x92, 0xbb, 0x46, 0xe3, 0x34, 0xbe,
  0x0b, 0xa2, 0xc2, 0x3d, 0x1b, 0x34, 0x84, 0x3b, 0x2a, 0x17, 0xf2, 0xbd,
  0x82, 0x10, 0x2d, 0x3e, 0x00, 0x52, 0x19, 0xbd, 0x83, 0xdd, 0x38, 0xbe,
  0x75, 0x95, 0x1a, 0x3d, 0x33, 0x0f, 0x35, 0x3e, 0x23, 0x3a, 0x17, 0x3e,
  0x48, 0xfd, 0x9d, 0x3d, 0x78, 0xb9, 0x90, 0xbe, 0x04, 0xaf, 0x44, 0x3d,
  0x67, 0xd8, 0xcc, 0xbd, 0xbf, 0x52, 0xc0, 0x3a, 0xb3, 0x04, 0xa9, 0xbd,
  0x18, 0x64, 0x6c, 0x3e, 0xe5, 0x7c, 0xc9, 0xbc, 0x79, 0xf6, 0x6c, 0x3d,
  0x82, 0x43, 0x32, 0xbe, 0xe0, 0x74, 0xc8, 0x3e, 0x64, 0x67, 0x69, 0x3e,
  0x33, 0x3c, 0x37, 0xbe, 0xed, 0x28, 0xab, 0xbe, 0xee, 0xb2, 0x1d, 0xbe,
  0x91, 0x6d, 0xe6, 0xbd, 0x6a, 0x67, 0x4b, 0xbb, 0x37, 0x30, 0x4b, 0x3e,
  0x66, 0xad, 0x84, 0x3e, 0x33, 0x79, 0xa6, 0x3b, 0xd6, 0xca, 0x69, 0x3e,
  0x9c, 0xe1, 0x0e, 0xbc, 0xbf, 0x4e, 0x10, 0x3e, 0x6d, 0x55, 0x8c, 0x3e,
  0x04, 0x6d, 0xd0, 0xbd, 0x36, 0xf4, 0x78, 0xbe, 0x83, 0x17, 0x34, 0x3d,
  0x08, 0x62, 0xf0, 0xbd, 0x61, 0xc2, 0xf6, 0xbd, 0x37, 0x4a, 0x0c, 0x3f,
  0x3a, 0x3f, 0x7a, 0x3d, 0xc2, 0x18, 0xb6, 0xbe, 0x58, 0xbf, 0xb5, 0xbc,
  0xb7, 0x84, 0x41, 0xbe, 0x74, 0x2e, 0xa5, 0xbe, 0x49, 0x5e, 0xbf, 0x3e,
  0x2c, 0xf1, 0x93, 0x3e, 0x6f, 0x5c, 0xb7, 0xbd, 0xf5, 0x73, 0xbc, 0xbd,
  0xcd, 0x31, 0x88, 0xbe, 0x51, 0xda, 0x37, 0xbe, 0x17, 0xc4, 0xba, 0x3e,
  0x28, 0x4f, 0x81, 0x3e, 0x4e, 0x58, 0x45, 0xbe, 0x9c, 0x20, 0x4f, 0xbd,
  0x39, 0xf0, 0xfc, 0xbd, 0xd4, 0x16, 0xfc, 0xbd, 0xa7, 0xe6, 0x09, 0x3f,
  0x69, 0x54, 0x0a, 0xbe, 0xfb, 0x5c, 0x76, 0xbc, 0xd2, 0x79, 0xb6, 0xbd,
  0x9c, 0xfe, 0x08, 0xbe, 0xd2, 0x7b, 0xea, 0x3b, 0xa4, 0x35, 0x04, 0x3f,
  0xcd, 0xc0, 0xe4, 0xbc, 0x9c, 0xfe, 0xb6, 0x3d, 0x82, 0x15, 0x07, 0xbe,
  0x4b, 0xd0, 0x0a, 0x3e, 0xbf, 0x06, 0x4f, 0x3e, 0xa3, 0xc8, 0xff, 0x3d,
  0x5c, 0xa8, 0xd8, 0x3c, 0x33, 0xaa, 0x43, 0xbe, 0x0f, 0xcf, 0x4d, 0xbe,
  0xd4, 0x49, 0x2d, 0x3e, 0x14, 0x57, 0x98, 0x3e, 0x48, 0xf1, 0xd4, 0xbc,
  0x74, 0x84, 0x3f, 0x3e, 0xd1, 0x6f, 0xa6, 0xbc, 0xa8, 0xde, 0x9e, 0xbd,
  0xa6, 0xe3, 0x8c, 0x3d, 0xc8, 0x91, 0x89, 0x3e, 0xea, 0x00, 0x8c, 0x3d,
  0x00, 0xa8, 0x74, 0x3e, 0x88, 0x6d, 0x84, 0x3d, 0x05, 0xde, 0x30, 0xbe,
  0xa4, 0x5b, 0xf4, 0x3d, 0x3a, 0x12, 0x18, 0x3e, 0x98, 0x0e, 0xcb, 0x3e,
  0xdd, 0x2e, 0x30, 0x3e, 0x2d, 0x67, 0x99, 0x3d, 0x24, 0x38, 0x8c, 0xbe,
  0x43, 0x6f, 0x39, 0xbe, 0xdf, 0xe5, 0x3b, 0x3e, 0x2d, 0xc7, 0x79, 0xbd,
  0xdf, 0x36, 0x61, 0x3e, 0x6f, 0xc8, 0x4e, 0xbe, 0x97, 0x43, 0xe5, 0xbd,
  0x22, 0x74, 0x38, 0xbe, 0x69, 0x79, 0x68, 0x3c, 0xba, 0x12, 0xab, 0x3e,
  0x32, 0x07, 0x3b, 0x3d, 0x24, 0xe3, 0x5a, 0x3d, 0x21, 0xcd, 0x60, 0xbe,
  0x99, 0xd4, 0x71, 0xbd, 0x20, 0x3c, 0x59, 0xbe, 0x48, 0x02, 0x9a, 0xbb,
  0xd8, 0x52, 0x81, 0x3e, 0xf2, 0x95, 0xe1, 0xbc, 0xf0, 0x59, 0x18, 0x3d,
  0xd4, 0xa4, 0x5b, 0x3e, 0xf3, 0xfc, 0xa0, 0xbe, 0x08, 0x36, 0xbc, 0x3e,
  0x50, 0xeb, 0x80, 0x3e, 0x00, 0x2c, 0x83, 0x3e, 0x13, 0xaf, 0x6e, 0xbe,
  0x62, 0xd9, 0x95, 0x3e, 0xe0, 0x5d, 0x77, 0xbe, 0xe8, 0x87, 0x60, 0x3d,
  0xa4, 0xea, 0x7c, 0x3e, 0xad, 0x7c, 0x89, 0xbd, 0xd4, 0x7d, 0x8e, 0xbe,
  0x0c, 0x46, 0xdb, 0x3d, 0x66, 0x4a, 0xf6, 0xbe, 0x3a, 0x44, 0x77, 0x3e,
  0x74, 0x0e, 0x4f, 0xbd, 0x78, 0x62, 0x47, 0x3e, 0x40, 0x85, 0xdf, 0x3d,
  0xb5, 0x21, 0x90, 0x3e, 0x85, 0x53, 0x65, 0xbe, 0x06, 0xe7, 0xb5, 0x3e,
  0x80, 0x7a, 0xc0, 0x3d, 0x19, 0x65, 0x65, 0xbd, 0xae, 0xf9, 0x2a, 0xbe,
  0x56, 0xd3, 0xfc, 0x3d, 0x35, 0xee, 0x01, 0xbe, 0x45, 0x6b, 0xab, 0x3d,
  0xc4, 0x6b, 0xa0, 0xbd, 0xf3, 0xfd, 0x73, 0x3e, 0x5c, 0x98, 0x6e, 0x3d,
  0x5a, 0xd5, 0xdb, 0x3d, 0xec, 0xf3, 0xa3, 0xbe, 0x14, 0x5a, 0x61, 0x3c,
  0x54, 0x41, 0x60, 0xbd, 0xff, 0xa7, 0x16, 0x3e, 0x0e, 0x3c, 0x2c, 0x3e,
  0x9b, 0xf2, 0xc3, 0x3e, 0xaf, 0xb7, 0x67, 0xbe, 0xd6, 0x46, 0xbb, 0x3d,
  0x5e, 0xdc, 0xd6, 0x3d, 0x57, 0x98, 0x91, 0x3e, 0x39, 0x46, 0x13, 0x3a,
  0xe6, 0xf0, 0x1f, 0xbd, 0x99, 0x37, 0x41, 0xbe, 0xa0, 0x8d, 0x2b, 0xbd,
  0x5f, 0x7e, 0xe9, 0xbd, 0x0c, 0x39, 0xa8, 0x3d, 0x43, 0xf8, 0x10, 0xbe,
  0x48, 0x8b, 0x9d, 0xbd, 0xc1, 0x48, 0x5a, 0xbe, 0x77, 0xd4, 0x0f, 0x3e,
  0x81, 0x45, 0x08, 0x3e, 0x00, 0x03, 0xc0, 0xbc, 0x00, 0x6e, 0x4c, 0xba,
  0x90, 0xed, 0x22, 0xbd, 0x44, 0xb5, 0x16, 0xbe, 0x77, 0x9c, 0x05, 0x3e,
  0x20, 0x49, 0xc9, 0x3b, 0x9c, 0xf8, 0x88, 0xbd, 0x45, 0x28, 0x68, 0x3e,
  0x7e, 0x51, 0xbb, 0x3d, 0x50, 0xd7, 0x17, 0x3c, 0x86, 0x29, 0x60, 0xbe,
  0x81, 0x3a, 0x2f, 0x3e, 0x75, 0x45, 0x17, 0xbe, 0xee, 0xfe, 0xa1, 0x3d,
  0x94, 0xb9, 0x49, 0xbd, 0x61, 0x13, 0xf5, 0xbd, 0xe0, 0xc4, 0xc3, 0xbb,
  0xcb, 0x7a, 0x3b, 0xbe, 0x3f, 0x79, 0x6d, 0x3e, 0x69, 0x9b, 0x2e, 0xbe,
  0x42, 0x4b, 0x86, 0xbd, 0x52, 0xd2, 0x2b, 0xbe, 0x3c, 0xf6, 0x00, 0x3d,
  0xd8, 0x91, 0xc4, 0x3c, 0x37, 0x63, 0x25, 0xbe, 0xc0, 0x20, 0xf0, 0xbd,
  0x91, 0x26, 0x6e, 0xbe, 0xeb, 0x06, 0x01, 0x3e, 0x9b, 0x1d, 0x27, 0x3e,
  0x62, 0x5c, 0x5a, 0xbe, 0xed, 0xa5, 0x19, 0xbe, 0x75, 0x9e, 0x6b, 0x3e,
  0x7c, 0x25, 0x59, 0xbd, 0x59, 0xf5, 0x22, 0xbe, 0x87, 0xcf, 0x06, 0x3e,
  0x72, 0xf2, 0xf0, 0x3d, 0xc0, 0x98, 0x10, 0x3b, 0x03, 0xb2, 0x11, 0x3e,
  0xda, 0xb3, 0xc4, 0x3d, 0x4b, 0x2c, 0x5b, 0x3e, 0xc4, 0xe5, 0x5c, 0x3d,
  0x40, 0xc6, 0x41, 0xbb, 0x72, 0x53, 0x96, 0x3d, 0x32, 0xc8, 0xa6, 0x3d,
  0x74, 0x07, 0x7f, 0x3d, 0xb9, 0x3f, 0x4c, 0x3e, 0xae, 0x85, 0xc0, 0x3d,
  0xb4, 0x6e, 0x1e, 0x3d, 0x00, 0xb8, 0x58, 0xbe, 0x66, 0x39, 0x0d, 0xbe,
  0xc3, 0x42, 0x00, 0x3e, 0xc0, 0xe1, 0x58, 0xbb, 0xcd, 0x7b, 0x0f, 0x3e,
  0x2c, 0x48, 0xf3, 0xbd, 0xeb, 0xfb, 0x6e, 0xbe, 0x6e, 0x3d, 0x53, 0xbe,
  0xe0, 0xd2, 0x6b, 0xbd, 0x00, 0x56, 0xbc, 0x39, 0x8e, 0x92, 0xa9, 0x3d,
  0xc4, 0x03, 0x91, 0xbd, 0x8f, 0x01, 0x22, 0x3e, 0xd0, 0xbb, 0x1a, 0xbe,
  0xbc, 0x22, 0x23, 0x3d, 0x84, 0x03, 0xb3, 0xbd, 0xab, 0x06, 0x60, 0xbe,
  0xe3, 0x90, 0xf3, 0xbd, 0x36, 0x3a, 0xa7, 0x3d, 0x94, 0xc2, 0x55, 0x3d,
  0x24, 0xeb, 0xc3, 0xbd, 0x3a, 0xa0, 0xdf, 0x3d, 0x18, 0x78, 0x32, 0xbd,
  0xdc, 0x6f, 0x52, 0x3d, 0xe4, 0xad, 0x67, 0xbd, 0x0a, 0x48, 0x94, 0xbd,
  0x0a, 0x27, 0x66, 0xbe, 0x90, 0xb5, 0xd3, 0xbd, 0xb4, 0xf0, 0x23, 0x3d,
  0x2f, 0x7d, 0x31, 0x3e, 0xcb, 0x61, 0x3c, 0xbe, 0x14, 0xc4, 0x70, 0xbe,
  0xb0, 0xa4, 0x66, 0xbe, 0xd6, 0xc0, 0x47, 0xbe, 0x97, 0xf4, 0x12, 0x3e,
  0x98, 0x1f, 0xfe, 0xbc, 0x10, 0xbd, 0x00, 0xbd, 0x28, 0xe4, 0x69, 0xbe,
  0xd7, 0x91, 0xb3, 0x3e, 0xc0, 0x3e, 0x1a, 0x3e, 0x30, 0x27, 0xcc, 0xbe,
  0x06, 0xa3, 0xd4, 0x3e, 0xad, 0x5f, 0x0c, 0x3f, 0xf8, 0xf5, 0x7a, 0x3e,
  0xb3, 0xfd, 0x0d, 0x3f, 0x14, 0xac, 0xef, 0xbd, 0xf5, 0x3c, 0xd9, 0xbe,
  0xcc, 0x03, 0x09, 0x3e, 0x0f, 0x3d, 0x7f, 0x3e, 0xe5, 0x85, 0x1d, 0x3e,
  0xdc, 0x14, 0xe4, 0x3e, 0xfc, 0xec, 0xad, 0x3c, 0x0f, 0xfc, 0x5c, 0xbe,
  0xfe, 0xca, 0xea, 0x3e, 0xfb, 0x21, 0xe5, 0x3e, 0x8a, 0xb3, 0x0a, 0xbe,
  0x49, 0x25, 0xb4, 0x3e, 0x21, 0x16, 0xc8, 0xbe, 0x12, 0xfb, 0xd7, 0xbd,
  0x19, 0x9f, 0x8a, 0x3e, 0xf0, 0x20, 0x6e, 0x3e, 0x14, 0x63, 0x37, 0x3d,
  0xd7, 0x3d, 0x04, 0x3f, 0xb5, 0xf1, 0xd3, 0xbe, 0xb4, 0xa5, 0xcf, 0xbe,
  0xe6, 0xcc, 0xc7, 0x3e, 0x11, 0xcf, 0x11, 0x3e, 0x40, 0x27, 0x84, 0x3e,
  0x4d, 0x37, 0xe8, 0x3e, 0xb4, 0x60, 0x96, 0xbd, 0x94, 0xef, 0xa9, 0xbe,
  0x46, 0x64, 0x9e, 0x3e, 0xdf, 0xe3, 0xb7, 0x3e, 0x16, 0x73, 0x8b, 0x3d,
  0x37, 0x3a, 0x9f, 0x3e, 0xfb, 0xb8, 0x16, 0xbe, 0xe0, 0x3d, 0x89, 0xbe,
  0xe2, 0xb5, 0x2b, 0x3d, 0xfa, 0xb0, 0x08, 0xbd, 0xd1, 0x85, 0x89, 0x3e,
  0xd5, 0x03, 0xc1, 0x3e, 0x93, 0x90, 0x84, 0xbe, 0x63, 0x13, 0xc6, 0xbd,
  0x14, 0xd5, 0xad, 0x3e, 0x05, 0xd8, 0x03, 0x3e, 0x61, 0x8f, 0x3f, 0x3e,
  0xbf, 0x5b, 0x14, 0x3e, 0xb1, 0xe7, 0xd1, 0xbd, 0x04, 0x35, 0x4a, 0xbe,
  0x3a, 0xd8, 0x5c, 0x3e, 0x3f, 0x12, 0xce, 0x3c, 0xfd, 0xd8, 0x91, 0x3c,
  0xb7, 0xec, 0x95, 0x3e, 0x9b, 0x66, 0x2b, 0x3d, 0x48, 0x0f, 0xb9, 0x3d,
  0xc5, 0xad, 0xb2, 0xbb, 0x0c, 0xb6, 0xa6, 0x3b, 0xf4, 0xc2, 0xf3, 0x3c,
  0x49, 0x08, 0xd8, 0x3d, 0xff, 0xd5, 0xa3, 0xbe, 0xdc, 0xef, 0x70, 0x3d,
  0x53, 0x4b, 0xd0, 0x3d, 0x7d, 0xc0, 0x58, 0x3e, 0xc9, 0x41, 0x95, 0x3e,
  0x62, 0x1e, 0x88, 0x3c, 0x7a, 0x22, 0x37, 0xbd, 0xc6, 0x95, 0x3d, 0xbe,
  0x31, 0xe3, 0x0b, 0x3e, 0x0f, 0x99, 0x2a, 0x3d, 0x67, 0x37, 0x80, 0x3e,
  0x35, 0x24, 0x0c, 0x3e, 0x16, 0xfc, 0x0a, 0x3d, 0x8b, 0x7b, 0x0e, 0x3e,
  0x27, 0x85, 0xb2, 0x3d, 0xf4, 0x97, 0x52, 0xbd, 0xff, 0x75, 0x63, 0xbc,
  0x0f, 0xda, 0xad, 0x3e, 0xc8, 0xa0, 0x07, 0xbe, 0x8a, 0x63, 0x31, 0x3b,
  0x1f, 0xd2, 0xb4, 0x3e, 0xf7, 0x8b, 0xad, 0xbd, 0xe4, 0xaf, 0xdc, 0x3e,
  0x1e, 0xe0, 0x9e, 0x3d, 0xf8, 0xa9, 0x0c, 0xbd, 0xd1, 0xf1, 0x29, 0x3e,
  0x90, 0xc2, 0x4c, 0x3e, 0xcf, 0x46, 0xd3, 0xbd, 0x79, 0xc6, 0xc7, 0x3c,
  0xce, 0xfe, 0xff, 0xff, 0x04, 0x00, 0x00, 0x00, 0x40, 0x00, 0x00, 0x00,
  0xea, 0xcb, 0xb2, 0xbc, 0x46, 0x00, 0x6e, 0x3c, 0x00, 0x00, 0x00, 0x00,
  0x00, 0x00, 0x00, 0x00, 0x00, 0x00, 0x00, 0x00, 0x00, 0x00, 0x00, 0x00,
  0x03, 0x95, 0xed, 0xbc, 0xb8, 0xe9, 0x6c, 0xbd, 0x67, 0xad, 0xe3, 0x3c,
  0x4c, 0x21, 0x5e, 0xbd, 0xbf, 0x6c, 0x78, 0x3d, 0xf4, 0x1c, 0x16, 0x3d,
  0x96, 0x2a, 0x86, 0x3d, 0x10, 0xe0, 0x8a, 0x3d, 0x00, 0x00, 0x00, 0x00,
  0x03, 0xab, 0x25, 0x3e, 0x1a, 0xff, 0xff, 0xff, 0x04, 0x00, 0x00, 0x00,
  0x18, 0x00, 0x00, 0x00, 0x04, 0x5c, 0x6b, 0xbe, 0x27, 0x56, 0x1e, 0x3e,
  0xd1, 0x3f, 0x59, 0xbe, 0x52, 0x4f, 0x09, 0x3e, 0x7e, 0xbd, 0x29, 0xbd,
  0x23, 0xe9, 0x9e, 0xbe, 0x3e, 0xff, 0xff, 0xff, 0x04, 0x00, 0x00, 0x00,
  0x20, 0x00, 0x00, 0x00, 0x09, 0xf4, 0x68, 0x3e, 0xb0, 0x45, 0xb4, 0x3d,
  0x68, 0x44, 0xf0, 0x3d, 0x43, 0x90, 0xef, 0x3c, 0x70, 0x9c, 0x62, 0xbd,
  0x27, 0xc7, 0x14, 0xbd, 0xfe, 0x54, 0x4c, 0xbd, 0xad, 0x50, 0x91, 0x3d,
  0x5c, 0xfa, 0xff, 0xff, 0x60, 0xfa, 0xff, 0xff, 0x0f, 0x00, 0x00, 0x00,
  0x4d, 0x4c, 0x49, 0x52, 0x20, 0x43, 0x6f, 0x6e, 0x76, 0x65, 0x72, 0x74,
  0x65, 0x64, 0x2e, 0x00, 0x01, 0x00, 0x00, 0x00, 0x14, 0x00, 0x00, 0x00,
  0x00, 0x00, 0x0e, 0x00, 0x18, 0x00, 0x14, 0x00, 0x10, 0x00, 0x0c, 0x00,
  0x08, 0x00, 0x04, 0x00, 0x0e, 0x00, 0x00, 0x00, 0x14, 0x00, 0x00, 0x00,
  0x1c, 0x00, 0x00, 0x00, 0x24, 0x01, 0x00, 0x00, 0x28, 0x01, 0x00, 0x00,
  0x2c, 0x01, 0x00, 0x00, 0x04, 0x00, 0x00, 0x00, 0x6d, 0x61, 0x69, 0x6e,
  0x00, 0x00, 0x00, 0x00, 0x04, 0x00, 0x00, 0x00, 0xcc, 0x00, 0x00, 0x00,
  0x84, 0x00, 0x00, 0x00, 0x50, 0x00, 0x00, 0x00, 0x14, 0x00, 0x00, 0x00,
  0x00, 0x00, 0x0e, 0x00, 0x1a, 0x00, 0x14, 0x00, 0x10, 0x00, 0x0c, 0x00,
  0x0b, 0x00, 0x04, 0x00, 0x0e, 0x00, 0x00, 0x00, 0x1c, 0x00, 0x00, 0x00,
  0x00, 0x00, 0x00, 0x09, 0x1c, 0x00, 0x00, 0x00, 0x20, 0x00, 0x00, 0x00,
  0x01, 0x00, 0x00, 0x00, 0x00, 0x00, 0x06, 0x00, 0x08, 0x00, 0x04, 0x00,
  0x06, 0x00, 0x00, 0x00, 0x00, 0x00, 0x80, 0x3f, 0x01, 0x00, 0x00, 0x00,
  0x0a, 0x00, 0x00, 0x00, 0x01, 0x00, 0x00, 0x00, 0x09, 0x00, 0x00, 0x00,
  0x9a, 0xff, 0xff, 0xff, 0x10, 0x00, 0x00, 0x00, 0x00, 0x00, 0x00, 0x08,
  0x0c, 0x00, 0x00, 0x00, 0x10, 0x00, 0x00, 0x00, 0x24, 0xfb, 0xff, 0xff,
  0x01, 0x00, 0x00, 0x00, 0x09, 0x00, 0x00, 0x00, 0x03, 0x00, 0x00, 0x00,
  0x08, 0x00, 0x00, 0x00, 0x06, 0x00, 0x00, 0x00, 0x02, 0x00, 0x00, 0x00,
  0xca, 0xff, 0xff, 0xff, 0x10, 0x00, 0x00, 0x00, 0x00, 0x00, 0x00, 0x08,
  0x10, 0x00, 0x00, 0x00, 0x14, 0x00, 0x00, 0x00, 0xba, 0xff, 0xff, 0xff,
  0x00, 0x00, 0x00, 0x01, 0x01, 0x00, 0x00, 0x00, 0x08, 0x00, 0x00, 0x00,
  0x03, 0x00, 0x00, 0x00, 0x07, 0x00, 0x00, 0x00, 0x05, 0x00, 0x00, 0x00,
  0x01, 0x00, 0x00, 0x00, 0x00, 0x00, 0x0e, 0x00, 0x16, 0x00, 0x00, 0x00,
  0x10, 0x00, 0x0c, 0x00, 0x0b, 0x00, 0x04, 0x00, 0x0e, 0x00, 0x00, 0x00,
  0x18, 0x00, 0x00, 0x00, 0x00, 0x00, 0x00, 0x08, 0x18, 0x00, 0x00, 0x00,
  0x1c, 0x00, 0x00, 0x00, 0x00, 0x00, 0x06, 0x00, 0x08, 0x00, 0x07, 0x00,
  0x06, 0x00, 0x00, 0x00, 0x00, 0x00, 0x00, 0x01, 0x01, 0x00, 0x00, 0x00,
  0x07, 0x00, 0x00, 0x00, 0x03, 0x00, 0x00, 0x00, 0x00, 0x00, 0x00, 0x00,
  0x04, 0x00, 0x00, 0x00, 0x03, 0x00, 0x00, 0x00, 0x01, 0x00, 0x00, 0x00,
  0x0a, 0x00, 0x00, 0x00, 0x01, 0x00, 0x00, 0x00, 0x00, 0x00, 0x00, 0x00,
  0x0b, 0x00, 0x00, 0x00, 0x04, 0x04, 0x00, 0x00, 0x94, 0x03, 0x00, 0x00,
  0x24, 0x03, 0x00, 0x00, 0xd0, 0x02, 0x00, 0x00, 0x88, 0x02, 0x00, 0x00,
  0x3c, 0x02, 0x00, 0x00, 0xf0, 0x01, 0x00, 0x00, 0x68, 0x01, 0x00, 0x00,
  0xd8, 0x00, 0x00, 0x00, 0x60, 0x00, 0x00, 0x00, 0x04, 0x00, 0x00, 0x00,
  0x3e, 0xfc, 0xff, 0xff, 0x00, 0x00, 0x00, 0x01, 0x14, 0x00, 0x00, 0x00,
  0x1c, 0x00, 0x00, 0x00, 0x1c, 0x00, 0x00, 0x00, 0x0b, 0x00, 0x00, 0x00,
  0x34, 0x00, 0x00, 0x00, 0x02, 0x00, 0x00, 0x00, 0xff, 0xff, 0xff, 0xff,
  0x06, 0x00, 0x00, 0x00, 0x28, 0xfc, 0xff, 0xff, 0x19, 0x00, 0x00, 0x00,
  0x53, 0x74, 0x61, 0x74, 0x65, 0x66, 0x75, 0x6c, 0x50, 0x61, 0x72, 0x74,
  0x69, 0x74, 0x69, 0x6f, 0x6e, 0x65, 0x64, 0x43, 0x61, 0x6c, 0x6c, 0x3a,
  0x30, 0x00, 0x00, 0x00, 0x02, 0x00, 0x00, 0x00, 0x01, 0x00, 0x00, 0x00,
  0x06, 0x00, 0x00, 0x00, 0x96, 0xfc, 0xff, 0xff, 0x00, 0x00, 0x00, 0x01,
  0x14, 0x00, 0x00, 0x00, 0x1c, 0x00, 0x00, 0x00, 0x1c, 0x00, 0x00, 0x00,
  0x0a, 0x00, 0x00, 0x00, 0x50, 0x00, 0x00, 0x00, 0x02, 0x00, 0x00, 0x00,
  0xff, 0xff, 0xff, 0xff, 0x06, 0x00, 0x00, 0x00, 0x80, 0xfc, 0xff, 0xff,
  0x34, 0x00, 0x00, 0x00, 0x73, 0x65, 0x71, 0x75, 0x65, 0x6e, 0x74, 0x69,
  0x61, 0x6c, 0x2f, 0x64, 0x65, 0x6e, 0x73, 0x65, 0x5f, 0x32, 0x2f, 0x4d,
  0x61, 0x74, 0x4d, 0x75, 0x6c, 0x3b, 0x73, 0x65, 0x71, 0x75, 0x65, 0x6e,
  0x74, 0x69, 0x61, 0x6c, 0x2f, 0x64, 0x65, 0x6e, 0x73, 0x65, 0x5f, 0x32,
  0x2f, 0x42, 0x69, 0x61, 0x73, 0x41, 0x64, 0x64, 0x00, 0x00, 0x00, 0x00,
  0x02, 0x00, 0x00, 0x00, 0x01, 0x00, 0x00, 0x00, 0x06, 0x00, 0x00, 0x00,
  0x0a, 0xfd, 0xff, 0xff, 0x00, 0x00, 0x00, 0x01, 0x14, 0x00, 0x00, 0x00,
  0x1c, 0x00, 0x00, 0x00, 0x1c, 0x00, 0x00, 0x00, 0x09, 0x00, 0x00, 0x00,
  0x68, 0x00, 0x00, 0x00, 0x02, 0x00, 0x00, 0x00, 0xff, 0xff, 0xff, 0xff,
  0x08, 0x00, 0x00, 0x00, 0xf4, 0xfc, 0xff, 0xff, 0x4c, 0x00, 0x00, 0x00,
  0x73, 0x65, 0x71, 0x75, 0x65, 0x6e, 0x74, 0x69, 0x61, 0x6c, 0x2f, 0x64,
  0x65, 0x6e, 0x73, 0x65, 0x5f, 0x31, 0x2f, 0x4d, 0x61, 0x74, 0x4d, 0x75,
  0x6c, 0x3b, 0x73, 0x65, 0x71, 0x75, 0x65, 0x6e, 0x74, 0x69, 0x61, 0x6c,
  0x2f, 0x64, 0x65, 0x6e, 0x73, 0x65, 0x5f, 0x31, 0x2f, 0x52, 0x65, 0x6c,
  0x75, 0x3b, 0x73, 0x65, 0x71, 0x75, 0x65, 0x6e, 0x74, 0x69, 0x61, 0x6c,
  0x2f, 0x64, 0x65, 0x6e, 0x73, 0x65, 0x5f, 0x31, 0x2f, 0x42, 0x69, 0x61,
  0x73, 0x41, 0x64, 0x64, 0x00, 0x00, 0x00, 0x00, 0x02, 0x00, 0x00, 0x00,
  0x01, 0x00, 0x00, 0x00, 0x08, 0x00, 0x00, 0x00, 0x96, 0xfd, 0xff, 0xff,
  0x00, 0x00, 0x00, 0x01, 0x14, 0x00, 0x00, 0x00, 0x1c, 0x00, 0x00, 0x00,
  0x1c, 0x00, 0x00, 0x00, 0x08, 0x00, 0x00, 0x00, 0x60, 0x00, 0x00, 0x00,
  0x02, 0x00, 0x00, 0x00, 0xff, 0xff, 0xff, 0xff, 0x10, 0x00, 0x00, 0x00,
  0x80, 0xfd, 0xff, 0xff, 0x46, 0x00, 0x00, 0x00, 0x73, 0x65, 0x71, 0x75,
  0x65, 0x6e, 0x74, 0x69, 0x61, 0x6c, 0x2f, 0x64, 0x65, 0x6e, 0x73, 0x65,
  0x2f, 0x4d, 0x61, 0x74, 0x4d, 0x75, 0x6c, 0x3b, 0x73, 0x65, 0x71, 0x75,
  0x65, 0x6e, 0x74, 0x69, 0x61, 0x6c, 0x2f, 0x64, 0x65, 0x6e, 0x73, 0x65,
  0x2f, 0x52, 0x65, 0x6c, 0x75, 0x3b, 0x73, 0x65, 0x71, 0x75, 0x65, 0x6e,
  0x74, 0x69, 0x61, 0x6c, 0x2f, 0x64, 0x65, 0x6e, 0x73, 0x65, 0x2f, 0x42,
  0x69, 0x61, 0x73, 0x41, 0x64, 0x64, 0x00, 0x00, 0x02, 0x00, 0x00, 0x00,
  0x01, 0x00, 0x00, 0x00, 0x10, 0x00, 0x00, 0x00, 0x86, 0xfe, 0xff, 0xff,
  0x00, 0x00, 0x00, 0x01, 0x10, 0x00, 0x00, 0x00, 0x10, 0x00, 0x00, 0x00,
  0x07, 0x00, 0x00, 0x00, 0x28, 0x00, 0x00, 0x00, 0xf4, 0xfd, 0xff, 0xff,
  0x19, 0x00, 0x00, 0x00, 0x73, 0x65, 0x71, 0x75, 0x65, 0x6e, 0x74, 0x69,
  0x61, 0x6c, 0x2f, 0x64, 0x65, 0x6e, 0x73, 0x65, 0x5f, 0x32, 0x2f, 0x4d,
  0x61, 0x74, 0x4d, 0x75, 0x6c, 0x00, 0x00, 0x00, 0x02, 0x00, 0x00, 0x00,
  0x06, 0x00, 0x00, 0x00, 0x08, 0x00, 0x00, 0x00, 0xce, 0xfe, 0xff, 0xff,
  0x00, 0x00, 0x00, 0x01, 0x10, 0x00, 0x00, 0x00, 0x10, 0x00, 0x00, 0x00,
  0x06, 0x00, 0x00, 0x00, 0x28, 0x00, 0x00, 0x00, 0x3c, 0xfe, 0xff, 0xff,
  0x19, 0x00, 0x00, 0x00, 0x73, 0x65, 0x71, 0x75, 0x65, 0x6e, 0x74, 0x69,
  0x61, 0x6c, 0x2f, 0x64, 0x65, 0x6e, 0x73, 0x65, 0x5f, 0x31, 0x2f, 0x4d,
  0x61, 0x74, 0x4d, 0x75, 0x6c, 0x00, 0x00, 0x00, 0x02, 0x00, 0x00, 0x00,
  0x08, 0x00, 0x00, 0x00, 0x10, 0x00, 0x00, 0x00, 0x16, 0xff, 0xff, 0xff,
  0x00, 0x00, 0x00, 0x01, 0x10, 0x00, 0x00, 0x00, 0x10, 0x00, 0x00, 0x00,
  0x05, 0x00, 0x00, 0x00, 0x24, 0x00, 0x00, 0x00, 0x84, 0xfe, 0xff, 0xff,
  0x17, 0x00, 0x00, 0x00, 0x73, 0x65, 0x71, 0x75, 0x65, 0x6e, 0x74, 0x69,
  0x61, 0x6c, 0x2f, 0x64, 0x65, 0x6e, 0x73, 0x65, 0x2f, 0x4d, 0x61, 0x74,
  0x4d, 0x75, 0x6c, 0x00, 0x02, 0x00, 0x00, 0x00, 0x10, 0x00, 0x00, 0x00,
  0x5a, 0x00, 0x00, 0x00, 0x5a, 0xff, 0xff, 0xff, 0x00, 0x00, 0x00, 0x01,
  0x10, 0x00, 0x00, 0x00, 0x10, 0x00, 0x00, 0x00, 0x04, 0x00, 0x00, 0x00,
  0x34, 0x00, 0x00, 0x00, 0xc8, 0xfe, 0xff, 0xff, 0x27, 0x00, 0x00, 0x00,
  0x73, 0x65, 0x71, 0x75, 0x65, 0x6e, 0x74, 0x69, 0x61, 0x6c, 0x2f, 0x64,
  0x65, 0x6e, 0x73, 0x65, 0x2f, 0x42, 0x69, 0x61, 0x73, 0x41, 0x64, 0x64,
  0x2f, 0x52, 0x65, 0x61, 0x64, 0x56, 0x61, 0x72, 0x69, 0x61, 0x62, 0x6c,
  0x65, 0x4f, 0x70, 0x00, 0x01, 0x00, 0x00, 0x00, 0x10, 0x00, 0x00, 0x00,
  0xaa, 0xff, 0xff, 0xff, 0x00, 0x00, 0x00, 0x01, 0x10, 0x00, 0x00, 0x00,
  0x10, 0x00, 0x00, 0x00, 0x03, 0x00, 0x00, 0x00, 0x38, 0x00, 0x00, 0x00,
  0x18, 0xff, 0xff, 0xff, 0x29, 0x00, 0x00, 0x00, 0x73, 0x65, 0x71, 0x75,
  0x65, 0x6e, 0x74, 0x69, 0x61, 0x6c, 0x2f, 0x64, 0x65, 0x6e, 0x73, 0x65,
  0x5f, 0x32, 0x2f, 0x42, 0x69, 0x61, 0x73, 0x41, 0x64, 0x64, 0x2f, 0x52,
  0x65, 0x61, 0x64, 0x56, 0x61, 0x72, 0x69, 0x61, 0x62, 0x6c, 0x65, 0x4f,
  0x70, 0x00, 0x00, 0x00, 0x01, 0x00, 0x00, 0x00, 0x06, 0x00, 0x00, 0x00,
  0x00, 0x00, 0x16, 0x00, 0x18, 0x00, 0x14, 0x00, 0x00, 0x00, 0x10, 0x00,
  0x0c, 0x00, 0x08, 0x00, 0x00, 0x00, 0x00, 0x00, 0x00, 0x00, 0x07, 0x00,
  0x16, 0x00, 0x00, 0x00, 0x00, 0x00, 0x00, 0x01, 0x10, 0x00, 0x00, 0x00,
  0x10, 0x00, 0x00, 0x00, 0x02, 0x00, 0x00, 0x00, 0x38, 0x00, 0x00, 0x00,
  0x84, 0xff, 0xff, 0xff, 0x29, 0x00, 0x00, 0x00, 0x73, 0x65, 0x71, 0x75,
  0x65, 0x6e, 0x74, 0x69, 0x61, 0x6c, 0x2f, 0x64, 0x65, 0x6e, 0x73, 0x65,
  0x5f, 0x31, 0x2f, 0x42, 0x69, 0x61, 0x73, 0x41, 0x64, 0x64, 0x2f, 0x52,
  0x65, 0x61, 0x64, 0x56, 0x61, 0x72, 0x69, 0x61, 0x62, 0x6c, 0x65, 0x4f,
  0x70, 0x00, 0x00, 0x00, 0x01, 0x00, 0x00, 0x00, 0x08, 0x00, 0x00, 0x00,
  0x00, 0x00, 0x16, 0x00, 0x1c, 0x00, 0x18, 0x00, 0x00, 0x00, 0x14, 0x00,
  0x10, 0x00, 0x0c, 0x00, 0x00, 0x00, 0x00, 0x00, 0x08, 0x00, 0x07, 0x00,
  0x16, 0x00, 0x00, 0x00, 0x00, 0x00, 0x00, 0x01, 0x14, 0x00, 0x00, 0x00,
  0x20, 0x00, 0x00, 0x00, 0x20, 0x00, 0x00, 0x00, 0x01, 0x00, 0x00, 0x00,
  0x3c, 0x00, 0x00, 0x00, 0x02, 0x00, 0x00, 0x00, 0xff, 0xff, 0xff, 0xff,
  0x5a, 0x00, 0x00, 0x00, 0x04, 0x00, 0x04, 0x00, 0x04, 0x00, 0x00, 0x00,
  0x1d, 0x00, 0x00, 0x00, 0x73, 0x65, 0x72, 0x76, 0x69, 0x6e, 0x67, 0x5f,
  0x64, 0x65, 0x66, 0x61, 0x75, 0x6c, 0x74, 0x5f, 0x64, 0x65, 0x6e, 0x73,
  0x65, 0x5f, 0x69, 0x6e, 0x70, 0x75, 0x74, 0x3a, 0x30, 0x00, 0x00, 0x00,
  0x02, 0x00, 0x00, 0x00, 0x01, 0x00, 0x00, 0x00, 0x5a, 0x00, 0x00, 0x00,
  0x02, 0x00, 0x00, 0x00, 0x20, 0x00, 0x00, 0x00, 0x04, 0x00, 0x00, 0x00,
  0xf4, 0xff, 0xff, 0xff, 0x19, 0x00, 0x00, 0x00, 0x00, 0x00, 0x00, 0x19,
  0x0c, 0x00, 0x0c, 0x00, 0x0b, 0x00, 0x00, 0x00, 0x00, 0x00, 0x04, 0x00,
  0x0c, 0x00, 0x00, 0x00, 0x09, 0x00, 0x00, 0x00, 0x00, 0x00, 0x00, 0x09
}; 
