const unsigned char gesture_model [] = {  
  0x1c, 0x00, 0x00, 0x00, 0x54, 0x46, 0x4c, 0x33, 0x14, 0x00, 0x20, 0x00,
  0x1c, 0x00, 0x18, 0x00, 0x14, 0x00, 0x10, 0x00, 0x0c, 0x00, 0x00, 0x00,
  0x08, 0x00, 0x04, 0x00, 0x14, 0x00, 0x00, 0x00, 0x1c, 0x00, 0x00, 0x00,
  0x94, 0x00, 0x00, 0x00, 0xec, 0x00, 0x00, 0x00, 0x94, 0x19, 0x00, 0x00,
  0xa4, 0x19, 0x00, 0x00, 0x7c, 0x1f, 0x00, 0x00, 0x03, 0x00, 0x00, 0x00,
  0x01, 0x00, 0x00, 0x00, 0x10, 0x00, 0x00, 0x00, 0x00, 0x00, 0x0a, 0x00,
  0x10, 0x00, 0x0c, 0x00, 0x08, 0x00, 0x04, 0x00, 0x0a, 0x00, 0x00, 0x00,
  0x0c, 0x00, 0x00, 0x00, 0x1c, 0x00, 0x00, 0x00, 0x38, 0x00, 0x00, 0x00,
  0x0f, 0x00, 0x00, 0x00, 0x73, 0x65, 0x72, 0x76, 0x69, 0x6e, 0x67, 0x5f,
  0x64, 0x65, 0x66, 0x61, 0x75, 0x6c, 0x74, 0x00, 0x01, 0x00, 0x00, 0x00,
  0x04, 0x00, 0x00, 0x00, 0x94, 0xff, 0xff, 0xff, 0x0a, 0x00, 0x00, 0x00,
  0x04, 0x00, 0x00, 0x00, 0x07, 0x00, 0x00, 0x00, 0x64, 0x65, 0x6e, 0x73,
  0x65, 0x5f, 0x38, 0x00, 0x01, 0x00, 0x00, 0x00, 0x04, 0x00, 0x00, 0x00,
  0x4e, 0xe6, 0xff, 0xff, 0x04, 0x00, 0x00, 0x00, 0x0d, 0x00, 0x00, 0x00,
  0x64, 0x65, 0x6e, 0x73, 0x65, 0x5f, 0x36, 0x5f, 0x69, 0x6e, 0x70, 0x75,
  0x74, 0x00, 0x00, 0x00, 0x02, 0x00, 0x00, 0x00, 0x34, 0x00, 0x00, 0x00,
  0x04, 0x00, 0x00, 0x00, 0xdc, 0xff, 0xff, 0xff, 0x0d, 0x00, 0x00, 0x00,
  0x04, 0x00, 0x00, 0x00, 0x13, 0x00, 0x00, 0x00, 0x43, 0x4f, 0x4e, 0x56,
  0x45, 0x52, 0x53, 0x49, 0x4f, 0x4e, 0x5f, 0x4d, 0x45, 0x54, 0x41, 0x44,
  0x41, 0x54, 0x41, 0x00, 0x08, 0x00, 0x0c, 0x00, 0x08, 0x00, 0x04, 0x00,
  0x08, 0x00, 0x00, 0x00, 0x0c, 0x00, 0x00, 0x00, 0x04, 0x00, 0x00, 0x00,
  0x13, 0x00, 0x00, 0x00, 0x6d, 0x69, 0x6e, 0x5f, 0x72, 0x75, 0x6e, 0x74,
  0x69, 0x6d, 0x65, 0x5f, 0x76, 0x65, 0x72, 0x73, 0x69, 0x6f, 0x6e, 0x00,
  0x0e, 0x00, 0x00, 0x00, 0xa4, 0x18, 0x00, 0x00, 0x9c, 0x18, 0x00, 0x00,
  0x78, 0x18, 0x00, 0x00, 0x58, 0x18, 0x00, 0x00, 0x28, 0x18, 0x00, 0x00,
  0x98, 0x01, 0x00, 0x00, 0x08, 0x01, 0x00, 0x00, 0xa8, 0x00, 0x00, 0x00,
  0xa0, 0x00, 0x00, 0x00, 0x98, 0x00, 0x00, 0x00, 0x90, 0x00, 0x00, 0x00,
  0x88, 0x00, 0x00, 0x00, 0x68, 0x00, 0x00, 0x00, 0x04, 0x00, 0x00, 0x00,
  0x02, 0xe7, 0xff, 0xff, 0x04, 0x00, 0x00, 0x00, 0x54, 0x00, 0x00, 0x00,
  0x0c, 0x00, 0x00, 0x00, 0x08, 0x00, 0x0e, 0x00, 0x08, 0x00, 0x04, 0x00,
  0x08, 0x00, 0x00, 0x00, 0x10, 0x00, 0x00, 0x00, 0x24, 0x00, 0x00, 0x00,
  0x00, 0x00, 0x06, 0x00, 0x08, 0x00, 0x04, 0x00, 0x06, 0x00, 0x00, 0x00,
  0x04, 0x00, 0x00, 0x00, 0x00, 0x00, 0x00, 0x00, 0x00, 0x00, 0x0a, 0x00,
  0x10, 0x00, 0x0c, 0x00, 0x08, 0x00, 0x04, 0x00, 0x0a, 0x00, 0x00, 0x00,
  0x02, 0x00, 0x00, 0x00, 0x02, 0x00, 0x00, 0x00, 0x04, 0x00, 0x00, 0x00,
  0x06, 0x00, 0x00, 0x00, 0x32, 0x2e, 0x31, 0x30, 0x2e, 0x30, 0x00, 0x00,
  0x62, 0xe7, 0xff, 0xff, 0x04, 0x00, 0x00, 0x00, 0x10, 0x00, 0x00, 0x00,
  0x31, 0x2e, 0x35, 0x2e, 0x30, 0x00, 0x00, 0x00, 0x00, 0x00, 0x00, 0x00,
  0x00, 0x00, 0x00, 0x00, 0x54, 0xe2, 0xff, 0xff, 0x58, 0xe2, 0xff, 0xff,
  0x5c, 0xe2, 0xff, 0xff, 0x60, 0xe2, 0xff, 0xff, 0x8e, 0xe7, 0xff, 0xff,
  0x04, 0x00, 0x00, 0x00, 0x50, 0x00, 0x00, 0x00, 0x0f, 0x03, 0x04, 0xc0,
  0x20, 0x12, 0x80, 0xc0, 0xa7, 0xd3, 0xc9, 0x3d, 0xa2, 0x44, 0x80, 0xbe,
  0x0d, 0x2c, 0x96, 0x3f, 0xb5, 0xf2, 0x87, 0x3f, 0x7e, 0x7a, 0x07, 0xc0,
  0xec, 0xb8, 0xa2, 0x3e, 0x73, 0x04, 0xcf, 0x3f, 0x72, 0x49, 0x96, 0xbf,
  0x95, 0x99, 0x9e, 0x3f, 0x1a, 0x71, 0x26, 0x3f, 0x80, 0x38, 0x35, 0xc0,
  0xc7, 0x53, 0xcc, 0x3e, 0xf9, 0x98, 0x8c, 0xc0, 0x18, 0xd1, 0x8c, 0x3e,
  0xff, 0x4c, 0xe3, 0xbf, 0x42, 0x9d, 0xee, 0x3e, 0x37, 0x98, 0xbe, 0x3e,
  0x20, 0x2d, 0xb0, 0xbd, 0xea, 0xe7, 0xff, 0xff, 0x04, 0x00, 0x00, 0x00,
  0x80, 0x00, 0x00, 0x00, 0x5c, 0xa6, 0x2e, 0xbf, 0xfe, 0xe6, 0xce, 0xbe,
  0x19, 0x5d, 0x04, 0xbf, 0x7f, 0x7e, 0x80, 0x3f, 0xd2, 0xd3, 0x83, 0xbe,
  0x08, 0xc3, 0x30, 0x3e, 0x98, 0xe2, 0x09, 0xbe, 0x30, 0xa6, 0x02, 0x3f,
  0xde, 0xfc, 0xa5, 0x3e, 0xf7, 0xbd, 0x2b, 0x3d, 0x67, 0x77, 0x2c, 0xbf,
  0xbf, 0x34, 0x13, 0x3f, 0x3b, 0x2e, 0x0a, 0xbf, 0xe5, 0x19, 0xd1, 0x3f,
  0x54, 0xcc, 0xad, 0xbe, 0xaf, 0xff, 0x6f, 0x3e, 0x0c, 0xa1, 0xb4, 0xbe,
  0x38, 0xc2, 0xd2, 0xbd, 0x28, 0xc9, 0x44, 0xbe, 0x23, 0xb6, 0xbe, 0x3f,
  0xa2, 0x7c, 0xec, 0x3e, 0x0c, 0x3d, 0x04, 0xbf, 0xe8, 0x8b, 0xec, 0x3d,
  0x7a, 0x99, 0x86, 0x3d, 0xae, 0xd4, 0xa5, 0xbe, 0x97, 0x52, 0x17, 0xbf,
  0x5b, 0xfc, 0xa3, 0xbe, 0x01, 0xa4, 0xdf, 0xbe, 0xc0, 0x06, 0xb7, 0xbd,
  0xae, 0x6e, 0x5b, 0xbe, 0xc0, 0xe9, 0x60, 0xbd, 0xa0, 0xb5, 0x92, 0xbd,
  0x76, 0xe8, 0xff, 0xff, 0x04, 0x00, 0x00, 0x00, 0x80, 0x16, 0x00, 0x00,
  0x88, 0x8a, 0xc9, 0xbc, 0x9c, 0xe8, 0xae, 0xbd, 0x99, 0x88, 0xdc, 0xbd,
  0x4c, 0x16, 0x0e, 0x3e, 0xe9, 0xd9, 0x05, 0xbe, 0x2a, 0x54, 0xf4, 0xbd,
  0x53, 0x8f, 0xc6, 0xbd, 0x54, 0x1b, 0x12, 0xbe, 0xa0, 0xa8, 0x81, 0x3b,
  0x16, 0x7a, 0x16, 0x3e, 0x44, 0x84, 0x20, 0x3e, 0x4f, 0xb5, 0x0b, 0xbe,
  0x5c, 0x7c, 0xb7, 0x3d, 0x52, 0xb3, 0x84, 0x3d, 0xe5, 0x9a, 0xee, 0xbd,
  0x0c, 0x0e, 0x15, 0xbe, 0x2c, 0xfb, 0x94, 0x3d, 0x13, 0xd3, 0xc4, 0xbd,
  0x18, 0x07, 0xc7, 0x3d, 0x29, 0x6e, 0x10, 0xbe, 0xc8, 0xbe, 0x94, 0xbc,
  0x90, 0xf1, 0x89, 0x3d, 0x24, 0x88, 0x08, 0x3d, 0x27, 0x5c, 0xf2, 0xbd,
  0xc8, 0x0b, 0x97, 0xbc, 0x9e, 0xdf, 0x2c, 0x3e, 0xa2, 0x17, 0xac, 0xbd,
  0xa6, 0xe6, 0x29, 0x3e, 0xd8, 0xa4, 0x00, 0x3d, 0x22, 0xb8, 0x18, 0xbe,
  0x54, 0x06, 0x35, 0x3e, 0xc4, 0xef, 0x2a, 0xbd, 0xc0, 0x32, 0x3f, 0xbd,
  0x8c, 0xbe, 0x00, 0xbe, 0xa9, 0xd1, 0x13, 0xbe, 0x72, 0x57, 0x36, 0x3e,
  0x9c, 0x5a, 0x08, 0xbe, 0xf0, 0xbf, 0x5a, 0xbd, 0x90, 0x89, 0x6d, 0x3d,
  0x08, 0x7d, 0x15, 0xbe, 0xb4, 0x85, 0x62, 0xbd, 0x98, 0x8b, 0x13, 0x3d,
  0x50, 0x63, 0xb0, 0x3d, 0x04, 0xb7, 0x16, 0xbd, 0x62, 0xb6, 0x18, 0xbe,
  0x32, 0x88, 0xf6, 0xbd, 0xf0, 0x40, 0x96, 0xbc, 0x10, 0x84, 0x12, 0x3e,
  0x10, 0x85, 0x73, 0x3d, 0xae, 0x03, 0xc0, 0xbd, 0xe0, 0xc7, 0xeb, 0x3c,
  0x38, 0x40, 0xc8, 0x3c, 0x28, 0x68, 0x9a, 0x3d, 0x22, 0x6e, 0x26, 0x3e,
  0xb0, 0x58, 0x71, 0x3c, 0xb4, 0x54, 0x93, 0x3d, 0x6e, 0x6e, 0x0f, 0x3e,
  0x09, 0xf6, 0xcc, 0xbd, 0xc4, 0x80, 0x30, 0x3e, 0x20, 0x40, 0xb4, 0x3d,
  0x47, 0x5b, 0x0e, 0xbe, 0xec, 0xfc, 0x31, 0xbe, 0xdc, 0xf9, 0x1a, 0xbe,
  0x1c, 0xb7, 0x1e, 0x3e, 0x3a, 0xae, 0xf8, 0xbd, 0x88, 0x30, 0xb5, 0x3d,
  0x97, 0x29, 0xfc, 0xbd, 0xa4, 0xc8, 0xec, 0x3d, 0x40, 0x1c, 0x7c, 0x3b,
  0x08, 0x82, 0x01, 0xbe, 0x10, 0xe9, 0x1d, 0xbc, 0x91, 0xb9, 0xa7, 0xbd,
  0x7c, 0x5f, 0x2d, 0xbe, 0x6c, 0x2c, 0x94, 0x3d, 0xa4, 0xe8, 0xff, 0x3d,
  0x8a, 0xec, 0x87, 0x3d, 0xe4, 0x03, 0x9d, 0x3d, 0xfc, 0x55, 0x14, 0x3e,
  0x80, 0x3b, 0x0f, 0x3e, 0xc4, 0xdd, 0x80, 0x3d, 0x70, 0x0a, 0x89, 0x3d,
  0xf8, 0xcc, 0x8d, 0xbc, 0xb0, 0xfa, 0xc2, 0x3d, 0x14, 0x92, 0x01, 0xbe,
  0xa1, 0xc1, 0xb3, 0xbd, 0x00, 0xee, 0xf2, 0x3b, 0xd4, 0xb1, 0xa2, 0x3d,
  0xfc, 0xda, 0xd1, 0x3d, 0xaa, 0x4f, 0xa1, 0xbd, 0x00, 0xa9, 0x08, 0x3e,
  0xc9, 0x81, 0xb4, 0xbd, 0x81, 0x05, 0x87, 0xbd, 0x24, 0xed, 0x45, 0x3d,
  0x28, 0xfc, 0x80, 0xbd, 0xba, 0x08, 0x8d, 0x3d, 0x4e, 0x94, 0x61, 0xbd,
  0x90, 0x60, 0xfd, 0xbc, 0x90, 0x09, 0xc7, 0x3d, 0x47, 0xee, 0xec, 0xbd,
  0x0a, 0x9d, 0xc6, 0xbd, 0x77, 0xbd, 0x21, 0xbe, 0x52, 0x3e, 0x1a, 0x3e,
  0x35, 0x97, 0x1f, 0xbe, 0x7f, 0x66, 0x1a, 0xbe, 0x14, 0x3f, 0x57, 0xbd,
  0x56, 0x05, 0x13, 0xbe, 0xa8, 0x6e, 0xc5, 0xbc, 0xa3, 0x1f, 0x8a, 0xbd,
  0x7e, 0x9f, 0x2b, 0xbe, 0x83, 0xc1, 0x11, 0xbe, 0xde, 0xd8, 0x2f, 0x3e,
  0x74, 0x19, 0x20, 0x3e, 0xd4, 0x8f, 0xf4, 0xbd, 0x76, 0x69, 0x24, 0xbe,
  0xec, 0x36, 0x21, 0xbe, 0xa8, 0xf7, 0x31, 0x3e, 0x2e, 0x7d, 0x0b, 0x3e,
  0x54, 0x1f, 0x33, 0x3e, 0x3c, 0x05, 0x0e, 0x3e, 0x3c, 0xa4, 0x6f, 0x3d,
  0x51, 0xbb, 0x05, 0xbe, 0x5c, 0x5f, 0x1f, 0xbd, 0xbc, 0xe7, 0x11, 0xbd,
  0x14, 0x38, 0x30, 0x3e, 0xb4, 0x57, 0xc9, 0xbd, 0x19, 0xe5, 0xd1, 0xbd,
  0x89, 0x88, 0x9e, 0xbd, 0x0c, 0xa7, 0xe3, 0x3d, 0x80, 0xf2, 0x9c, 0x3c,
  0xc0, 0x0b, 0xaa, 0xbd, 0xda, 0x04, 0x9e, 0xbd, 0x72, 0x4d, 0x15, 0xbe,
  0x0d, 0xf1, 0xae, 0xbd, 0x30, 0x65, 0x20, 0xbe, 0x50, 0x51, 0x2b, 0x3d,
  0x68, 0x4e, 0x14, 0xbd, 0xc6, 0x16, 0x80, 0xbd, 0xfd, 0x75, 0x1e, 0xbe,
  0x58, 0x69, 0xc8, 0x3d, 0x48, 0xac, 0x93, 0xbc, 0x20, 0xa7, 0xf4, 0x3d,
  0x60, 0x50, 0xc2, 0xbb, 0xd0, 0xb8, 0xf8, 0xbd, 0x04, 0xae, 0x1f, 0x3d,
  0xf0, 0xdb, 0xa6, 0x3c, 0x3c, 0x13, 0xf2, 0x3d, 0xd4, 0x83, 0xb0, 0x3d,
  0x25, 0x19, 0x22, 0xbe, 0x88, 0x4e, 0x74, 0x3d, 0xe0, 0x78, 0x28, 0xbd,
  0x48, 0x3f, 0x0d, 0xbe, 0x9e, 0xb0, 0x8f, 0xbd, 0x9d, 0x32, 0x89, 0xbd,
  0x39, 0x8f, 0x04, 0xbe, 0xc0, 0x87, 0xc6, 0xbc, 0x98, 0x6b, 0x32, 0xbe,
  0xd8, 0xdc, 0x22, 0x3e, 0x50, 0xae, 0xbc, 0x3c, 0x0b, 0xf3, 0xb1, 0xbd,
  0x96, 0x15, 0x71, 0xbd, 0xe3, 0x47, 0x18, 0xbe, 0x60, 0x26, 0xbb, 0xbb,
  0x00, 0x1b, 0x56, 0xbc, 0xf8, 0x50, 0x13, 0x3e, 0x38, 0xb1, 0x01, 0x3e,
  0xf2, 0x5c, 0x0c, 0x3e, 0xd6, 0xa3, 0x8d, 0x3d, 0xd0, 0xe0, 0xff, 0xbc,
  0xd4, 0x3d, 0xfd, 0x3d, 0x90, 0x87, 0x8a, 0xbd, 0x78, 0xdc, 0x20, 0x3e,
  0x80, 0xf3, 0x1d, 0xbd, 0xa0, 0x01, 0x67, 0x3c, 0x64, 0xcb, 0x52, 0x3d,
  0x30, 0x3c, 0xca, 0xbc, 0xee, 0xb0, 0x76, 0xbd, 0x00, 0x53, 0x27, 0xbe,
  0x58, 0x57, 0x5e, 0x3d, 0x03, 0xcc, 0xdb, 0xbd, 0xcc, 0x05, 0xa6, 0x3d,
  0x59, 0xba, 0xb4, 0x3d, 0x35, 0xc1, 0xa4, 0x3d, 0x2f, 0x55, 0xa8, 0xbd,
  0xc0, 0x10, 0xbd, 0xbc, 0xfc, 0xa7, 0xf4, 0xbd, 0x22, 0xb0, 0xd8, 0xbd,
  0xac, 0x30, 0x8f, 0xbd, 0x6e, 0xe1, 0xe6, 0x3d, 0x53, 0x8f, 0x23, 0x3c,
  0x4d, 0xe2, 0x2e, 0x3e, 0xce, 0x1f, 0x80, 0x3d, 0xa1, 0x4c, 0xd4, 0x3d,
  0x6f, 0x35, 0x00, 0x3d, 0x8b, 0x44, 0x1b, 0xbe, 0xc5, 0x69, 0x1e, 0x3d,
  0x81, 0xc2, 0x7c, 0x3d, 0xb2, 0xdd, 0x4e, 0xbd, 0xf5, 0x34, 0x05, 0xbd,
  0xe1, 0xfe, 0xec, 0xbd, 0xe2, 0xe5, 0x52, 0xbd, 0x43, 0x26, 0x1b, 0x3e,
  0xac, 0xa0, 0x6d, 0xbd, 0x64, 0x58, 0x99, 0xbd, 0xa4, 0xf3, 0xfc, 0x3d,
  0x58, 0xfd, 0xbf, 0x3d, 0x31, 0x31, 0x4a, 0xbd, 0xb7, 0x56, 0x0b, 0xbe,
  0x65, 0x61, 0x26, 0xbe, 0xb5, 0x7a, 0x53, 0x3d, 0x82, 0x09, 0x04, 0x3e,
  0xc9, 0x6b, 0x2b, 0x3e, 0x75, 0x45, 0x5b, 0x3d, 0x69, 0x0a, 0xe1, 0xbc,
  0x22, 0x04, 0x4c, 0x3c, 0x55, 0x59, 0x62, 0xbd, 0xdc, 0x60, 0xf6, 0xbd,
  0x13, 0x0f, 0xfd, 0xbc, 0x7a, 0x8e, 0x07, 0x3e, 0xf2, 0x51, 0xcb, 0xbd,
  0xc5, 0x68, 0x57, 0x3d, 0x13, 0xa2, 0xd0, 0xbc, 0x06, 0xa5, 0x16, 0x3d,
  0xac, 0x93, 0x1e, 0x3e, 0x2f, 0x27, 0xaf, 0xbd, 0xc4, 0xd6, 0x22, 0x3e,
  0xc2, 0x2a, 0x98, 0xbd, 0xfb, 0x50, 0xec, 0x3d, 0xb1, 0x0d, 0x12, 0x3e,
  0x0a, 0xda, 0xb3, 0x3d, 0xc5, 0x0f, 0x28, 0xbd, 0xf5, 0xdc, 0x2c, 0xbe,
  0x35, 0x15, 0x0f, 0x3e, 0x88, 0xeb, 0x51, 0xbc, 0xa3, 0x5c, 0x38, 0xbe,
  0x1a, 0xca, 0x14, 0x3e, 0x5b, 0x76, 0xdf, 0xbd, 0xd3, 0x42, 0x2a, 0xbe,
  0x80, 0x9b, 0x1f, 0x3e, 0x2f, 0x54, 0xaf, 0xbd, 0x2b, 0xcb, 0x9a, 0x3d,
  0xe3, 0x5f, 0x29, 0xbe, 0x38, 0x06, 0xf8, 0xbd, 0x08, 0x24, 0x37, 0xbe,
  0xe8, 0xa8, 0x15, 0x3d, 0xa7, 0x89, 0xd3, 0x3c, 0x22, 0x0e, 0x4b, 0x3c,
  0x7d, 0xcd, 0x3b, 0x3d, 0xa8, 0x44, 0x39, 0x3e, 0x4c, 0x20, 0xa0, 0xbd,
  0xab, 0xec, 0x13, 0x3d, 0xa4, 0x65, 0x09, 0xbd, 0x76, 0xf2, 0x3b, 0x3c,
  0x66, 0xab, 0x95, 0xbd, 0xbc, 0xea, 0xd0, 0xbd, 0x8f, 0xff, 0xdc, 0xbd,
  0xde, 0x4a, 0xc2, 0xbd, 0x8b, 0x26, 0x9a, 0x3c, 0x1f, 0x5c, 0x2e, 0xbe,
  0x95, 0xcd, 0xeb, 0x3d, 0x08, 0x2b, 0x03, 0x3e, 0x58, 0x8d, 0x22, 0xbd,
  0xbe, 0x3a, 0xcc, 0xbd, 0xa4, 0x5c, 0xd0, 0xbd, 0x83, 0xae, 0xa9, 0xbd,
  0xee, 0x38, 0x96, 0xbd, 0x38, 0xd8, 0x31, 0x3e, 0xd6, 0x74, 0x09, 0x3d,
  0x53, 0x30, 0xcf, 0xbd, 0x0c, 0x5a, 0x4e, 0x3d, 0x75, 0x7a, 0xf7, 0xbd,
  0x61, 0xe5, 0x46, 0x3d, 0x01, 0x09, 0x0e, 0xbe, 0xd7, 0x58, 0x50, 0xbd,
  0x79, 0x39, 0x0f, 0xbd, 0xff, 0x98, 0x33, 0xbe, 0xef, 0xd4, 0x1f, 0x3e,
  0x54, 0x8f, 0x18, 0xbe, 0x42, 0x04, 0x2d, 0x3e, 0x6c, 0x45, 0x54, 0x3c,
  0x06, 0xcf, 0x11, 0xbe, 0x1a, 0xae, 0x80, 0x3d, 0x3a, 0x93, 0xc9, 0xbd,
  0xb0, 0x68, 0xd1, 0x3d, 0x90, 0xf3, 0x04, 0xbd, 0xb5, 0x15, 0x81, 0xbd,
  0x37, 0x2b, 0xa4, 0x3d, 0xed, 0x02, 0x1e, 0x3e, 0x7e, 0x6f, 0x01, 0xbe,
  0xf2, 0x5d, 0x0f, 0xbd, 0x5d, 0x94, 0x3b, 0xbd, 0xc9, 0xc8, 0x2b, 0xbe,
  0x03, 0x36, 0xc4, 0x3d, 0x88, 0xc9, 0x23, 0xbe, 0x29, 0xed, 0x93, 0x3d,
  0xaa, 0x07, 0x1a, 0x3d, 0x6c, 0x2e, 0x74, 0xbd, 0x81, 0xb8, 0xec, 0xbd,
  0xff, 0x1d, 0x9c, 0xbd, 0x1a, 0xfc, 0x0d, 0x3e, 0xea, 0xd7, 0x0d, 0xbe,
  0xba, 0x64, 0xd1, 0x3d, 0x57, 0x7d, 0xbb, 0xbd, 0x1d, 0xff, 0xae, 0x3d,
  0x42, 0x56, 0x11, 0xbe, 0x17, 0xe6, 0x1e, 0x3e, 0xae, 0x69, 0x24, 0xbe,
  0x29, 0x48, 0xf4, 0xbd, 0x0c, 0xf0, 0xe5, 0xbd, 0x10, 0x5c, 0x06, 0xbe,
  0x3b, 0x7a, 0x7a, 0x3d, 0xf8, 0x3b, 0xf0, 0xbc, 0xd4, 0xc0, 0x1c, 0x3e,
  0x9c, 0x48, 0x94, 0x3d, 0xa0, 0x2e, 0xca, 0x3d, 0x2c, 0xc2, 0xb8, 0x3c,
  0x7f, 0x2c, 0x70, 0xbd, 0x0f, 0x2c, 0x2b, 0xbd, 0x59, 0x70, 0xd5, 0xbd,
  0xbc, 0xe0, 0xe0, 0xbd, 0xcb, 0x1f, 0x68, 0x3d, 0x11, 0x66, 0x60, 0x3d,
  0x85, 0xbf, 0xb3, 0xbd, 0x2c, 0x21, 0x26, 0x3d, 0x5a, 0x18, 0x93, 0x3d,
  0x5a, 0x70, 0x84, 0xbd, 0xa6, 0xc3, 0x89, 0x3d, 0xda, 0xf9, 0x05, 0x3d,
  0x76, 0x53, 0xb9, 0x3c, 0xdd, 0x11, 0x21, 0x3e, 0x65, 0xe9, 0x11, 0xbe,
  0x39, 0x80, 0xf5, 0x3c, 0x51, 0xe7, 0x1e, 0xbe, 0x38, 0x96, 0x0f, 0x3e,
  0xda, 0x2f, 0x72, 0xbd, 0xde, 0x00, 0x1a, 0xbd, 0x32, 0x48, 0x0d, 0x3e,
  0xec, 0x82, 0xf2, 0xbd, 0xcf, 0x80, 0xdc, 0x3c, 0xee, 0x66, 0xc8, 0x3c,
  0x08, 0xa3, 0x77, 0x3d, 0x21, 0x7d, 0x16, 0x3d, 0x66, 0x8a, 0x86, 0x3d,
  0x25, 0xef, 0x76, 0x3d, 0x2d, 0x27, 0xf8, 0x3d, 0x70, 0x7a, 0x93, 0xbd,
  0xf2, 0xbd, 0x0d, 0x3d, 0xd9, 0xe6, 0x6e, 0xbc, 0x53, 0x69, 0xce, 0xbd,
  0xfc, 0x3b, 0xde, 0x3c, 0x3d, 0x26, 0x3a, 0x3c, 0xa9, 0xd2, 0x70, 0x3d,
  0x0a, 0x81, 0x0e, 0xbe, 0x94, 0xea, 0x5f, 0x3c, 0x57, 0xbc, 0x2a, 0x3c,
  0x47, 0x45, 0x5f, 0xbd, 0x35, 0x60, 0xb7, 0xba, 0x67, 0xbf, 0x79, 0x3d,
  0xfb, 0x50, 0x04, 0xbe, 0xe9, 0x6f, 0x2f, 0xbe, 0xf3, 0x44, 0xe6, 0xbc,
  0xc8, 0xa3, 0x8d, 0x3c, 0x3c, 0x82, 0xea, 0x3d, 0x4c, 0xa4, 0xd8, 0x3d,
  0x00, 0xf8, 0x63, 0xbc, 0x8c, 0x46, 0x15, 0xbd, 0x24, 0xc7, 0xa2, 0x3d,
  0x54, 0xae, 0xe7, 0x3d, 0x2b, 0x82, 0x82, 0xbd, 0x46, 0xfb, 0x21, 0x3e,
  0x56, 0xad, 0x24, 0x3e, 0x28, 0x6b, 0x08, 0x3d, 0x9e, 0x77, 0xfd, 0xbd,
  0x88, 0x9c, 0x1d, 0xbe, 0x80, 0x38, 0xac, 0xba, 0xf4, 0x4b, 0x2c, 0xbd,
  0x45, 0x14, 0xcc, 0xbd, 0xb0, 0x0c, 0xde, 0xbd, 0x00, 0x67, 0x2b, 0x3c,
  0xbc, 0xdf, 0x78, 0x3d, 0xac, 0x2a, 0xec, 0x3d, 0x20, 0x88, 0xc8, 0xbb,
  0x78, 0x57, 0xcf, 0xbd, 0x1c, 0x7f, 0x21, 0x3d, 0x80, 0x4a, 0xd7, 0xbb,
  0xf0, 0x42, 0x95, 0xbd, 0x1c, 0xa9, 0xa3, 0x3d, 0xaf, 0xb1, 0x2c, 0xbe,
  0x23, 0x3d, 0xcc, 0xbd, 0x2a, 0x6d, 0x70, 0xbd, 0xec, 0x5e, 0xc2, 0x3d,
  0x8c, 0x9f, 0x0a, 0xbe, 0x60, 0xf0, 0x1a, 0x3e, 0x00, 0xed, 0x93, 0x3d,
  0x5d, 0x35, 0x04, 0xbe, 0xa0, 0x42, 0x2b, 0xbd, 0x78, 0x49, 0x02, 0x3e,
  0x80, 0x5a, 0xb6, 0xba, 0x70, 0xb6, 0x02, 0xbd, 0x84, 0x8f, 0xb3, 0x3d,
  0x1c, 0x2f, 0x31, 0x3e, 0x7c, 0x66, 0xd1, 0x3d, 0x8a, 0x3d, 0xe7, 0xbd,
  0x94, 0x7f, 0x78, 0x3d, 0x80, 0x86, 0x97, 0x3c, 0x40, 0x1a, 0x65, 0x3d,
  0xb4, 0x25, 0x52, 0xbd, 0xdc, 0x4c, 0x37, 0xbd, 0x9f, 0xea, 0xd7, 0xbd,
  0x40, 0xb3, 0x12, 0xbd, 0x1c, 0x5f, 0x0f, 0x3e, 0x04, 0x09, 0x4e, 0x3d,
  0x0c, 0x24, 0xd2, 0xbd, 0xb0, 0x80, 0xc5, 0x3c, 0xd8, 0xb1, 0x9a, 0x3d,
  0x8c, 0x4b, 0xd3, 0x3d, 0x78, 0x8b, 0xea, 0x3c, 0xb6, 0xb8, 0xef, 0xbd,
  0x20, 0x7d, 0x08, 0x3c, 0x74, 0xd4, 0x0d, 0x3e, 0xe0, 0x20, 0x42, 0x3c,
  0xbf, 0x3d, 0xcf, 0xbd, 0x64, 0xa0, 0x58, 0x3d, 0x6d, 0xb9, 0x95, 0xbd,
  0x5e, 0x11, 0x06, 0x3e, 0x98, 0xd2, 0xc3, 0x3c, 0x68, 0x73, 0xcc, 0x3d,
  0x20, 0x58, 0x9e, 0x3d, 0x65, 0x86, 0x34, 0xbe, 0xb0, 0xcf, 0x9b, 0x3c,
  0x60, 0x66, 0x84, 0x3b, 0xcb, 0xdb, 0xf0, 0xbd, 0xd8, 0x68, 0x10, 0xbd,
  0xc0, 0x60, 0x9e, 0x3c, 0x08, 0x72, 0x1b, 0xbe, 0xbc, 0x17, 0x1b, 0x3e,
  0xd0, 0x4d, 0x38, 0xbd, 0x98, 0x18, 0x82, 0xbc, 0xee, 0xbd, 0x79, 0xbd,
  0x9a, 0xab, 0x0d, 0xbe, 0x52, 0x80, 0x6f, 0xbd, 0x0a, 0x00, 0x0c, 0x3e,
  0xd4, 0xd7, 0x0e, 0xbe, 0x40, 0x53, 0xee, 0x3d, 0x39, 0x14, 0x0a, 0xbe,
  0xec, 0x06, 0x2e, 0xbe, 0x8c, 0x84, 0xd8, 0x3d, 0xb2, 0xc7, 0x27, 0x3e,
  0x41, 0xd7, 0x05, 0xbe, 0x10, 0xbd, 0x07, 0x3e, 0x5c, 0xb5, 0x18, 0xbd,
  0x52, 0x99, 0x31, 0x3e, 0xb8, 0x7c, 0x35, 0xbe, 0xe0, 0x0d, 0xdb, 0x3c,
  0x79, 0xd0, 0x16, 0xbe, 0x9e, 0xa7, 0xc4, 0xbd, 0xa8, 0xb0, 0xca, 0x3d,
  0x14, 0x7b, 0x18, 0x3e, 0xc6, 0x85, 0xfe, 0xbd, 0x44, 0x25, 0x04, 0x3e,
  0x3a, 0x6d, 0x7a, 0xbd, 0x00, 0x68, 0xf8, 0x39, 0xbf, 0xb6, 0xd6, 0xbd,
  0xd8, 0x6a, 0xc7, 0x3d, 0xd0, 0x9b, 0x69, 0x3c, 0x9c, 0x09, 0xdd, 0x3d,
  0x3c, 0x46, 0x85, 0x3d, 0x89, 0x1e, 0xfb, 0xbd, 0x68, 0x6c, 0x3c, 0x3d,
  0xc8, 0xb2, 0x83, 0xbc, 0xc6, 0x4f, 0x87, 0xbd, 0x66, 0x61, 0x0e, 0x3e,
  0xd4, 0x37, 0x9d, 0x3d, 0xde, 0xb3, 0x71, 0xbd, 0xa2, 0x0e, 0x91, 0x3d,
  0x77, 0xc4, 0x00, 0xbe, 0x20, 0x43, 0x38, 0xbd, 0x13, 0x2e, 0x9e, 0xbd,
  0x60, 0x35, 0x13, 0x3e, 0x18, 0xc9, 0xd2, 0xbd, 0x72, 0xa8, 0x18, 0xbe,
  0xe0, 0x9c, 0x4f, 0x3c, 0x4d, 0x45, 0xed, 0xbd, 0x42, 0xf9, 0x8d, 0x3d,
  0x90, 0xfd, 0x03, 0xbc, 0x6e, 0xda, 0x20, 0x3e, 0xf4, 0x47, 0x0a, 0xbe,
  0x68, 0x97, 0x68, 0x3d, 0x98, 0x02, 0x6c, 0xbd, 0xc0, 0xd1, 0xfc, 0x3b,
  0x10, 0x0d, 0xe8, 0xbd, 0x38, 0x68, 0x8a, 0xbc, 0xc0, 0xf9, 0x4c, 0x3c,
  0x71, 0xfb, 0xbf, 0xbd, 0xbe, 0xfb, 0x1d, 0x3e, 0x63, 0xde, 0xbe, 0xbd,
  0x1f, 0x08, 0x1e, 0xbe, 0x2f, 0xbb, 0x9e, 0xbd, 0x30, 0x46, 0x22, 0x3e,
  0xe9, 0x67, 0xec, 0xbd, 0x5a, 0xab, 0xee, 0xbd, 0xdc, 0x67, 0xf6, 0x3d,
  0x34, 0x97, 0x1a, 0x3e, 0xfc, 0x58, 0x76, 0xbd, 0x78, 0x6e, 0xf8, 0x3c,
  0x70, 0x11, 0x9d, 0x3d, 0xc4, 0xdc, 0x1d, 0xbd, 0x12, 0xe4, 0x9f, 0xbd,
  0xe0, 0x07, 0x23, 0x3e, 0xf8, 0x2a, 0x9e, 0xbc, 0x58, 0xc6, 0xea, 0xbc,
  0x8a, 0x7b, 0x6b, 0xbd, 0x68, 0xf8, 0x50, 0xbd, 0xb8, 0x6d, 0xdb, 0x3c,
  0xa8, 0x32, 0x22, 0xbe, 0xa0, 0xf8, 0x43, 0xbc, 0x5b, 0x79, 0x35, 0xbe,
  0x7a, 0xac, 0x2a, 0xbe, 0x64, 0xdf, 0x31, 0xbd, 0x36, 0xc9, 0x0e, 0x3e,
  0x00, 0x14, 0x33, 0x3d, 0x9c, 0x30, 0xb4, 0x3d, 0x34, 0x2a, 0x13, 0xbe,
  0xca, 0x2b, 0x0d, 0x3e, 0x44, 0xea, 0xee, 0x3d, 0x2e, 0xa6, 0xcc, 0xbd,
  0x30, 0xe7, 0x3e, 0x3d, 0x65, 0x3f, 0x07, 0xbe, 0x30, 0xce, 0x58, 0xbc,
  0xb6, 0x91, 0x5f, 0xbd, 0xda, 0x68, 0xc6, 0xbd, 0xac, 0x38, 0x19, 0xbd,
  0x00, 0x36, 0xb7, 0x3d, 0xd8, 0x7b, 0x4b, 0xbd, 0x64, 0xb9, 0x02, 0x3d,
  0xb9, 0x23, 0x97, 0xbd, 0x88, 0x16, 0xd3, 0x3c, 0xc0, 0xbf, 0x30, 0x3b,
  0xd4, 0x52, 0x40, 0xbd, 0x40, 0x34, 0x19, 0xbc, 0x08, 0x00, 0xb0, 0xbc,
  0xe2, 0x5e, 0x03, 0x3f, 0xea, 0xcd, 0xca, 0x3e, 0xee, 0x3c, 0x0e, 0x3f,
  0xc1, 0xea, 0x3f, 0x3e, 0x7c, 0x11, 0x3b, 0xbd, 0x9a, 0x9e, 0x96, 0x3e,
  0x6e, 0xe1, 0x7f, 0x3e, 0xdf, 0x68, 0x1a, 0xbd, 0xa3, 0x15, 0xae, 0x3e,
  0x46, 0xcc, 0x58, 0x3e, 0xf5, 0xca, 0x95, 0xbc, 0x80, 0x80, 0x82, 0x3e,
  0xb4, 0x30, 0x9a, 0x3e, 0xfc, 0x28, 0x12, 0xbe, 0x06, 0xb1, 0xb2, 0x3e,
  0x69, 0xcf, 0x10, 0x3d, 0xe1, 0x6b, 0x6a, 0xbd, 0x39, 0xbb, 0x00, 0x3f,
  0x2b, 0x7f, 0xe6, 0x3d, 0x44, 0x06, 0xa2, 0x3d, 0x09, 0x48, 0x9e, 0x3e,
  0x06, 0xf6, 0x1e, 0x3e, 0x95, 0x99, 0xa2, 0xbc, 0x33, 0x11, 0x03, 0x3f,
  0x41, 0x0e, 0xa2, 0x3c, 0x5b, 0x15, 0xda, 0x3d, 0x38, 0xa9, 0xbe, 0x3e,
  0x0b, 0x25, 0xa5, 0x3e, 0x1d, 0x25, 0x8c, 0xbe, 0xb5, 0x93, 0x03, 0x3f,
  0x16, 0x6b, 0x91, 0x3e, 0x89, 0xfb, 0x23, 0xbc, 0x6b, 0x6b, 0xe3, 0x3e,
  0x92, 0x9d, 0x65, 0x3d, 0xe5, 0x68, 0x3e, 0xbd, 0x2c, 0x6e, 0xd5, 0x3e,
  0xde, 0x64, 0x49, 0x3e, 0x7a, 0x65, 0x52, 0xbe, 0x03, 0x40, 0xf0, 0x3e,
  0x54, 0xad, 0xb2, 0x3e, 0x99, 0x62, 0x8e, 0xbd, 0x20, 0xab, 0x5a, 0x3e,
  0xea, 0xe4, 0x4b, 0x3e, 0xfa, 0x21, 0x4e, 0xbd, 0x8b, 0x12, 0x21, 0x3e,
  0xf5, 0xed, 0x26, 0x3e, 0xec, 0x4a, 0x2a, 0xbe, 0xa7, 0xd4, 0xf7, 0x3e,
  0xbb, 0xad, 0xe3, 0xbd, 0xc1, 0x3d, 0xea, 0xbe, 0x73, 0x55, 0xa6, 0x3e,
  0xd9, 0xc3, 0xcc, 0x3d, 0x21, 0x20, 0xd5, 0xbd, 0x5c, 0x4e, 0xda, 0x3e,
  0x20, 0xa8, 0xd4, 0xbd, 0x82, 0xc8, 0xff, 0xbe, 0xf3, 0x99, 0x17, 0x3d,
  0xf9, 0xfd, 0xb6, 0x3e, 0x27, 0x26, 0xda, 0xbd, 0xb8, 0xe7, 0x03, 0x3f,
  0x26, 0xd4, 0xb8, 0xbe, 0xe7, 0xe6, 0x31, 0xbf, 0xf9, 0x48, 0x9b, 0xbe,
  0xf7, 0x89, 0x25, 0x3e, 0x55, 0x0b, 0xf5, 0xbd, 0x7a, 0x4d, 0xb7, 0x3e,
  0x3e, 0xf1, 0xf4, 0xbe, 0xb9, 0x51, 0x02, 0xbf, 0xf0, 0x1f, 0xbc, 0xbe,
  0x2c, 0x01, 0x1d, 0x3c, 0xb3, 0x8c, 0x64, 0xbe, 0x1c, 0x2d, 0x94, 0x3e,
  0xba, 0x4a, 0x89, 0xbe, 0x6b, 0x00, 0x1a, 0xbf, 0xb1, 0xd4, 0x02, 0xbf,
  0x83, 0x4e, 0xf4, 0x3d, 0xdc, 0xac, 0x50, 0xbe, 0x6e, 0x17, 0xc8, 0x3e,
  0x8a, 0x73, 0xe4, 0xbe, 0x71, 0xee, 0x00, 0xbf, 0xec, 0xfa, 0x0d, 0xbf,
  0x01, 0x7e, 0x61, 0x3d, 0xde, 0xfb, 0x13, 0xbd, 0xb3, 0x35, 0x2c, 0x3d,
  0x0b, 0x3b, 0xf6, 0xbe, 0x56, 0x41, 0xbf, 0xbe, 0xf1, 0xbb, 0x9e, 0xbe,
  0xe9, 0x2e, 0x13, 0x3e, 0x76, 0x53, 0x2e, 0x3e, 0x1e, 0xac, 0x95, 0x3e,
  0xf7, 0xb4, 0xc7, 0xbd, 0xce, 0x95, 0x62, 0xbe, 0x4b, 0x6e, 0x3e, 0xbe,
  0x03, 0xfd, 0x90, 0x3e, 0x3a, 0xcd, 0xe6, 0x3d, 0xb1, 0xc7, 0x8a, 0x3e,
  0x8d, 0x38, 0x5e, 0xbe, 0x47, 0x46, 0x03, 0xbe, 0x6a, 0x5d, 0x54, 0xbe,
  0x35, 0xfa, 0x40, 0x3d, 0x58, 0x78, 0x79, 0xbd, 0x94, 0x69, 0x30, 0x3e,
  0x50, 0x11, 0x6b, 0xbe, 0x8c, 0xcc, 0x41, 0xbe, 0xec, 0xc6, 0x3c, 0xbe,
  0x72, 0x29, 0x1d, 0x3d, 0xae, 0xb1, 0x52, 0x3c, 0x9d, 0xfb, 0x3a, 0x3e,
  0x59, 0x4a, 0x30, 0xbe, 0xeb, 0x00, 0x53, 0xbe, 0x67, 0x2a, 0x1d, 0xbe,
  0x80, 0x2e, 0x2a, 0xbd, 0x6a, 0x3b, 0x34, 0x3e, 0xf1, 0xbf, 0x5d, 0x3e,
  0xa4, 0xee, 0x63, 0xbe, 0xf6, 0x39, 0x88, 0xbd, 0xfb, 0x8d, 0x91, 0xbd,
  0xd2, 0x52, 0x46, 0x3d, 0xf1, 0xd3, 0x4b, 0xbc, 0xa9, 0xe0, 0x51, 0xbd,
  0xc2, 0x99, 0x4b, 0xbe, 0x92, 0x1b, 0x55, 0xbe, 0xc5, 0x32, 0xb7, 0xbe,
  0x93, 0xcc, 0x84, 0x3e, 0xcf, 0x02, 0x53, 0x3e, 0x33, 0x65, 0x3f, 0x3e,
  0x48, 0x4b, 0x6c, 0xbe, 0x56, 0xa5, 0x1e, 0x3d, 0x79, 0x95, 0x0b, 0xbe,
  0xa7, 0x01, 0x65, 0x3d, 0xcd, 0xd4, 0x89, 0x3d, 0x45, 0x19, 0x9f, 0xbd,
  0xdc, 0xd2, 0x61, 0xbd, 0xaa, 0xa0, 0x23, 0xbe, 0x13, 0xd0, 0x4e, 0xbe,
  0x9b, 0x6e, 0xc5, 0x3b, 0x29, 0x98, 0x42, 0x3e, 0x4c, 0x28, 0x7b, 0xbd,
  0xe8, 0xb6, 0xa9, 0xbd, 0x7c, 0x60, 0x16, 0xbe, 0xa0, 0xb5, 0x4b, 0x3d,
  0x49, 0x89, 0xde, 0x3d, 0xcb, 0xce, 0xf4, 0x3d, 0xeb, 0xcb, 0x66, 0x3d,
  0xd8, 0x2f, 0x3e, 0xbe, 0x67, 0x6f, 0x88, 0xbc, 0x31, 0x7c, 0x6b, 0xbe,
  0x8c, 0xea, 0x46, 0x3e, 0xca, 0x20, 0x19, 0x3e, 0x7e, 0xa1, 0xae, 0xbd,
  0xe7, 0x96, 0x87, 0x3d, 0xa0, 0x2a, 0xed, 0xbd, 0xeb, 0x1f, 0x67, 0x3c,
  0x5a, 0x22, 0x44, 0x3d, 0xe1, 0x97, 0xed, 0xbc, 0x84, 0x2c, 0xea, 0xbd,
  0x46, 0x96, 0x0a, 0x3d, 0x82, 0xdd, 0x4f, 0xbe, 0x1b, 0x08, 0x3d, 0xbe,
  0x33, 0x59, 0x72, 0x3e, 0xc3, 0xfa, 0x58, 0x3e, 0x1a, 0x29, 0xbb, 0x3d,
  0x3d, 0x0a, 0x10, 0xbe, 0x46, 0xf6, 0x1e, 0x3e, 0x81, 0x2a, 0xeb, 0x3c,
  0x0a, 0x90, 0x8e, 0x3e, 0x70, 0xb6, 0xa3, 0xbc, 0x04, 0x14, 0x50, 0xbd,
  0x51, 0x06, 0x43, 0xbc, 0xb7, 0x3b, 0x04, 0x3e, 0xbc, 0x67, 0x9d, 0xbd,
  0x80, 0x92, 0x8a, 0x3e, 0xcb, 0xfb, 0x88, 0x3e, 0xca, 0xb8, 0x46, 0x3e,
  0x6d, 0x5e, 0xb3, 0x3b, 0xdd, 0x38, 0xd5, 0xbd, 0x0c, 0x5a, 0x9e, 0xbd,
  0xff, 0x24, 0x1c, 0x3e, 0x81, 0xdf, 0x88, 0x3d, 0xc7, 0x0d, 0xa4, 0xbd,
  0x0a, 0x5c, 0x02, 0xbe, 0x32, 0x5f, 0x9b, 0xbd, 0x80, 0xe2, 0xb5, 0x3a,
  0xb5, 0xe1, 0x14, 0xbe, 0x84, 0x6b, 0x58, 0xbd, 0xe4, 0xd1, 0x36, 0xbe,
  0x2c, 0x35, 0x36, 0xbe, 0xfc, 0x20, 0x83, 0x3d, 0x70, 0x78, 0x20, 0x3e,
  0x1f, 0xd1, 0x97, 0xbd, 0x05, 0x60, 0x8c, 0xbd, 0x1e, 0xc5, 0x09, 0xbe,
  0xda, 0x6c, 0xfd, 0xbd, 0x91, 0xea, 0x10, 0xbe, 0xc0, 0xb9, 0xa8, 0xbb,
  0x40, 0x9a, 0x3b, 0xbb, 0x9c, 0xaf, 0x14, 0xbe, 0x40, 0x84, 0x78, 0x3c,
  0x04, 0x09, 0x4e, 0xbd, 0xd2, 0xb8, 0xe2, 0xbd, 0x00, 0x64, 0x60, 0xba,
  0x3c, 0x39, 0x0b, 0xbd, 0x90, 0x8b, 0x5b, 0x3c, 0xb4, 0xd3, 0x26, 0xbe,
  0x6e, 0x5c, 0x90, 0x3d, 0x80, 0x8d, 0xf2, 0xbb, 0x18, 0xb0, 0xac, 0xbc,
  0x47, 0xbd, 0x82, 0xbd, 0xb6, 0x5f, 0xcf, 0xbd, 0xcc, 0xde, 0xdb, 0x3d,
  0xa3, 0x75, 0x0d, 0xbe, 0x17, 0xfd, 0x97, 0xbd, 0x76, 0x06, 0x22, 0x3e,
  0xb7, 0x28, 0x91, 0xbd, 0x58, 0x1c, 0x48, 0x3d, 0xc0, 0xac, 0xd1, 0xbb,
  0x44, 0x38, 0x94, 0x3d, 0x5c, 0x3a, 0x16, 0xbd, 0x3a, 0xc4, 0xb9, 0xbd,
  0x94, 0x8e, 0xe3, 0x3d, 0xc2, 0x79, 0x22, 0x3e, 0x34, 0xa4, 0x15, 0xbd,
  0xe8, 0xd1, 0xd0, 0xbc, 0xde, 0x19, 0x1a, 0x3e, 0xf5, 0x60, 0xda, 0xbd,
  0x00, 0xca, 0x9d, 0x39, 0xaa, 0xbd, 0x07, 0xbe, 0x68, 0x94, 0x0d, 0xbe,
  0x3c, 0xf0, 0x13, 0xbe, 0x56, 0xe6, 0x1c, 0x3e, 0xab, 0x3e, 0x13, 0xbe,
  0xba, 0xf3, 0x26, 0xbe, 0x2f, 0x6d, 0xd3, 0xbd, 0xc8, 0xfe, 0xe4, 0x3c,
  0x5b, 0x87, 0xfb, 0xbd, 0x78, 0xd2, 0x9c, 0x3d, 0xce, 0x42, 0x02, 0x3e,
  0x10, 0xe3, 0x31, 0x3e, 0x98, 0xda, 0xcd, 0x3d, 0xfc, 0x3d, 0x0b, 0xbe,
  0x5c, 0x5c, 0x02, 0xbe, 0x5c, 0xa4, 0xdf, 0xbd, 0x48, 0x80, 0xaf, 0xbd,
  0x58, 0x73, 0x5d, 0x3d, 0x02, 0xa2, 0x27, 0x3e, 0x6a, 0xe0, 0x14, 0xbe,
  0x38, 0x86, 0x0e, 0xbe, 0x40, 0x95, 0x94, 0x3b, 0x7c, 0xbd, 0x07, 0x3e,
  0x90, 0x1f, 0xc6, 0x3d, 0x00, 0x98, 0xcf, 0x3a, 0x42, 0xd8, 0x2d, 0x3e,
  0x08, 0x01, 0x93, 0x3d, 0x43, 0xc2, 0x2b, 0xbe, 0x83, 0x55, 0x1f, 0xbe,
  0x50, 0x6a, 0x0c, 0x3d, 0xe8, 0x6a, 0x9a, 0x3c, 0x80, 0xb9, 0xfe, 0x3d,
  0x10, 0x51, 0x28, 0x3e, 0x92, 0xcb, 0xeb, 0xbd, 0x22, 0xe1, 0x2a, 0xbe,
  0xaa, 0xd3, 0x01, 0xbe, 0x00, 0xaa, 0x3f, 0x3d, 0xd0, 0x8d, 0x04, 0xbd,
  0xc0, 0x26, 0x75, 0xbb, 0xd1, 0x43, 0xa8, 0xbd, 0x54, 0x2a, 0x33, 0x3d,
  0x04, 0x20, 0x10, 0xbe, 0x04, 0x0e, 0x14, 0xbd, 0x50, 0x3a, 0x10, 0xbc,
  0x00, 0x75, 0x27, 0xbb, 0xac, 0x13, 0x1b, 0x3e, 0x24, 0x86, 0xdc, 0x3d,
  0x20, 0x5f, 0x11, 0xbc, 0x5a, 0xa1, 0x61, 0xbd, 0x22, 0x2b, 0x08, 0x3e,
  0x80, 0x9b, 0xd4, 0xba, 0x3d, 0xf3, 0xae, 0xbd, 0xf6, 0x6a, 0x2d, 0x3e,
  0x24, 0x2f, 0x5c, 0xbd, 0x46, 0xd0, 0x8b, 0x3d, 0xc2, 0x64, 0x6b, 0xbd,
  0xe8, 0x01, 0xef, 0x3d, 0x78, 0x70, 0xec, 0x3d, 0x1f, 0x9f, 0xb1, 0xbd,
  0xa8, 0x5d, 0x39, 0xbd, 0x20, 0xbd, 0xfa, 0x3b, 0x3e, 0x1a, 0x9d, 0xbd,
  0x04, 0xa3, 0x00, 0xbd, 0x3e, 0xea, 0x89, 0x3d, 0xd8, 0xbc, 0x59, 0x3d,
  0x4f, 0xda, 0xde, 0xbd, 0x08, 0x33, 0x2e, 0xbd, 0x24, 0x08, 0x3f, 0xbd,
  0x2e, 0x37, 0x10, 0x3e, 0xe8, 0x67, 0x2f, 0x3e, 0x12, 0x33, 0x2f, 0xbe,
  0x28, 0x58, 0xcc, 0xbc, 0xd0, 0x4b, 0xc3, 0x3c, 0x14, 0x8c, 0x1b, 0x3e,
  0x8c, 0x98, 0x41, 0x3d, 0x9c, 0x3b, 0xef, 0xbd, 0xd3, 0x64, 0x9c, 0xbd,
  0x3c, 0x70, 0xa7, 0x3d, 0x54, 0x1d, 0x86, 0xbd, 0xba, 0xe5, 0x07, 0x3e,
  0xa8, 0xcc, 0x26, 0x3d, 0xd5, 0x63, 0xca, 0xbd, 0xa0, 0x2f, 0xe4, 0x3d,
  0x07, 0xd2, 0xab, 0xbd, 0x40, 0x87, 0xbc, 0x3d, 0x3a, 0xec, 0x88, 0xbd,
  0x54, 0x2d, 0x06, 0xbe, 0x4e, 0x20, 0x1d, 0xbe, 0x80, 0x00, 0x4c, 0xbc,
  0x28, 0xd3, 0x4e, 0xbd, 0xd9, 0x57, 0xa8, 0xbd, 0x2e, 0x0d, 0x32, 0xbe,
  0x28, 0x8c, 0x52, 0xbd, 0x10, 0xdc, 0x0e, 0x3e, 0x34, 0x22, 0xbb, 0x3d,
  0xa0, 0x40, 0xba, 0x3b, 0xca, 0x09, 0x33, 0x3e, 0xe2, 0x85, 0x15, 0x3e,
  0x1a, 0x49, 0x23, 0xbe, 0xc0, 0x20, 0xa8, 0xbb, 0xf4, 0x23, 0x20, 0x3e,
  0xf7, 0x58, 0x28, 0xbe, 0x0c, 0x4d, 0x91, 0x3d, 0xa4, 0xbe, 0x10, 0xbd,
  0x98, 0x61, 0xee, 0x3c, 0xf0, 0x44, 0x8d, 0xbc, 0x8e, 0x72, 0x15, 0x3e,
  0xc0, 0x4c, 0xe7, 0x3d, 0x9c, 0x7e, 0x04, 0xbe, 0x5c, 0x8d, 0xb8, 0x3d,
  0x95, 0xcf, 0x97, 0xbd, 0x50, 0x93, 0xa1, 0x3c, 0x7c, 0x7a, 0x30, 0x3e,
  0xe8, 0xa6, 0x54, 0xbd, 0x88, 0x8f, 0xaf, 0xbd, 0x5c, 0xf2, 0xa9, 0x3d,
  0x0b, 0x82, 0xc9, 0xbd, 0x40, 0xfc, 0xb4, 0xbb, 0x70, 0xff, 0xc7, 0x3c,
  0x34, 0x65, 0x1f, 0x3d, 0x18, 0x7c, 0xa3, 0xbc, 0xf8, 0xfe, 0xe7, 0x3d,
  0x62, 0x0f, 0x8d, 0xbd, 0x40, 0x6c, 0xe0, 0x3b, 0xce, 0x97, 0x83, 0x3d,
  0xb4, 0x1d, 0x37, 0x3d, 0x2a, 0x57, 0x28, 0x3e, 0xba, 0xf7, 0x01, 0x3e,
  0x00, 0xc8, 0xe2, 0xb8, 0x70, 0x05, 0x72, 0x3c, 0x50, 0x98, 0x05, 0x3e,
  0xe7, 0x2b, 0x2f, 0xbe, 0xac, 0x04, 0x10, 0xbe, 0x53, 0x4a, 0x93, 0xbd,
  0xec, 0x47, 0x05, 0x3f, 0x6d, 0x4e, 0x9a, 0x3d, 0x76, 0x90, 0x4a, 0x3f,
  0x27, 0xc5, 0x24, 0xbe, 0x64, 0xa4, 0x21, 0xbe, 0x67, 0x20, 0x25, 0x3d,
  0x97, 0x7b, 0x27, 0x3f, 0xae, 0xe7, 0xa0, 0x3d, 0x4f, 0x2e, 0x5d, 0x3f,
  0x4d, 0xac, 0x0b, 0x3e, 0x0a, 0x20, 0xb5, 0xbd, 0x2b, 0xb4, 0x39, 0xbe,
  0x99, 0x71, 0x06, 0x3f, 0xd4, 0xd8, 0x98, 0x3d, 0x75, 0x88, 0x5a, 0x3f,
  0x19, 0x28, 0x2b, 0x3e, 0xcb, 0xa8, 0xb4, 0xbe, 0xa3, 0xcc, 0x64, 0xbb,
  0x9a, 0x3f, 0xc2, 0x3e, 0xe6, 0x37, 0xaf, 0x3d, 0x2d, 0x4b, 0x00, 0x3f,
  0x82, 0x48, 0x28, 0x3e, 0xf4, 0xae, 0x5b, 0xbe, 0xc8, 0x4d, 0x65, 0xbd,
  0x5f, 0x8a, 0x0b, 0x3e, 0x7d, 0x3a, 0x41, 0xbe, 0xfb, 0xb8, 0x0f, 0x3f,
  0x7c, 0x00, 0xe2, 0x3d, 0x20, 0x4f, 0x7d, 0xbe, 0xfe, 0x62, 0x7b, 0x3d,
  0x16, 0x85, 0x86, 0x3e, 0x1a, 0x3e, 0xff, 0xbd, 0x38, 0x6e, 0x21, 0x3e,
  0x1d, 0x94, 0xa7, 0x3d, 0xa1, 0x26, 0x9f, 0xbe, 0x60, 0xc7, 0xbc, 0xbb,
  0x86, 0x39, 0x00, 0x3e, 0x88, 0x60, 0x44, 0xbe, 0x97, 0x70, 0x80, 0xbe,
  0x64, 0xd2, 0xbe, 0x3d, 0x22, 0xc2, 0x1a, 0xbf, 0x6f, 0x21, 0x21, 0x3d,
  0xe0, 0xae, 0xf2, 0x3d, 0x6e, 0x8d, 0x79, 0x3d, 0xbf, 0x04, 0x07, 0xbf,
  0x2a, 0x1b, 0x3a, 0x3d, 0xa9, 0x86, 0xca, 0xbe, 0x97, 0xfc, 0x49, 0xbe,
  0x15, 0x8b, 0xe0, 0x3b, 0x18, 0x11, 0x51, 0x3e, 0x90, 0x1b, 0x17, 0xbf,
  0x9a, 0xe9, 0x3c, 0xbe, 0x7b, 0x61, 0x0a, 0xbf, 0xd7, 0xd8, 0x4b, 0xbc,
  0x70, 0x3c, 0xb0, 0x3d, 0x12, 0xd6, 0x50, 0x3e, 0x66, 0x11, 0xfd, 0xbe,
  0x69, 0x1f, 0xe3, 0xbd, 0x25, 0x05, 0x28, 0xbe, 0x2a, 0x83, 0x10, 0xbd,
  0x45, 0x55, 0x2e, 0xbd, 0x39, 0x60, 0x8a, 0x3e, 0x64, 0x16, 0xdb, 0xbe,
  0x20, 0x3c, 0x21, 0x3d, 0x45, 0xa9, 0xa9, 0xbe, 0xf4, 0xa7, 0xfe, 0xbd,
  0x15, 0x78, 0x2e, 0xbe, 0x4f, 0x2a, 0xe7, 0x3d, 0x50, 0xc1, 0x25, 0xbf,
  0x0e, 0xe9, 0x9d, 0x3d, 0x47, 0x82, 0x8a, 0xbe, 0x9f, 0xf5, 0x80, 0xbe,
  0x14, 0x7d, 0x3e, 0x3c, 0x89, 0x40, 0xa4, 0x3e, 0x9a, 0x96, 0xe9, 0xbe,
  0x5b, 0xfa, 0x6b, 0xbc, 0x57, 0x5d, 0x63, 0xbe, 0x97, 0xdc, 0x06, 0xbd,
  0x19, 0x30, 0x9c, 0x3a, 0xab, 0x1a, 0xd0, 0x3e, 0x51, 0x78, 0x23, 0xbf,
  0x9a, 0xf8, 0x04, 0x3e, 0x43, 0xa4, 0x32, 0xbc, 0xab, 0xab, 0xbd, 0xbd,
  0x53, 0xba, 0x18, 0x3e, 0x60, 0xbb, 0x8f, 0x3e, 0x8c, 0x1b, 0x17, 0xbf,
  0xb4, 0x65, 0x21, 0xbe, 0x9e, 0x28, 0xad, 0xbc, 0xcc, 0xbb, 0xe4, 0xbd,
  0x64, 0x97, 0x7d, 0x3d, 0x00, 0x96, 0xb4, 0x3e, 0x8e, 0x35, 0xc4, 0xbe,
  0x98, 0x73, 0xd7, 0xbd, 0x54, 0xa2, 0x94, 0xbd, 0x22, 0x32, 0xca, 0xbd,
  0xb8, 0x96, 0x34, 0x3e, 0xc9, 0x11, 0xc1, 0x3d, 0x99, 0x44, 0xf6, 0xbe,
  0xd3, 0xda, 0x03, 0x3e, 0xa8, 0x32, 0x21, 0xbe, 0x88, 0x69, 0x84, 0xbd,
  0x51, 0x8f, 0x36, 0xbd, 0xad, 0xea, 0xac, 0x3e, 0xe4, 0xe0, 0x2f, 0xbe,
  0xf8, 0xde, 0x7d, 0xbd, 0x2c, 0x52, 0x37, 0xbe, 0x11, 0xcc, 0xf4, 0x3c,
  0x40, 0x56, 0x41, 0x3e, 0x14, 0x0d, 0x53, 0x3d, 0xff, 0x66, 0x9e, 0xbe,
  0xdd, 0x33, 0x1f, 0xbd, 0x0f, 0x6e, 0xa9, 0x3d, 0xb7, 0x2c, 0x2f, 0xbc,
  0x14, 0xc0, 0x9a, 0xbd, 0x69, 0xc0, 0x55, 0x3d, 0x7c, 0x37, 0x83, 0xbe,
  0x38, 0x29, 0x54, 0x3e, 0x39, 0x69, 0xd2, 0xbd, 0x90, 0x47, 0xdf, 0xbc,
  0xe1, 0xb4, 0x75, 0x3d, 0x2a, 0x60, 0xdb, 0x3d, 0xc7, 0x05, 0x4f, 0xbe,
  0x71, 0x60, 0x9f, 0xbd, 0x47, 0xcc, 0x9d, 0xbd, 0xa9, 0xa0, 0xc1, 0x3d,
  0x90, 0xa4, 0xce, 0x3c, 0xc8, 0xea, 0xe3, 0x3d, 0x9f, 0x8a, 0xa5, 0xbd,
  0x10, 0x83, 0x8b, 0xbd, 0x5d, 0xf7, 0xc8, 0x3c, 0xf7, 0xf6, 0xd5, 0x3d,
  0xe4, 0x35, 0x2a, 0x3e, 0xa3, 0xb0, 0x3b, 0x3e, 0x0a, 0xa7, 0x10, 0x3e,
  0x67, 0x3f, 0xf8, 0x3d, 0xbb, 0xf5, 0x9c, 0x3d, 0xc0, 0x97, 0x21, 0x3e,
  0x55, 0x9e, 0x09, 0x3e, 0xcb, 0x16, 0x55, 0x3e, 0x07, 0x7d, 0x01, 0x3d,
  0xf1, 0x5e, 0x5b, 0x3e, 0xcb, 0x65, 0x66, 0x3e, 0x44, 0xf2, 0x50, 0xbd,
  0x45, 0x0e, 0xa0, 0x3e, 0xc3, 0x50, 0x3b, 0x3d, 0x71, 0x28, 0x35, 0x3e,
  0x67, 0xac, 0xbe, 0xbd, 0x60, 0x89, 0x28, 0x3e, 0xea, 0xe2, 0xbd, 0x3d,
  0x97, 0xd6, 0xd7, 0x3d, 0x41, 0x3c, 0xbe, 0xbd, 0x10, 0x54, 0x8a, 0x3e,
  0x8d, 0x73, 0x88, 0xba, 0x03, 0x08, 0x65, 0x3e, 0xae, 0x63, 0x2d, 0x3d,
  0x47, 0xae, 0xaa, 0x3e, 0xbc, 0x69, 0x03, 0xbd, 0x07, 0x13, 0x17, 0x3e,
  0xe2, 0x6a, 0x99, 0xbd, 0xb0, 0xb3, 0x77, 0x3e, 0x79, 0xdb, 0xc4, 0xbd,
  0x2a, 0x62, 0xb3, 0x3e, 0xac, 0xda, 0x8b, 0x3e, 0x68, 0x30, 0xba, 0x3e,
  0x35, 0xd3, 0x26, 0xbd, 0x50, 0x87, 0x4a, 0x3e, 0x14, 0x2d, 0xd4, 0xbd,
  0x9d, 0x53, 0xd7, 0x3e, 0xb7, 0xe7, 0x27, 0x3e, 0x38, 0xcb, 0x1f, 0x3e,
  0xcf, 0x69, 0x51, 0xbd, 0x0b, 0x34, 0x4a, 0x3e, 0x3b, 0x4c, 0x45, 0x3d,
  0x67, 0x24, 0xe6, 0x3d, 0x48, 0x7b, 0x39, 0xbd, 0x22, 0x81, 0xdc, 0x3d,
  0x36, 0xfa, 0xa7, 0xbd, 0x87, 0x7a, 0x98, 0x3d, 0x13, 0x06, 0xb7, 0xbd,
  0xf8, 0xf1, 0x98, 0x3d, 0x70, 0xf9, 0x63, 0xbc, 0x00, 0x89, 0x1b, 0x3a,
  0x05, 0x84, 0x2f, 0xbe, 0xec, 0xca, 0xe0, 0x3d, 0x10, 0x6b, 0x03, 0xbc,
  0x57, 0x54, 0xb4, 0xbd, 0xd1, 0x3c, 0xc7, 0xbd, 0xec, 0x2b, 0xcc, 0x3d,
  0x3b, 0xa5, 0xb8, 0xbd, 0x48, 0x26, 0xed, 0xbd, 0xea, 0xd3, 0x97, 0xbd,
  0x9c, 0xdd, 0x9a, 0xbd, 0xac, 0x5e, 0x30, 0xbd, 0x28, 0x51, 0xc0, 0x3c,
  0xf2, 0x42, 0xcd, 0xbd, 0x08, 0x7c, 0x81, 0x3c, 0x94, 0x77, 0x75, 0x3d,
  0xe4, 0xdf, 0xc4, 0x3d, 0xdf, 0xd0, 0x22, 0xbe, 0xb0, 0x0b, 0x7b, 0x3d,
  0x38, 0x22, 0xdd, 0x3d, 0x0c, 0x5e, 0x2d, 0xbd, 0x00, 0xd5, 0x6e, 0xbc,
  0xae, 0x8d, 0x02, 0x3e, 0xd0, 0x7e, 0x70, 0x3d, 0x58, 0xcc, 0xfc, 0x3d,
  0xa8, 0x4b, 0x1d, 0x3d, 0xda, 0x31, 0x22, 0xbe, 0x5a, 0x56, 0x02, 0x3e,
  0x1c, 0x9b, 0x9d, 0x3d, 0x70, 0x73, 0x7b, 0x3d, 0x4c, 0x71, 0x1a, 0x3e,
  0x0c, 0xb7, 0x93, 0x3d, 0x2e, 0x11, 0x24, 0x3e, 0x3e, 0x1d, 0x1c, 0x3e,
  0xc0, 0xc5, 0xaa, 0x3d, 0x57, 0x48, 0xfc, 0xbd, 0x0a, 0xca, 0x10, 0xbe,
  0x23, 0x5b, 0xc4, 0xbd, 0x03, 0x92, 0x35, 0xbe, 0x3d, 0xec, 0x0e, 0xbe,
  0x14, 0x63, 0x09, 0xbd, 0xcd, 0x34, 0xd5, 0xbd, 0x52, 0xe1, 0x0a, 0x3e,
  0x5c, 0x4b, 0x96, 0x3d, 0xd8, 0xd8, 0xe5, 0x3d, 0x53, 0xe1, 0x91, 0xbd,
  0xec, 0x28, 0xbd, 0x3d, 0x18, 0x2a, 0x8f, 0xbd, 0x48, 0xb9, 0x5f, 0x3d,
  0xa8, 0xda, 0x0b, 0xbe, 0xa6, 0x6d, 0x8f, 0x3d, 0xeb, 0xa5, 0xce, 0xbd,
  0x24, 0xb7, 0x10, 0x3e, 0xe0, 0xc3, 0x4a, 0x3d, 0x20, 0x3e, 0xa7, 0x3d,
  0x7e, 0x4c, 0xd5, 0xbd, 0x20, 0x45, 0x7a, 0x3d, 0x58, 0x0c, 0xdc, 0xbc,
  0xaa, 0x1a, 0x10, 0xbe, 0x20, 0xf3, 0xbf, 0xbc, 0xcc, 0x78, 0x32, 0xbd,
  0x70, 0x27, 0xf6, 0xbd, 0x88, 0x8b, 0xd8, 0x3d, 0x6a, 0x72, 0x0a, 0xbe,
  0xab, 0xa8, 0x83, 0xbd, 0xb8, 0x6c, 0xe5, 0x3d, 0xec, 0x2c, 0x10, 0xbe,
  0x89, 0xd3, 0xcb, 0xbd, 0x01, 0x1e, 0x29, 0xbe, 0x5d, 0x73, 0xd1, 0xbd,
  0xdc, 0x8c, 0x1b, 0x3d, 0xc0, 0xfd, 0xcb, 0xbc, 0x58, 0x43, 0x8c, 0xbd,
  0xb6, 0x73, 0x1c, 0x3e, 0x06, 0xb5, 0x19, 0xbe, 0x10, 0xe0, 0x5d, 0xbc,
  0x9c, 0x04, 0x3e, 0x3d, 0x66, 0xa6, 0xae, 0xbd, 0xc5, 0xa9, 0x94, 0xbd,
  0x7c, 0x72, 0xb6, 0x3d, 0x80, 0x1a, 0xcf, 0x3a, 0x82, 0x78, 0x08, 0xbe,
  0x20, 0xe3, 0x18, 0xbc, 0x08, 0xd6, 0x6e, 0xbd, 0xcc, 0xb0, 0x2a, 0x3d,
  0x90, 0x06, 0xa7, 0x3d, 0xd8, 0xe0, 0xbb, 0x3d, 0x5c, 0x89, 0x42, 0x3d,
  0x6a, 0xf4, 0x90, 0xbd, 0xa8, 0x2c, 0xb3, 0x3d, 0x14, 0xef, 0x3a, 0x3d,
  0x38, 0x68, 0x84, 0x3d, 0xfb, 0xa0, 0xc1, 0xbd, 0x38, 0x07, 0xca, 0x3d,
  0xd2, 0xe4, 0xf2, 0xbd, 0x42, 0x95, 0x80, 0x3d, 0xe2, 0xa4, 0x7f, 0xbd,
  0x7d, 0x9d, 0xaf, 0xbd, 0x82, 0x83, 0x1c, 0x3e, 0xee, 0x39, 0x31, 0xbe,
  0xcc, 0x81, 0x20, 0x3d, 0x60, 0x54, 0xb1, 0x3d, 0xb8, 0x29, 0x6e, 0x3d,
  0x80, 0xd3, 0x32, 0xbb, 0x04, 0x67, 0xe9, 0x3d, 0x60, 0x40, 0xa5, 0x3d,
  0x9c, 0x66, 0x34, 0xbe, 0x08, 0x11, 0xc7, 0x3d, 0x7c, 0xef, 0x51, 0x3d,
  0x6c, 0x63, 0xf6, 0x3d, 0x80, 0x46, 0x25, 0xbc, 0xaa, 0x61, 0x34, 0x3e,
  0x85, 0xe3, 0xbd, 0xbd, 0x57, 0x09, 0x1e, 0xbe, 0x50, 0xc6, 0x60, 0x3c,
  0x2c, 0xe7, 0x04, 0x3d, 0x76, 0xc6, 0x19, 0xbe, 0x80, 0x60, 0x81, 0xbb,
  0xd4, 0x82, 0x1f, 0x3e, 0x4c, 0xb4, 0xe7, 0xbd, 0x08, 0x0f, 0xee, 0x3d,
  0x30, 0xe4, 0xf5, 0x3c, 0xe0, 0x5d, 0xf7, 0x3d, 0x38, 0x15, 0xb6, 0x3c,
  0xd5, 0x64, 0x20, 0xbe, 0x94, 0xd3, 0x93, 0x3d, 0x58, 0xa5, 0xa9, 0x3d,
  0xe0, 0xca, 0x77, 0x3d, 0xdd, 0x4e, 0x89, 0xbd, 0xa8, 0x4a, 0x8c, 0xbc,
  0x00, 0x31, 0x50, 0x3a, 0x14, 0xd2, 0x13, 0x3d, 0xb8, 0xbd, 0x1f, 0x3e,
  0x80, 0x2e, 0x83, 0x3b, 0x40, 0x1c, 0xb6, 0xbd, 0x76, 0x15, 0x90, 0xbd,
  0xd8, 0x71, 0x19, 0xbd, 0x6b, 0x00, 0xd9, 0xbd, 0xc0, 0x6c, 0x01, 0xbb,
  0xc4, 0xfa, 0xb2, 0x3d, 0x58, 0x07, 0x8e, 0x3d, 0x49, 0xe6, 0x2d, 0xbe,
  0x36, 0x27, 0x25, 0x3e, 0x58, 0x7f, 0x57, 0xbd, 0xdd, 0x43, 0xdc, 0xbd,
  0x48, 0xf3, 0x50, 0x3d, 0x83, 0x45, 0x12, 0xbe, 0x96, 0xde, 0x8a, 0x3d,
  0xaf, 0xe5, 0xaf, 0xbd, 0x91, 0xb9, 0x26, 0xbe, 0x5c, 0x15, 0x56, 0xbd,
  0x02, 0x28, 0xf1, 0xbd, 0xd4, 0x18, 0xff, 0x3d, 0x25, 0xd1, 0x25, 0xbe,
  0xc4, 0xab, 0xda, 0x3d, 0x40, 0xfd, 0xfc, 0x3d, 0x80, 0x67, 0xd5, 0xbb,
  0x62, 0x7c, 0x08, 0x3e, 0x58, 0xf8, 0xa4, 0x3c, 0x5c, 0x65, 0xa9, 0x3d,
  0x64, 0xc4, 0xe6, 0x3d, 0x87, 0x24, 0x04, 0xbe, 0xe0, 0x10, 0xa0, 0xbc,
  0xce, 0x3a, 0x00, 0x3e, 0xb6, 0xdb, 0x0e, 0xbe, 0x16, 0x14, 0x1c, 0xbe,
  0xe0, 0x7a, 0x0c, 0xbd, 0xfb, 0xb4, 0xc8, 0xbd, 0xdc, 0xbd, 0x20, 0x3d,
  0x1c, 0xf1, 0x0d, 0x3d, 0x98, 0xa6, 0xac, 0xbd, 0xcb, 0x13, 0x34, 0xbe,
  0xb2, 0xc4, 0x6b, 0xbd, 0x4c, 0xee, 0x48, 0xbd, 0xe6, 0xa1, 0x9a, 0xbd,
  0x16, 0x53, 0x2a, 0x3e, 0xfb, 0xcc, 0x05, 0xbe, 0x91, 0x32, 0xe2, 0xbd,
  0x20, 0x86, 0x1b, 0xbd, 0xe7, 0x25, 0x28, 0xbe, 0x34, 0xc4, 0x1f, 0xbe,
  0x8b, 0xa7, 0x36, 0xbd, 0x02, 0x7b, 0x24, 0xbe, 0xc0, 0xe3, 0xbb, 0x3d,
  0x0c, 0xfb, 0xf1, 0x3c, 0x14, 0xc6, 0xdb, 0x3d, 0x6e, 0xec, 0xaf, 0x3d,
  0xe7, 0x15, 0xef, 0xbd, 0x7e, 0x2a, 0x9e, 0xbb, 0xf2, 0x93, 0x9e, 0x3d,
  0xfd, 0xd2, 0xa0, 0xbc, 0x98, 0xe9, 0x06, 0x3e, 0x6e, 0x2f, 0xdb, 0xbd,
  0x4f, 0x8b, 0x24, 0x3d, 0x05, 0x89, 0x01, 0xbe, 0xd3, 0x2a, 0x23, 0x3d,
  0x1c, 0x45, 0x13, 0x3e, 0xc6, 0x9a, 0xf5, 0x3d, 0x3b, 0xe7, 0x0d, 0x3e,
  0xe0, 0x55, 0x5e, 0xbd, 0xf5, 0x1d, 0xb4, 0xbd, 0x70, 0x19, 0xf5, 0x3c,
  0x37, 0x27, 0x1f, 0xbe, 0x7e, 0xc0, 0xbf, 0x3d, 0xa2, 0x59, 0xdf, 0x3d,
  0xa8, 0xd6, 0x30, 0xbe, 0xe8, 0xa4, 0xe3, 0x3d, 0x7b, 0xb8, 0xb7, 0x3d,
  0x19, 0xf4, 0x0c, 0x3e, 0x89, 0x8b, 0xc7, 0x3d, 0x76, 0x5f, 0x2c, 0xbe,
  0x80, 0x60, 0x2f, 0xbe, 0x91, 0x5c, 0x26, 0xbe, 0x42, 0x25, 0x35, 0x3e,
  0x47, 0x3c, 0x27, 0x3e, 0xbc, 0x44, 0xf9, 0xbd, 0xe6, 0x00, 0x26, 0xbe,
  0x5b, 0x7e, 0xc6, 0xbc, 0x2e, 0x6d, 0xe7, 0x3d, 0xd6, 0x74, 0x52, 0xbd,
  0xcc, 0x31, 0x1b, 0xbe, 0x30, 0x10, 0xf4, 0xbd, 0x48, 0x49, 0xbc, 0x3d,
  0xf9, 0x11, 0x7f, 0x3d, 0xf5, 0x37, 0x75, 0xbd, 0x3c, 0x66, 0xca, 0xbd,
  0x8e, 0x0c, 0x84, 0x3d, 0x84, 0x97, 0xf4, 0xbd, 0xde, 0xe2, 0xca, 0xbd,
  0x2b, 0x8d, 0x81, 0xbc, 0x3f, 0xfa, 0x90, 0x3c, 0x6f, 0xbc, 0xd6, 0x3d,
  0x3c, 0x01, 0x2a, 0x3e, 0x96, 0x47, 0x25, 0x3d, 0x0e, 0x29, 0xf7, 0x3d,
  0x38, 0x6e, 0x78, 0xbb, 0xc7, 0x27, 0xe6, 0xbd, 0x1e, 0xaa, 0xb2, 0xbd,
  0xe0, 0xdf, 0x4c, 0x3d, 0x7f, 0x3b, 0x89, 0x3d, 0x0d, 0x24, 0x0c, 0x3e,
  0xdb, 0xff, 0x63, 0x3d, 0x84, 0x1a, 0x66, 0x3d, 0x8c, 0x04, 0x16, 0xbb,
  0x5d, 0xce, 0x08, 0xbe, 0xfc, 0xba, 0xfd, 0x3d, 0x14, 0x7e, 0xd8, 0xbc,
  0xa0, 0x45, 0x3b, 0x3d, 0x89, 0x8c, 0x02, 0x3e, 0x34, 0x5e, 0xf4, 0x3d,
  0x82, 0xbb, 0x0a, 0xbe, 0x22, 0xdf, 0xe0, 0x3d, 0xe3, 0x50, 0x18, 0xbc,
  0xe5, 0x55, 0x26, 0xbe, 0xb5, 0x5d, 0x8d, 0xbd, 0x0c, 0xa8, 0x25, 0xbe,
  0xd0, 0x86, 0x92, 0xbd, 0x87, 0xd6, 0xdb, 0xbd, 0x94, 0x7c, 0x23, 0x3d,
  0x25, 0x49, 0x38, 0xbc, 0xe6, 0x01, 0xe1, 0xbd, 0x65, 0xd1, 0x32, 0xbd,
  0x2d, 0x38, 0x05, 0xbe, 0x70, 0xef, 0x37, 0xbe, 0x34, 0x04, 0x35, 0xbe,
  0xcd, 0xd5, 0x11, 0xbe, 0x64, 0xa5, 0x92, 0xbd, 0xe7, 0x43, 0x84, 0xbd,
  0x4b, 0xa2, 0x84, 0xbd, 0x0c, 0xbd, 0x37, 0xbe, 0xa8, 0xa9, 0x35, 0x3d,
  0xbb, 0xff, 0xfb, 0x3c, 0x81, 0x7f, 0x28, 0x3e, 0x22, 0x19, 0x1d, 0xbe,
  0xa4, 0xcb, 0x00, 0xbe, 0x9e, 0x09, 0xe0, 0x3c, 0xfe, 0x68, 0x26, 0x3e,
  0x34, 0xfc, 0xcf, 0x3d, 0x68, 0x2a, 0x03, 0x3e, 0x6d, 0xe7, 0xaf, 0x3d,
  0x65, 0xdc, 0xaf, 0x3d, 0xb4, 0xe1, 0x6b, 0xbd, 0x4e, 0xe7, 0xa5, 0x3c,
  0x16, 0x18, 0x18, 0xbe, 0xab, 0x4a, 0x80, 0xbc, 0xcc, 0xc8, 0xd6, 0xbd,
  0x85, 0x36, 0x15, 0x3e, 0xaf, 0x91, 0xcd, 0x3c, 0x35, 0x34, 0x2b, 0x3e,
  0xab, 0xc0, 0x1f, 0xbe, 0x3d, 0x37, 0x20, 0x3e, 0xf3, 0x90, 0xf8, 0x3d,
  0x03, 0xd6, 0x22, 0xbe, 0x8e, 0xa7, 0x17, 0xbe, 0x67, 0xe7, 0x16, 0x3e,
  0x53, 0x60, 0x45, 0x3d, 0x90, 0x34, 0x10, 0xbb, 0x21, 0xa1, 0x59, 0x3d,
  0xd1, 0xc6, 0xc0, 0xbd, 0x19, 0x31, 0x19, 0x3e, 0xb7, 0x9f, 0xce, 0x3d,
  0x3e, 0x33, 0xa0, 0x3d, 0x53, 0xb9, 0x1d, 0xbe, 0xaf, 0x5d, 0x2f, 0xbd,
  0x48, 0x92, 0xbd, 0xbd, 0x46, 0xcb, 0x22, 0xbd, 0x7e, 0x61, 0xa0, 0x3d,
  0x95, 0x39, 0x9b, 0xbd, 0xc5, 0x4e, 0xc6, 0x3d, 0x92, 0xa1, 0xb3, 0x3d,
  0xc8, 0xc5, 0xf9, 0xbc, 0x30, 0xde, 0x83, 0x3d, 0xe9, 0xb4, 0x06, 0x3d,
  0xb3, 0x0d, 0xda, 0x3d, 0xad, 0xa2, 0x81, 0x3b, 0xa7, 0x1b, 0x45, 0xbd,
  0x70, 0xd4, 0x98, 0xbd, 0x16, 0x79, 0xe8, 0x3d, 0x45, 0x91, 0x0c, 0x3d,
  0x35, 0xdf, 0xa6, 0xbd, 0xed, 0xd1, 0x2c, 0xbe, 0xd0, 0x57, 0xf7, 0xbc,
  0xa8, 0x0e, 0x59, 0xbd, 0x16, 0x03, 0x23, 0x3e, 0xf1, 0xce, 0x90, 0xbc,
  0x65, 0x47, 0x0f, 0xbd, 0x49, 0x46, 0xae, 0x3b, 0x14, 0xd5, 0xff, 0xbd,
  0x4d, 0xa2, 0xa2, 0xbd, 0x01, 0x86, 0x27, 0xbe, 0x27, 0x42, 0xbc, 0xbc,
  0x7a, 0x20, 0x1b, 0x3e, 0x79, 0x51, 0x1f, 0x3e, 0xb3, 0x37, 0xc0, 0x3d,
  0x31, 0x6e, 0x5f, 0xbd, 0xdd, 0xf8, 0x17, 0x3e, 0x3d, 0xb3, 0x2b, 0x3e,
  0xe6, 0x98, 0xcc, 0x3d, 0x9b, 0x1f, 0x8a, 0xbd, 0x3e, 0x2d, 0xa9, 0xbd,
  0x06, 0x6d, 0xf5, 0xbd, 0x1c, 0x14, 0x27, 0xbe, 0x24, 0xde, 0xb1, 0xbd,
  0x71, 0x79, 0x9e, 0xbc, 0x65, 0xdc, 0xd8, 0x3d, 0xea, 0xb4, 0xe1, 0x3d,
  0x1a, 0x80, 0xcd, 0x3d, 0xf7, 0x25, 0xc2, 0x3d, 0x57, 0xcb, 0xf7, 0xbd,
  0xc9, 0x18, 0xf8, 0xbb, 0x28, 0xde, 0x31, 0xbc, 0xf1, 0x26, 0xa9, 0xbd,
  0x5b, 0x14, 0xca, 0x3d, 0x24, 0x2a, 0x4d, 0xbd, 0xdf, 0xb4, 0xbc, 0x3d,
  0x9b, 0x7c, 0xf9, 0x3d, 0x90, 0xe4, 0x89, 0xbd, 0xab, 0x4b, 0xc2, 0xbd,
  0x02, 0xff, 0xff, 0xff, 0x04, 0x00, 0x00, 0x00, 0x20, 0x00, 0x00, 0x00,
  0x00, 0x00, 0x00, 0x00, 0x03, 0xd4, 0xb4, 0xbb, 0x00, 0x00, 0x00, 0x00,
  0x40, 0x35, 0xd7, 0x3d, 0x00, 0x00, 0x00, 0x00, 0xd9, 0x49, 0x57, 0x3d,
  0x00, 0x00, 0x00, 0x00, 0xa0, 0x91, 0xb7, 0xbb, 0x2e, 0xff, 0xff, 0xff,
  0x04, 0x00, 0x00, 0x00, 0x10, 0x00, 0x00, 0x00, 0x4d, 0x22, 0xcd, 0xbf,
  0xee, 0x56, 0x2f, 0xbe, 0x24, 0x63, 0x13, 0x3f, 0x00, 0x00, 0x00, 0x00,
  0x4a, 0xff, 0xff, 0xff, 0x04, 0x00, 0x00, 0x00, 0x14, 0x00, 0x00, 0x00,
  0xe0, 0x9e, 0x14, 0x40, 0x76, 0x8f, 0x78, 0xc0, 0x18, 0x8d, 0x2f, 0xc0,
  0x20, 0xbb, 0xc5, 0x3f, 0x06, 0xf3, 0xc6, 0xbf, 0x40, 0xfa, 0xff, 0xff,
  0x44, 0xfa, 0xff, 0xff, 0x0f, 0x00, 0x00, 0x00, 0x4d, 0x4c, 0x49, 0x52,
  0x20, 0x43, 0x6f, 0x6e, 0x76, 0x65, 0x72, 0x74, 0x65, 0x64, 0x2e, 0x00,
  0x01, 0x00, 0x00, 0x00, 0x14, 0x00, 0x00, 0x00, 0x00, 0x00, 0x0e, 0x00,
  0x18, 0x00, 0x14, 0x00, 0x10, 0x00, 0x0c, 0x00, 0x08, 0x00, 0x04, 0x00,
  0x0e, 0x00, 0x00, 0x00, 0x14, 0x00, 0x00, 0x00, 0x1c, 0x00, 0x00, 0x00,
  0x24, 0x01, 0x00, 0x00, 0x28, 0x01, 0x00, 0x00, 0x2c, 0x01, 0x00, 0x00,
  0x04, 0x00, 0x00, 0x00, 0x6d, 0x61, 0x69, 0x6e, 0x00, 0x00, 0x00, 0x00,
  0x04, 0x00, 0x00, 0x00, 0xcc, 0x00, 0x00, 0x00, 0x84, 0x00, 0x00, 0x00,
  0x50, 0x00, 0x00, 0x00, 0x14, 0x00, 0x00, 0x00, 0x00, 0x00, 0x0e, 0x00,
  0x1a, 0x00, 0x14, 0x00, 0x10, 0x00, 0x0c, 0x00, 0x0b, 0x00, 0x04, 0x00,
  0x0e, 0x00, 0x00, 0x00, 0x1c, 0x00, 0x00, 0x00, 0x00, 0x00, 0x00, 0x09,
  0x1c, 0x00, 0x00, 0x00, 0x20, 0x00, 0x00, 0x00, 0x01, 0x00, 0x00, 0x00,
  0x00, 0x00, 0x06, 0x00, 0x08, 0x00, 0x04, 0x00, 0x06, 0x00, 0x00, 0x00,
  0x00, 0x00, 0x80, 0x3f, 0x01, 0x00, 0x00, 0x00, 0x0a, 0x00, 0x00, 0x00,
  0x01, 0x00, 0x00, 0x00, 0x09, 0x00, 0x00, 0x00, 0x9a, 0xff, 0xff, 0xff,
  0x10, 0x00, 0x00, 0x00, 0x00, 0x00, 0x00, 0x08, 0x0c, 0x00, 0x00, 0x00,
  0x10, 0x00, 0x00, 0x00, 0x08, 0xfb, 0xff, 0xff, 0x01, 0x00, 0x00, 0x00,
  0x09, 0x00, 0x00, 0x00, 0x03, 0x00, 0x00, 0x00, 0x08, 0x00, 0x00, 0x00,
  0x06, 0x00, 0x00, 0x00, 0x01, 0x00, 0x00, 0x00, 0xca, 0xff, 0xff, 0xff,
  0x10, 0x00, 0x00, 0x00, 0x00, 0x00, 0x00, 0x08, 0x10, 0x00, 0x00, 0x00,
  0x14, 0x00, 0x00, 0x00, 0xba, 0xff, 0xff, 0xff, 0x00, 0x00, 0x00, 0x01,
  0x01, 0x00, 0x00, 0x00, 0x08, 0x00, 0x00, 0x00, 0x03, 0x00, 0x00, 0x00,
  0x07, 0x00, 0x00, 0x00, 0x05, 0x00, 0x00, 0x00, 0x02, 0x00, 0x00, 0x00,
  0x00, 0x00, 0x0e, 0x00, 0x16, 0x00, 0x00, 0x00, 0x10, 0x00, 0x0c, 0x00,
  0x0b, 0x00, 0x04, 0x00, 0x0e, 0x00, 0x00, 0x00, 0x18, 0x00, 0x00, 0x00,
  0x00, 0x00, 0x00, 0x08, 0x18, 0x00, 0x00, 0x00, 0x1c, 0x00, 0x00, 0x00,
  0x00, 0x00, 0x06, 0x00, 0x08, 0x00, 0x07, 0x00, 0x06, 0x00, 0x00, 0x00,
  0x00, 0x00, 0x00, 0x01, 0x01, 0x00, 0x00, 0x00, 0x07, 0x00, 0x00, 0x00,
  0x03, 0x00, 0x00, 0x00, 0x00, 0x00, 0x00, 0x00, 0x04, 0x00, 0x00, 0x00,
  0x03, 0x00, 0x00, 0x00, 0x01, 0x00, 0x00, 0x00, 0x0a, 0x00, 0x00, 0x00,
  0x01, 0x00, 0x00, 0x00, 0x00, 0x00, 0x00, 0x00, 0x0b, 0x00, 0x00, 0x00,
  0x20, 0x04, 0x00, 0x00, 0xb0, 0x03, 0x00, 0x00, 0x40, 0x03, 0x00, 0x00,
  0xe8, 0x02, 0x00, 0x00, 0x9c, 0x02, 0x00, 0x00, 0x50, 0x02, 0x00, 0x00,
  0x04, 0x02, 0x00, 0x00, 0x70, 0x01, 0x00, 0x00, 0xdc, 0x00, 0x00, 0x00,
  0x60, 0x00, 0x00, 0x00, 0x04, 0x00, 0x00, 0x00, 0x22, 0xfc, 0xff, 0xff,
  0x00, 0x00, 0x00, 0x01, 0x14, 0x00, 0x00, 0x00, 0x1c, 0x00, 0x00, 0x00,
  0x1c, 0x00, 0x00, 0x00, 0x0b, 0x00, 0x00, 0x00, 0x34, 0x00, 0x00, 0x00,
  0x02, 0x00, 0x00, 0x00, 0xff, 0xff, 0xff, 0xff, 0x05, 0x00, 0x00, 0x00,
  0x0c, 0xfc, 0xff, 0xff, 0x19, 0x00, 0x00, 0x00, 0x53, 0x74, 0x61, 0x74,
  0x65, 0x66, 0x75, 0x6c, 0x50, 0x61, 0x72, 0x74, 0x69, 0x74, 0x69, 0x6f,
  0x6e, 0x65, 0x64, 0x43, 0x61, 0x6c, 0x6c, 0x3a, 0x30, 0x00, 0x00, 0x00,
  0x02, 0x00, 0x00, 0x00, 0x01, 0x00, 0x00, 0x00, 0x05, 0x00, 0x00, 0x00,
  0x7a, 0xfc, 0xff, 0xff, 0x00, 0x00, 0x00, 0x01, 0x14, 0x00, 0x00, 0x00,
  0x1c, 0x00, 0x00, 0x00, 0x1c, 0x00, 0x00, 0x00, 0x0a, 0x00, 0x00, 0x00,
  0x54, 0x00, 0x00, 0x00, 0x02, 0x00, 0x00, 0x00, 0xff, 0xff, 0xff, 0xff,
  0x05, 0x00, 0x00, 0x00, 0x64, 0xfc, 0xff, 0xff, 0x38, 0x00, 0x00, 0x00,
  0x73, 0x65, 0x71, 0x75, 0x65, 0x6e, 0x74, 0x69, 0x61, 0x6c, 0x5f, 0x32,
  0x2f, 0x64, 0x65, 0x6e, 0x73, 0x65, 0x5f, 0x38, 0x2f, 0x4d, 0x61, 0x74,
  0x4d, 0x75, 0x6c, 0x3b, 0x73, 0x65, 0x71, 0x75, 0x65, 0x6e, 0x74, 0x69,
  0x61, 0x6c, 0x5f, 0x32, 0x2f, 0x64, 0x65, 0x6e, 0x73, 0x65, 0x5f, 0x38,
  0x2f, 0x42, 0x69, 0x61, 0x73, 0x41, 0x64, 0x64, 0x00, 0x00, 0x00, 0x00,
  0x02, 0x00, 0x00, 0x00, 0x01, 0x00, 0x00, 0x00, 0x05, 0x00, 0x00, 0x00,
  0xf2, 0xfc, 0xff, 0xff, 0x00, 0x00, 0x00, 0x01, 0x14, 0x00, 0x00, 0x00,
  0x1c, 0x00, 0x00, 0x00, 0x1c, 0x00, 0x00, 0x00, 0x09, 0x00, 0x00, 0x00,
  0x6c, 0x00, 0x00, 0x00, 0x02, 0x00, 0x00, 0x00, 0xff, 0xff, 0xff, 0xff,
  0x04, 0x00, 0x00, 0x00, 0xdc, 0xfc, 0xff, 0xff, 0x52, 0x00, 0x00, 0x00,
  0x73, 0x65, 0x71, 0x75, 0x65, 0x6e, 0x74, 0x69, 0x61, 0x6c, 0x5f, 0x32,
  0x2f, 0x64, 0x65, 0x6e, 0x73, 0x65, 0x5f, 0x37, 0x2f, 0x4d, 0x61, 0x74,
  0x4d, 0x75, 0x6c, 0x3b, 0x73, 0x65, 0x71, 0x75, 0x65, 0x6e, 0x74, 0x69,
  0x61, 0x6c, 0x5f, 0x32, 0x2f, 0x64, 0x65, 0x6e, 0x73, 0x65, 0x5f, 0x37,
  0x2f, 0x52, 0x65, 0x6c, 0x75, 0x3b, 0x73, 0x65, 0x71, 0x75, 0x65, 0x6e,
  0x74, 0x69, 0x61, 0x6c, 0x5f, 0x32, 0x2f, 0x64, 0x65, 0x6e, 0x73, 0x65,
  0x5f, 0x37, 0x2f, 0x42, 0x69, 0x61, 0x73, 0x41, 0x64, 0x64, 0x00, 0x00,
  0x02, 0x00, 0x00, 0x00, 0x01, 0x00, 0x00, 0x00, 0x04, 0x00, 0x00, 0x00,
  0x82, 0xfd, 0xff, 0xff, 0x00, 0x00, 0x00, 0x01, 0x14, 0x00, 0x00, 0x00,
  0x1c, 0x00, 0x00, 0x00, 0x1c, 0x00, 0x00, 0x00, 0x08, 0x00, 0x00, 0x00,
  0x6c, 0x00, 0x00, 0x00, 0x02, 0x00, 0x00, 0x00, 0xff, 0xff, 0xff, 0xff,
  0x08, 0x00, 0x00, 0x00, 0x6c, 0xfd, 0xff, 0xff, 0x52, 0x00, 0x00, 0x00,
  0x73, 0x65, 0x71, 0x75, 0x65, 0x6e, 0x74, 0x69, 0x61, 0x6c, 0x5f, 0x32,
  0x2f, 0x64, 0x65, 0x6e, 0x73, 0x65, 0x5f, 0x36, 0x2f, 0x4d, 0x61, 0x74,
  0x4d, 0x75, 0x6c, 0x3b, 0x73, 0x65, 0x71, 0x75, 0x65, 0x6e, 0x74, 0x69,
  0x61, 0x6c, 0x5f, 0x32, 0x2f, 0x64, 0x65, 0x6e, 0x73, 0x65, 0x5f, 0x36,
  0x2f, 0x52, 0x65, 0x6c, 0x75, 0x3b, 0x73, 0x65, 0x71, 0x75, 0x65, 0x6e,
  0x74, 0x69, 0x61, 0x6c, 0x5f, 0x32, 0x2f, 0x64, 0x65, 0x6e, 0x73, 0x65,
  0x5f, 0x36, 0x2f, 0x42, 0x69, 0x61, 0x73, 0x41, 0x64, 0x64, 0x00, 0x00,
  0x02, 0x00, 0x00, 0x00, 0x01, 0x00, 0x00, 0x00, 0x08, 0x00, 0x00, 0x00,
  0x7e, 0xfe, 0xff, 0xff, 0x00, 0x00, 0x00, 0x01, 0x10, 0x00, 0x00, 0x00,
  0x10, 0x00, 0x00, 0x00, 0x07, 0x00, 0x00, 0x00, 0x28, 0x00, 0x00, 0x00,
  0xec, 0xfd, 0xff, 0xff, 0x1b, 0x00, 0x00, 0x00, 0x73, 0x65, 0x71, 0x75,
  0x65, 0x6e, 0x74, 0x69, 0x61, 0x6c, 0x5f, 0x32, 0x2f, 0x64, 0x65, 0x6e,
  0x73, 0x65, 0x5f, 0x38, 0x2f, 0x4d, 0x61, 0x74, 0x4d, 0x75, 0x6c, 0x00,
  0x02, 0x00, 0x00, 0x00, 0x05, 0x00, 0x00, 0x00, 0x04, 0x00, 0x00, 0x00,
  0xc6, 0xfe, 0xff, 0xff, 0x00, 0x00, 0x00, 0x01, 0x10, 0x00, 0x00, 0x00,
  0x10, 0x00, 0x00, 0x00, 0x06, 0x00, 0x00, 0x00, 0x28, 0x00, 0x00, 0x00,
  0x34, 0xfe, 0xff, 0xff, 0x1b, 0x00, 0x00, 0x00, 0x73, 0x65, 0x71, 0x75,
  0x65, 0x6e, 0x74, 0x69, 0x61, 0x6c, 0x5f, 0x32, 0x2f, 0x64, 0x65, 0x6e,
  0x73, 0x65, 0x5f, 0x37, 0x2f, 0x4d, 0x61, 0x74, 0x4d, 0x75, 0x6c, 0x00,
  0x02, 0x00, 0x00, 0x00, 0x04, 0x00, 0x00, 0x00, 0x08, 0x00, 0x00, 0x00,
  0x0e, 0xff, 0xff, 0xff, 0x00, 0x00, 0x00, 0x01, 0x10, 0x00, 0x00, 0x00,
  0x10, 0x00, 0x00, 0x00, 0x05, 0x00, 0x00, 0x00, 0x28, 0x00, 0x00, 0x00,
  0x7c, 0xfe, 0xff, 0xff, 0x1b, 0x00, 0x00, 0x00, 0x73, 0x65, 0x71, 0x75,
  0x65, 0x6e, 0x74, 0x69, 0x61, 0x6c, 0x5f, 0x32, 0x2f, 0x64, 0x65, 0x6e,
  0x73, 0x65, 0x5f, 0x36, 0x2f, 0x4d, 0x61, 0x74, 0x4d, 0x75, 0x6c, 0x00,
  0x02, 0x00, 0x00, 0x00, 0x08, 0x00, 0x00, 0x00, 0xb4, 0x00, 0x00, 0x00,
  0x56, 0xff, 0xff, 0xff, 0x00, 0x00, 0x00, 0x01, 0x10, 0x00, 0x00, 0x00,
  0x10, 0x00, 0x00, 0x00, 0x04, 0x00, 0x00, 0x00, 0x38, 0x00, 0x00, 0x00,
  0xc4, 0xfe, 0xff, 0xff, 0x2b, 0x00, 0x00, 0x00, 0x73, 0x65, 0x71, 0x75,
  0x65, 0x6e, 0x74, 0x69, 0x61, 0x6c, 0x5f, 0x32, 0x2f, 0x64, 0x65, 0x6e,
  0x73, 0x65, 0x5f, 0x36, 0x2f, 0x42, 0x69, 0x61, 0x73, 0x41, 0x64, 0x64,
  0x2f, 0x52, 0x65, 0x61, 0x64, 0x56, 0x61, 0x72, 0x69, 0x61, 0x62, 0x6c,
  0x65, 0x4f, 0x70, 0x00, 0x01, 0x00, 0x00, 0x00, 0x08, 0x00, 0x00, 0x00,
  0xaa, 0xff, 0xff, 0xff, 0x00, 0x00, 0x00, 0x01, 0x10, 0x00, 0x00, 0x00,
  0x10, 0x00, 0x00, 0x00, 0x03, 0x00, 0x00, 0x00, 0x38, 0x00, 0x00, 0x00,
  0x18, 0xff, 0xff, 0xff, 0x2b, 0x00, 0x00, 0x00, 0x73, 0x65, 0x71, 0x75,
  0x65, 0x6e, 0x74, 0x69, 0x61, 0x6c, 0x5f, 0x32, 0x2f, 0x64, 0x65, 0x6e,
  0x73, 0x65, 0x5f, 0x37, 0x2f, 0x42, 0x69, 0x61, 0x73, 0x41, 0x64, 0x64,
  0x2f, 0x52, 0x65, 0x61, 0x64, 0x56, 0x61, 0x72, 0x69, 0x61, 0x62, 0x6c,
  0x65, 0x4f, 0x70, 0x00, 0x01, 0x00, 0x00, 0x00, 0x04, 0x00, 0x00, 0x00,
  0x00, 0x00, 0x16, 0x00, 0x18, 0x00, 0x14, 0x00, 0x00, 0x00, 0x10, 0x00,
  0x0c, 0x00, 0x08, 0x00, 0x00, 0x00, 0x00, 0x00, 0x00, 0x00, 0x07, 0x00,
  0x16, 0x00, 0x00, 0x00, 0x00, 0x00, 0x00, 0x01, 0x10, 0x00, 0x00, 0x00,
  0x10, 0x00, 0x00, 0x00, 0x02, 0x00, 0x00, 0x00, 0x38, 0x00, 0x00, 0x00,
  0x84, 0xff, 0xff, 0xff, 0x2b, 0x00, 0x00, 0x00, 0x73, 0x65, 0x71, 0x75,
  0x65, 0x6e, 0x74, 0x69, 0x61, 0x6c, 0x5f, 0x32, 0x2f, 0x64, 0x65, 0x6e,
  0x73, 0x65, 0x5f, 0x38, 0x2f, 0x42, 0x69, 0x61, 0x73, 0x41, 0x64, 0x64,
  0x2f, 0x52, 0x65, 0x61, 0x64, 0x56, 0x61, 0x72, 0x69, 0x61, 0x62, 0x6c,
  0x65, 0x4f, 0x70, 0x00, 0x01, 0x00, 0x00, 0x00, 0x05, 0x00, 0x00, 0x00,
  0x00, 0x00, 0x16, 0x00, 0x1c, 0x00, 0x18, 0x00, 0x00, 0x00, 0x14, 0x00,
  0x10, 0x00, 0x0c, 0x00, 0x00, 0x00, 0x00, 0x00, 0x08, 0x00, 0x07, 0x00,
  0x16, 0x00, 0x00, 0x00, 0x00, 0x00, 0x00, 0x01, 0x14, 0x00, 0x00, 0x00,
  0x20, 0x00, 0x00, 0x00, 0x20, 0x00, 0x00, 0x00, 0x01, 0x00, 0x00, 0x00,
  0x3c, 0x00, 0x00, 0x00, 0x02, 0x00, 0x00, 0x00, 0xff, 0xff, 0xff, 0xff,
  0xb4, 0x00, 0x00, 0x00, 0x04, 0x00, 0x04, 0x00, 0x04, 0x00, 0x00, 0x00,
  0x1f, 0x00, 0x00, 0x00, 0x73, 0x65, 0x72, 0x76, 0x69, 0x6e, 0x67, 0x5f,
  0x64, 0x65, 0x66, 0x61, 0x75, 0x6c, 0x74, 0x5f, 0x64, 0x65, 0x6e, 0x73,
  0x65, 0x5f, 0x36, 0x5f, 0x69, 0x6e, 0x70, 0x75, 0x74, 0x3a, 0x30, 0x00,
  0x02, 0x00, 0x00, 0x00, 0x01, 0x00, 0x00, 0x00, 0xb4, 0x00, 0x00, 0x00,
  0x02, 0x00, 0x00, 0x00, 0x20, 0x00, 0x00, 0x00, 0x04, 0x00, 0x00, 0x00,
  0xf4, 0xff, 0xff, 0xff, 0x19, 0x00, 0x00, 0x00, 0x00, 0x00, 0x00, 0x19,
  0x0c, 0x00, 0x0c, 0x00, 0x0b, 0x00, 0x00, 0x00, 0x00, 0x00, 0x04, 0x00,
  0x0c, 0x00, 0x00, 0x00, 0x09, 0x00, 0x00, 0x00, 0x00, 0x00, 0x00, 0x09
}; 
