const unsigned char gesture_model_q [] = {  
  0x1c, 0x00, 0x00, 0x00, 0x54, 0x46, 0x4c, 0x33, 0x14, 0x00, 0x20, 0x00,
  0x1c, 0x00, 0x18, 0x00, 0x14, 0x00, 0x10, 0x00, 0x0c, 0x00, 0x00, 0x00,
  0x08, 0x00, 0x04, 0x00, 0x14, 0x00, 0x00, 0x00, 0x1c, 0x00, 0x00, 0x00,
  0x84, 0x00, 0x00, 0x00, 0xdc, 0x00, 0x00, 0x00, 0xb4, 0x08, 0x00, 0x00,
  0xc4, 0x08, 0x00, 0x00, 0x24, 0x11, 0x00, 0x00, 0x03, 0x00, 0x00, 0x00,
  0x01, 0x00, 0x00, 0x00, 0x04, 0x00, 0x00, 0x00, 0xf6, 0xf6, 0xff, 0xff,
  0x0c, 0x00, 0x00, 0x00, 0x1c, 0x00, 0x00, 0x00, 0x38, 0x00, 0x00, 0x00,
  0x0f, 0x00, 0x00, 0x00, 0x73, 0x65, 0x72, 0x76, 0x69, 0x6e, 0x67, 0x5f,
  0x64, 0x65, 0x66, 0x61, 0x75, 0x6c, 0x74, 0x00, 0x01, 0x00, 0x00, 0x00,
  0x04, 0x00, 0x00, 0x00, 0x98, 0xff, 0xff, 0xff, 0x0c, 0x00, 0x00, 0x00,
  0x04, 0x00, 0x00, 0x00, 0x07, 0x00, 0x00, 0x00, 0x64, 0x65, 0x6e, 0x73,
  0x65, 0x5f, 0x32, 0x00, 0x01, 0x00, 0x00, 0x00, 0x04, 0x00, 0x00, 0x00,
  0xfe, 0xf6, 0xff, 0xff, 0x04, 0x00, 0x00, 0x00, 0x0b, 0x00, 0x00, 0x00,
  0x64, 0x65, 0x6e, 0x73, 0x65, 0x5f, 0x69, 0x6e, 0x70, 0x75, 0x74, 0x00,
  0x02, 0x00, 0x00, 0x00, 0x34, 0x00, 0x00, 0x00, 0x04, 0x00, 0x00, 0x00,
  0xdc, 0xff, 0xff, 0xff, 0x0f, 0x00, 0x00, 0x00, 0x04, 0x00, 0x00, 0x00,
  0x13, 0x00, 0x00, 0x00, 0x43, 0x4f, 0x4e, 0x56, 0x45, 0x52, 0x53, 0x49,
  0x4f, 0x4e, 0x5f, 0x4d, 0x45, 0x54, 0x41, 0x44, 0x41, 0x54, 0x41, 0x00,
  0x08, 0x00, 0x0c, 0x00, 0x08, 0x00, 0x04, 0x00, 0x08, 0x00, 0x00, 0x00,
  0x0e, 0x00, 0x00, 0x00, 0x04, 0x00, 0x00, 0x00, 0x13, 0x00, 0x00, 0x00,
  0x6d, 0x69, 0x6e, 0x5f, 0x72, 0x75, 0x6e, 0x74, 0x69, 0x6d, 0x65, 0x5f,
  0x76, 0x65, 0x72, 0x73, 0x69, 0x6f, 0x6e, 0x00, 0x10, 0x00, 0x00, 0x00,
  0xd4, 0x07, 0x00, 0x00, 0xcc, 0x07, 0x00, 0x00, 0xac, 0x07, 0x00, 0x00,
  0x7c, 0x07, 0x00, 0x00, 0x4c, 0x07, 0x00, 0x00, 0xbc, 0x06, 0x00, 0x00,
  0x6c, 0x06, 0x00, 0x00, 0xbc, 0x00, 0x00, 0x00, 0xb4, 0x00, 0x00, 0x00,
  0xac, 0x00, 0x00, 0x00, 0xa4, 0x00, 0x00, 0x00, 0x9c, 0x00, 0x00, 0x00,
  0x94, 0x00, 0x00, 0x00, 0x8c, 0x00, 0x00, 0x00, 0x6c, 0x00, 0x00, 0x00,
  0x04, 0x00, 0x00, 0x00, 0xb6, 0xf7, 0xff, 0xff, 0x04, 0x00, 0x00, 0x00,
  0x58, 0x00, 0x00, 0x00, 0x0c, 0x00, 0x00, 0x00, 0x08, 0x00, 0x0e, 0x00,
  0x08, 0x00, 0x04, 0x00, 0x08, 0x00, 0x00, 0x00, 0x10, 0x00, 0x00, 0x00,
  0x28, 0x00, 0x00, 0x00, 0x00, 0x00, 0x06, 0x00, 0x08, 0x00, 0x04, 0x00,
  0x06, 0x00, 0x00, 0x00, 0x04, 0x00, 0x00, 0x00, 0x01, 0x00, 0x00, 0x00,
  0xeb, 0x03, 0x00, 0x00, 0x00, 0x00, 0x0a, 0x00, 0x10, 0x00, 0x0c, 0x00,
  0x08, 0x00, 0x04, 0x00, 0x0a, 0x00, 0x00, 0x00, 0x02, 0x00, 0x00, 0x00,
  0x02, 0x00, 0x00, 0x00, 0x04, 0x00, 0x00, 0x00, 0x06, 0x00, 0x00, 0x00,
  0x32, 0x2e, 0x31, 0x30, 0x2e, 0x30, 0x00, 0x00, 0x1a, 0xf8, 0xff, 0xff,
  0x04, 0x00, 0x00, 0x00, 0x10, 0x00, 0x00, 0x00, 0x31, 0x2e, 0x31, 0x34,
  0x2e, 0x30, 0x00, 0x00, 0x00, 0x00, 0x00, 0x00, 0x00, 0x00, 0x00, 0x00,
  0xa8, 0xf0, 0xff, 0xff, 0xac, 0xf0, 0xff, 0xff, 0xb0, 0xf0, 0xff, 0xff,
  0xb4, 0xf0, 0xff, 0xff, 0xb8, 0xf0, 0xff, 0xff, 0xbc, 0xf0, 0xff, 0xff,
  0x4e, 0xf8, 0xff, 0xff, 0x04, 0x00, 0x00, 0x00, 0xa0, 0x05, 0x00, 0x00,
  0x15, 0xe8, 0x1b, 0x07, 0xdb, 0x0a, 0xe0, 0x03, 0xe9, 0xf4, 0x28, 0x0c,
  0xf1, 0x23, 0xe0, 0xf4, 0xe2, 0x02, 0x1c, 0xfe, 0x20, 0xe9, 0xe3, 0xe1,
  0x23, 0x26, 0x0f, 0xdb, 0xf5, 0x1f, 0xe1, 0xec, 0xe0, 0xde, 0xdd, 0x0e,
  0xdf, 0xfc, 0x01, 0x08, 0x0c, 0x0c, 0xf3, 0xf1, 0xf3, 0xfc, 0xff, 0xdb,
  0x0e, 0xff, 0xfb, 0xde, 0x1d, 0x00, 0xe6, 0xfd, 0x00, 0x18, 0x23, 0xed,
  0x27, 0xf2, 0xdd, 0xda, 0xe8, 0x13, 0x02, 0xf7, 0xf7, 0xff, 0x26, 0xe0,
  0xfe, 0x16, 0xe4, 0xef, 0xef, 0xe3, 0xdd, 0x20, 0x1e, 0xf1, 0x12, 0x26,
  0x01, 0xf0, 0xe1, 0xfc, 0x21, 0x02, 0xfb, 0xe1, 0xde, 0xda, 0xd9, 0x0a,
  0xf2, 0x03, 0xed, 0xdf, 0xe5, 0x08, 0xf8, 0x19, 0x04, 0x13, 0x0f, 0xe7,
  0xe3, 0xe3, 0xdc, 0xd9, 0xde, 0x07, 0x12, 0xf6, 0x24, 0xed, 0x22, 0xfb,
  0x1f, 0xf1, 0x24, 0xde, 0xf4, 0x21, 0x1e, 0xec, 0x1f, 0x18, 0x1b, 0xdc,
  0xeb, 0x12, 0x03, 0x02, 0xdd, 0x26, 0xe0, 0x19, 0xee, 0xed, 0xe4, 0xf4,
  0x17, 0xdb, 0xdc, 0x0c, 0x20, 0xe1, 0x0b, 0x0c, 0x04, 0xfa, 0x21, 0x00,
  0xee, 0x17, 0x20, 0x05, 0xe0, 0x04, 0x0b, 0xff, 0xfc, 0x05, 0xf4, 0x27,
  0xef, 0xdf, 0x23, 0xfc, 0xf8, 0x25, 0x1f, 0x25, 0xf3, 0x09, 0xea, 0xe5,
  0xf4, 0x4f, 0x27, 0x29, 0xfa, 0x14, 0xf8, 0x2f, 0x4c, 0x20, 0x3f, 0xf6,
  0x0c, 0x37, 0x43, 0x1b, 0x01, 0x0b, 0xe4, 0x0c, 0x33, 0x06, 0x38, 0xce,
  0xf6, 0xe0, 0x19, 0xec, 0x19, 0xf0, 0x2a, 0xd9, 0xfc, 0xea, 0x35, 0xea,
  0xef, 0x96, 0x00, 0x2c, 0x33, 0xfa, 0x0c, 0xd1, 0x23, 0x20, 0x08, 0xe8,
  0x21, 0xa2, 0xf6, 0x09, 0x0c, 0x16, 0xfe, 0xe8, 0x17, 0xf2, 0x2d, 0x0b,
  0x34, 0xa4, 0xee, 0x04, 0x40, 0x20, 0x20, 0xc8, 0xfc, 0x25, 0x3d, 0xdd,
  0x1b, 0xd8, 0xfe, 0x2d, 0x00, 0xdd, 0xf2, 0xff, 0xbb, 0x27, 0xfc, 0xeb,
  0x13, 0x00, 0xea, 0x25, 0x3a, 0x0b, 0xf6, 0x0c, 0x08, 0x27, 0xea, 0xf8,
  0xe2, 0x14, 0xe5, 0xdb, 0xd9, 0xeb, 0xf5, 0x0a, 0xe4, 0xda, 0xe4, 0xeb,
  0xfe, 0xe9, 0xde, 0xe7, 0x15, 0x23, 0x01, 0xda, 0x05, 0x0c, 0xe0, 0x15,
  0x14, 0xda, 0xf8, 0x0b, 0x23, 0x08, 0x20, 0x23, 0xdb, 0x06, 0x1d, 0xdf,
  0x27, 0xf7, 0xe4, 0xea, 0xf0, 0x0d, 0xe5, 0xdd, 0xe4, 0xe2, 0x14, 0x22,
  0xfb, 0xdd, 0xfc, 0xe6, 0x12, 0x0b, 0x05, 0x00, 0x1d, 0x17, 0x07, 0xdb,
  0xe7, 0xfa, 0x03, 0xdf, 0x01, 0xf1, 0xe1, 0x0f, 0xe6, 0xf7, 0xf1, 0xf2,
  0x02, 0x16, 0x01, 0xdc, 0xfe, 0xfe, 0x06, 0x1a, 0x13, 0x08, 0x02, 0xe4,
  0x16, 0x04, 0x09, 0xe6, 0xf3, 0x0d, 0x1f, 0x0c, 0xdd, 0x26, 0x16, 0xe9,
  0x0b, 0x23, 0x16, 0xdc, 0xfc, 0x11, 0x25, 0xf2, 0x02, 0xdd, 0x02, 0xf7,
  0xf8, 0xf4, 0xf0, 0xf9, 0x1b, 0xe9, 0xd8, 0xfd, 0xe3, 0xe6, 0xde, 0x02,
  0x20, 0xfd, 0xe5, 0xf2, 0xdd, 0xdf, 0x04, 0x07, 0x08, 0xf8, 0x28, 0x18,
  0xdb, 0x0d, 0xde, 0x20, 0xd8, 0x1d, 0xe5, 0x0a, 0xe2, 0xdc, 0x25, 0xf6,
  0x1e, 0xe7, 0xed, 0xf0, 0x0f, 0x11, 0xde, 0x23, 0xeb, 0x06, 0x04, 0xe4,
  0xf2, 0xfc, 0xeb, 0xf2, 0x00, 0xf3, 0xd9, 0xe8, 0x11, 0xe2, 0xf2, 0xf5,
  0x09, 0xda, 0x14, 0x16, 0x18, 0xe3, 0xdd, 0xf0, 0x13, 0xdc, 0xea, 0x09,
  0xea, 0xf1, 0x15, 0xe1, 0x0e, 0x16, 0xfa, 0x04, 0x09, 0x24, 0x09, 0xf9,
  0x08, 0xf4, 0xfc, 0x1f, 0xf1, 0xe7, 0x0e, 0xf1, 0xea, 0xff, 0x24, 0x1a,
  0xe0, 0xdb, 0xe1, 0x25, 0x00, 0xe7, 0xd9, 0x21, 0xe0, 0xdc, 0x22, 0x23,
  0xf1, 0xfb, 0xfd, 0xec, 0xfd, 0xe0, 0xd9, 0x1b, 0xed, 0x0a, 0x1c, 0xe2,
  0xd8, 0xea, 0x22, 0xe2, 0x0d, 0x0e, 0xe8, 0x07, 0x25, 0x10, 0x1a, 0x1b,
  0xef, 0x0a, 0xea, 0xfc, 0x22, 0xe9, 0x0a, 0xda, 0xf5, 0x0e, 0x0d, 0x0a,
  0x05, 0x0f, 0xdf, 0xf7, 0xee, 0x20, 0xff, 0xe9, 0x22, 0xde, 0xfb, 0xd8,
  0xff, 0xc1, 0x61, 0xda, 0xf8, 0x1c, 0xf3, 0xdd, 0x5a, 0x0d, 0x27, 0x11,
  0x11, 0xe2, 0x60, 0x0a, 0x20, 0x14, 0x08, 0xc5, 0x4a, 0xff, 0x22, 0x04,
  0xed, 0xe0, 0x54, 0xcf, 0x0e, 0x08, 0xeb, 0x18, 0x30, 0xc9, 0x14, 0x20,
  0x09, 0xe9, 0x27, 0xdd, 0x42, 0x19, 0x31, 0xf2, 0xd5, 0xd8, 0x27, 0x2c,
  0x33, 0x30, 0xfd, 0xef, 0x44, 0xfb, 0xff, 0x21, 0xd9, 0x01, 0x2a, 0x26,
  0xf4, 0x66, 0xc3, 0x0e, 0x30, 0xf3, 0x25, 0x61, 0xa8, 0x0c, 0x08, 0x10,
  0x37, 0x5c, 0xc8, 0xde, 0x06, 0xe6, 0x25, 0x67, 0xdb, 0x07, 0x08, 0xed,
  0x28, 0x30, 0xd5, 0x0a, 0xf1, 0xde, 0x07, 0xf4, 0x0b, 0x18, 0x24, 0xea,
  0xd8, 0xf7, 0x39, 0x21, 0x0f, 0xe0, 0x05, 0xe0, 0x06, 0xf3, 0x0d, 0x2f,
  0xf9, 0x37, 0x0f, 0xff, 0x15, 0x12, 0xcc, 0x56, 0x0a, 0xec, 0x0f, 0x1b,
  0xfa, 0x43, 0x30, 0x0b, 0xff, 0x16, 0xde, 0x70, 0xe1, 0x22, 0x11, 0xdf,
  0xef, 0x29, 0xf0, 0xf9, 0x38, 0x29, 0xc7, 0x42, 0xc3, 0x2f, 0xf7, 0x27,
  0xd4, 0x31, 0xf0, 0x23, 0x3f, 0x1f, 0xca, 0xfc, 0xe3, 0xe0, 0x26, 0xe2,
  0x20, 0x0f, 0xa0, 0x2a, 0x15, 0x12, 0xf1, 0x45, 0xaf, 0xe8, 0x14, 0x15,
  0x0e, 0x27, 0x84, 0xf8, 0x0b, 0x21, 0x2f, 0x21, 0x93, 0xea, 0x10, 0x03,
  0x24, 0xf4, 0x17, 0xd8, 0x20, 0xf0, 0x06, 0xfe, 0x05, 0xf9, 0xec, 0x15,
  0xe7, 0xef, 0x13, 0xe8, 0x0d, 0x00, 0xfe, 0x16, 0x1f, 0x10, 0xdb, 0xeb,
  0xea, 0x1f, 0xda, 0xd8, 0xfa, 0xec, 0x18, 0xec, 0xfb, 0x23, 0x04, 0xe4,
  0xf4, 0x12, 0x0a, 0x02, 0x14, 0x16, 0xf5, 0x23, 0xe4, 0xf5, 0xde, 0x14,
  0xf7, 0x03, 0x18, 0xf4, 0xeb, 0x04, 0xdb, 0x05, 0x16, 0xfe, 0x0b, 0xf5,
  0x1e, 0xfa, 0xe9, 0xdd, 0x0e, 0xf2, 0xf2, 0x04, 0x02, 0x19, 0x03, 0x27,
  0x10, 0x03, 0x0e, 0x03, 0x01, 0x01, 0x09, 0xdb, 0xe5, 0xfa, 0x24, 0xd9,
  0x26, 0x0c, 0xe3, 0xed, 0xdd, 0xfa, 0xf3, 0xef, 0x0a, 0x08, 0xe8, 0xff,
  0xf2, 0x04, 0xe7, 0xf7, 0x0f, 0xf5, 0xde, 0xfa, 0xe3, 0xef, 0x13, 0x21,
  0xe1, 0xe6, 0xe1, 0xff, 0xeb, 0x24, 0xeb, 0x01, 0x04, 0xeb, 0x15, 0x05,
  0x05, 0x09, 0xe7, 0xfa, 0x24, 0xec, 0x25, 0x0b, 0x15, 0x02, 0xee, 0xea,
  0x1b, 0x0f, 0xf7, 0x1d, 0x26, 0xff, 0x1b, 0xf5, 0x20, 0xeb, 0x23, 0x11,
  0xde, 0xe3, 0x16, 0xf6, 0xe9, 0x01, 0xdf, 0x22, 0x19, 0x01, 0xf7, 0xff,
  0x06, 0xe7, 0xee, 0xe0, 0x01, 0x0a, 0x08, 0xdc, 0xeb, 0x13, 0xda, 0xf0,
  0xe7, 0xf9, 0x1b, 0x02, 0x20, 0xe1, 0x19, 0xf9, 0xe5, 0x03, 0x05, 0x20,
  0x10, 0xe4, 0x18, 0x14, 0x00, 0x15, 0x17, 0x17, 0x0d, 0xf8, 0xe1, 0xe8,
  0xf6, 0x20, 0xdc, 0xf7, 0x14, 0xd8, 0xf5, 0xd7, 0x10, 0xec, 0x0c, 0x20,
  0x0a, 0x23, 0x23, 0x05, 0x03, 0x22, 0xfe, 0xeb, 0x10, 0xf1, 0xff, 0x06,
  0xf3, 0xdd, 0xe3, 0xdf, 0xe9, 0x06, 0x0f, 0xed, 0x10, 0x13, 0x23, 0x0c,
  0x08, 0xe6, 0xea, 0xd6, 0x0d, 0xf0, 0xda, 0x04, 0x20, 0x03, 0xdc, 0xfb,
  0x03, 0xe3, 0xea, 0xe3, 0xf5, 0x0b, 0xe6, 0xde, 0x01, 0x0a, 0xf1, 0x24,
  0x0e, 0x0a, 0xe7, 0xe3, 0xe3, 0x10, 0x09, 0x1e, 0x05, 0xed, 0x1b, 0x0c,
  0xde, 0x10, 0x1e, 0xf7, 0x11, 0xec, 0x1e, 0x16, 0x21, 0x1e, 0xec, 0xd9,
  0x00, 0x23, 0xe5, 0xda, 0x10, 0x00, 0x26, 0xe9, 0xda, 0xdc, 0xe7, 0xe0,
  0xec, 0xf9, 0xf2, 0xee, 0xf7, 0xf5, 0x16, 0x05, 0x28, 0x1a, 0xee, 0x0e,
  0x01, 0x1b, 0xfc, 0x27, 0x18, 0x0f, 0xff, 0xf1, 0x18, 0x09, 0x22, 0xf3,
  0x22, 0xe1, 0x26, 0x01, 0xe4, 0xf3, 0xe8, 0x14, 0x0d, 0xf4, 0x0e, 0x08,
  0x08, 0xfd, 0xf6, 0xf7, 0x06, 0xf9, 0xf5, 0xf5, 0x0a, 0xde, 0x0c, 0x09,
  0xee, 0x08, 0xfa, 0xe9, 0xdf, 0x17, 0xf0, 0xf8, 0xe4, 0xe8, 0x1e, 0x0b,
  0x0a, 0xe4, 0x1a, 0xf1, 0xf4, 0xf5, 0x06, 0x00, 0xe5, 0x09, 0xea, 0xe9,
  0xeb, 0x10, 0xed, 0xfa, 0xe5, 0xf4, 0x19, 0xfb, 0xfb, 0xfb, 0x08, 0xd9,
  0x23, 0x15, 0xf6, 0xf9, 0xe9, 0x06, 0x17, 0x06, 0x09, 0xf1, 0x09, 0x26,
  0xde, 0xfd, 0xf4, 0xe2, 0x25, 0x0f, 0x03, 0x02, 0xf9, 0xdb, 0xe9, 0xff,
  0xe8, 0x1d, 0xec, 0xdc, 0xf6, 0x0d, 0xf6, 0xdc, 0x0a, 0x06, 0x1c, 0xdb,
  0x1d, 0xed, 0xe8, 0x1d, 0x14, 0xf5, 0xf5, 0x22, 0xfc, 0xf2, 0x12, 0x03,
  0x0d, 0xf1, 0xed, 0x08, 0xe9, 0x25, 0x01, 0xdd, 0x09, 0xef, 0x18, 0xee,
  0xf3, 0x27, 0x0f, 0xea, 0x04, 0xd9, 0xf8, 0xfa, 0xdd, 0x26, 0xf8, 0xe4,
  0x15, 0xfd, 0x14, 0x07, 0xfe, 0x12, 0x22, 0xe3, 0xe1, 0xf6, 0xdc, 0xff,
  0xee, 0x08, 0xf2, 0x08, 0x16, 0x1c, 0x14, 0xf2, 0x25, 0x02, 0xf8, 0xe9,
  0xe4, 0x0c, 0xdb, 0x18, 0x11, 0x03, 0x02, 0x09, 0xf9, 0x1f, 0x1e, 0x12,
  0xdd, 0x04, 0x16, 0x0a, 0x00, 0xf8, 0x15, 0x12, 0xfb, 0xf9, 0x0b, 0xda,
  0x0d, 0x26, 0x1f, 0xf3, 0xed, 0x00, 0xfd, 0xef, 0xe6, 0x07, 0xf9, 0xef,
  0xdc, 0x11, 0xdb, 0xec, 0x1a, 0xda, 0xe0, 0xe3, 0x11, 0xf1, 0xfe, 0xdc,
  0x1c, 0x06, 0x24, 0x1e, 0xe0, 0x19, 0xde, 0xf9, 0x08, 0xe3, 0xdb, 0xfb,
  0xe1, 0x1c, 0xff, 0x0d, 0xfe, 0xf1, 0x23, 0x0a, 0xe6, 0xfd, 0x02, 0xe5,
  0xf5, 0x08, 0xf9, 0x1b, 0xeb, 0xf3, 0xf3, 0x01, 0xda, 0x17, 0xdb, 0x19,
  0xf5, 0xdc, 0xf7, 0xe9, 0xef, 0xef, 0xf4, 0x0b, 0x00, 0xe6, 0xdf, 0xee,
  0xe7, 0xec, 0x11, 0x02, 0x17, 0x07, 0xdc, 0x13, 0x05, 0xfc, 0x12, 0x1e,
  0xdc, 0x04, 0xe3, 0x22, 0xf5, 0x11, 0xec, 0xeb, 0xfb, 0xda, 0x0f, 0x08,
  0xdb, 0xe5, 0xe7, 0xf3, 0x08, 0x1e, 0x05, 0x0d, 0xe1, 0xda, 0xe1, 0xd8,
  0xee, 0xe3, 0xfa, 0xf1, 0x26, 0x11, 0xf7, 0x18, 0xe9, 0xe4, 0x01, 0x11,
  0xe6, 0x1c, 0x02, 0x21, 0x20, 0x0a, 0x02, 0xf8, 0x20, 0xe3, 0xeb, 0xdb,
  0x13, 0x0f, 0x01, 0x10, 0x03, 0xdd, 0x47, 0xd7, 0xbf, 0x3c, 0x03, 0x44,
  0x55, 0xfb, 0xd5, 0xff, 0xef, 0x5a, 0x28, 0xf6, 0xb3, 0x21, 0x1a, 0x29,
  0xfe, 0xff, 0xff, 0x24, 0x14, 0x58, 0x1c, 0x13, 0x07, 0x09, 0xdf, 0x5a,
  0x14, 0x7f, 0x16, 0x29, 0xeb, 0x3c, 0x03, 0x77, 0x16, 0x22, 0xf9, 0x55,
  0xeb, 0x67, 0x25, 0x20, 0xce, 0x3d, 0xd6, 0x58, 0x1c, 0x00, 0xc6, 0x4c,
  0xe5, 0x5a, 0x3d, 0xe2, 0xc4, 0x25, 0xed, 0x68, 0x2d, 0x1e, 0xcb, 0x01,
  0x15, 0x57, 0x44, 0xff, 0xd5, 0x1f, 0x15, 0x49, 0x4f, 0x04, 0x01, 0xfe,
  0x02, 0x34, 0x60, 0xee, 0x18, 0x1b, 0x12, 0x4a, 0x6a, 0x1d, 0xed, 0x0f,
  0xfa, 0xfd, 0xff, 0xff, 0x04, 0x00, 0x00, 0x00, 0x40, 0x00, 0x00, 0x00,
  0x00, 0x00, 0x00, 0x00, 0x00, 0x00, 0x00, 0x00, 0x28, 0x0f, 0x00, 0x00,
  0x00, 0x00, 0x00, 0x00, 0x00, 0x00, 0x00, 0x00, 0x00, 0x00, 0x00, 0x00,
  0xd3, 0xf4, 0xff, 0xff, 0xee, 0xff, 0xff, 0xff, 0x00, 0x00, 0x00, 0x00,
  0x00, 0x00, 0x00, 0x00, 0x5d, 0xfd, 0xff, 0xff, 0x00, 0x00, 0x00, 0x00,
  0x00, 0x00, 0x00, 0x00, 0x00, 0x00, 0x00, 0x00, 0x00, 0x00, 0x00, 0x00,
  0x22, 0x0c, 0x00, 0x00, 0x46, 0xfe, 0xff, 0xff, 0x04, 0x00, 0x00, 0x00,
  0x80, 0x00, 0x00, 0x00, 0x1d, 0xd7, 0xf7, 0xee, 0xfc, 0xf7, 0xde, 0xfe,
  0x0f, 0x02, 0x0c, 0x0b, 0x10, 0x09, 0xd6, 0xf4, 0xfb, 0xed, 0x23, 0x26,
  0x19, 0xe3, 0xf6, 0xe6, 0xf0, 0xdf, 0xd8, 0x0d, 0x0b, 0x1b, 0x15, 0x01,
  0xf4, 0xe6, 0xf9, 0xfd, 0xe2, 0xf2, 0xf1, 0x25, 0xe3, 0xf3, 0x25, 0xd5,
  0xd7, 0xdf, 0x14, 0xdf, 0xee, 0xf0, 0x48, 0xd9, 0xe7, 0x20, 0x2a, 0x0d,
  0x05, 0x14, 0x11, 0xfb, 0xea, 0xed, 0xf5, 0xf3, 0x08, 0xe2, 0x5c, 0xda,
  0xe1, 0x1b, 0x16, 0xef, 0x0f, 0xfc, 0xf8, 0x0b, 0x1a, 0xe9, 0x1c, 0xe2,
  0x07, 0x21, 0x09, 0xe5, 0xe3, 0x01, 0x38, 0x7f, 0xf8, 0x16, 0x1b, 0xfc,
  0x21, 0x0d, 0x05, 0x00, 0x02, 0xd7, 0xe8, 0xf0, 0x15, 0xfd, 0x01, 0xd0,
  0xf0, 0x01, 0xed, 0x27, 0x02, 0x28, 0x1e, 0x5e, 0x00, 0xd9, 0xf7, 0x01,
  0xe0, 0x0c, 0x3e, 0xb2, 0xd5, 0x0d, 0xec, 0xf6, 0xd6, 0x04, 0x0f, 0x02,
  0xd2, 0xfe, 0xff, 0xff, 0x04, 0x00, 0x00, 0x00, 0x20, 0x00, 0x00, 0x00,
  0x00, 0x00, 0x00, 0x00, 0xb5, 0x01, 0x00, 0x00, 0x00, 0x00, 0x00, 0x00,
  0x1f, 0xff, 0xff, 0xff, 0x6d, 0x03, 0x00, 0x00, 0xd1, 0xfd, 0xff, 0xff,
  0xa4, 0x02, 0x00, 0x00, 0xfe, 0xff, 0xff, 0xff, 0xfe, 0xfe, 0xff, 0xff,
  0x04, 0x00, 0x00, 0x00, 0x20, 0x00, 0x00, 0x00, 0xeb, 0x03, 0x0a, 0xa7,
  0xa1, 0x81, 0x2a, 0xcb, 0xdc, 0xfe, 0x18, 0xff, 0xe7, 0x30, 0xa5, 0xc0,
  0xe3, 0xc1, 0xdc, 0xe7, 0xb6, 0xf6, 0x01, 0x2e, 0xd9, 0x34, 0x0a, 0xfc,
  0x0c, 0xd2, 0xe2, 0x1a, 0x2a, 0xff, 0xff, 0xff, 0x04, 0x00, 0x00, 0x00,
  0x10, 0x00, 0x00, 0x00, 0x0f, 0x03, 0x00, 0x00, 0x88, 0xfc, 0xff, 0xff,
  0xc5, 0xfd, 0xff, 0xff, 0x0e, 0x01, 0x00, 0x00, 0xb8, 0xf7, 0xff, 0xff,
  0xbc, 0xf7, 0xff, 0xff, 0x0f, 0x00, 0x00, 0x00, 0x4d, 0x4c, 0x49, 0x52,
  0x20, 0x43, 0x6f, 0x6e, 0x76, 0x65, 0x72, 0x74, 0x65, 0x64, 0x2e, 0x00,
  0x01, 0x00, 0x00, 0x00, 0x14, 0x00, 0x00, 0x00, 0x00, 0x00, 0x0e, 0x00,
  0x18, 0x00, 0x14, 0x00, 0x10, 0x00, 0x0c, 0x00, 0x08, 0x00, 0x04, 0x00,
  0x0e, 0x00, 0x00, 0x00, 0x14, 0x00, 0x00, 0x00, 0x1c, 0x00, 0x00, 0x00,
  0x7c, 0x01, 0x00, 0x00, 0x80, 0x01, 0x00, 0x00, 0x84, 0x01, 0x00, 0x00,
  0x04, 0x00, 0x00, 0x00, 0x6d, 0x61, 0x69, 0x6e, 0x00, 0x00, 0x00, 0x00,
  0x06, 0x00, 0x00, 0x00, 0x44, 0x01, 0x00, 0x00, 0xf4, 0x00, 0x00, 0x00,
  0xa8, 0x00, 0x00, 0x00, 0x70, 0x00, 0x00, 0x00, 0x34, 0x00, 0x00, 0x00,
  0x10, 0x00, 0x00, 0x00, 0x00, 0x00, 0x0a, 0x00, 0x10, 0x00, 0x0c, 0x00,
  0x08, 0x00, 0x04, 0x00, 0x0a, 0x00, 0x00, 0x00, 0x0c, 0x00, 0x00, 0x00,
  0x10, 0x00, 0x00, 0x00, 0x03, 0x00, 0x00, 0x00, 0x01, 0x00, 0x00, 0x00,
  0x0c, 0x00, 0x00, 0x00, 0x01, 0x00, 0x00, 0x00, 0x0b, 0x00, 0x00, 0x00,
  0x5a, 0xff, 0xff, 0xff, 0x1c, 0x00, 0x00, 0x00, 0x00, 0x00, 0x00, 0x09,
  0x1c, 0x00, 0x00, 0x00, 0x20, 0x00, 0x00, 0x00, 0x02, 0x00, 0x00, 0x00,
  0x00, 0x00, 0x06, 0x00, 0x08, 0x00, 0x04, 0x00, 0x06, 0x00, 0x00, 0x00,
  0x00, 0x00, 0x80, 0x3f, 0x01, 0x00, 0x00, 0x00, 0x0b, 0x00, 0x00, 0x00,
  0x01, 0x00, 0x00, 0x00, 0x0a, 0x00, 0x00, 0x00, 0x92, 0xff, 0xff, 0xff,
  0x14, 0x00, 0x00, 0x00, 0x00, 0x00, 0x00, 0x08, 0x10, 0x00, 0x00, 0x00,
  0x14, 0x00, 0x00, 0x00, 0x01, 0x00, 0x00, 0x00, 0xa8, 0xf8, 0xff, 0xff,
  0x01, 0x00, 0x00, 0x00, 0x0a, 0x00, 0x00, 0x00, 0x03, 0x00, 0x00, 0x00,
  0x09, 0x00, 0x00, 0x00, 0x02, 0x00, 0x00, 0x00, 0x01, 0x00, 0x00, 0x00,
  0xc6, 0xff, 0xff, 0xff, 0x14, 0x00, 0x00, 0x00, 0x00, 0x00, 0x00, 0x08,
  0x14, 0x00, 0x00, 0x00, 0x18, 0x00, 0x00, 0x00, 0x01, 0x00, 0x00, 0x00,
  0xb6, 0xff, 0xff, 0xff, 0x00, 0x00, 0x00, 0x01, 0x01, 0x00, 0x00, 0x00,
  0x09, 0x00, 0x00, 0x00, 0x03, 0x00, 0x00, 0x00, 0x08, 0x00, 0x00, 0x00,
  0x04, 0x00, 0x00, 0x00, 0x03, 0x00, 0x00, 0x00, 0x00, 0x00, 0x0e, 0x00,
  0x1a, 0x00, 0x14, 0x00, 0x10, 0x00, 0x0c, 0x00, 0x0b, 0x00, 0x04, 0x00,
  0x0e, 0x00, 0x00, 0x00, 0x1c, 0x00, 0x00, 0x00, 0x00, 0x00, 0x00, 0x08,
  0x1c, 0x00, 0x00, 0x00, 0x20, 0x00, 0x00, 0x00, 0x01, 0x00, 0x00, 0x00,
  0x00, 0x00, 0x06, 0x00, 0x08, 0x00, 0x07, 0x00, 0x06, 0x00, 0x00, 0x00,
  0x00, 0x00, 0x00, 0x01, 0x01, 0x00, 0x00, 0x00, 0x08, 0x00, 0x00, 0x00,
  0x03, 0x00, 0x00, 0x00, 0x07, 0x00, 0x00, 0x00, 0x06, 0x00, 0x00, 0x00,
  0x05, 0x00, 0x00, 0x00, 0x00, 0x00, 0x0a, 0x00, 0x0c, 0x00, 0x00, 0x00,
  0x08, 0x00, 0x04, 0x00, 0x0a, 0x00, 0x00, 0x00, 0x08, 0x00, 0x00, 0x00,
  0x0c, 0x00, 0x00, 0x00, 0x01, 0x00, 0x00, 0x00, 0x07, 0x00, 0x00, 0x00,
  0x01, 0x00, 0x00, 0x00, 0x00, 0x00, 0x00, 0x00, 0x01, 0x00, 0x00, 0x00,
  0x0c, 0x00, 0x00, 0x00, 0x01, 0x00, 0x00, 0x00, 0x00, 0x00, 0x00, 0x00,
  0x0d, 0x00, 0x00, 0x00, 0x50, 0x06, 0x00, 0x00, 0xb4, 0x05, 0x00, 0x00,
  0x2c, 0x05, 0x00, 0x00, 0xb0, 0x04, 0x00, 0x00, 0x44, 0x04, 0x00, 0x00,
  0xd0, 0x03, 0x00, 0x00, 0x64, 0x03, 0x00, 0x00, 0xf0, 0x02, 0x00, 0x00,
  0x2c, 0x02, 0x00, 0x00, 0x78, 0x01, 0x00, 0x00, 0xdc, 0x00, 0x00, 0x00,
  0x60, 0x00, 0x00, 0x00, 0x04, 0x00, 0x00, 0x00, 0xfa, 0xf9, 0xff, 0xff,
  0x00, 0x00, 0x00, 0x01, 0x14, 0x00, 0x00, 0x00, 0x1c, 0x00, 0x00, 0x00,
  0x1c, 0x00, 0x00, 0x00, 0x0d, 0x00, 0x00, 0x00, 0x34, 0x00, 0x00, 0x00,
  0x02, 0x00, 0x00, 0x00, 0xff, 0xff, 0xff, 0xff, 0x04, 0x00, 0x00, 0x00,
  0xe4, 0xf9, 0xff, 0xff, 0x19, 0x00, 0x00, 0x00, 0x53, 0x74, 0x61, 0x74,
  0x65, 0x66, 0x75, 0x6c, 0x50, 0x61, 0x72, 0x74, 0x69, 0x74, 0x69, 0x6f,
  0x6e, 0x65, 0x64, 0x43, 0x61, 0x6c, 0x6c, 0x3a, 0x30, 0x00, 0x00, 0x00,
  0x02, 0x00, 0x00, 0x00, 0x01, 0x00, 0x00, 0x00, 0x04, 0x00, 0x00, 0x00,
  0x96, 0xfd, 0xff, 0xff, 0x00, 0x00, 0x00, 0x01, 0x18, 0x00, 0x00, 0x00,
  0x20, 0x00, 0x00, 0x00, 0x3c, 0x00, 0x00, 0x00, 0x0c, 0x00, 0x00, 0x00,
  0x00, 0x00, 0x00, 0x09, 0x50, 0x00, 0x00, 0x00, 0x02, 0x00, 0x00, 0x00,
  0xff, 0xff, 0xff, 0xff, 0x04, 0x00, 0x00, 0x00, 0xe4, 0xfa, 0xff, 0xff,
  0x08, 0x00, 0x00, 0x00, 0x10, 0x00, 0x00, 0x00, 0x01, 0x00, 0x00, 0x00,
  0x80, 0xff, 0xff, 0xff, 0xff, 0xff, 0xff, 0xff, 0x01, 0x00, 0x00, 0x00,
  0x00, 0x00, 0x80, 0x3b, 0x1a, 0x00, 0x00, 0x00, 0x53, 0x74, 0x61, 0x74,
  0x65, 0x66, 0x75, 0x6c, 0x50, 0x61, 0x72, 0x74, 0x69, 0x74, 0x69, 0x6f,
  0x6e, 0x65, 0x64, 0x43, 0x61, 0x6c, 0x6c, 0x3a, 0x30, 0x31, 0x00, 0x00,
  0x02, 0x00, 0x00, 0x00, 0x01, 0x00, 0x00, 0x00, 0x04, 0x00, 0x00, 0x00,
  0x0e, 0xfe, 0xff, 0xff, 0x00, 0x00, 0x00, 0x01, 0x18, 0x00, 0x00, 0x00,
  0x20, 0x00, 0x00, 0x00, 0x40, 0x00, 0x00, 0x00, 0x0b, 0x00, 0x00, 0x00,
  0x00, 0x00, 0x00, 0x09, 0x70, 0x00, 0x00, 0x00, 0x02, 0x00, 0x00, 0x00,
  0xff, 0xff, 0xff, 0xff, 0x04, 0x00, 0x00, 0x00, 0x5c, 0xfb, 0xff, 0xff,
  0x08, 0x00, 0x00, 0x00, 0x14, 0x00, 0x00, 0x00, 0x01, 0x00, 0x00, 0x00,
  0x53, 0x00, 0x00, 0x00, 0x00, 0x00, 0x00, 0x00, 0x00, 0x00, 0x00, 0x00,
  0x01, 0x00, 0x00, 0x00, 0xd0, 0x72, 0x13, 0x3e, 0x34, 0x00, 0x00, 0x00,
  0x73, 0x65, 0x71, 0x75, 0x65, 0x6e, 0x74, 0x69, 0x61, 0x6c, 0x2f, 0x64,
  0x65, 0x6e, 0x73, 0x65, 0x5f, 0x32, 0x2f, 0x4d, 0x61, 0x74, 0x4d, 0x75,
  0x6c, 0x3b, 0x73, 0x65, 0x71, 0x75, 0x65, 0x6e, 0x74, 0x69, 0x61, 0x6c,
  0x2f, 0x64, 0x65, 0x6e, 0x73, 0x65, 0x5f, 0x32, 0x2f, 0x42, 0x69, 0x61,
  0x73, 0x41, 0x64, 0x64, 0x00, 0x00, 0x00, 0x00, 0x02, 0x00, 0x00, 0x00,
  0x01, 0x00, 0x00, 0x00, 0x04, 0x00, 0x00, 0x00, 0xa6, 0xfe, 0xff, 0xff,
  0x00, 0x00, 0x00, 0x01, 0x18, 0x00, 0x00, 0x00, 0x20, 0x00, 0x00, 0x00,
  0x40, 0x00, 0x00, 0x00, 0x0a, 0x00, 0x00, 0x00, 0x00, 0x00, 0x00, 0x09,
  0x88, 0x00, 0x00, 0x00, 0x02, 0x00, 0x00, 0x00, 0xff, 0xff, 0xff, 0xff,
  0x08, 0x00, 0x00, 0x00, 0xf4, 0xfb, 0xff, 0xff, 0x08, 0x00, 0x00, 0x00,
  0x14, 0x00, 0x00, 0x00, 0x01, 0x00, 0x00, 0x00, 0x80, 0xff, 0xff, 0xff,
  0xff, 0xff, 0xff, 0xff, 0x00, 0x00, 0x00, 0x00, 0x01, 0x00, 0x00, 0x00,
  0xcc, 0xfe, 0x09, 0x3d, 0x4c, 0x00, 0x00, 0x00, 0x73, 0x65, 0x71, 0x75,
  0x65, 0x6e, 0x74, 0x69, 0x61, 0x6c, 0x2f, 0x64, 0x65, 0x6e, 0x73, 0x65,
  0x5f, 0x31, 0x2f, 0x4d, 0x61, 0x74, 0x4d, 0x75, 0x6c, 0x3b, 0x73, 0x65,
  0x71, 0x75, 0x65, 0x6e, 0x74, 0x69, 0x61, 0x6c, 0x2f, 0x64, 0x65, 0x6e,
  0x73, 0x65, 0x5f, 0x31, 0x2f, 0x52, 0x65, 0x6c, 0x75, 0x3b, 0x73, 0x65,
  0x71, 0x75, 0x65, 0x6e, 0x74, 0x69, 0x61, 0x6c, 0x2f, 0x64, 0x65, 0x6e,
  0x73, 0x65, 0x5f, 0x31, 0x2f, 0x42, 0x69, 0x61, 0x73, 0x41, 0x64, 0x64,
  0x00, 0x00, 0x00, 0x00, 0x02, 0x00, 0x00, 0x00, 0x01, 0x00, 0x00, 0x00,
  0x08, 0x00, 0x00, 0x00, 0x56, 0xff, 0xff, 0xff, 0x00, 0x00, 0x00, 0x01,
  0x18, 0x00, 0x00, 0x00, 0x20, 0x00, 0x00, 0x00, 0x40, 0x00, 0x00, 0x00,
  0x09, 0x00, 0x00, 0x00, 0x00, 0x00, 0x00, 0x09, 0x80, 0x00, 0x00, 0x00,
  0x02, 0x00, 0x00, 0x00, 0xff, 0xff, 0xff, 0xff, 0x10, 0x00, 0x00, 0x00,
  0xa4, 0xfc, 0xff, 0xff, 0x08, 0x00, 0x00, 0x00, 0x14, 0x00, 0x00, 0x00,
  0x01, 0x00, 0x00, 0x00, 0x80, 0xff, 0xff, 0xff, 0xff, 0xff, 0xff, 0xff,
  0x00, 0x00, 0x00, 0x00, 0x01, 0x00, 0x00, 0x00, 0x03, 0xda, 0x07, 0x3d,
  0x46, 0x00, 0x00, 0x00, 0x73, 0x65, 0x71, 0x75, 0x65, 0x6e, 0x74, 0x69,
  0x61, 0x6c, 0x2f, 0x64, 0x65, 0x6e, 0x73, 0x65, 0x2f, 0x4d, 0x61, 0x74,
  0x4d, 0x75, 0x6c, 0x3b, 0x73, 0x65, 0x71, 0x75, 0x65, 0x6e, 0x74, 0x69,
  0x61, 0x6c, 0x2f, 0x64, 0x65, 0x6e, 0x73, 0x65, 0x2f, 0x52, 0x65, 0x6c,
  0x75, 0x3b, 0x73, 0x65, 0x71, 0x75, 0x65, 0x6e, 0x74, 0x69, 0x61, 0x6c,
  0x2f, 0x64, 0x65, 0x6e, 0x73, 0x65, 0x2f, 0x42, 0x69, 0x61, 0x73, 0x41,
  0x64, 0x64, 0x00, 0x00, 0x02, 0x00, 0x00, 0x00, 0x01, 0x00, 0x00, 0x00,
  0x10, 0x00, 0x00, 0x00, 0x00, 0x00, 0x16, 0x00, 0x20, 0x00, 0x1c, 0x00,
  0x1b, 0x00, 0x14, 0x00, 0x10, 0x00, 0x0c, 0x00, 0x00, 0x00, 0x00, 0x00,
  0x08, 0x00, 0x07, 0x00, 0x16, 0x00, 0x00, 0x00, 0x00, 0x00, 0x00, 0x01,
  0x18, 0x00, 0x00, 0x00, 0x20, 0x00, 0x00, 0x00, 0x40, 0x00, 0x00, 0x00,
  0x08, 0x00, 0x00, 0x00, 0x00, 0x00, 0x00, 0x09, 0x48, 0x00, 0x00, 0x00,
  0x02, 0x00, 0x00, 0x00, 0xff, 0xff, 0xff, 0xff, 0x5a, 0x00, 0x00, 0x00,
  0x64, 0xfd, 0xff, 0xff, 0x08, 0x00, 0x00, 0x00, 0x14, 0x00, 0x00, 0x00,
  0x01, 0x00, 0x00, 0x00, 0x80, 0xff, 0xff, 0xff, 0xff, 0xff, 0xff, 0xff,
  0x00, 0x00, 0x00, 0x00, 0x01, 0x00, 0x00, 0x00, 0x81, 0x80, 0x80, 0x3b,
  0x0c, 0x00, 0x00, 0x00, 0x74, 0x66, 0x6c, 0x2e, 0x71, 0x75, 0x61, 0x6e,
  0x74, 0x69, 0x7a, 0x65, 0x00, 0x00, 0x00, 0x00, 0x02, 0x00, 0x00, 0x00,
  0x01, 0x00, 0x00, 0x00, 0x5a, 0x00, 0x00, 0x00, 0xda, 0xfd, 0xff, 0xff,
  0x00, 0x00, 0x00, 0x01, 0x14, 0x00, 0x00, 0x00, 0x34, 0x00, 0x00, 0x00,
  0x07, 0x00, 0x00, 0x00, 0x00, 0x00, 0x00, 0x09, 0x44, 0x00, 0x00, 0x00,
  0xc4, 0xfd, 0xff, 0xff, 0x08, 0x00, 0x00, 0x00, 0x14, 0x00, 0x00, 0x00,
  0x01, 0x00, 0x00, 0x00, 0x00, 0x00, 0x00, 0x00, 0x00, 0x00, 0x00, 0x00,
  0x00, 0x00, 0x00, 0x00, 0x01, 0x00, 0x00, 0x00, 0xc8, 0x02, 0xc3, 0x3b,
  0x17, 0x00, 0x00, 0x00, 0x73, 0x65, 0x71, 0x75, 0x65, 0x6e, 0x74, 0x69,
  0x61, 0x6c, 0x2f, 0x64, 0x65, 0x6e, 0x73, 0x65, 0x2f, 0x4d, 0x61, 0x74,
  0x4d, 0x75, 0x6c, 0x00, 0x02, 0x00, 0x00, 0x00, 0x10, 0x00, 0x00, 0x00,
  0x5a, 0x00, 0x00, 0x00, 0x42, 0xfe, 0xff, 0xff, 0x00, 0x00, 0x00, 0x01,
  0x14, 0x00, 0x00, 0x00, 0x30, 0x00, 0x00, 0x00, 0x06, 0x00, 0x00, 0x00,
  0x00, 0x00, 0x00, 0x02, 0x50, 0x00, 0x00, 0x00, 0x2c, 0xfe, 0xff, 0xff,
  0x08, 0x00, 0x00, 0x00, 0x10, 0x00, 0x00, 0x00, 0x01, 0x00, 0x00, 0x00,
  0x00, 0x00, 0x00, 0x00, 0x00, 0x00, 0x00, 0x00, 0x01, 0x00, 0x00, 0x00,
  0x8f, 0xc6, 0xc3, 0x37, 0x27, 0x00, 0x00, 0x00, 0x73, 0x65, 0x71, 0x75,
  0x65, 0x6e, 0x74, 0x69, 0x61, 0x6c, 0x2f, 0x64, 0x65, 0x6e, 0x73, 0x65,
  0x2f, 0x42, 0x69, 0x61, 0x73, 0x41, 0x64, 0x64, 0x2f, 0x52, 0x65, 0x61,
  0x64, 0x56, 0x61, 0x72, 0x69, 0x61, 0x62, 0x6c, 0x65, 0x4f, 0x70, 0x00,
  0x01, 0x00, 0x00, 0x00, 0x10, 0x00, 0x00, 0x00, 0xb2, 0xfe, 0xff, 0xff,
  0x00, 0x00, 0x00, 0x01, 0x14, 0x00, 0x00, 0x00, 0x30, 0x00, 0x00, 0x00,
  0x05, 0x00, 0x00, 0x00, 0x00, 0x00, 0x00, 0x09, 0x44, 0x00, 0x00, 0x00,
  0x9c, 0xfe, 0xff, 0xff, 0x08, 0x00, 0x00, 0x00, 0x10, 0x00, 0x00, 0x00,
  0x01, 0x00, 0x00, 0x00, 0x00, 0x00, 0x00, 0x00, 0x00, 0x00, 0x00, 0x00,
  0x01, 0x00, 0x00, 0x00, 0x83, 0x35, 0x3b, 0x3c, 0x19, 0x00, 0x00, 0x00,
  0x73, 0x65, 0x71, 0x75, 0x65, 0x6e, 0x74, 0x69, 0x61, 0x6c, 0x2f, 0x64,
  0x65, 0x6e, 0x73, 0x65, 0x5f, 0x31, 0x2f, 0x4d, 0x61, 0x74, 0x4d, 0x75,
  0x6c, 0x00, 0x00, 0x00, 0x02, 0x00, 0x00, 0x00, 0x08, 0x00, 0x00, 0x00,
  0x10, 0x00, 0x00, 0x00, 0x1a, 0xff, 0xff, 0xff, 0x00, 0x00, 0x00, 0x01,
  0x14, 0x00, 0x00, 0x00, 0x34, 0x00, 0x00, 0x00, 0x04, 0x00, 0x00, 0x00,
  0x00, 0x00, 0x00, 0x02, 0x58, 0x00, 0x00, 0x00, 0x04, 0xff, 0xff, 0xff,
  0x08, 0x00, 0x00, 0x00, 0x14, 0x00, 0x00, 0x00, 0x01, 0x00, 0x00, 0x00,
  0x00, 0x00, 0x00, 0x00, 0x00, 0x00, 0x00, 0x00, 0x00, 0x00, 0x00, 0x00,
  0x01, 0x00, 0x00, 0x00, 0x4c, 0xb1, 0xc6, 0x39, 0x29, 0x00, 0x00, 0x00,
  0x73, 0x65, 0x71, 0x75, 0x65, 0x6e, 0x74, 0x69, 0x61, 0x6c, 0x2f, 0x64,
  0x65, 0x6e, 0x73, 0x65, 0x5f, 0x31, 0x2f, 0x42, 0x69, 0x61, 0x73, 0x41,
  0x64, 0x64, 0x2f, 0x52, 0x65, 0x61, 0x64, 0x56, 0x61, 0x72, 0x69, 0x61,
  0x62, 0x6c, 0x65, 0x4f, 0x70, 0x00, 0x00, 0x00, 0x01, 0x00, 0x00, 0x00,
  0x08, 0x00, 0x00, 0x00, 0x92, 0xff, 0xff, 0xff, 0x00, 0x00, 0x00, 0x01,
  0x14, 0x00, 0x00, 0x00, 0x34, 0x00, 0x00, 0x00, 0x03, 0x00, 0x00, 0x00,
  0x00, 0x00, 0x00, 0x09, 0x48, 0x00, 0x00, 0x00, 0x7c, 0xff, 0xff, 0xff,
  0x08, 0x00, 0x00, 0x00, 0x14, 0x00, 0x00, 0x00, 0x01, 0x00, 0x00, 0x00,
  0x00, 0x00, 0x00, 0x00, 0x00, 0x00, 0x00, 0x00, 0x00, 0x00, 0x00, 0x00,
  0x01, 0x00, 0x00, 0x00, 0xc8, 0x8f, 0x8a, 0x3c, 0x19, 0x00, 0x00, 0x00,
  0x73, 0x65, 0x71, 0x75, 0x65, 0x6e, 0x74, 0x69, 0x61, 0x6c, 0x2f, 0x64,
  0x65, 0x6e, 0x73, 0x65, 0x5f, 0x32, 0x2f, 0x4d, 0x61, 0x74, 0x4d, 0x75,
  0x6c, 0x00, 0x00, 0x00, 0x02, 0x00, 0x00, 0x00, 0x04, 0x00, 0x00, 0x00,
  0x08, 0x00, 0x00, 0x00, 0x00, 0x00, 0x16, 0x00, 0x1c, 0x00, 0x18, 0x00,
  0x17, 0x00, 0x10, 0x00, 0x0c, 0x00, 0x08, 0x00, 0x00, 0x00, 0x00, 0x00,
  0x00, 0x00, 0x07, 0x00, 0x16, 0x00, 0x00, 0x00, 0x00, 0x00, 0x00, 0x01,
  0x20, 0x00, 0x00, 0x00, 0x3c, 0x00, 0x00, 0x00, 0x02, 0x00, 0x00, 0x00,
  0x00, 0x00, 0x00, 0x02, 0x60, 0x00, 0x00, 0x00, 0x0c, 0x00, 0x0c, 0x00,
  0x00, 0x00, 0x00, 0x00, 0x08, 0x00, 0x04, 0x00, 0x0c, 0x00, 0x00, 0x00,
  0x08, 0x00, 0x00, 0x00, 0x10, 0x00, 0x00, 0x00, 0x01, 0x00, 0x00, 0x00,
  0x00, 0x00, 0x00, 0x00, 0x00, 0x00, 0x00, 0x00, 0x01, 0x00, 0x00, 0x00,
  0xb6, 0x61, 0x15, 0x3a, 0x29, 0x00, 0x00, 0x00, 0x73, 0x65, 0x71, 0x75,
  0x65, 0x6e, 0x74, 0x69, 0x61, 0x6c, 0x2f, 0x64, 0x65, 0x6e, 0x73, 0x65,
  0x5f, 0x32, 0x2f, 0x42, 0x69, 0x61, 0x73, 0x41, 0x64, 0x64, 0x2f, 0x52,
  0x65, 0x61, 0x64, 0x56, 0x61, 0x72, 0x69, 0x61, 0x62, 0x6c, 0x65, 0x4f,
  0x70, 0x00, 0x00, 0x00, 0x01, 0x00, 0x00, 0x00, 0x04, 0x00, 0x00, 0x00,
  0x00, 0x00, 0x16, 0x00, 0x1c, 0x00, 0x18, 0x00, 0x00, 0x00, 0x14, 0x00,
  0x10, 0x00, 0x0c, 0x00, 0x00, 0x00, 0x00, 0x00, 0x08, 0x00, 0x07, 0x00,
  0x16, 0x00, 0x00, 0x00, 0x00, 0x00, 0x00, 0x01, 0x14, 0x00, 0x00, 0x00,
  0x20, 0x00, 0x00, 0x00, 0x20, 0x00, 0x00, 0x00, 0x01, 0x00, 0x00, 0x00,
  0x3c, 0x00, 0x00, 0x00, 0x02, 0x00, 0x00, 0x00, 0xff, 0xff, 0xff, 0xff,
  0x5a, 0x00, 0x00, 0x00, 0x04, 0x00, 0x04, 0x00, 0x04, 0x00, 0x00, 0x00,
  0x1d, 0x00, 0x00, 0x00, 0x73, 0x65, 0x72, 0x76, 0x69, 0x6e, 0x67, 0x5f,
  0x64, 0x65, 0x66, 0x61, 0x75, 0x6c, 0x74, 0x5f, 0x64, 0x65, 0x6e, 0x73,
  0x65, 0x5f, 0x69, 0x6e, 0x70, 0x75, 0x74, 0x3a, 0x30, 0x00, 0x00, 0x00,
  0x02, 0x00, 0x00, 0x00, 0x01, 0x00, 0x00, 0x00, 0x5a, 0x00, 0x00, 0x00,
  0x04, 0x00, 0x00, 0x00, 0x58, 0x00, 0x00, 0x00, 0x38, 0x00, 0x00, 0x00,
  0x18, 0x00, 0x00, 0x00, 0x04, 0x00, 0x00, 0x00, 0xe0, 0xff, 0xff, 0xff,
  0x06, 0x00, 0x00, 0x00, 0x02, 0x00, 0x00, 0x00, 0x00, 0x00, 0x00, 0x06,
  0xf0, 0xff, 0xff, 0xff, 0x19, 0x00, 0x00, 0x00, 0x02, 0x00, 0x00, 0x00,
  0x00, 0x00, 0x00, 0x19, 0x0c, 0x00, 0x10, 0x00, 0x0f, 0x00, 0x00, 0x00,
  0x08, 0x00, 0x04, 0x00, 0x0c, 0x00, 0x00, 0x00, 0x09, 0x00, 0x00, 0x00,
  0x04, 0x00, 0x00, 0x00, 0x00, 0x00, 0x00, 0x09, 0x0c, 0x00, 0x0c, 0x00,
  0x0b, 0x00, 0x00, 0x00, 0x00, 0x00, 0x04, 0x00, 0x0c, 0x00, 0x00, 0x00,
  0x72, 0x00, 0x00, 0x00, 0x00, 0x00, 0x00, 0x72
}; 
