const unsigned char gesture_model_q [] = {  
  0x20, 0x00, 0x00, 0x00, 0x54, 0x46, 0x4c, 0x33, 0x00, 0x00, 0x00, 0x00,
  0x14, 0x00, 0x20, 0x00, 0x1c, 0x00, 0x18, 0x00, 0x14, 0x00, 0x10, 0x00,
  0x0c, 0x00, 0x00, 0x00, 0x08, 0x00, 0x04, 0x00, 0x14, 0x00, 0x00, 0x00,
  0x1c, 0x00, 0x00, 0x00, 0x88, 0x00, 0x00, 0x00, 0xe0, 0x00, 0x00, 0x00,
  0x20, 0x08, 0x00, 0x00, 0x30, 0x08, 0x00, 0x00, 0xa0, 0x10, 0x00, 0x00,
  0x03, 0x00, 0x00, 0x00, 0x01, 0x00, 0x00, 0x00, 0x04, 0x00, 0x00, 0x00,
  0x8a, 0xf7, 0xff, 0xff, 0x0c, 0x00, 0x00, 0x00, 0x1c, 0x00, 0x00, 0x00,
  0x38, 0x00, 0x00, 0x00, 0x0f, 0x00, 0x00, 0x00, 0x73, 0x65, 0x72, 0x76,
  0x69, 0x6e, 0x67, 0x5f, 0x64, 0x65, 0x66, 0x61, 0x75, 0x6c, 0x74, 0x00,
  0x01, 0x00, 0x00, 0x00, 0x04, 0x00, 0x00, 0x00, 0x94, 0xff, 0xff, 0xff,
  0x0c, 0x00, 0x00, 0x00, 0x04, 0x00, 0x00, 0x00, 0x07, 0x00, 0x00, 0x00,
  0x64, 0x65, 0x6e, 0x73, 0x65, 0x5f, 0x38, 0x00, 0x01, 0x00, 0x00, 0x00,
  0x04, 0x00, 0x00, 0x00, 0x92, 0xf7, 0xff, 0xff, 0x04, 0x00, 0x00, 0x00,
  0x0d, 0x00, 0x00, 0x00, 0x64, 0x65, 0x6e, 0x73, 0x65, 0x5f, 0x36, 0x5f,
  0x69, 0x6e, 0x70, 0x75, 0x74, 0x00, 0x00, 0x00, 0x02, 0x00, 0x00, 0x00,
  0x34, 0x00, 0x00, 0x00, 0x04, 0x00, 0x00, 0x00, 0xdc, 0xff, 0xff, 0xff,
  0x0f, 0x00, 0x00, 0x00, 0x04, 0x00, 0x00, 0x00, 0x13, 0x00, 0x00, 0x00,
  0x43, 0x4f, 0x4e, 0x56, 0x45, 0x52, 0x53, 0x49, 0x4f, 0x4e, 0x5f, 0x4d,
  0x45, 0x54, 0x41, 0x44, 0x41, 0x54, 0x41, 0x00, 0x08, 0x00, 0x0c, 0x00,
  0x08, 0x00, 0x04, 0x00, 0x08, 0x00, 0x00, 0x00, 0x0e, 0x00, 0x00, 0x00,
  0x04, 0x00, 0x00, 0x00, 0x13, 0x00, 0x00, 0x00, 0x6d, 0x69, 0x6e, 0x5f,
  0x72, 0x75, 0x6e, 0x74, 0x69, 0x6d, 0x65, 0x5f, 0x76, 0x65, 0x72, 0x73,
  0x69, 0x6f, 0x6e, 0x00, 0x10, 0x00, 0x00, 0x00, 0x3c, 0x07, 0x00, 0x00,
  0x34, 0x07, 0x00, 0x00, 0x10, 0x07, 0x00, 0x00, 0xec, 0x06, 0x00, 0x00,
  0xcc, 0x06, 0x00, 0x00, 0x9c, 0x06, 0x00, 0x00, 0x6c, 0x06, 0x00, 0x00,
  0xbc, 0x00, 0x00, 0x00, 0xb4, 0x00, 0x00, 0x00, 0xac, 0x00, 0x00, 0x00,
  0xa4, 0x00, 0x00, 0x00, 0x9c, 0x00, 0x00, 0x00, 0x94, 0x00, 0x00, 0x00,
  0x8c, 0x00, 0x00, 0x00, 0x6c, 0x00, 0x00, 0x00, 0x04, 0x00, 0x00, 0x00,
  0x4e, 0xf8, 0xff, 0xff, 0x04, 0x00, 0x00, 0x00, 0x58, 0x00, 0x00, 0x00,
  0x0c, 0x00, 0x00, 0x00, 0x08, 0x00, 0x0e, 0x00, 0x08, 0x00, 0x04, 0x00,
  0x08, 0x00, 0x00, 0x00, 0x10, 0x00, 0x00, 0x00, 0x28, 0x00, 0x00, 0x00,
  0x00, 0x00, 0x06, 0x00, 0x08, 0x00, 0x04, 0x00, 0x06, 0x00, 0x00, 0x00,
  0x04, 0x00, 0x00, 0x00, 0x01, 0x00, 0x00, 0x00, 0xeb, 0x03, 0x00, 0x00,
  0x00, 0x00, 0x0a, 0x00, 0x10, 0x00, 0x0c, 0x00, 0x08, 0x00, 0x04, 0x00,
  0x0a, 0x00, 0x00, 0x00, 0x02, 0x00, 0x00, 0x00, 0x02, 0x00, 0x00, 0x00,
  0x04, 0x00, 0x00, 0x00, 0x06, 0x00, 0x00, 0x00, 0x32, 0x2e, 0x31, 0x30,
  0x2e, 0x30, 0x00, 0x00, 0xb2, 0xf8, 0xff, 0xff, 0x04, 0x00, 0x00, 0x00,
  0x10, 0x00, 0x00, 0x00, 0x31, 0x2e, 0x31, 0x34, 0x2e, 0x30, 0x00, 0x00,
  0x00, 0x00, 0x00, 0x00, 0x00, 0x00, 0x00, 0x00, 0x30, 0xf1, 0xff, 0xff,
  0x34, 0xf1, 0xff, 0xff, 0x38, 0xf1, 0xff, 0xff, 0x3c, 0xf1, 0xff, 0xff,
  0x40, 0xf1, 0xff, 0xff, 0x44, 0xf1, 0xff, 0xff, 0xe6, 0xf8, 0xff, 0xff,
  0x04, 0x00, 0x00, 0x00, 0xa0, 0x05, 0x00, 0x00, 0xfc, 0xf3, 0xf0, 0x14,
  0xed, 0xee, 0xf2, 0xeb, 0x01, 0x16, 0x17, 0xec, 0x0d, 0x0a, 0xef, 0xeb,
  0x0b, 0xf2, 0x0e, 0xeb, 0xfd, 0x0a, 0x05, 0xef, 0xfd, 0x19, 0xf4, 0x18,
  0x05, 0xea, 0x1a, 0xfa, 0xf9, 0xee, 0xeb, 0x1a, 0xec, 0xf8, 0x09, 0xeb,
  0xf8, 0x05, 0x0d, 0xfb, 0xea, 0xee, 0xfd, 0x15, 0x09, 0xf2, 0x04, 0x04,
  0x0b, 0x18, 0x02, 0x0b, 0x15, 0xf1, 0x19, 0x0d, 0xec, 0xe6, 0xea, 0x17,
  0xee, 0x0d, 0xee, 0x11, 0x01, 0xed, 0xff, 0xf4, 0xe7, 0x0b, 0x12, 0x0a,
  0x0b, 0x15, 0x15, 0x09, 0x0a, 0xfd, 0x0e, 0xed, 0xf3, 0x01, 0x0c, 0x0f,
  0xf4, 0x14, 0xf3, 0xf6, 0x07, 0xf7, 0x0a, 0xf8, 0xfb, 0x0e, 0xef, 0xf2,
  0xe9, 0x16, 0xe9, 0xea, 0xf8, 0xeb, 0xfc, 0xf6, 0xe7, 0xeb, 0x19, 0x17,
  0xee, 0xe8, 0xe9, 0x1a, 0x14, 0x1a, 0x14, 0x09, 0xed, 0xfa, 0xfb, 0x19,
  0xf2, 0xf1, 0xf5, 0x10, 0x03, 0xf4, 0xf5, 0xeb, 0xf3, 0xe9, 0x06, 0xfb,
  0xf7, 0xe9, 0x0e, 0xfd, 0x12, 0xff, 0xee, 0x06, 0x03, 0x11, 0x0d, 0xe9,
  0x09, 0xfa, 0xec, 0xf6, 0xf6, 0xed, 0xfc, 0xe6, 0x17, 0x03, 0xf3, 0xf7,
  0xea, 0xff, 0xfe, 0x15, 0x13, 0x14, 0x0a, 0xfb, 0x12, 0xf6, 0x17, 0xfa,
  0x02, 0x08, 0xfc, 0xf7, 0xe8, 0x08, 0xf0, 0x0c, 0x0d, 0x0c, 0xf4, 0xfd,
  0xee, 0xf0, 0xf6, 0x11, 0x01, 0x19, 0x09, 0x0f, 0x05, 0xea, 0x06, 0x09,
  0xf9, 0xfb, 0xef, 0xf8, 0x16, 0xf7, 0xf5, 0x12, 0x0e, 0xf9, 0xec, 0xe8,
  0x08, 0x13, 0x19, 0x08, 0xfc, 0x02, 0xf8, 0xee, 0xfb, 0x13, 0xf1, 0x08,
  0xfc, 0x05, 0x17, 0xf3, 0x17, 0xf5, 0x11, 0x15, 0x0d, 0xfa, 0xe7, 0x15,
  0xfe, 0xe6, 0x15, 0xf0, 0xe8, 0x17, 0xf3, 0x0b, 0xe8, 0xee, 0xe6, 0x05,
  0x04, 0x02, 0x07, 0x1b, 0xf5, 0x05, 0xfb, 0x02, 0xf5, 0xf1, 0xf0, 0xf2,
  0x03, 0xe7, 0x11, 0x13, 0xfa, 0xf1, 0xf1, 0xf4, 0xf5, 0x1a, 0x05, 0xf1,
  0x07, 0xee, 0x07, 0xec, 0xf9, 0xfb, 0xe6, 0x17, 0xea, 0x19, 0x02, 0xeb,
  0x09, 0xf2, 0x0f, 0xfb, 0xf7, 0x0c, 0x17, 0xed, 0xfb, 0xf9, 0xe7, 0x0e,
  0xe8, 0x0b, 0x06, 0xf7, 0xef, 0xf5, 0x14, 0xec, 0x0f, 0xf3, 0x0d, 0xeb,
  0x17, 0xe8, 0xee, 0xef, 0xed, 0x09, 0xfc, 0x17, 0x0b, 0x0f, 0x03, 0xf7,
  0xfa, 0xf1, 0xf0, 0x08, 0x08, 0xf3, 0x06, 0x0b, 0xf6, 0x0a, 0x05, 0x03,
  0x17, 0xeb, 0x04, 0xe9, 0x15, 0xf7, 0xfa, 0x14, 0xef, 0x04, 0x04, 0x09,
  0x05, 0x0a, 0x09, 0x12, 0xf5, 0x05, 0xfe, 0xf1, 0x04, 0x02, 0x09, 0xec,
  0x02, 0x02, 0xf8, 0x00, 0x09, 0xed, 0xe7, 0xfc, 0x03, 0x11, 0x10, 0xfe,
  0xfb, 0x0c, 0x11, 0xf7, 0x17, 0x18, 0x05, 0xee, 0xe9, 0x00, 0xfa, 0xf1,
  0xf0, 0x02, 0x09, 0x11, 0xff, 0xf1, 0x06, 0xff, 0xf5, 0x0c, 0xe7, 0xf1,
  0xf7, 0x0e, 0xec, 0x16, 0x0b, 0xed, 0xfa, 0x13, 0x00, 0xfb, 0x0d, 0x19,
  0x0f, 0xef, 0x09, 0x03, 0x08, 0xf8, 0xf9, 0xf1, 0xfb, 0x15, 0x07, 0xf1,
  0x04, 0x0b, 0x0f, 0x04, 0xef, 0x01, 0x14, 0x02, 0xf1, 0x08, 0xf5, 0x13,
  0x04, 0x0f, 0x0b, 0xe6, 0x03, 0x01, 0xef, 0xfb, 0x03, 0xea, 0x16, 0xf9,
  0xfe, 0xf7, 0xec, 0xf7, 0x14, 0xeb, 0x11, 0xec, 0xe7, 0x10, 0x18, 0xed,
  0x13, 0xfb, 0x19, 0xe6, 0x04, 0xea, 0xf2, 0x0f, 0x16, 0xee, 0x13, 0xf7,
  0x00, 0xf1, 0x0e, 0x02, 0x10, 0x0a, 0xee, 0x07, 0xfe, 0xf6, 0x14, 0x0b,
  0xf7, 0x0a, 0xee, 0xf9, 0xf5, 0x15, 0xf1, 0xea, 0x02, 0xef, 0x0a, 0xff,
  0x17, 0xec, 0x08, 0xf8, 0x01, 0xef, 0xfe, 0x02, 0xf2, 0x17, 0xf2, 0xe9,
  0xf5, 0x17, 0xef, 0xef, 0x12, 0x16, 0xf7, 0x04, 0x0b, 0xfa, 0xf5, 0x17,
  0xfd, 0xfc, 0xf8, 0xf9, 0x04, 0xe9, 0xfe, 0xe6, 0xe8, 0xfa, 0x14, 0x06,
  0x0d, 0xeb, 0x14, 0x11, 0xf1, 0x07, 0xed, 0xfe, 0xf8, 0xf2, 0xfb, 0x0d,
  0xf9, 0x05, 0xf5, 0x04, 0x00, 0xf9, 0xff, 0xfd, 0x4b, 0x3a, 0x52, 0x1c,
  0xf9, 0x2b, 0x25, 0xfa, 0x32, 0x1f, 0xfd, 0x25, 0x2c, 0xeb, 0x33, 0x05,
  0xf8, 0x4a, 0x11, 0x0c, 0x2d, 0x17, 0xfd, 0x4b, 0x03, 0x10, 0x37, 0x2f,
  0xd8, 0x4c, 0x2a, 0xff, 0x41, 0x08, 0xf9, 0x3d, 0x1d, 0xe2, 0x45, 0x33,
  0xf6, 0x1f, 0x1d, 0xf9, 0x17, 0x18, 0xe8, 0x47, 0xf0, 0xbd, 0x30, 0x0f,
  0xf1, 0x3f, 0xf1, 0xb7, 0x05, 0x35, 0xf0, 0x4c, 0xcb, 0x9a, 0xd3, 0x18,
  0xee, 0x35, 0xba, 0xb5, 0xca, 0x01, 0xdf, 0x2b, 0xd9, 0xa8, 0xb5, 0x12,
  0xe2, 0x39, 0xbe, 0xb6, 0xae, 0x08, 0xfb, 0x06, 0xb9, 0xc9, 0xd2, 0x15,
  0x19, 0x2b, 0xf2, 0xdf, 0xe5, 0x2a, 0x11, 0x28, 0xe0, 0xed, 0xe2, 0x07,
  0xf7, 0x19, 0xde, 0xe4, 0xe5, 0x06, 0x02, 0x1b, 0xe7, 0xe2, 0xe9, 0xfa,
  0x1a, 0x20, 0xdf, 0xf6, 0xf6, 0x07, 0xfe, 0xf8, 0xe3, 0xe1, 0xcb, 0x26,
  0x1e, 0x1b, 0xde, 0x06, 0xec, 0x08, 0x0a, 0xf5, 0xf8, 0xe9, 0xe2, 0x01,
  0x1c, 0xf7, 0xf4, 0xea, 0x07, 0x10, 0x12, 0x08, 0xe5, 0xfe, 0xde, 0x1d,
  0x16, 0xf3, 0x0a, 0xef, 0x02, 0x07, 0xfc, 0xef, 0x05, 0xe2, 0xe5, 0x23,
  0x1f, 0x0d, 0xeb, 0x17, 0x04, 0x29, 0xfd, 0xf9, 0xfe, 0x13, 0xf5, 0x28,
  0x27, 0x1d, 0x01, 0xf1, 0xf5, 0x16, 0x0a, 0xf4, 0xed, 0xf5, 0x00, 0xeb,
  0xf8, 0xe6, 0xe6, 0x09, 0x17, 0xf5, 0xf6, 0xec, 0xee, 0xeb, 0xff, 0x00,
  0xeb, 0x02, 0xf9, 0xf0, 0x00, 0xfb, 0x02, 0xe8, 0x0a, 0xff, 0xfd, 0xf7,
  0xf1, 0x10, 0xec, 0xf5, 0x17, 0xf6, 0x07, 0xff, 0x0b, 0xfb, 0xf3, 0x10,
  0x17, 0xfb, 0xfc, 0x16, 0xf0, 0x00, 0xed, 0xec, 0xeb, 0x17, 0xeb, 0xe8,
  0xf1, 0x04, 0xee, 0x0b, 0x13, 0x1a, 0x0f, 0xec, 0xed, 0xf0, 0xf3, 0x08,
  0x18, 0xeb, 0xec, 0x01, 0x13, 0x0e, 0x00, 0x19, 0x0b, 0xe7, 0xe9, 0x05,
  0x03, 0x12, 0x18, 0xef, 0xe7, 0xed, 0x07, 0xfb, 0xff, 0xf4, 0x06, 0xeb,
  0xfb, 0xff, 0x00, 0x16, 0x10, 0xff, 0xf8, 0x14, 0x00, 0xf3, 0x19, 0xf8,
  0x0a, 0xf8, 0x11, 0x11, 0xf3, 0xf9, 0x01, 0xf5, 0xfb, 0x0a, 0x08, 0xf0,
  0xfa, 0xf9, 0x15, 0x19, 0xe7, 0xfc, 0x04, 0x16, 0x07, 0xef, 0xf5, 0x0c,
  0xf6, 0x14, 0x06, 0xf1, 0x10, 0xf4, 0x0e, 0xf6, 0xed, 0xe9, 0xfe, 0xf9,
  0xf4, 0xe6, 0xf8, 0x15, 0x0d, 0x01, 0x1a, 0x15, 0xe9, 0xff, 0x17, 0xe8,
  0x0a, 0xfb, 0x04, 0xfd, 0x15, 0x11, 0xed, 0x0d, 0xf5, 0x03, 0x19, 0xf8,
  0xf3, 0x0c, 0xf2, 0xff, 0x04, 0x06, 0xfd, 0x11, 0xf6, 0x01, 0x09, 0x07,
  0x18, 0x13, 0x00, 0x02, 0x13, 0xe7, 0xeb, 0xf5, 0x4d, 0x0b, 0x74, 0xe8,
  0xe9, 0x06, 0x60, 0x0c, 0x7f, 0x14, 0xf3, 0xe5, 0x4d, 0x0b, 0x7d, 0x19,
  0xcc, 0xff, 0x38, 0x0d, 0x4a, 0x18, 0xe0, 0xf8, 0x14, 0xe4, 0x53, 0x10,
  0xdc, 0x09, 0x27, 0xee, 0x17, 0x0c, 0xd2, 0xff, 0x12, 0xe4, 0xdb, 0x0e,
  0xa7, 0x06, 0x11, 0x09, 0xb2, 0x07, 0xc6, 0xe3, 0x01, 0x1e, 0xa9, 0xe5,
  0xb1, 0xfe, 0x0d, 0x1e, 0xb7, 0xf0, 0xe8, 0xfb, 0xfa, 0x28, 0xc1, 0x06,
  0xcf, 0xee, 0xe7, 0x11, 0xa1, 0x0b, 0xd8, 0xdb, 0x02, 0x2f, 0xbd, 0xfe,
  0xdf, 0xfb, 0x00, 0x3c, 0xa2, 0x13, 0xfe, 0xf2, 0x16, 0x29, 0xa9, 0xe9,
  0xfd, 0xf0, 0x09, 0x34, 0xc8, 0xf1, 0xf5, 0xf1, 0x1a, 0x0e, 0xb9, 0x13,
  0xe9, 0xf6, 0xf9, 0x32, 0xe7, 0xf7, 0xe6, 0x04, 0x1c, 0x08, 0xd3, 0xfa,
  0x0c, 0xfe, 0xf5, 0x08, 0xda, 0x1e, 0xf1, 0xfc, 0x09, 0x10, 0xe2, 0xf5,
  0xf5, 0x0e, 0x04, 0x10, 0xf4, 0xf6, 0x04, 0x0f, 0x18, 0x1b, 0x15, 0x12,
  0x0b, 0x17, 0x14, 0x1f, 0x05, 0x1f, 0x21, 0xf9, 0x2e, 0x07, 0x1a, 0xf2,
  0x18, 0x0e, 0x0f, 0xf2, 0x28, 0x00, 0x21, 0x06, 0x31, 0xfb, 0x16, 0xf5,
  0x24, 0xf2, 0x34, 0x28, 0x35, 0xfa, 0x1d, 0xf1, 0x3e, 0x18, 0x17, 0xf8,
  0x1d, 0x07, 0x11, 0xf9, 0x10, 0xf4, 0x0b, 0xf3, 0x0b, 0xfe, 0x00, 0xe7,
  0x10, 0xff, 0xf3, 0xf2, 0x0f, 0xf3, 0xef, 0xf5, 0xf5, 0xfa, 0x03, 0xf1,
  0x02, 0x09, 0x0e, 0xe9, 0x09, 0x10, 0xfa, 0xfe, 0x13, 0x09, 0x12, 0x06,
  0xe9, 0x13, 0x0b, 0x09, 0x16, 0x0b, 0x18, 0x16, 0x0c, 0xee, 0xeb, 0xf2,
  0xe6, 0xeb, 0xfb, 0xf1, 0x14, 0x0b, 0x10, 0xf6, 0x0e, 0xf6, 0x08, 0xec,
  0x0a, 0xf1, 0x15, 0x07, 0x0c, 0xf1, 0x09, 0xfc, 0xeb, 0xfd, 0xfa, 0xee,
  0x10, 0xec, 0xf7, 0x10, 0xeb, 0xf1, 0xe8, 0xf1, 0x06, 0xfc, 0xf6, 0x16,
  0xea, 0xfe, 0x07, 0xf3, 0xf5, 0x0d, 0x00, 0xec, 0xff, 0xf7, 0x06, 0x0c,
  0x0d, 0x07, 0xf6, 0x0d, 0x07, 0x0a, 0xf2, 0x0f, 0xef, 0x09, 0xf7, 0xf3,
  0x16, 0xe7, 0x06, 0x0d, 0x09, 0x00, 0x11, 0x0c, 0xe6, 0x0e, 0x08, 0x12,
  0xff, 0x1a, 0xf2, 0xe9, 0x02, 0x05, 0xea, 0xff, 0x17, 0xef, 0x11, 0x04,
  0x12, 0x03, 0xe9, 0x0b, 0x0c, 0x09, 0xf6, 0xfd, 0x00, 0x05, 0x17, 0x01,
  0xf3, 0xf6, 0xfa, 0xf0, 0x00, 0x0d, 0x0a, 0xe7, 0x18, 0xf8, 0xf0, 0x07,
  0xeb, 0x0a, 0xf3, 0xe8, 0xf8, 0xef, 0x12, 0xe8, 0x10, 0x12, 0xff, 0x14,
  0x03, 0x0c, 0x11, 0xed, 0xfd, 0x12, 0xeb, 0xea, 0xfb, 0xf2, 0x06, 0x05,
  0xf4, 0xe6, 0xf8, 0xf9, 0xf5, 0x18, 0xed, 0xf0, 0xfa, 0xe8, 0xe9, 0xf9,
  0xe8, 0x0d, 0x04, 0x10, 0x0d, 0xef, 0xff, 0x0b, 0xfd, 0x13, 0xf0, 0x06,
  0xed, 0x06, 0x15, 0x12, 0x14, 0xf8, 0xf3, 0x04, 0xe9, 0x0e, 0x10, 0xe7,
  0x10, 0x0d, 0x14, 0x0e, 0xe7, 0xe7, 0xe8, 0x1a, 0x18, 0xee, 0xe8, 0xfc,
  0x11, 0xf8, 0xea, 0xee, 0x0e, 0x09, 0xf7, 0xf1, 0x09, 0xee, 0xf1, 0xfe,
  0x03, 0x0f, 0x18, 0x06, 0x12, 0xff, 0xef, 0xf3, 0x07, 0x0a, 0x14, 0x08,
  0x08, 0x00, 0xec, 0x12, 0xfc, 0x07, 0x13, 0x12, 0xec, 0x10, 0xff, 0xe8,
  0xf6, 0xe8, 0xf5, 0xf0, 0x06, 0xfe, 0xf0, 0xfa, 0xed, 0xe6, 0xe6, 0xeb,
  0xf5, 0xf7, 0xf6, 0xe6, 0x07, 0x05, 0x18, 0xe9, 0xee, 0x04, 0x18, 0x0f,
  0x13, 0x0d, 0x0d, 0xf8, 0x03, 0xea, 0xfe, 0xf1, 0x15, 0x04, 0x19, 0xe9,
  0x17, 0x12, 0xe9, 0xea, 0x16, 0x07, 0x00, 0x08, 0xf2, 0x16, 0x0f, 0x0b,
  0xe9, 0xfa, 0xf2, 0xfa, 0x0c, 0xf5, 0x0e, 0x0d, 0xfc, 0x09, 0x05, 0x10,
  0x01, 0xf9, 0xf5, 0x11, 0x05, 0xf4, 0xe7, 0xfc, 0xf8, 0x17, 0xfd, 0xfb,
  0x01, 0xee, 0xf4, 0xe8, 0xfd, 0x16, 0x17, 0x0e, 0xf8, 0x16, 0x19, 0x0f,
  0xf6, 0xf4, 0xee, 0xe8, 0xf3, 0xfd, 0x10, 0x10, 0x0f, 0x0e, 0xee, 0xff,
  0xfe, 0xf4, 0x0f, 0xf9, 0x0e, 0x12, 0xf6, 0xf2, 0x92, 0xfe, 0xff, 0xff,
  0x04, 0x00, 0x00, 0x00, 0x20, 0x00, 0x00, 0x00, 0x00, 0x00, 0x00, 0x00,
  0x31, 0xff, 0xff, 0xff, 0x00, 0x00, 0x00, 0x00, 0x63, 0x0f, 0x00, 0x00,
  0x00, 0x00, 0x00, 0x00, 0xb2, 0x07, 0x00, 0x00, 0x00, 0x00, 0x00, 0x00,
  0x2e, 0xff, 0xff, 0xff, 0xbe, 0xfe, 0xff, 0xff, 0x04, 0x00, 0x00, 0x00,
  0x20, 0x00, 0x00, 0x00, 0xcb, 0xe1, 0xd8, 0x4e, 0xec, 0x0d, 0xf6, 0x28,
  0x19, 0x03, 0xcc, 0x2d, 0xd6, 0x7f, 0xe6, 0x12, 0xe5, 0xf8, 0xf1, 0x74,
  0x24, 0xd8, 0x09, 0x05, 0xe7, 0xd2, 0xe7, 0xde, 0xf9, 0xef, 0xfc, 0xfa,
  0xea, 0xfe, 0xff, 0xff, 0x04, 0x00, 0x00, 0x00, 0x10, 0x00, 0x00, 0x00,
  0x9b, 0xec, 0xff, 0xff, 0xee, 0xfd, 0xff, 0xff, 0xf8, 0x06, 0x00, 0x00,
  0x00, 0x00, 0x00, 0x00, 0x06, 0xff, 0xff, 0xff, 0x04, 0x00, 0x00, 0x00,
  0x14, 0x00, 0x00, 0x00, 0xc4, 0x8c, 0x03, 0xf9, 0x22, 0x1f, 0xc3, 0x09,
  0x2f, 0xde, 0x24, 0x13, 0xae, 0x0c, 0x81, 0x08, 0xcd, 0x0d, 0x0b, 0xfe,
  0x26, 0xff, 0xff, 0xff, 0x04, 0x00, 0x00, 0x00, 0x14, 0x00, 0x00, 0x00,
  0x7e, 0x05, 0x00, 0x00, 0xd0, 0xf6, 0xff, 0xff, 0x83, 0xf9, 0xff, 0xff,
  0xa7, 0x03, 0x00, 0x00, 0x53, 0xfc, 0xff, 0xff, 0xa8, 0xf7, 0xff, 0xff,
  0xac, 0xf7, 0xff, 0xff, 0x0f, 0x00, 0x00, 0x00, 0x4d, 0x4c, 0x49, 0x52,
  0x20, 0x43, 0x6f, 0x6e, 0x76, 0x65, 0x72, 0x74, 0x65, 0x64, 0x2e, 0x00,
  0x01, 0x00, 0x00, 0x00, 0x14, 0x00, 0x00, 0x00, 0x00, 0x00, 0x0e, 0x00,
  0x18, 0x00, 0x14, 0x00, 0x10, 0x00, 0x0c, 0x00, 0x08, 0x00, 0x04, 0x00,
  0x0e, 0x00, 0x00, 0x00, 0x14, 0x00, 0x00, 0x00, 0x1c, 0x00, 0x00, 0x00,
  0x7c, 0x01, 0x00, 0x00, 0x80, 0x01, 0x00, 0x00, 0x84, 0x01, 0x00, 0x00,
  0x04, 0x00, 0x00, 0x00, 0x6d, 0x61, 0x69, 0x6e, 0x00, 0x00, 0x00, 0x00,
  0x06, 0x00, 0x00, 0x00, 0x44, 0x01, 0x00, 0x00, 0xf4, 0x00, 0x00, 0x00,
  0xa8, 0x00, 0x00, 0x00, 0x70, 0x00, 0x00, 0x00, 0x34, 0x00, 0x00, 0x00,
  0x10, 0x00, 0x00, 0x00, 0x00, 0x00, 0x0a, 0x00, 0x10, 0x00, 0x0c, 0x00,
  0x08, 0x00, 0x04, 0x00, 0x0a, 0x00, 0x00, 0x00, 0x0c, 0x00, 0x00, 0x00,
  0x10, 0x00, 0x00, 0x00, 0x03, 0x00, 0x00, 0x00, 0x01, 0x00, 0x00, 0x00,
  0x0c, 0x00, 0x00, 0x00, 0x01, 0x00, 0x00, 0x00, 0x0b, 0x00, 0x00, 0x00,
  0x5a, 0xff, 0xff, 0xff, 0x1c, 0x00, 0x00, 0x00, 0x00, 0x00, 0x00, 0x09,
  0x1c, 0x00, 0x00, 0x00, 0x20, 0x00, 0x00, 0x00, 0x02, 0x00, 0x00, 0x00,
  0x00, 0x00, 0x06, 0x00, 0x08, 0x00, 0x04, 0x00, 0x06, 0x00, 0x00, 0x00,
  0x00, 0x00, 0x80, 0x3f, 0x01, 0x00, 0x00, 0x00, 0x0b, 0x00, 0x00, 0x00,
  0x01, 0x00, 0x00, 0x00, 0x0a, 0x00, 0x00, 0x00, 0x92, 0xff, 0xff, 0xff,
  0x14, 0x00, 0x00, 0x00, 0x00, 0x00, 0x00, 0x08, 0x10, 0x00, 0x00, 0x00,
  0x14, 0x00, 0x00, 0x00, 0x01, 0x00, 0x00, 0x00, 0x98, 0xf8, 0xff, 0xff,
  0x01, 0x00, 0x00, 0x00, 0x0a, 0x00, 0x00, 0x00, 0x03, 0x00, 0x00, 0x00,
  0x09, 0x00, 0x00, 0x00, 0x02, 0x00, 0x00, 0x00, 0x01, 0x00, 0x00, 0x00,
  0xc6, 0xff, 0xff, 0xff, 0x14, 0x00, 0x00, 0x00, 0x00, 0x00, 0x00, 0x08,
  0x14, 0x00, 0x00, 0x00, 0x18, 0x00, 0x00, 0x00, 0x01, 0x00, 0x00, 0x00,
  0xb6, 0xff, 0xff, 0xff, 0x00, 0x00, 0x00, 0x01, 0x01, 0x00, 0x00, 0x00,
  0x09, 0x00, 0x00, 0x00, 0x03, 0x00, 0x00, 0x00, 0x08, 0x00, 0x00, 0x00,
  0x04, 0x00, 0x00, 0x00, 0x03, 0x00, 0x00, 0x00, 0x00, 0x00, 0x0e, 0x00,
  0x1a, 0x00, 0x14, 0x00, 0x10, 0x00, 0x0c, 0x00, 0x0b, 0x00, 0x04, 0x00,
  0x0e, 0x00, 0x00, 0x00, 0x1c, 0x00, 0x00, 0x00, 0x00, 0x00, 0x00, 0x08,
  0x1c, 0x00, 0x00, 0x00, 0x20, 0x00, 0x00, 0x00, 0x01, 0x00, 0x00, 0x00,
  0x00, 0x00, 0x06, 0x00, 0x08, 0x00, 0x07, 0x00, 0x06, 0x00, 0x00, 0x00,
  0x00, 0x00, 0x00, 0x01, 0x01, 0x00, 0x00, 0x00, 0x08, 0x00, 0x00, 0x00,
  0x03, 0x00, 0x00, 0x00, 0x07, 0x00, 0x00, 0x00, 0x06, 0x00, 0x00, 0x00,
  0x05, 0x00, 0x00, 0x00, 0x00, 0x00, 0x0a, 0x00, 0x0c, 0x00, 0x00, 0x00,
  0x08, 0x00, 0x04, 0x00, 0x0a, 0x00, 0x00, 0x00, 0x08, 0x00, 0x00, 0x00,
  0x0c, 0x00, 0x00, 0x00, 0x01, 0x00, 0x00, 0x00, 0x07, 0x00, 0x00, 0x00,
  0x01, 0x00, 0x00, 0x00, 0x00, 0x00, 0x00, 0x00, 0x01, 0x00, 0x00, 0x00,
  0x0c, 0x00, 0x00, 0x00, 0x01, 0x00, 0x00, 0x00, 0x00, 0x00, 0x00, 0x00,
  0x0d, 0x00, 0x00, 0x00, 0x60, 0x06, 0x00, 0x00, 0xc4, 0x05, 0x00, 0x00,
  0x3c, 0x05, 0x00, 0x00, 0xc0, 0x04, 0x00, 0x00, 0x54, 0x04, 0x00, 0x00,
  0xd8, 0x03, 0x00, 0x00, 0x6c, 0x03, 0x00, 0x00, 0xf8, 0x02, 0x00, 0x00,
  0x2c, 0x02, 0x00, 0x00, 0x78, 0x01, 0x00, 0x00, 0xdc, 0x00, 0x00, 0x00,
  0x60, 0x00, 0x00, 0x00, 0x04, 0x00, 0x00, 0x00, 0xea, 0xf9, 0xff, 0xff,
  0x00, 0x00, 0x00, 0x01, 0x14, 0x00, 0x00, 0x00, 0x1c, 0x00, 0x00, 0x00,
  0x1c, 0x00, 0x00, 0x00, 0x0d, 0x00, 0x00, 0x00, 0x34, 0x00, 0x00, 0x00,
  0x02, 0x00, 0x00, 0x00, 0xff, 0xff, 0xff, 0xff, 0x05, 0x00, 0x00, 0x00,
  0xd4, 0xf9, 0xff, 0xff, 0x19, 0x00, 0x00, 0x00, 0x53, 0x74, 0x61, 0x74,
  0x65, 0x66, 0x75, 0x6c, 0x50, 0x61, 0x72, 0x74, 0x69, 0x74, 0x69, 0x6f,
  0x6e, 0x65, 0x64, 0x43, 0x61, 0x6c, 0x6c, 0x3a, 0x30, 0x00, 0x00, 0x00,
  0x02, 0x00, 0x00, 0x00, 0x01, 0x00, 0x00, 0x00, 0x05, 0x00, 0x00, 0x00,
  0x8e, 0xfd, 0xff, 0xff, 0x00, 0x00, 0x00, 0x01, 0x18, 0x00, 0x00, 0x00,
  0x20, 0x00, 0x00, 0x00, 0x3c, 0x00, 0x00, 0x00, 0x0c, 0x00, 0x00, 0x00,
  0x00, 0x00, 0x00, 0x09, 0x50, 0x00, 0x00, 0x00, 0x02, 0x00, 0x00, 0x00,
  0xff, 0xff, 0xff, 0xff, 0x05, 0x00, 0x00, 0x00, 0xd4, 0xfa, 0xff, 0xff,
  0x08, 0x00, 0x00, 0x00, 0x10, 0x00, 0x00, 0x00, 0x01, 0x00, 0x00, 0x00,
  0x80, 0xff, 0xff, 0xff, 0xff, 0xff, 0xff, 0xff, 0x01, 0x00, 0x00, 0x00,
  0x00, 0x00, 0x80, 0x3b, 0x1a, 0x00, 0x00, 0x00, 0x53, 0x74, 0x61, 0x74,
  0x65, 0x66, 0x75, 0x6c, 0x50, 0x61, 0x72, 0x74, 0x69, 0x74, 0x69, 0x6f,
  0x6e, 0x65, 0x64, 0x43, 0x61, 0x6c, 0x6c, 0x3a, 0x30, 0x31, 0x00, 0x00,
  0x02, 0x00, 0x00, 0x00, 0x01, 0x00, 0x00, 0x00, 0x05, 0x00, 0x00, 0x00,
  0x06, 0xfe, 0xff, 0xff, 0x00, 0x00, 0x00, 0x01, 0x18, 0x00, 0x00, 0x00,
  0x20, 0x00, 0x00, 0x00, 0x3c, 0x00, 0x00, 0x00, 0x0b, 0x00, 0x00, 0x00,
  0x00, 0x00, 0x00, 0x09, 0x70, 0x00, 0x00, 0x00, 0x02, 0x00, 0x00, 0x00,
  0xff, 0xff, 0xff, 0xff, 0x05, 0x00, 0x00, 0x00, 0x4c, 0xfb, 0xff, 0xff,
  0x08, 0x00, 0x00, 0x00, 0x10, 0x00, 0x00, 0x00, 0x01, 0x00, 0x00, 0x00,
  0x5c, 0x00, 0x00, 0x00, 0x00, 0x00, 0x00, 0x00, 0x01, 0x00, 0x00, 0x00,
  0x34, 0x39, 0x7c, 0x3e, 0x38, 0x00, 0x00, 0x00, 0x73, 0x65, 0x71, 0x75,
  0x65, 0x6e, 0x74, 0x69, 0x61, 0x6c, 0x5f, 0x32, 0x2f, 0x64, 0x65, 0x6e,
  0x73, 0x65, 0x5f, 0x38, 0x2f, 0x4d, 0x61, 0x74, 0x4d, 0x75, 0x6c, 0x3b,
  0x73, 0x65, 0x71, 0x75, 0x65, 0x6e, 0x74, 0x69, 0x61, 0x6c, 0x5f, 0x32,
  0x2f, 0x64, 0x65, 0x6e, 0x73, 0x65, 0x5f, 0x38, 0x2f, 0x42, 0x69, 0x61,
  0x73, 0x41, 0x64, 0x64, 0x00, 0x00, 0x00, 0x00, 0x02, 0x00, 0x00, 0x00,
  0x01, 0x00, 0x00, 0x00, 0x05, 0x00, 0x00, 0x00, 0x9e, 0xfe, 0xff, 0xff,
  0x00, 0x00, 0x00, 0x01, 0x18, 0x00, 0x00, 0x00, 0x20, 0x00, 0x00, 0x00,
  0x3c, 0x00, 0x00, 0x00, 0x0a, 0x00, 0x00, 0x00, 0x00, 0x00, 0x00, 0x09,
  0x88, 0x00, 0x00, 0x00, 0x02, 0x00, 0x00, 0x00, 0xff, 0xff, 0xff, 0xff,
  0x04, 0x00, 0x00, 0x00, 0xe4, 0xfb, 0xff, 0xff, 0x08, 0x00, 0x00, 0x00,
  0x10, 0x00, 0x00, 0x00, 0x01, 0x00, 0x00, 0x00, 0x80, 0xff, 0xff, 0xff,
  0xff, 0xff, 0xff, 0xff, 0x01, 0x00, 0x00, 0x00, 0xf3, 0x85, 0x43, 0x3d,
  0x52, 0x00, 0x00, 0x00, 0x73, 0x65, 0x71, 0x75, 0x65, 0x6e, 0x74, 0x69,
  0x61, 0x6c, 0x5f, 0x32, 0x2f, 0x64, 0x65, 0x6e, 0x73, 0x65, 0x5f, 0x37,
  0x2f, 0x4d, 0x61, 0x74, 0x4d, 0x75, 0x6c, 0x3b, 0x73, 0x65, 0x71, 0x75,
  0x65, 0x6e, 0x74, 0x69, 0x61, 0x6c, 0x5f, 0x32, 0x2f, 0x64, 0x65, 0x6e,
  0x73, 0x65, 0x5f, 0x37, 0x2f, 0x52, 0x65, 0x6c, 0x75, 0x3b, 0x73, 0x65,
  0x71, 0x75, 0x65, 0x6e, 0x74, 0x69, 0x61, 0x6c, 0x5f, 0x32, 0x2f, 0x64,
  0x65, 0x6e, 0x73, 0x65, 0x5f, 0x37, 0x2f, 0x42, 0x69, 0x61, 0x73, 0x41,
  0x64, 0x64, 0x00, 0x00, 0x02, 0x00, 0x00, 0x00, 0x01, 0x00, 0x00, 0x00,
  0x04, 0x00, 0x00, 0x00, 0x4e, 0xff, 0xff, 0xff, 0x00, 0x00, 0x00, 0x01,
  0x18, 0x00, 0x00, 0x00, 0x20, 0x00, 0x00, 0x00, 0x3c, 0x00, 0x00, 0x00,
  0x09, 0x00, 0x00, 0x00, 0x00, 0x00, 0x00, 0x09, 0x88, 0x00, 0x00, 0x00,
  0x02, 0x00, 0x00, 0x00, 0xff, 0xff, 0xff, 0xff, 0x08, 0x00, 0x00, 0x00,
  0x94, 0xfc, 0xff, 0xff, 0x08, 0x00, 0x00, 0x00, 0x10, 0x00, 0x00, 0x00,
  0x01, 0x00, 0x00, 0x00, 0x80, 0xff, 0xff, 0xff, 0xff, 0xff, 0xff, 0xff,
  0x01, 0x00, 0x00, 0x00, 0x20, 0x95, 0xcd, 0x3c, 0x52, 0x00, 0x00, 0x00,
  0x73, 0x65, 0x71, 0x75, 0x65, 0x6e, 0x74, 0x69, 0x61, 0x6c, 0x5f, 0x32,
  0x2f, 0x64, 0x65, 0x6e, 0x73, 0x65, 0x5f, 0x36, 0x2f, 0x4d, 0x61, 0x74,
  0x4d, 0x75, 0x6c, 0x3b, 0x73, 0x65, 0x71, 0x75, 0x65, 0x6e, 0x74, 0x69,
  0x61, 0x6c, 0x5f, 0x32, 0x2f, 0x64, 0x65, 0x6e, 0x73, 0x65, 0x5f, 0x36,
  0x2f, 0x52, 0x65, 0x6c, 0x75, 0x3b, 0x73, 0x65, 0x71, 0x75, 0x65, 0x6e,
  0x74, 0x69, 0x61, 0x6c, 0x5f, 0x32, 0x2f, 0x64, 0x65, 0x6e, 0x73, 0x65,
  0x5f, 0x36, 0x2f, 0x42, 0x69, 0x61, 0x73, 0x41, 0x64, 0x64, 0x00, 0x00,
  0x02, 0x00, 0x00, 0x00, 0x01, 0x00, 0x00, 0x00, 0x08, 0x00, 0x00, 0x00,
  0x00, 0x00, 0x16, 0x00, 0x20, 0x00, 0x1c, 0x00, 0x1b, 0x00, 0x14, 0x00,
  0x10, 0x00, 0x0c, 0x00, 0x00, 0x00, 0x00, 0x00, 0x08, 0x00, 0x07, 0x00,
  0x16, 0x00, 0x00, 0x00, 0x00, 0x00, 0x00, 0x01, 0x18, 0x00, 0x00, 0x00,
  0x20, 0x00, 0x00, 0x00, 0x40, 0x00, 0x00, 0x00, 0x08, 0x00, 0x00, 0x00,
  0x00, 0x00, 0x00, 0x09, 0x48, 0x00, 0x00, 0x00, 0x02, 0x00, 0x00, 0x00,
  0xff, 0xff, 0xff, 0xff, 0xb4, 0x00, 0x00, 0x00, 0x5c, 0xfd, 0xff, 0xff,
  0x08, 0x00, 0x00, 0x00, 0x14, 0x00, 0x00, 0x00, 0x01, 0x00, 0x00, 0x00,
  0x80, 0xff, 0xff, 0xff, 0xff, 0xff, 0xff, 0xff, 0x00, 0x00, 0x00, 0x00,
  0x01, 0x00, 0x00, 0x00, 0x81, 0x80, 0x80, 0x3b, 0x0c, 0x00, 0x00, 0x00,
  0x74, 0x66, 0x6c, 0x2e, 0x71, 0x75, 0x61, 0x6e, 0x74, 0x69, 0x7a, 0x65,
  0x00, 0x00, 0x00, 0x00, 0x02, 0x00, 0x00, 0x00, 0x01, 0x00, 0x00, 0x00,
  0xb4, 0x00, 0x00, 0x00, 0xd2, 0xfd, 0xff, 0xff, 0x00, 0x00, 0x00, 0x01,
  0x14, 0x00, 0x00, 0x00, 0x30, 0x00, 0x00, 0x00, 0x07, 0x00, 0x00, 0x00,
  0x00, 0x00, 0x00, 0x09, 0x44, 0x00, 0x00, 0x00, 0xbc, 0xfd, 0xff, 0xff,
  0x08, 0x00, 0x00, 0x00, 0x10, 0x00, 0x00, 0x00, 0x01, 0x00, 0x00, 0x00,
  0x00, 0x00, 0x00, 0x00, 0x00, 0x00, 0x00, 0x00, 0x01, 0x00, 0x00, 0x00,
  0x27, 0xec, 0xde, 0x3b, 0x1b, 0x00, 0x00, 0x00, 0x73, 0x65, 0x71, 0x75,
  0x65, 0x6e, 0x74, 0x69, 0x61, 0x6c, 0x5f, 0x32, 0x2f, 0x64, 0x65, 0x6e,
  0x73, 0x65, 0x5f, 0x36, 0x2f, 0x4d, 0x61, 0x74, 0x4d, 0x75, 0x6c, 0x00,
  0x02, 0x00, 0x00, 0x00, 0x08, 0x00, 0x00, 0x00, 0xb4, 0x00, 0x00, 0x00,
  0x3a, 0xfe, 0xff, 0xff, 0x00, 0x00, 0x00, 0x01, 0x14, 0x00, 0x00, 0x00,
  0x34, 0x00, 0x00, 0x00, 0x06, 0x00, 0x00, 0x00, 0x00, 0x00, 0x00, 0x02,
  0x58, 0x00, 0x00, 0x00, 0x24, 0xfe, 0xff, 0xff, 0x08, 0x00, 0x00, 0x00,
  0x14, 0x00, 0x00, 0x00, 0x01, 0x00, 0x00, 0x00, 0x00, 0x00, 0x00, 0x00,
  0x00, 0x00, 0x00, 0x00, 0x00, 0x00, 0x00, 0x00, 0x01, 0x00, 0x00, 0x00,
  0xf4, 0xcb, 0xdf, 0x37, 0x2b, 0x00, 0x00, 0x00, 0x73, 0x65, 0x71, 0x75,
  0x65, 0x6e, 0x74, 0x69, 0x61, 0x6c, 0x5f, 0x32, 0x2f, 0x64, 0x65, 0x6e,
  0x73, 0x65, 0x5f, 0x36, 0x2f, 0x42, 0x69, 0x61, 0x73, 0x41, 0x64, 0x64,
  0x2f, 0x52, 0x65, 0x61, 0x64, 0x56, 0x61, 0x72, 0x69, 0x61, 0x62, 0x6c,
  0x65, 0x4f, 0x70, 0x00, 0x01, 0x00, 0x00, 0x00, 0x08, 0x00, 0x00, 0x00,
  0xb2, 0xfe, 0xff, 0xff, 0x00, 0x00, 0x00, 0x01, 0x14, 0x00, 0x00, 0x00,
  0x30, 0x00, 0x00, 0x00, 0x05, 0x00, 0x00, 0x00, 0x00, 0x00, 0x00, 0x09,
  0x44, 0x00, 0x00, 0x00, 0x9c, 0xfe, 0xff, 0xff, 0x08, 0x00, 0x00, 0x00,
  0x10, 0x00, 0x00, 0x00, 0x01, 0x00, 0x00, 0x00, 0x00, 0x00, 0x00, 0x00,
  0x00, 0x00, 0x00, 0x00, 0x01, 0x00, 0x00, 0x00, 0x64, 0xbf, 0x52, 0x3c,
  0x1b, 0x00, 0x00, 0x00, 0x73, 0x65, 0x71, 0x75, 0x65, 0x6e, 0x74, 0x69,
  0x61, 0x6c, 0x5f, 0x32, 0x2f, 0x64, 0x65, 0x6e, 0x73, 0x65, 0x5f, 0x37,
  0x2f, 0x4d, 0x61, 0x74, 0x4d, 0x75, 0x6c, 0x00, 0x02, 0x00, 0x00, 0x00,
  0x04, 0x00, 0x00, 0x00, 0x08, 0x00, 0x00, 0x00, 0x1a, 0xff, 0xff, 0xff,
  0x00, 0x00, 0x00, 0x01, 0x14, 0x00, 0x00, 0x00, 0x34, 0x00, 0x00, 0x00,
  0x04, 0x00, 0x00, 0x00, 0x00, 0x00, 0x00, 0x02, 0x58, 0x00, 0x00, 0x00,
  0x04, 0xff, 0xff, 0xff, 0x08, 0x00, 0x00, 0x00, 0x14, 0x00, 0x00, 0x00,
  0x01, 0x00, 0x00, 0x00, 0x00, 0x00, 0x00, 0x00, 0x00, 0x00, 0x00, 0x00,
  0x00, 0x00, 0x00, 0x00, 0x01, 0x00, 0x00, 0x00, 0x07, 0x3e, 0xa9, 0x39,
  0x2b, 0x00, 0x00, 0x00, 0x73, 0x65, 0x71, 0x75, 0x65, 0x6e, 0x74, 0x69,
  0x61, 0x6c, 0x5f, 0x32, 0x2f, 0x64, 0x65, 0x6e, 0x73, 0x65, 0x5f, 0x37,
  0x2f, 0x42, 0x69, 0x61, 0x73, 0x41, 0x64, 0x64, 0x2f, 0x52, 0x65, 0x61,
  0x64, 0x56, 0x61, 0x72, 0x69, 0x61, 0x62, 0x6c, 0x65, 0x4f, 0x70, 0x00,
  0x01, 0x00, 0x00, 0x00, 0x04, 0x00, 0x00, 0x00, 0x92, 0xff, 0xff, 0xff,
  0x00, 0x00, 0x00, 0x01, 0x14, 0x00, 0x00, 0x00, 0x34, 0x00, 0x00, 0x00,
  0x03, 0x00, 0x00, 0x00, 0x00, 0x00, 0x00, 0x09, 0x48, 0x00, 0x00, 0x00,
  0x7c, 0xff, 0xff, 0xff, 0x08, 0x00, 0x00, 0x00, 0x14, 0x00, 0x00, 0x00,
  0x01, 0x00, 0x00, 0x00, 0x00, 0x00, 0x00, 0x00, 0x00, 0x00, 0x00, 0x00,
  0x00, 0x00, 0x00, 0x00, 0x01, 0x00, 0x00, 0x00, 0x62, 0xb4, 0x0d, 0x3d,
  0x1b, 0x00, 0x00, 0x00, 0x73, 0x65, 0x71, 0x75, 0x65, 0x6e, 0x74, 0x69,
  0x61, 0x6c, 0x5f, 0x32, 0x2f, 0x64, 0x65, 0x6e, 0x73, 0x65, 0x5f, 0x38,
  0x2f, 0x4d, 0x61, 0x74, 0x4d, 0x75, 0x6c, 0x00, 0x02, 0x00, 0x00, 0x00,
  0x05, 0x00, 0x00, 0x00, 0x04, 0x00, 0x00, 0x00, 0x00, 0x00, 0x16, 0x00,
  0x1c, 0x00, 0x18, 0x00, 0x17, 0x00, 0x10, 0x00, 0x0c, 0x00, 0x08, 0x00,
  0x00, 0x00, 0x00, 0x00, 0x00, 0x00, 0x07, 0x00, 0x16, 0x00, 0x00, 0x00,
  0x00, 0x00, 0x00, 0x01, 0x20, 0x00, 0x00, 0x00, 0x3c, 0x00, 0x00, 0x00,
  0x02, 0x00, 0x00, 0x00, 0x00, 0x00, 0x00, 0x02, 0x60, 0x00, 0x00, 0x00,
  0x0c, 0x00, 0x0c, 0x00, 0x00, 0x00, 0x00, 0x00, 0x08, 0x00, 0x04, 0x00,
  0x0c, 0x00, 0x00, 0x00, 0x08, 0x00, 0x00, 0x00, 0x10, 0x00, 0x00, 0x00,
  0x01, 0x00, 0x00, 0x00, 0x00, 0x00, 0x00, 0x00, 0x00, 0x00, 0x00, 0x00,
  0x01, 0x00, 0x00, 0x00, 0x18, 0x75, 0xd8, 0x3a, 0x2b, 0x00, 0x00, 0x00,
  0x73, 0x65, 0x71, 0x75, 0x65, 0x6e, 0x74, 0x69, 0x61, 0x6c, 0x5f, 0x32,
  0x2f, 0x64, 0x65, 0x6e, 0x73, 0x65, 0x5f, 0x38, 0x2f, 0x42, 0x69, 0x61,
  0x73, 0x41, 0x64, 0x64, 0x2f, 0x52, 0x65, 0x61, 0x64, 0x56, 0x61, 0x72,
  0x69, 0x61, 0x62, 0x6c, 0x65, 0x4f, 0x70, 0x00, 0x01, 0x00, 0x00, 0x00,
  0x05, 0x00, 0x00, 0x00, 0x00, 0x00, 0x16, 0x00, 0x1c, 0x00, 0x18, 0x00,
  0x00, 0x00, 0x14, 0x00, 0x10, 0x00, 0x0c, 0x00, 0x00, 0x00, 0x00, 0x00,
  0x08, 0x00, 0x07, 0x00, 0x16, 0x00, 0x00, 0x00, 0x00, 0x00, 0x00, 0x01,
  0x14, 0x00, 0x00, 0x00, 0x20, 0x00, 0x00, 0x00, 0x20, 0x00, 0x00, 0x00,
  0x01, 0x00, 0x00, 0x00, 0x3c, 0x00, 0x00, 0x00, 0x02, 0x00, 0x00, 0x00,
  0xff, 0xff, 0xff, 0xff, 0xb4, 0x00, 0x00, 0x00, 0x04, 0x00, 0x04, 0x00,
  0x04, 0x00, 0x00, 0x00, 0x1f, 0x00, 0x00, 0x00, 0x73, 0x65, 0x72, 0x76,
  0x69, 0x6e, 0x67, 0x5f, 0x64, 0x65, 0x66, 0x61, 0x75, 0x6c, 0x74, 0x5f,
  0x64, 0x65, 0x6e, 0x73, 0x65, 0x5f, 0x36, 0x5f, 0x69, 0x6e, 0x70, 0x75,
  0x74, 0x3a, 0x30, 0x00, 0x02, 0x00, 0x00, 0x00, 0x01, 0x00, 0x00, 0x00,
  0xb4, 0x00, 0x00, 0x00, 0x04, 0x00, 0x00, 0x00, 0x58, 0x00, 0x00, 0x00,
  0x38, 0x00, 0x00, 0x00, 0x18, 0x00, 0x00, 0x00, 0x04, 0x00, 0x00, 0x00,
  0xe0, 0xff, 0xff, 0xff, 0x06, 0x00, 0x00, 0x00, 0x02, 0x00, 0x00, 0x00,
  0x00, 0x00, 0x00, 0x06, 0xf0, 0xff, 0xff, 0xff, 0x19, 0x00, 0x00, 0x00,
  0x02, 0x00, 0x00, 0x00, 0x00, 0x00, 0x00, 0x19, 0x0c, 0x00, 0x10, 0x00,
  0x0f, 0x00, 0x00, 0x00, 0x08, 0x00, 0x04, 0x00, 0x0c, 0x00, 0x00, 0x00,
  0x09, 0x00, 0x00, 0x00, 0x04, 0x00, 0x00, 0x00, 0x00, 0x00, 0x00, 0x09,
  0x0c, 0x00, 0x0c, 0x00, 0x0b, 0x00, 0x00, 0x00, 0x00, 0x00, 0x04, 0x00,
  0x0c, 0x00, 0x00, 0x00, 0x72, 0x00, 0x00, 0x00, 0x00, 0x00, 0x00, 0x72
}; 
