const unsigned char gesture_model [] = {  
  0x1c, 0x00, 0x00, 0x00, 0x54, 0x46, 0x4c, 0x33, 0x14, 0x00, 0x20, 0x00,
  0x1c, 0x00, 0x18, 0x00, 0x14, 0x00, 0x10, 0x00, 0x0c, 0x00, 0x00, 0x00,
  0x08, 0x00, 0x04, 0x00, 0x14, 0x00, 0x00, 0x00, 0x1c, 0x00, 0x00, 0x00,
  0x90, 0x00, 0x00, 0x00, 0xe8, 0x00, 0x00, 0x00, 0x6c, 0x1b, 0x00, 0x00,
  0x7c, 0x1b, 0x00, 0x00, 0x38, 0x21, 0x00, 0x00, 0x03, 0x00, 0x00, 0x00,
  0x01, 0x00, 0x00, 0x00, 0x10, 0x00, 0x00, 0x00, 0x00, 0x00, 0x0a, 0x00,
  0x10, 0x00, 0x0c, 0x00, 0x08, 0x00, 0x04, 0x00, 0x0a, 0x00, 0x00, 0x00,
  0x0c, 0x00, 0x00, 0x00, 0x1c, 0x00, 0x00, 0x00, 0x38, 0x00, 0x00, 0x00,
  0x0f, 0x00, 0x00, 0x00, 0x73, 0x65, 0x72, 0x76, 0x69, 0x6e, 0x67, 0x5f,
  0x64, 0x65, 0x66, 0x61, 0x75, 0x6c, 0x74, 0x00, 0x01, 0x00, 0x00, 0x00,
  0x04, 0x00, 0x00, 0x00, 0x98, 0xff, 0xff, 0xff, 0x0a, 0x00, 0x00, 0x00,
  0x04, 0x00, 0x00, 0x00, 0x07, 0x00, 0x00, 0x00, 0x64, 0x65, 0x6e, 0x73,
  0x65, 0x5f, 0x32, 0x00, 0x01, 0x00, 0x00, 0x00, 0x04, 0x00, 0x00, 0x00,
  0x76, 0xe4, 0xff, 0xff, 0x04, 0x00, 0x00, 0x00, 0x0b, 0x00, 0x00, 0x00,
  0x64, 0x65, 0x6e, 0x73, 0x65, 0x5f, 0x69, 0x6e, 0x70, 0x75, 0x74, 0x00,
  0x02, 0x00, 0x00, 0x00, 0x34, 0x00, 0x00, 0x00, 0x04, 0x00, 0x00, 0x00,
  0xdc, 0xff, 0xff, 0xff, 0x0d, 0x00, 0x00, 0x00, 0x04, 0x00, 0x00, 0x00,
  0x13, 0x00, 0x00, 0x00, 0x43, 0x4f, 0x4e, 0x56, 0x45, 0x52, 0x53, 0x49,
  0x4f, 0x4e, 0x5f, 0x4d, 0x45, 0x54, 0x41, 0x44, 0x41, 0x54, 0x41, 0x00,
  0x08, 0x00, 0x0c, 0x00, 0x08, 0x00, 0x04, 0x00, 0x08, 0x00, 0x00, 0x00,
  0x0c, 0x00, 0x00, 0x00, 0x04, 0x00, 0x00, 0x00, 0x13, 0x00, 0x00, 0x00,
  0x6d, 0x69, 0x6e, 0x5f, 0x72, 0x75, 0x6e, 0x74, 0x69, 0x6d, 0x65, 0x5f,
  0x76, 0x65, 0x72, 0x73, 0x69, 0x6f, 0x6e, 0x00, 0x0e, 0x00, 0x00, 0x00,
  0x80, 0x1a, 0x00, 0x00, 0x78, 0x1a, 0x00, 0x00, 0x48, 0x1a, 0x00, 0x00,
  0x28, 0x1a, 0x00, 0x00, 0xd8, 0x19, 0x00, 0x00, 0x48, 0x03, 0x00, 0x00,
  0x38, 0x01, 0x00, 0x00, 0xa8, 0x00, 0x00, 0x00, 0xa0, 0x00, 0x00, 0x00,
  0x98, 0x00, 0x00, 0x00, 0x90, 0x00, 0x00, 0x00, 0x88, 0x00, 0x00, 0x00,
  0x68, 0x00, 0x00, 0x00, 0x04, 0x00, 0x00, 0x00, 0x26, 0xe5, 0xff, 0xff,
  0x04, 0x00, 0x00, 0x00, 0x54, 0x00, 0x00, 0x00, 0x0c, 0x00, 0x00, 0x00,
  0x08, 0x00, 0x0e, 0x00, 0x08, 0x00, 0x04, 0x00, 0x08, 0x00, 0x00, 0x00,
  0x10, 0x00, 0x00, 0x00, 0x24, 0x00, 0x00, 0x00, 0x00, 0x00, 0x06, 0x00,
  0x08, 0x00, 0x04, 0x00, 0x06, 0x00, 0x00, 0x00, 0x04, 0x00, 0x00, 0x00,
  0x00, 0x00, 0x00, 0x00, 0x00, 0x00, 0x0a, 0x00, 0x10, 0x00, 0x0c, 0x00,
  0x08, 0x00, 0x04, 0x00, 0x0a, 0x00, 0x00, 0x00, 0x02, 0x00, 0x00, 0x00,
  0x02, 0x00, 0x00, 0x00, 0x04, 0x00, 0x00, 0x00, 0x06, 0x00, 0x00, 0x00,
  0x32, 0x2e, 0x31, 0x30, 0x2e, 0x30, 0x00, 0x00, 0x86, 0xe5, 0xff, 0xff,
  0x04, 0x00, 0x00, 0x00, 0x10, 0x00, 0x00, 0x00, 0x31, 0x2e, 0x35, 0x2e,
  0x30, 0x00, 0x00, 0x00, 0x00, 0x00, 0x00, 0x00, 0x00, 0x00, 0x00, 0x00,
  0x94, 0xe0, 0xff, 0xff, 0x98, 0xe0, 0xff, 0xff, 0x9c, 0xe0, 0xff, 0xff,
  0xa0, 0xe0, 0xff, 0xff, 0xb2, 0xe5, 0xff, 0xff, 0x04, 0x00, 0x00, 0x00,
  0x80, 0x00, 0x00, 0x00, 0x77, 0x5f, 0xb8, 0xbe, 0x73, 0xc0, 0x2d, 0x3d,
  0x74, 0x76, 0x29, 0x3e, 0xa3, 0x41, 0xc0, 0xbf, 0x1b, 0x7d, 0xcd, 0xbf,
  0xa8, 0x7a, 0x09, 0xc0, 0xe3, 0x7c, 0x36, 0x3f, 0x46, 0x30, 0x67, 0xbf,
  0x78, 0x30, 0x1c, 0xbf, 0xa3, 0x3c, 0x1c, 0xbd, 0x82, 0x5e, 0xcd, 0x3e,
  0xef, 0x71, 0x3d, 0xbc, 0x2f, 0xba, 0xd9, 0xbe, 0x96, 0x0c, 0x4f, 0x3f,
  0xab, 0xa9, 0xc5, 0xbf, 0x5e, 0x54, 0x8a, 0xbf, 0x0d, 0xff, 0xf7, 0xbe,
  0xa0, 0xbb, 0x88, 0xbf, 0x36, 0x48, 0x1c, 0xbf, 0x9f, 0xc5, 0xd9, 0xbe,
  0xa5, 0x62, 0xa0, 0xbf, 0x63, 0x9c, 0x2f, 0xbe, 0x78, 0xd3, 0xbe, 0x3c,
  0x07, 0x33, 0x46, 0x3f, 0xaf, 0xec, 0x28, 0xbf, 0xa9, 0xd1, 0x60, 0x3f,
  0xc8, 0xa7, 0x2e, 0x3e, 0x83, 0x35, 0x99, 0xbd, 0x30, 0xca, 0x4f, 0x3e,
  0x21, 0x44, 0x47, 0xbf, 0x3a, 0x71, 0x03, 0xbf, 0xa1, 0xf5, 0xdf, 0x3e,
  0x3e, 0xe6, 0xff, 0xff, 0x04, 0x00, 0x00, 0x00, 0x00, 0x02, 0x00, 0x00,
  0x48, 0x4c, 0xa9, 0x3e, 0x50, 0x81, 0xee, 0xbe, 0xf0, 0x3f, 0xd1, 0xbd,
  0x20, 0xe4, 0x4d, 0xbe, 0xa0, 0xc7, 0x2c, 0xbd, 0xd0, 0x8c, 0xc9, 0xbd,
  0xf8, 0x3f, 0xc8, 0xbe, 0xc0, 0xe5, 0xc9, 0xbc, 0x50, 0x2e, 0x2e, 0x3e,
  0x80, 0xe2, 0xa6, 0x3c, 0x10, 0x01, 0x0a, 0x3e, 0x10, 0x8c, 0xf6, 0x3d,
  0xe0, 0xaa, 0x40, 0x3e, 0x40, 0x2a, 0xd7, 0x3d, 0x78, 0x05, 0xf7, 0xbe,
  0x58, 0x07, 0x0c, 0xbe, 0x60, 0x09, 0x70, 0xbd, 0x60, 0xba, 0x5a, 0xbe,
  0x30, 0x5a, 0xce, 0x3e, 0x20, 0x97, 0xdf, 0x3e, 0xd8, 0x8f, 0x91, 0x3e,
  0x78, 0xea, 0xa8, 0xbe, 0x0d, 0xc9, 0xe4, 0xbd, 0x80, 0xff, 0x98, 0xbe,
  0x28, 0x3e, 0x37, 0xbe, 0xb8, 0x46, 0xbe, 0xbe, 0x7c, 0xb2, 0xeb, 0xbe,
  0x78, 0xd3, 0x1c, 0x3e, 0xf8, 0x32, 0x03, 0x3e, 0xcc, 0x8d, 0x9e, 0x3e,
  0x50, 0x86, 0x76, 0x3e, 0xde, 0xa1, 0x06, 0x3c, 0x10, 0x35, 0x0b, 0xbe,
  0x70, 0x56, 0x96, 0xbe, 0xa0, 0x6b, 0xa2, 0xbd, 0x40, 0x6d, 0xea, 0xbc,
  0x1c, 0x99, 0xb1, 0xbe, 0x88, 0xbb, 0x20, 0xbe, 0xc8, 0xe9, 0x29, 0xbe,
  0x50, 0xf1, 0xda, 0x3e, 0x90, 0xb2, 0xaa, 0xbe, 0x38, 0xa6, 0x1b, 0xbe,
  0xa4, 0xc5, 0xd7, 0x3e, 0x20, 0x23, 0xfd, 0xbe, 0xcc, 0x64, 0xee, 0xbe,
  0x8c, 0x67, 0xbe, 0xbe, 0xf8, 0xea, 0x6e, 0x3e, 0x5c, 0x34, 0xc3, 0xbe,
  0x68, 0x61, 0x51, 0xbe, 0x50, 0xea, 0x40, 0xbe, 0xf6, 0x75, 0x52, 0x3f,
  0x98, 0xc8, 0xe5, 0xbe, 0x44, 0x22, 0x90, 0xbe, 0xb4, 0x8a, 0xbd, 0x3e,
  0xb7, 0x78, 0xf5, 0x3e, 0x77, 0x53, 0x1a, 0x3e, 0x40, 0x3e, 0x6a, 0x3d,
  0x10, 0xb1, 0x6e, 0x3e, 0x4d, 0x34, 0x4b, 0x3e, 0x40, 0x66, 0x5d, 0xbd,
  0x74, 0x7f, 0x82, 0xbe, 0xe0, 0x12, 0x64, 0xbe, 0xc0, 0xdf, 0xfb, 0xbd,
  0xd3, 0x6f, 0x1d, 0xbe, 0xd0, 0xf5, 0xb4, 0x3d, 0x84, 0x1c, 0xb1, 0xbe,
  0xd4, 0x37, 0x87, 0x3f, 0x20, 0x77, 0xdb, 0xbe, 0xf0, 0x2b, 0xb6, 0xbe,
  0xd4, 0x7c, 0x9b, 0x3e, 0xd9, 0x79, 0x7d, 0x3e, 0xa7, 0x21, 0x4c, 0xbe,
  0x18, 0xa4, 0x2f, 0x3e, 0x00, 0xa0, 0x30, 0xbd, 0x66, 0xd9, 0xc0, 0xbd,
  0xe8, 0x5d, 0x04, 0x3e, 0x94, 0xc3, 0x97, 0x3e, 0x74, 0x6a, 0x87, 0xbe,
  0xc4, 0xf5, 0xa2, 0x3e, 0x8b, 0xe6, 0xaf, 0xbe, 0xc0, 0x1d, 0xa8, 0x3d,
  0xac, 0xc5, 0xc2, 0x3e, 0xfc, 0xfe, 0xc7, 0x3d, 0xf8, 0x4a, 0x9f, 0xbe,
  0xbc, 0x3f, 0xa8, 0xbe, 0x00, 0x38, 0x74, 0x3c, 0xb4, 0x66, 0x22, 0x3f,
  0x18, 0xbf, 0xb9, 0x3f, 0xd0, 0x7b, 0xc6, 0xbd, 0xc8, 0x71, 0x81, 0x3e,
  0xad, 0xd9, 0x9d, 0x3e, 0x20, 0x5a, 0x3b, 0xbd, 0x94, 0x5f, 0xbe, 0x3e,
  0x10, 0x56, 0x15, 0x3e, 0x60, 0xa4, 0x75, 0x3d, 0x87, 0x5e, 0xa6, 0x3b,
  0xc0, 0xdf, 0xb2, 0x3c, 0x84, 0x97, 0xf0, 0xbe, 0x37, 0x79, 0x8c, 0xbe,
  0x20, 0x0b, 0x38, 0xbe, 0x18, 0xaf, 0x76, 0x3e, 0x80, 0xc6, 0x19, 0xbd,
  0x58, 0xf8, 0x8b, 0x3c, 0x5e, 0x2b, 0x0d, 0xbf, 0x20, 0xa4, 0x3a, 0xbe,
  0x00, 0x23, 0x48, 0x3c, 0xa4, 0xb2, 0x5c, 0xbe, 0x0c, 0xc9, 0xe4, 0x3e,
  0xc0, 0x90, 0xcd, 0x3c, 0x10, 0x28, 0xe7, 0x3e, 0x14, 0x2b, 0xb0, 0x3e,
  0x57, 0x95, 0x89, 0x3f, 0x00, 0x08, 0x3e, 0xba, 0xf4, 0x45, 0xe2, 0xbe,
  0x46, 0x07, 0xd2, 0xbd, 0x80, 0xcb, 0x2e, 0x3c, 0x5c, 0x81, 0xbc, 0xbe,
  0x80, 0x4b, 0x0e, 0x3e, 0x43, 0x0e, 0x36, 0x3f, 0x16, 0x79, 0x63, 0xbf,
  0xd4, 0x9f, 0xf9, 0xbe, 0x18, 0x4d, 0x18, 0x3e, 0xbc, 0x37, 0x66, 0xbe,
  0x00, 0x74, 0xe8, 0xbd, 0xf4, 0xd7, 0xf4, 0xbe, 0x60, 0xf5, 0x28, 0x3d,
  0xb8, 0xa8, 0x33, 0x3e, 0x07, 0x7a, 0xd1, 0x3c, 0x4a, 0xe8, 0xff, 0xff,
  0x04, 0x00, 0x00, 0x00, 0x80, 0x16, 0x00, 0x00, 0x7a, 0xb6, 0xfb, 0x3d,
  0x72, 0xef, 0x13, 0xbe, 0xe7, 0x2f, 0x25, 0x3e, 0xc4, 0xe8, 0x2f, 0x3d,
  0xb3, 0x44, 0x62, 0xbe, 0xf4, 0x89, 0x6f, 0x3d, 0x1f, 0xed, 0x41, 0xbe,
  0x98, 0x41, 0x8a, 0x3c, 0x40, 0x5e, 0x0c, 0xbe, 0xf6, 0x22, 0x92, 0xbd,
  0x7f, 0xd9, 0x72, 0x3e, 0x4e, 0xd9, 0x8c, 0x3d, 0x52, 0x68, 0xb7, 0xbd,
  0xd9, 0xc0, 0x52, 0x3e, 0x08, 0x4f, 0x40, 0xbe, 0x86, 0x3b, 0x93, 0xbd,
  0x4a, 0x0e, 0x35, 0xbe, 0x20, 0xd4, 0x42, 0x3c, 0x0d, 0x03, 0x2b, 0x3e,
  0xc0, 0x88, 0x32, 0xbc, 0xa5, 0x3f, 0x43, 0x3e, 0x38, 0x18, 0x0a, 0xbe,
  0x4c, 0x55, 0x2e, 0xbe, 0x96, 0x59, 0x3b, 0xbe, 0xb9, 0x51, 0x58, 0x3e,
  0x1f, 0x89, 0x69, 0x3e, 0x1a, 0x97, 0xb5, 0x3d, 0x79, 0x7e, 0x61, 0xbe,
  0x3a, 0x5e, 0x89, 0xbd, 0x57, 0xb2, 0x3d, 0x3e, 0x6b, 0xb6, 0x3c, 0xbe,
  0x4e, 0xdc, 0xf4, 0xbd, 0x5a, 0x4d, 0x44, 0xbe, 0x11, 0x01, 0x50, 0xbe,
  0xe4, 0xcb, 0x54, 0xbe, 0x82, 0x99, 0xae, 0x3d, 0x37, 0xd7, 0x48, 0xbe,
  0xd8, 0x10, 0xd7, 0xbc, 0xc0, 0x6e, 0xca, 0x3b, 0xd4, 0x75, 0x4c, 0x3d,
  0xee, 0xa9, 0x8f, 0x3d, 0x2e, 0xa5, 0x8c, 0x3d, 0x1c, 0x67, 0xa0, 0xbd,
  0x6e, 0x52, 0xb7, 0xbd, 0xc6, 0x11, 0x9b, 0xbd, 0xe8, 0xb8, 0xba, 0xbc,
  0x40, 0x0e, 0xb8, 0xbb, 0x3f, 0x0a, 0x62, 0xbe, 0x52, 0x93, 0xae, 0x3d,
  0x40, 0x73, 0x86, 0xbb, 0xdc, 0x9b, 0x03, 0xbd, 0x66, 0x56, 0x4c, 0xbe,
  0xa3, 0x7e, 0x33, 0x3e, 0x00, 0x87, 0x56, 0x3a, 0x88, 0x8a, 0x1f, 0xbe,
  0x38, 0x03, 0xa4, 0xbc, 0x00, 0xc9, 0xf8, 0xba, 0xeb, 0x0e, 0x10, 0x3e,
  0xf1, 0xd9, 0x55, 0x3e, 0x37, 0x66, 0xe8, 0xbd, 0x45, 0x0a, 0x6f, 0x3e,
  0x16, 0x48, 0xad, 0xbd, 0xad, 0xc5, 0x54, 0xbe, 0x14, 0x42, 0x68, 0xbe,
  0xae, 0x5b, 0x10, 0xbe, 0xe6, 0x90, 0xe4, 0x3d, 0x30, 0xbf, 0x39, 0x3c,
  0xb4, 0x0b, 0x61, 0xbd, 0xc0, 0x27, 0x57, 0xbd, 0x60, 0xdb, 0x92, 0xbb,
  0xe9, 0x31, 0x69, 0x3e, 0x8e, 0xf9, 0x45, 0xbe, 0x70, 0xb4, 0x5a, 0xbc,
  0x49, 0x82, 0x08, 0x3e, 0x8a, 0xaf, 0x2a, 0xbe, 0x24, 0x6a, 0xd2, 0xbd,
  0x42, 0xb3, 0xcc, 0xbd, 0x5e, 0x1a, 0x30, 0xbe, 0x45, 0xf8, 0x57, 0xbe,
  0x03, 0xca, 0x43, 0x3e, 0xe3, 0xb5, 0x39, 0x3e, 0x1a, 0x73, 0xb2, 0xbd,
  0x4a, 0xfd, 0xdd, 0x3d, 0xeb, 0xf5, 0x68, 0x3e, 0xe0, 0x26, 0x0b, 0x3c,
  0xac, 0xcf, 0xc8, 0xbd, 0xb8, 0xe7, 0x39, 0xbe, 0x18, 0x05, 0xd1, 0xbc,
  0xb1, 0xe3, 0x4b, 0x3e, 0x80, 0xf8, 0x44, 0x3c, 0xa8, 0xd1, 0xe5, 0xbc,
  0x42, 0xec, 0x3d, 0xbe, 0xd4, 0xde, 0x51, 0xbe, 0x1a, 0xa5, 0x67, 0xbe,
  0xc1, 0xa5, 0x6c, 0xbe, 0x74, 0x04, 0x76, 0x3d, 0x34, 0xeb, 0xac, 0xbd,
  0xf0, 0x62, 0x79, 0x3c, 0x14, 0x40, 0xeb, 0xbd, 0x6d, 0xa2, 0x48, 0xbe,
  0x98, 0x28, 0x22, 0xbe, 0x7c, 0x9d, 0x37, 0x3d, 0xdc, 0x0e, 0x4e, 0xbd,
  0x61, 0x74, 0x19, 0x3e, 0x68, 0x46, 0xd7, 0x3c, 0x66, 0x11, 0xe9, 0x3d,
  0x2a, 0x8d, 0xba, 0x3d, 0x3a, 0x8d, 0x1a, 0xbe, 0x90, 0x42, 0x33, 0xbe,
  0xba, 0x44, 0x30, 0xbe, 0x27, 0xbc, 0x5c, 0xbe, 0x95, 0xef, 0x6c, 0xbe,
  0x54, 0x7d, 0x4c, 0xbe, 0x8c, 0x77, 0x33, 0x3d, 0x32, 0xb0, 0xdf, 0x3d,
  0xf4, 0x04, 0x7f, 0xbd, 0x53, 0x7d, 0x5d, 0x3e, 0xa2, 0xfb, 0xe6, 0xbd,
  0x19, 0xba, 0x4e, 0x3e, 0xa0, 0x58, 0xef, 0xbc, 0x63, 0xf6, 0x3c, 0x3e,
  0x00, 0x3e, 0xb8, 0xbd, 0x9d, 0x33, 0x5e, 0x3e, 0xda, 0x32, 0x50, 0xbe,
  0x66, 0xe8, 0x93, 0xbd, 0xa1, 0x57, 0x4a, 0x3e, 0xe1, 0xc1, 0x37, 0x3e,
  0x78, 0x43, 0xf5, 0xbd, 0xcb, 0x94, 0x3e, 0x3e, 0x1b, 0x7a, 0x0f, 0x3e,
  0x63, 0xbe, 0x22, 0x3e, 0xec, 0x6f, 0x5a, 0xbe, 0x18, 0xbb, 0x01, 0xbe,
  0xf6, 0x10, 0xdb, 0x3d, 0x68, 0x1a, 0x9c, 0x3c, 0xe0, 0xac, 0x38, 0x3c,
  0x89, 0x85, 0x52, 0xbe, 0x01, 0xc8, 0x65, 0x3e, 0xad, 0xde, 0x44, 0xbe,
  0x53, 0x78, 0x18, 0x3e, 0x8a, 0xc7, 0xd7, 0xbd, 0x6a, 0x8f, 0xe5, 0xbd,
  0x68, 0x4f, 0x2a, 0xbe, 0x1c, 0xfa, 0x8e, 0xbd, 0x63, 0xb1, 0x0a, 0x3e,
  0xd1, 0x0b, 0x5f, 0xbe, 0xbf, 0x8f, 0x5d, 0xbe, 0x16, 0x05, 0x8e, 0x3d,
  0x8f, 0x83, 0x41, 0x3e, 0xc5, 0x4b, 0x3d, 0xbe, 0xf2, 0xd4, 0x81, 0x3d,
  0x7a, 0xa0, 0x97, 0x3d, 0x98, 0x01, 0xd9, 0x3c, 0x88, 0x65, 0x0d, 0xbd,
  0xbb, 0x8f, 0x4a, 0x3e, 0xc0, 0xea, 0x0c, 0xbb, 0x24, 0xf0, 0xdf, 0xbd,
  0xe7, 0x7f, 0x09, 0x3e, 0xf5, 0xaf, 0x43, 0x3e, 0xd8, 0xef, 0xe0, 0x3c,
  0x2d, 0xea, 0x42, 0xbe, 0x28, 0xda, 0xd4, 0x3c, 0xbe, 0xd0, 0x8b, 0x3d,
  0x60, 0x89, 0xd8, 0xbb, 0x98, 0xfe, 0xc2, 0xbc, 0x68, 0xe2, 0xe0, 0x3c,
  0x86, 0xae, 0x92, 0xbd, 0x0d, 0x59, 0x6e, 0x3e, 0x7a, 0x90, 0xc9, 0xbd,
  0x4b, 0x41, 0x49, 0xbe, 0x73, 0xde, 0x53, 0x3e, 0x68, 0x38, 0xc0, 0xbc,
  0x48, 0x58, 0x47, 0xbd, 0xa5, 0x23, 0x63, 0x3e, 0x61, 0xfd, 0x3a, 0x3e,
  0xc7, 0xd0, 0x60, 0x3e, 0x4c, 0xcc, 0x9b, 0xbd, 0x9c, 0xf9, 0x54, 0x3d,
  0x7c, 0xf0, 0x05, 0xbe, 0xbc, 0xc0, 0x24, 0xbe, 0x60, 0xbb, 0x95, 0xbd,
  0xa1, 0x6b, 0xf1, 0x3e, 0xdc, 0x84, 0x6d, 0x3e, 0xb1, 0xe0, 0x7b, 0x3e,
  0x98, 0x2b, 0x18, 0xbd, 0x3f, 0xe4, 0xf3, 0x3d, 0x64, 0x25, 0x42, 0xbd,
  0xad, 0xef, 0x8f, 0x3e, 0x73, 0x6d, 0xe8, 0x3e, 0x02, 0x27, 0x40, 0x3e,
  0xfd, 0xc4, 0xc0, 0x3e, 0x04, 0x71, 0x68, 0xbd, 0xf8, 0x23, 0x91, 0x3d,
  0xdf, 0xe7, 0xa8, 0x3e, 0x0b, 0xae, 0xcb, 0x3e, 0x69, 0x31, 0x26, 0x3e,
  0x05, 0x30, 0x99, 0x3b, 0xe4, 0x19, 0x81, 0x3d, 0x8a, 0x2f, 0x2c, 0xbe,
  0x23, 0x9b, 0x8e, 0x3d, 0xc5, 0xec, 0x9b, 0x3e, 0xa3, 0x88, 0x08, 0x3d,
  0xd7, 0x41, 0xa9, 0x3e, 0x0a, 0xcf, 0x99, 0xbe, 0x25, 0xd4, 0x74, 0xbd,
  0x63, 0xd6, 0x42, 0xbe, 0x1c, 0xb6, 0x19, 0x3e, 0xb3, 0x3a, 0xf0, 0xbd,
  0xdf, 0x2e, 0x17, 0x3e, 0x51, 0xc8, 0xc7, 0xbd, 0x63, 0x23, 0x81, 0x3e,
  0x83, 0xe8, 0x6c, 0xbe, 0xc2, 0x99, 0xb4, 0xbc, 0xc8, 0xa8, 0x05, 0xbe,
  0x73, 0xf4, 0xa0, 0x3e, 0xcf, 0x68, 0x06, 0xbe, 0xf7, 0x5f, 0xce, 0xbd,
  0xfa, 0x19, 0x21, 0xbf, 0x95, 0x0c, 0x7e, 0x3a, 0x62, 0x75, 0x86, 0x3e,
  0x2d, 0x9c, 0x9c, 0x3e, 0x09, 0xfc, 0x17, 0xbd, 0x4d, 0x06, 0x92, 0x3d,
  0x98, 0x80, 0x90, 0xbe, 0xb3, 0x54, 0x58, 0x3e, 0xe0, 0x1d, 0x45, 0x3e,
  0x08, 0x96, 0x47, 0x3d, 0x0e, 0xa5, 0x14, 0xbe, 0x42, 0x95, 0x47, 0x3e,
  0x65, 0x82, 0x0f, 0xbf, 0xab, 0x09, 0x74, 0xbd, 0x87, 0x48, 0x5e, 0x3d,
  0x58, 0x11, 0x8e, 0x3d, 0x96, 0x95, 0x07, 0x3e, 0xe4, 0xd0, 0x43, 0xbc,
  0xdb, 0x00, 0x15, 0xbe, 0x49, 0x52, 0x0c, 0x3e, 0xde, 0x88, 0xa6, 0xbd,
  0xa7, 0xb0, 0x89, 0x3e, 0x50, 0x84, 0x80, 0x3d, 0x2d, 0x93, 0x9f, 0x3e,
  0x03, 0x86, 0x0b, 0xbf, 0x32, 0xe0, 0xda, 0xbd, 0x10, 0x2c, 0xdb, 0x3c,
  0x70, 0xbf, 0xc2, 0x3e, 0x47, 0x55, 0x41, 0x3e, 0xec, 0x77, 0x40, 0x3e,
  0x69, 0x39, 0xaa, 0xbe, 0x43, 0x7a, 0xc2, 0xbc, 0x4b, 0x60, 0x5f, 0x3e,
  0xb5, 0x38, 0xba, 0x3e, 0x63, 0x13, 0x53, 0xbe, 0x76, 0xe4, 0x25, 0x3e,
  0x45, 0xca, 0x73, 0xbe, 0x55, 0x05, 0x3e, 0xbc, 0x83, 0xf3, 0x88, 0x3e,
  0x1d, 0x52, 0xe6, 0x3a, 0xe4, 0x20, 0x57, 0xbe, 0xbe, 0xad, 0xa5, 0xbd,
  0x38, 0xca, 0xc2, 0xbb, 0x57, 0xba, 0xd3, 0xbe, 0x3d, 0x73, 0x6d, 0x3e,
  0x7a, 0xce, 0xc5, 0xbc, 0xd5, 0xc3, 0xfe, 0xbd, 0xce, 0x47, 0xed, 0x3d,
  0xe2, 0x20, 0x29, 0x3b, 0x3f, 0x53, 0x04, 0xbe, 0x08, 0xc9, 0x5e, 0x3e,
  0x90, 0x2a, 0xb1, 0x3e, 0x36, 0x0b, 0x88, 0x3d, 0x14, 0x18, 0x78, 0xbd,
  0x4e, 0x67, 0x90, 0x3d, 0x0c, 0xaa, 0x4b, 0x3d, 0xe7, 0x90, 0x6f, 0x3e,
  0x43, 0x56, 0x07, 0xbe, 0x14, 0x86, 0x45, 0xbd, 0xa7, 0x07, 0x37, 0xbe,
  0xf6, 0x93, 0xf7, 0x3d, 0x34, 0x75, 0x26, 0xbe, 0x93, 0x2a, 0x62, 0xbe,
  0xb8, 0x54, 0x70, 0xbe, 0x27, 0x09, 0xfe, 0xbd, 0x70, 0x38, 0x86, 0xbd,
  0xe4, 0xaf, 0x6e, 0x3d, 0x3a, 0xee, 0x27, 0xbe, 0x1d, 0xf9, 0x67, 0xbe,
  0x3e, 0xf9, 0x2c, 0xbe, 0x14, 0x98, 0xff, 0xbd, 0x30, 0x8c, 0x58, 0xbc,
  0xa7, 0xdc, 0x0d, 0xbe, 0xc0, 0x6d, 0x4f, 0xbe, 0x88, 0x75, 0x17, 0xbe,
  0x12, 0x8f, 0xfc, 0x3d, 0x5d, 0x8e, 0x57, 0x3e, 0xe0, 0x44, 0xb8, 0x3b,
  0xf1, 0x84, 0x66, 0xbe, 0x88, 0xeb, 0xf1, 0x3c, 0xee, 0x01, 0x90, 0x3d,
  0xa5, 0x58, 0x42, 0xbe, 0x43, 0x33, 0x01, 0x3e, 0xf6, 0x2f, 0xf6, 0x3d,
  0x3b, 0xa9, 0x68, 0xbe, 0x24, 0x7b, 0x42, 0xbd, 0x36, 0xb8, 0x8b, 0x3d,
  0xab, 0xfe, 0x55, 0x3e, 0xac, 0x0d, 0x4f, 0x3d, 0xa1, 0x5c, 0x43, 0x3e,
  0x85, 0xc7, 0x53, 0x3e, 0xc2, 0x95, 0x61, 0xbe, 0xb4, 0x34, 0x0f, 0x3d,
  0x0b, 0xe2, 0x32, 0x3e, 0x81, 0xfb, 0x4a, 0xbe, 0x6b, 0xe6, 0x6a, 0x3e,
  0xb4, 0x52, 0x52, 0xbd, 0x2c, 0x67, 0x29, 0xbe, 0x74, 0x86, 0x07, 0xbe,
  0x20, 0x4d, 0xbd, 0xbd, 0x66, 0xc2, 0x9b, 0x3d, 0x7c, 0x65, 0x27, 0xbe,
  0x32, 0x7c, 0x52, 0xbe, 0x02, 0xf5, 0x2c, 0xbe, 0xc6, 0x3f, 0x37, 0xbe,
  0x0e, 0xce, 0xf3, 0x3d, 0x01, 0xbc, 0x51, 0x3e, 0x80, 0xe6, 0xfc, 0xbc,
  0x78, 0x67, 0x52, 0xbe, 0x98, 0x00, 0xc7, 0xbc, 0x4a, 0x47, 0x20, 0xbe,
  0x52, 0x7e, 0xe0, 0x3d, 0xb2, 0x40, 0x8b, 0x3d, 0x98, 0xf5, 0xdf, 0x3c,
  0xc0, 0x20, 0x1f, 0xbb, 0xb9, 0x9b, 0x2f, 0x3e, 0x33, 0xf0, 0x0b, 0x3e,
  0x64, 0x88, 0x34, 0x3d, 0x7b, 0x1f, 0x62, 0xbe, 0x03, 0xa2, 0x15, 0xbe,
  0x80, 0x45, 0x16, 0xbd, 0x18, 0x3e, 0x9d, 0x3c, 0x08, 0xb2, 0x4a, 0xbe,
  0x10, 0x10, 0x02, 0x3c, 0xb4, 0xcc, 0xb2, 0xbd, 0x75, 0xa1, 0x3f, 0xbe,
  0xae, 0xe5, 0xb3, 0x3d, 0xd2, 0x17, 0x1c, 0xbe, 0xcc, 0xc4, 0x62, 0xbd,
  0xd2, 0x18, 0xba, 0xbd, 0x58, 0x3d, 0xaf, 0xbd, 0xf0, 0x21, 0x3d, 0x3c,
  0x95, 0x13, 0x04, 0x3e, 0x50, 0xe3, 0x03, 0x3c, 0xd4, 0x39, 0x59, 0xbe,
  0x90, 0x1d, 0x15, 0xbc, 0x50, 0xd2, 0x1f, 0xbc, 0x14, 0xcb, 0x09, 0x3d,
  0x6f, 0x6d, 0x1f, 0x3e, 0xd6, 0xcc, 0xe1, 0x3d, 0x74, 0xd6, 0x3a, 0x3d,
  0x10, 0x83, 0x25, 0x3c, 0x34, 0x54, 0x2c, 0xbe, 0xdf, 0x67, 0x06, 0x3e,
  0xb8, 0x7a, 0xb7, 0x3c, 0xdc, 0x01, 0x57, 0x3d, 0x48, 0x33, 0x1e, 0xbe,
  0xe4, 0x84, 0x9b, 0xbd, 0x22, 0xe5, 0xa2, 0x3d, 0x71, 0x8f, 0x3d, 0x3e,
  0x5a, 0x47, 0x93, 0x3d, 0x4e, 0x7d, 0x54, 0xbe, 0x2b, 0x8f, 0x66, 0x3e,
  0x53, 0xd1, 0x08, 0x3e, 0x28, 0x56, 0x0c, 0xbe, 0x5a, 0x04, 0x81, 0x3d,
  0x81, 0xfa, 0x55, 0x3e, 0xdf, 0xf7, 0x05, 0x3e, 0x7b, 0x0e, 0x59, 0xbe,
  0x58, 0x3f, 0xda, 0xbc, 0x86, 0xac, 0xd1, 0x3d, 0x3f, 0x09, 0x5f, 0x3e,
  0x7a, 0x1f, 0xa7, 0xbd, 0x20, 0xcb, 0x3c, 0x3c, 0x66, 0xec, 0x53, 0xbe,
  0x30, 0xe6, 0x49, 0x3c, 0x08, 0x3f, 0x64, 0xbd, 0xc8, 0x4f, 0x42, 0xbd,
  0xfc, 0x97, 0x92, 0xbd, 0x30, 0x1d, 0xc4, 0xbd, 0x78, 0x04, 0x21, 0xbd,
  0xef, 0xa0, 0x21, 0x3e, 0xb1, 0x40, 0x0a, 0xbe, 0xc2, 0x21, 0x71, 0xbe,
  0x30, 0x81, 0xa4, 0xbc, 0xc0, 0xe3, 0x2e, 0xbe, 0x02, 0x7c, 0x1e, 0xbe,
  0x7e, 0x68, 0x4d, 0xbe, 0xd0, 0x90, 0x49, 0x3c, 0xd7, 0x6e, 0x44, 0x3e,
  0x70, 0x76, 0x8b, 0xbc, 0xc7, 0xb0, 0x24, 0xbe, 0xb8, 0x63, 0xab, 0xbd,
  0xc1, 0x31, 0x54, 0xbe, 0xc6, 0x6a, 0x4b, 0xbe, 0x78, 0x5a, 0xda, 0x3c,
  0x54, 0x14, 0x21, 0x3d, 0x44, 0xc9, 0x4e, 0x3d, 0x28, 0x82, 0x43, 0xbd,
  0xb9, 0xf5, 0x72, 0x3e, 0xef, 0xdd, 0x12, 0x3e, 0x2e, 0xec, 0x61, 0xbe,
  0x12, 0x53, 0xa0, 0x3d, 0xc6, 0x9d, 0x51, 0xbe, 0x57, 0x1a, 0x42, 0x3e,
  0xa0, 0x18, 0x71, 0xbe, 0x13, 0x7b, 0x31, 0x3e, 0x1a, 0x4d, 0x26, 0xbe,
  0x44, 0x42, 0x70, 0x3d, 0x0b, 0xcd, 0x34, 0xbe, 0x8b, 0x7e, 0x58, 0xbe,
  0x97, 0xa2, 0x61, 0x3e, 0xd0, 0x25, 0x77, 0xbd, 0x27, 0x10, 0x39, 0x3e,
  0x5e, 0x01, 0x18, 0xbe, 0x8c, 0x86, 0xe6, 0xbd, 0x52, 0x68, 0xc0, 0xbd,
  0x32, 0x08, 0xbc, 0x3d, 0x36, 0x37, 0xd1, 0x3d, 0xa5, 0x22, 0x4f, 0xbe,
  0xe9, 0xaf, 0x57, 0x3e, 0x88, 0x03, 0x00, 0xbe, 0x34, 0xbd, 0x08, 0x3d,
  0xd8, 0x0a, 0xc3, 0x3c, 0x57, 0x08, 0x2c, 0xbe, 0x60, 0x90, 0xa4, 0xbd,
  0x50, 0xb5, 0xc2, 0xbc, 0xda, 0x35, 0xfe, 0xbd, 0xb8, 0xa8, 0xa9, 0xbd,
  0x00, 0x6c, 0x36, 0x3a, 0x2a, 0x53, 0x9c, 0xbd, 0xa9, 0x14, 0x6b, 0xbe,
  0x8a, 0xf7, 0x11, 0xbe, 0x06, 0x5f, 0xd3, 0x3d, 0x9a, 0xba, 0x34, 0xbe,
  0xda, 0xd1, 0xa8, 0xbd, 0x6a, 0xea, 0x81, 0xbd, 0xd4, 0x82, 0x65, 0x3d,
  0x4c, 0xec, 0x67, 0xbe, 0x46, 0x75, 0xf0, 0x3d, 0x65, 0xd1, 0x08, 0x3e,
  0x15, 0x1e, 0x12, 0x3e, 0xa0, 0x39, 0x2f, 0xbe, 0x32, 0x80, 0x53, 0xbe,
  0x36, 0x19, 0xc3, 0xbd, 0x82, 0x51, 0xe8, 0x3d, 0xf7, 0x7a, 0x5b, 0xbe,
  0x7e, 0x40, 0x08, 0xbe, 0xd4, 0x2a, 0x59, 0x3d, 0xed, 0xc3, 0x07, 0xbe,
  0xc2, 0x35, 0xb9, 0xbd, 0x02, 0x00, 0xfa, 0x3d, 0x23, 0x6d, 0x3d, 0xbe,
  0x52, 0x2a, 0xa9, 0x3d, 0xab, 0x87, 0x04, 0x3e, 0x70, 0x28, 0x0e, 0xbd,
  0x08, 0xe3, 0xd7, 0x3c, 0x64, 0x6c, 0x66, 0x3d, 0x31, 0xec, 0x5d, 0x3e,
  0xac, 0x0a, 0x55, 0x3d, 0x30, 0xc1, 0x34, 0xbd, 0x8c, 0x0f, 0x3f, 0x3d,
  0x20, 0xfe, 0x8d, 0xbd, 0x48, 0x6a, 0xb5, 0xbc, 0xc9, 0x16, 0x3d, 0x3e,
  0x52, 0x74, 0xb2, 0xbd, 0x24, 0x57, 0x16, 0xbe, 0xc2, 0xb4, 0xac, 0x3d,
  0x1a, 0xf5, 0xb8, 0xbd, 0x9f, 0x1b, 0x05, 0xbe, 0xa0, 0x74, 0x8b, 0xbb,
  0xf7, 0x3a, 0x5c, 0x3e, 0xfb, 0x45, 0x20, 0x3e, 0x03, 0xa9, 0x44, 0xbe,
  0x50, 0xcb, 0x63, 0xbe, 0x6c, 0x59, 0x3c, 0xbe, 0x33, 0x65, 0x5f, 0x3e,
  0x00, 0x6c, 0x80, 0xba, 0xde, 0xee, 0x18, 0xbe, 0x5d, 0x11, 0x6e, 0xbe,
  0x35, 0x8c, 0x4a, 0x3e, 0xfd, 0x51, 0x40, 0xbe, 0x93, 0xf1, 0x5d, 0xbe,
  0xff, 0x0f, 0x4f, 0x3e, 0x7f, 0x28, 0x56, 0x3e, 0xb0, 0x4f, 0xb1, 0xbd,
  0xf0, 0x78, 0xfd, 0xbc, 0x68, 0x20, 0x93, 0xbc, 0xe2, 0xeb, 0xf5, 0xbd,
  0x70, 0x87, 0x88, 0xbc, 0x47, 0x63, 0x42, 0xbe, 0xd3, 0xf8, 0x6a, 0xbe,
  0x4d, 0x56, 0x23, 0x3e, 0xe0, 0xd6, 0xe4, 0xbd, 0xb4, 0x6c, 0x7a, 0x3d,
  0x47, 0xb9, 0x2b, 0x3e, 0x84, 0x56, 0x34, 0xbe, 0x16, 0xf5, 0x70, 0xbe,
  0x93, 0xf1, 0x08, 0xbe, 0xc7, 0x23, 0x4d, 0x3e, 0x34, 0xcc, 0x37, 0xbe,
  0xfa, 0x43, 0x99, 0x3d, 0x06, 0x8a, 0xac, 0x3d, 0xc2, 0xc5, 0x10, 0xbe,
  0xc4, 0xb9, 0x1e, 0x3d, 0x55, 0xbc, 0x61, 0x3e, 0xde, 0xd1, 0xc2, 0x3d,
  0x41, 0x86, 0x1d, 0x3e, 0x31, 0x6d, 0x25, 0x3e, 0xaa, 0x81, 0xc9, 0xbd,
  0x34, 0x2c, 0x6c, 0x3d, 0x22, 0xe4, 0x07, 0xbe, 0xd8, 0x69, 0xac, 0xbc,
  0x65, 0x3b, 0x4d, 0x3e, 0x6b, 0xf9, 0x0a, 0xbe, 0xb4, 0xf2, 0x6d, 0x3d,
  0x60, 0x49, 0x65, 0xbe, 0x78, 0x5a, 0x82, 0xbd, 0xda, 0xd7, 0xac, 0x3d,
  0x9e, 0xa9, 0x9f, 0x3d, 0x6c, 0x2d, 0x74, 0x3d, 0xc8, 0x23, 0xf9, 0x3c,
  0xaa, 0x55, 0xbb, 0x3d, 0xee, 0xe9, 0x49, 0xbe, 0xa8, 0xb6, 0x5e, 0xbd,
  0xc4, 0xa2, 0xdc, 0xbd, 0x07, 0x9b, 0x45, 0x3e, 0xd0, 0x58, 0x04, 0xbc,
  0xe4, 0xec, 0x0c, 0xbe, 0x25, 0x46, 0x4d, 0x3e, 0x65, 0xbb, 0x51, 0xbe,
  0x00, 0xe7, 0xfc, 0xbc, 0xd8, 0xd4, 0x72, 0xbe, 0xce, 0xd0, 0x0f, 0xbc,
  0x3c, 0xdb, 0xbf, 0xbe, 0xe6, 0x35, 0x13, 0x3f, 0xe4, 0x19, 0x66, 0xbe,
  0x8c, 0xeb, 0x4c, 0xbd, 0xf3, 0x03, 0x28, 0x3e, 0xbf, 0xce, 0x9b, 0xbd,
  0x4e, 0x09, 0x57, 0xbe, 0x0e, 0x13, 0x09, 0x3f, 0x36, 0x69, 0xa4, 0x3d,
  0x3a, 0x04, 0x6f, 0x3e, 0x60, 0x1b, 0xd2, 0x3d, 0xf3, 0xc7, 0xce, 0x3d,
  0x2d, 0x45, 0x38, 0xbe, 0x1b, 0x4e, 0x12, 0x3f, 0xf0, 0x50, 0x76, 0x3d,
  0x4a, 0x4b, 0x44, 0x3e, 0x14, 0x78, 0xf2, 0x3d, 0x05, 0x9c, 0x3b, 0x3d,
  0x47, 0xa6, 0xb3, 0xbe, 0x96, 0x8f, 0xe2, 0x3e, 0xf6, 0xf7, 0x11, 0xbc,
  0xae, 0xc5, 0x4c, 0x3e, 0xdf, 0x15, 0xc7, 0x3c, 0xc4, 0x22, 0xe2, 0xbd,
  0x89, 0x9e, 0x45, 0xbe, 0x1a, 0x0c, 0xff, 0x3e, 0x06, 0x56, 0x96, 0xbe,
  0xbe, 0x66, 0xaa, 0x3d, 0x79, 0x78, 0x45, 0x3d, 0xcd, 0xb1, 0x00, 0xbe,
  0xaa, 0x2a, 0x10, 0x3e, 0x3f, 0x8d, 0x93, 0x3e, 0x6f, 0x0c, 0xa8, 0xbe,
  0xba, 0x45, 0xf0, 0x3d, 0x14, 0xb2, 0x42, 0x3e, 0x69, 0xed, 0x5c, 0x3d,
  0x14, 0x1c, 0x0c, 0xbe, 0x0f, 0xc6, 0x6a, 0x3e, 0xdb, 0x94, 0x55, 0xbe,
  0xb7, 0x76, 0xca, 0x3e, 0x10, 0xde, 0x15, 0x3e, 0x6a, 0xd1, 0x96, 0x3e,
  0xec, 0x6e, 0xa8, 0xbd, 0x1b, 0x7d, 0x82, 0xbe, 0xb9, 0xc7, 0x72, 0xbe,
  0x8f, 0x48, 0x6d, 0x3e, 0x1e, 0x45, 0x87, 0x3e, 0x70, 0x14, 0x9a, 0x3e,
  0x3d, 0x0f, 0x92, 0x3e, 0x76, 0x71, 0xa1, 0xbc, 0xd2, 0x75, 0xca, 0xbd,
  0x5d, 0x55, 0xce, 0x3e, 0x48, 0xc4, 0xe2, 0xbc, 0x81, 0xb7, 0x8e, 0xbb,
  0x87, 0xed, 0x4a, 0x3e, 0x87, 0xe8, 0x6a, 0xbe, 0x3b, 0xda, 0x0d, 0x3c,
  0xf4, 0x53, 0x7e, 0x3e, 0xaa, 0x93, 0x68, 0x3e, 0x5d, 0x28, 0x8d, 0xbd,
  0x90, 0x77, 0x1b, 0x3f, 0x89, 0x34, 0xba, 0xbe, 0x68, 0xf1, 0xa9, 0x3d,
  0x9a, 0x18, 0x93, 0x3e, 0x79, 0x59, 0xa1, 0xbd, 0xbb, 0xde, 0x5f, 0x3e,
  0x28, 0x03, 0x14, 0x3f, 0x71, 0xa3, 0x06, 0xbf, 0xa9, 0x1a, 0x90, 0x3d,
  0xd8, 0xec, 0x36, 0x3d, 0x75, 0x12, 0xbd, 0x3d, 0x2d, 0x29, 0xa6, 0x3e,
  0xbc, 0x32, 0x0c, 0x3f, 0xf5, 0x50, 0xab, 0xbe, 0xaf, 0xd1, 0x4e, 0xbe,
  0x03, 0x74, 0x18, 0x3d, 0x63, 0xd6, 0x20, 0xbe, 0xba, 0x6b, 0x62, 0x3e,
  0x55, 0x41, 0x1c, 0x3f, 0xc6, 0xaa, 0x5f, 0xbe, 0xc8, 0x3b, 0x2b, 0x3d,
  0x8b, 0x2b, 0x43, 0x3d, 0x6f, 0xbd, 0xec, 0xbd, 0x0d, 0x00, 0x74, 0x3e,
  0xb9, 0xac, 0x93, 0x3e, 0xfd, 0x2d, 0x83, 0xbe, 0x59, 0x6a, 0x76, 0x3d,
  0x11, 0xbe, 0xb5, 0xbd, 0x6c, 0x9c, 0x4e, 0xbe, 0xff, 0x72, 0x33, 0x3d,
  0x14, 0x86, 0x94, 0xbd, 0x4b, 0xe2, 0x8b, 0x3d, 0x00, 0x34, 0x14, 0x3e,
  0x30, 0x32, 0x59, 0x3e, 0xdb, 0xd8, 0x06, 0xbe, 0x98, 0x98, 0x75, 0xbe,
  0xf6, 0x51, 0x4f, 0xbd, 0x5e, 0xd2, 0xad, 0x3e, 0x04, 0x0f, 0x48, 0x3e,
  0x95, 0x82, 0xb2, 0x3d, 0x6f, 0x72, 0x42, 0xbe, 0xbe, 0x20, 0xe9, 0x3c,
  0x91, 0xd8, 0x41, 0xbe, 0x21, 0xf2, 0x19, 0x3d, 0x61, 0xc7, 0xa1, 0xbd,
  0xe8, 0x2f, 0x9a, 0x3d, 0xcd, 0xa8, 0x8e, 0x3e, 0xd2, 0x93, 0x2a, 0xbd,
  0x54, 0x46, 0xa7, 0x3e, 0x6f, 0xb3, 0xb9, 0x3d, 0xc4, 0x97, 0x99, 0xbb,
  0xa7, 0x64, 0xfa, 0x3d, 0x48, 0x2d, 0xdc, 0x3d, 0xcd, 0x05, 0x9d, 0xbe,
  0x39, 0xae, 0x02, 0x3f, 0x00, 0x60, 0x6d, 0x3d, 0x77, 0xf3, 0xf6, 0xbd,
  0xf8, 0x66, 0xb5, 0x3d, 0x87, 0xf3, 0x25, 0x3e, 0x83, 0x4b, 0x06, 0xbd,
  0xf6, 0xc1, 0xca, 0x3e, 0x9e, 0x6c, 0x92, 0x3e, 0x46, 0x4d, 0x88, 0x3d,
  0xc7, 0x9d, 0x91, 0xbb, 0xf6, 0x98, 0x06, 0x3e, 0x88, 0x56, 0x4d, 0xbe,
  0xc6, 0xe9, 0x29, 0x3f, 0x95, 0x41, 0x3b, 0xbe, 0x70, 0x2b, 0x4d, 0x3e,
  0x1a, 0x95, 0xc9, 0x3d, 0x0d, 0xb0, 0x47, 0xbe, 0x04, 0x70, 0xcc, 0xbd,
  0xc5, 0x1c, 0x7c, 0x3e, 0x3b, 0xb8, 0xc0, 0xbd, 0x67, 0x74, 0x20, 0xbd,
  0x69, 0xc7, 0xaa, 0x3e, 0xb0, 0x51, 0x78, 0x3e, 0x8d, 0xc7, 0xad, 0xbe,
  0x79, 0x01, 0xca, 0x3e, 0x8c, 0x85, 0xb9, 0xbe, 0x70, 0xb1, 0x8d, 0x3e,
  0x03, 0x0c, 0x62, 0xbd, 0x44, 0x12, 0x6f, 0x3e, 0x28, 0x29, 0x86, 0xbe,
  0x33, 0x05, 0x95, 0x3e, 0xf7, 0xf0, 0xc1, 0xbd, 0xd3, 0xdb, 0x57, 0x3e,
  0x2e, 0x9b, 0xc0, 0x3e, 0xd9, 0xef, 0x3d, 0x3e, 0x49, 0xf0, 0xa5, 0xbe,
  0xb1, 0x9e, 0xc8, 0xbc, 0x79, 0xb4, 0x31, 0xbe, 0x9c, 0xcb, 0x44, 0xbe,
  0x47, 0xb6, 0x64, 0x3e, 0x9c, 0xde, 0x35, 0xbe, 0xed, 0x96, 0x45, 0x3e,
  0xca, 0xb9, 0xb1, 0x3d, 0x8b, 0x2b, 0x12, 0xbf, 0x8c, 0xfd, 0x80, 0x3e,
  0x31, 0xc7, 0x02, 0x3e, 0x66, 0xe0, 0xdf, 0x3d, 0x32, 0x22, 0xb2, 0xbd,
  0xd1, 0x28, 0xd3, 0x3e, 0xf5, 0xb2, 0xf6, 0xbe, 0x40, 0x96, 0x14, 0xbe,
  0x2f, 0x93, 0xf3, 0x3d, 0x10, 0x01, 0x00, 0x3e, 0xdf, 0xe7, 0xac, 0x3d,
  0x3e, 0x40, 0x6b, 0x3e, 0x18, 0xce, 0x3c, 0xbf, 0xf6, 0x7d, 0x38, 0xbd,
  0x6a, 0x0f, 0x8c, 0x3d, 0x90, 0xb5, 0x4a, 0x3e, 0xe3, 0xd7, 0x8d, 0x3e,
  0x76, 0xe4, 0x48, 0x3e, 0xa9, 0xc7, 0x26, 0xbf, 0xb2, 0x17, 0x06, 0xbe,
  0xd4, 0x29, 0xc8, 0x3d, 0xe9, 0x0d, 0x8b, 0x3c, 0x65, 0xff, 0x5b, 0x3e,
  0x58, 0xff, 0x96, 0xbd, 0x87, 0x1b, 0x0c, 0x3e, 0x85, 0x8b, 0x73, 0xbe,
  0x0d, 0x2f, 0x44, 0x3e, 0xfe, 0xa3, 0xc7, 0xbd, 0xa4, 0x02, 0x15, 0x3d,
  0xe0, 0x9d, 0x46, 0xbc, 0x58, 0xec, 0xf3, 0x3c, 0x1c, 0xaa, 0x1f, 0xbd,
  0x2b, 0xcf, 0xf1, 0xbd, 0x77, 0x64, 0x01, 0x3e, 0xc2, 0x69, 0x1a, 0xbe,
  0xb4, 0xf2, 0xc9, 0xbd, 0xc2, 0xd6, 0xe7, 0x3d, 0x2b, 0x75, 0x14, 0xbe,
  0x92, 0x7a, 0x9c, 0x3d, 0x00, 0x0c, 0xa5, 0x3a, 0xd0, 0x57, 0x63, 0xbc,
  0x3d, 0x58, 0x07, 0x3e, 0x73, 0x9e, 0x3f, 0x3e, 0x9e, 0x1d, 0xbf, 0x3d,
  0x9d, 0x30, 0x61, 0xbe, 0xd5, 0xf9, 0x01, 0xbe, 0x64, 0xa9, 0x04, 0xbe,
  0xb1, 0xe6, 0x39, 0x3e, 0x70, 0x89, 0x69, 0xbe, 0x23, 0x02, 0x73, 0xbe,
  0x9c, 0x99, 0x17, 0xbd, 0xb1, 0x08, 0xef, 0xbd, 0x0b, 0xcc, 0x12, 0x3e,
  0xcc, 0x4f, 0xf0, 0xbd, 0x98, 0x13, 0xfd, 0xbc, 0x93, 0xa5, 0x54, 0x3e,
  0x38, 0xac, 0xd2, 0x3c, 0x4d, 0xad, 0x28, 0xbe, 0xce, 0xdb, 0x8e, 0xbd,
  0x16, 0xff, 0xd8, 0x3d, 0x5c, 0xeb, 0x74, 0x3d, 0xd0, 0xbe, 0x6d, 0x3c,
  0x2a, 0xe3, 0xf7, 0x3d, 0x89, 0xf3, 0x04, 0x3e, 0x2a, 0x03, 0x80, 0xbd,
  0xf7, 0xc9, 0x52, 0x3e, 0xbc, 0x83, 0x2a, 0xbe, 0x80, 0x34, 0x8a, 0xbd,
  0x98, 0x96, 0x4c, 0xbe, 0xb2, 0xaf, 0xf1, 0x3d, 0x54, 0xd1, 0x58, 0xbd,
  0xc8, 0xca, 0x81, 0x3c, 0xd9, 0x6e, 0x0f, 0x3e, 0x64, 0x59, 0x8f, 0xbd,
  0x9a, 0x66, 0xfb, 0xbd, 0x58, 0x22, 0xcb, 0x3c, 0x05, 0x81, 0x5f, 0xbe,
  0xa8, 0x30, 0xfb, 0x3c, 0xc5, 0xc9, 0x08, 0x3e, 0x10, 0x6a, 0x29, 0xbc,
  0xea, 0x2c, 0x88, 0x3d, 0x92, 0xf5, 0x8a, 0xbd, 0xc7, 0xa3, 0x39, 0x3e,
  0x50, 0xc3, 0x11, 0xbd, 0xc2, 0x47, 0x09, 0xbe, 0x86, 0xe5, 0x56, 0xbe,
  0x86, 0x40, 0xa5, 0x3d, 0xbe, 0x14, 0xa6, 0xbd, 0x7a, 0xb6, 0xac, 0xbd,
  0xc8, 0x6c, 0xb5, 0x3c, 0x30, 0xf3, 0x5c, 0x3c, 0x29, 0x99, 0x17, 0x3e,
  0x28, 0x2d, 0x8b, 0x3c, 0x73, 0x16, 0x6d, 0x3e, 0x52, 0x00, 0xc2, 0x3d,
  0x70, 0xb1, 0x74, 0x3c, 0xd2, 0xe9, 0xa8, 0x3d, 0x48, 0x07, 0x8f, 0x3c,
  0x40, 0xc0, 0x95, 0x3b, 0xc0, 0xf8, 0xc5, 0x3b, 0x2c, 0x18, 0x56, 0x3d,
  0x72, 0xf5, 0x61, 0xbe, 0x82, 0x52, 0x22, 0xbe, 0xcc, 0x60, 0x1b, 0xbd,
  0x13, 0x8e, 0x5a, 0x3e, 0x1a, 0x56, 0x70, 0xbe, 0xc9, 0x9a, 0x66, 0x3e,
  0x46, 0x95, 0x93, 0x3d, 0x78, 0x42, 0x30, 0xbe, 0xaa, 0xf5, 0xe2, 0xbd,
  0x9f, 0x01, 0x53, 0xbe, 0x1c, 0x07, 0x18, 0xbd, 0x38, 0x7d, 0x9b, 0xbd,
  0xaa, 0xc1, 0xd3, 0xbd, 0x9c, 0x9b, 0x7e, 0x3d, 0x0c, 0xd0, 0x4a, 0x3d,
  0x5c, 0x58, 0x11, 0xbe, 0x60, 0xfe, 0xe5, 0xbb, 0x7a, 0x91, 0xa4, 0xbd,
  0x68, 0xd7, 0xaf, 0x3c, 0xc0, 0x3f, 0x16, 0xbe, 0x88, 0x88, 0x67, 0xbd,
  0x02, 0xb5, 0xb9, 0x3d, 0xe4, 0x0e, 0x85, 0xbd, 0x88, 0x11, 0x4e, 0xbe,
  0xec, 0x34, 0x12, 0xbd, 0xd0, 0xe5, 0x30, 0xbe, 0xd2, 0xe3, 0xcd, 0xbd,
  0x46, 0x5d, 0xe6, 0x3d, 0x8d, 0x64, 0x49, 0x3e, 0x97, 0x21, 0x3b, 0xbe,
  0xf7, 0x9c, 0x1c, 0xbe, 0x4f, 0xd1, 0x3f, 0xbe, 0xc0, 0x2b, 0x9e, 0xbb,
  0x9c, 0x9d, 0x02, 0xbe, 0x83, 0xb2, 0x59, 0x3e, 0xf8, 0xea, 0xfd, 0xbd,
  0x00, 0x90, 0xf0, 0x3b, 0xd8, 0xde, 0xc1, 0x3c, 0xf1, 0x17, 0xfc, 0xbd,
  0xcf, 0x3c, 0x02, 0x3e, 0x1c, 0x6d, 0x05, 0x3d, 0x48, 0x64, 0xf4, 0x3c,
  0xbc, 0x7a, 0x4f, 0x3d, 0xf6, 0xdf, 0x15, 0xbe, 0xc4, 0x6c, 0x12, 0xbd,
  0x2f, 0xf6, 0x5d, 0x3e, 0xf0, 0x80, 0xf6, 0xbd, 0xdd, 0xd0, 0x62, 0x3e,
  0xbe, 0x00, 0x82, 0x3d, 0xbd, 0x89, 0x02, 0x3e, 0x60, 0xdb, 0x24, 0x3c,
  0x60, 0xbb, 0xd7, 0xbd, 0x60, 0x38, 0x06, 0xbe, 0xf7, 0x65, 0x25, 0x3e,
  0xce, 0x57, 0xbb, 0x3d, 0xcc, 0x90, 0x57, 0xbd, 0xcb, 0xb0, 0x2f, 0x3e,
  0xc1, 0x12, 0x67, 0x3e, 0x00, 0x12, 0xd1, 0xbb, 0x53, 0x5b, 0x27, 0x3e,
  0x66, 0xb4, 0x82, 0xbd, 0xf9, 0xea, 0x45, 0x3e, 0x4d, 0x10, 0x02, 0xbe,
  0xef, 0x0b, 0x55, 0x3e, 0xae, 0x08, 0xd3, 0x3d, 0x4d, 0x8c, 0x4d, 0xbe,
  0xfe, 0xeb, 0x31, 0xbe, 0x73, 0xf4, 0x07, 0x3e, 0xe8, 0x03, 0x78, 0xbd,
  0xa8, 0xa7, 0x0d, 0xbe, 0x30, 0x6e, 0x0c, 0x3c, 0x5e, 0x98, 0x4a, 0xbe,
  0x89, 0xe9, 0x51, 0x3e, 0xc1, 0xc8, 0x19, 0x3e, 0xc0, 0x41, 0x7f, 0x3b,
  0x0c, 0x6c, 0x66, 0xbd, 0xc0, 0xe8, 0x8b, 0xbb, 0x4c, 0x5c, 0x10, 0x3d,
  0x51, 0xf8, 0x1a, 0xbe, 0x16, 0x93, 0xdf, 0xbd, 0x6a, 0x73, 0x41, 0xbe,
  0x60, 0xca, 0xff, 0x3b, 0x3c, 0xc6, 0x76, 0x3d, 0x3c, 0xc6, 0x39, 0x3d,
  0x92, 0x63, 0x5d, 0xbe, 0x52, 0xab, 0xff, 0xbd, 0xba, 0xf4, 0xea, 0x3d,
  0x40, 0x9c, 0x68, 0xbe, 0xc0, 0x35, 0xc5, 0xbd, 0xc0, 0x08, 0x19, 0xbe,
  0x50, 0x31, 0x22, 0xbd, 0xdf, 0x81, 0x21, 0x3e, 0x50, 0xd0, 0x43, 0x3c,
  0xc7, 0x67, 0x43, 0x3e, 0x3b, 0x3a, 0x3f, 0xbe, 0x01, 0xe8, 0x16, 0x3e,
  0x40, 0x4a, 0x30, 0xbd, 0x1f, 0xfe, 0x22, 0xbe, 0x70, 0xa2, 0x78, 0x3c,
  0x68, 0x49, 0xe9, 0x3c, 0x7b, 0x47, 0x43, 0x3e, 0xf1, 0xe3, 0xc5, 0x3d,
  0x88, 0xe3, 0x29, 0xbe, 0x97, 0x67, 0x13, 0x3e, 0x1c, 0x9b, 0xef, 0x3d,
  0xac, 0xa4, 0xf6, 0x3a, 0xc8, 0xe9, 0x02, 0x3e, 0x4d, 0x1f, 0x0f, 0x3e,
  0x5e, 0x3b, 0x09, 0x3e, 0x8e, 0xa6, 0x9a, 0x3d, 0x20, 0x54, 0x41, 0xbd,
  0xf7, 0xb6, 0x3a, 0xbe, 0x81, 0x43, 0x14, 0xbe, 0xc0, 0xe1, 0x7a, 0xbd,
  0x78, 0x7a, 0x45, 0x3e, 0xbb, 0x0f, 0x5b, 0xbe, 0x7b, 0xa2, 0x60, 0xbd,
  0x54, 0xd8, 0xf3, 0x3d, 0x61, 0xe2, 0x72, 0xbe, 0x1d, 0xf0, 0x81, 0xbd,
  0x68, 0x1e, 0x7c, 0xbe, 0x32, 0xce, 0xc0, 0x3d, 0xfd, 0x3c, 0xf9, 0xbd,
  0xae, 0x94, 0x96, 0x3d, 0xa2, 0x2d, 0x40, 0x3e, 0xd3, 0xcb, 0x72, 0x3d,
  0x7c, 0xda, 0x52, 0x3e, 0x4b, 0x33, 0x56, 0x3e, 0x0c, 0x44, 0xf4, 0x3c,
  0x91, 0x94, 0x7d, 0x3c, 0x20, 0x33, 0x4c, 0x3e, 0x8e, 0xe9, 0x12, 0xbc,
  0xed, 0x8b, 0x00, 0xbe, 0x43, 0xc2, 0xc3, 0x3d, 0xef, 0x9b, 0xbc, 0xbd,
  0xa4, 0xf1, 0x9b, 0xbb, 0x2c, 0x8c, 0x1b, 0x3d, 0x88, 0x4f, 0x9c, 0xbd,
  0xda, 0x81, 0x54, 0xbe, 0xa8, 0x84, 0x30, 0xbe, 0x5f, 0x56, 0x49, 0xbe,
  0x5c, 0xf3, 0x0e, 0xbe, 0x4f, 0x06, 0x0d, 0x3d, 0xfb, 0xb0, 0xb4, 0x3d,
  0x17, 0xde, 0xe7, 0xbd, 0xa0, 0x33, 0xc8, 0x3d, 0x9b, 0x51, 0xea, 0x3d,
  0x79, 0x4e, 0x53, 0x3e, 0x38, 0x8b, 0x91, 0x3d, 0x9d, 0x66, 0x38, 0x3d,
  0x42, 0xeb, 0x1f, 0xbe, 0x28, 0xa3, 0x08, 0xbe, 0xd3, 0x3f, 0x81, 0xbe,
  0xa8, 0x90, 0xa0, 0x3d, 0x54, 0x1e, 0xc8, 0xbd, 0x76, 0x37, 0x68, 0xbe,
  0x21, 0xac, 0xcd, 0x3c, 0x31, 0xcf, 0x45, 0x3e, 0x6f, 0x88, 0x79, 0x3c,
  0xdd, 0x2b, 0x5e, 0xbe, 0x32, 0xbc, 0xe2, 0xbc, 0xdb, 0xbb, 0x90, 0x3c,
  0xcd, 0xf9, 0x2f, 0xbe, 0x89, 0xc5, 0x08, 0xbe, 0xdb, 0x3c, 0x2e, 0xbe,
  0x44, 0x68, 0x8b, 0xbd, 0x33, 0x41, 0x84, 0x3d, 0xa7, 0x2e, 0x1d, 0xbe,
  0x3e, 0xc7, 0x4f, 0xbe, 0xd6, 0xaa, 0xaf, 0x3b, 0x7a, 0xe6, 0x6d, 0x3d,
  0xb3, 0xc2, 0xb0, 0xbd, 0xeb, 0x4a, 0x5d, 0x3e, 0x05, 0xcd, 0xa5, 0x3d,
  0x1b, 0xa1, 0x75, 0x3d, 0xfb, 0x45, 0x16, 0xbe, 0xf2, 0xab, 0x31, 0xbe,
  0x26, 0x33, 0x33, 0xbe, 0x09, 0x74, 0xc8, 0x3d, 0x81, 0xd3, 0x5a, 0x3d,
  0xdd, 0xef, 0x35, 0x3e, 0x7e, 0xb5, 0xf5, 0x3c, 0xa1, 0x96, 0xe3, 0xbd,
  0x6c, 0x13, 0x24, 0x3e, 0xc2, 0x1f, 0x93, 0x3d, 0xb6, 0x10, 0x50, 0xbe,
  0x8f, 0xf6, 0xc8, 0x3d, 0x7b, 0xfe, 0x33, 0x3e, 0x74, 0x6e, 0x65, 0xbd,
  0xee, 0xcf, 0xd0, 0x3d, 0x3c, 0x8c, 0xf5, 0xbd, 0xd1, 0x38, 0x35, 0x3e,
  0x55, 0xb9, 0x04, 0x3e, 0x4f, 0x10, 0x46, 0x3e, 0x37, 0x46, 0x35, 0x3e,
  0x2d, 0x39, 0xf6, 0xbd, 0xa9, 0x91, 0x6e, 0xbe, 0x00, 0x56, 0x9d, 0xba,
  0x23, 0x98, 0x53, 0x3e, 0x28, 0x16, 0x22, 0xbe, 0x14, 0xc3, 0x67, 0xbe,
  0x26, 0xe8, 0xc1, 0x3d, 0xc0, 0x0c, 0x1a, 0x3b, 0x9d, 0xaa, 0x68, 0x3e,
  0x7e, 0x5b, 0x0e, 0xbe, 0x0b, 0x69, 0x67, 0xbe, 0x9c, 0x93, 0x5a, 0xbe,
  0x6e, 0x27, 0x19, 0xbe, 0x47, 0x67, 0x42, 0xbe, 0xee, 0xf7, 0xf4, 0xbd,
  0x14, 0x77, 0x23, 0xbd, 0xee, 0x19, 0xad, 0xbd, 0x64, 0x72, 0xd9, 0xbd,
  0x2c, 0x1c, 0x50, 0xbd, 0x98, 0x0d, 0x83, 0xbd, 0x05, 0x48, 0x07, 0x3e,
  0x78, 0x01, 0xdd, 0x3c, 0xb1, 0xe1, 0x71, 0x3e, 0xc9, 0xb6, 0x20, 0x3e,
  0x1e, 0xa8, 0xdd, 0xbd, 0xda, 0xdd, 0xae, 0x3d, 0x90, 0x7f, 0x0c, 0x3c,
  0x9f, 0x50, 0x27, 0x3e, 0x38, 0xe2, 0xac, 0xbc, 0xaf, 0x75, 0x70, 0x3e,
  0x1f, 0x80, 0x10, 0x3e, 0x46, 0xae, 0xb5, 0x3d, 0x20, 0x21, 0xf2, 0xbb,
  0xc8, 0x1b, 0xb5, 0xbd, 0x05, 0xa1, 0x14, 0x3e, 0x1c, 0xe8, 0x53, 0x3d,
  0x07, 0x68, 0x50, 0x3e, 0x18, 0x95, 0x9f, 0xbd, 0x47, 0x70, 0x50, 0x3e,
  0x5d, 0x93, 0x3e, 0xbe, 0xad, 0xe4, 0x69, 0x3e, 0xe0, 0xae, 0xeb, 0x3b,
  0xe4, 0x21, 0x2a, 0xbe, 0x12, 0xa4, 0x99, 0xbd, 0x5e, 0x74, 0x0f, 0xbe,
  0xfa, 0x45, 0xf3, 0x3d, 0x4e, 0x1e, 0xa2, 0x3d, 0xd2, 0xf7, 0x97, 0xbd,
  0xe2, 0x2e, 0xb0, 0x3d, 0x24, 0x53, 0x3e, 0x3d, 0xac, 0x72, 0x48, 0x3d,
  0x08, 0x51, 0x9f, 0xbc, 0x78, 0xfb, 0x76, 0xbd, 0x90, 0xff, 0x63, 0xbd,
  0x44, 0x60, 0x1a, 0x3d, 0x8c, 0x1c, 0x20, 0xbd, 0x66, 0x30, 0x88, 0xbd,
  0x38, 0xed, 0x86, 0xbd, 0xf4, 0xfb, 0x74, 0x3d, 0xd3, 0xbc, 0x4c, 0xbe,
  0x9a, 0xa5, 0x92, 0x3d, 0x24, 0x50, 0x57, 0x3d, 0x22, 0xa2, 0xd5, 0xbd,
  0x74, 0xee, 0x37, 0x3d, 0xd0, 0x37, 0x1c, 0xbd, 0x1c, 0xdd, 0x09, 0xbe,
  0xd4, 0x65, 0x4a, 0xbe, 0x3f, 0x35, 0x0f, 0x3e, 0x84, 0x71, 0xbe, 0xbd,
  0xe4, 0x2e, 0x44, 0xbd, 0x9c, 0x83, 0x2c, 0xbe, 0x94, 0x4e, 0x14, 0xbe,
  0x35, 0x41, 0x34, 0x3e, 0xbe, 0x7b, 0x85, 0x3d, 0x1c, 0xb0, 0x77, 0x3d,
  0xd2, 0xf1, 0x28, 0xbe, 0xe7, 0xac, 0x1d, 0x3e, 0x76, 0x26, 0xb3, 0xbd,
  0xc2, 0xbe, 0x93, 0xbd, 0x26, 0xbd, 0x80, 0xbd, 0xc4, 0xae, 0x0b, 0x3d,
  0x80, 0xbc, 0xdb, 0x3a, 0xbe, 0xdc, 0x26, 0xbe, 0x04, 0x37, 0x5d, 0x3d,
  0x3e, 0xe6, 0x08, 0xbe, 0x44, 0x64, 0x09, 0xbe, 0x83, 0x6b, 0xfa, 0xbd,
  0xde, 0x7b, 0xc7, 0x3d, 0x3c, 0x24, 0xe4, 0xbd, 0x2c, 0xc7, 0x16, 0xbd,
  0x64, 0xd9, 0x22, 0xbe, 0xea, 0xde, 0x92, 0xbd, 0x13, 0xcf, 0x18, 0x3e,
  0xe8, 0x9c, 0xed, 0xbc, 0xe8, 0xd6, 0xff, 0xbc, 0x38, 0x45, 0xf9, 0xbc,
  0x8c, 0xeb, 0x43, 0x3d, 0xd1, 0x85, 0x70, 0xbe, 0x63, 0x3c, 0x58, 0x3e,
  0x26, 0xa8, 0xfa, 0x3d, 0x20, 0x48, 0x79, 0xbd, 0xe8, 0xaf, 0x2b, 0xbd,
  0x58, 0xb4, 0x0b, 0xbe, 0x0c, 0x96, 0x0e, 0x3d, 0x55, 0x3a, 0x09, 0x3e,
  0xe4, 0x6f, 0x1e, 0x3d, 0x34, 0x7e, 0x61, 0x3d, 0x76, 0xae, 0xb2, 0xbd,
  0xa4, 0x40, 0x5f, 0x3d, 0x7b, 0xb6, 0x69, 0x3e, 0x1e, 0xc6, 0x4c, 0xbe,
  0x20, 0x0c, 0x7a, 0xbc, 0x28, 0xa1, 0x8e, 0xbd, 0x19, 0x1a, 0x35, 0xbe,
  0x6d, 0x08, 0x60, 0x3e, 0xee, 0x87, 0xb6, 0x3d, 0x38, 0x74, 0xa5, 0x3c,
  0x30, 0xd0, 0x71, 0x3c, 0x70, 0x8f, 0x28, 0xbd, 0x4a, 0x50, 0x60, 0xbe,
  0x15, 0x7d, 0x0e, 0xbe, 0x80, 0xe3, 0x07, 0xbc, 0x4a, 0x53, 0x10, 0xbe,
  0xf7, 0x7d, 0x33, 0x3e, 0xfe, 0xd8, 0xed, 0xbd, 0x2b, 0x6f, 0x58, 0xbe,
  0x60, 0xae, 0x75, 0xbd, 0x5e, 0xa5, 0x9c, 0x3d, 0xe4, 0xff, 0x6e, 0xbd,
  0xf5, 0x57, 0x5d, 0xbe, 0x6c, 0x9a, 0x68, 0x3d, 0x4c, 0x1a, 0x1b, 0x3d,
  0xaf, 0x88, 0x2a, 0x3e, 0xcd, 0x03, 0x60, 0xbe, 0x03, 0xe9, 0x2f, 0x3e,
  0xe6, 0xb6, 0xe6, 0xbd, 0x2a, 0xa1, 0x0f, 0xbe, 0x55, 0x0d, 0x2e, 0x3e,
  0x3e, 0x1c, 0xf4, 0x3d, 0xfe, 0x73, 0x81, 0xbd, 0xa0, 0xdc, 0x86, 0xbd,
  0xfb, 0x53, 0x51, 0x3e, 0x20, 0xc0, 0xcb, 0xbc, 0x88, 0x6e, 0xae, 0xbd,
  0xfa, 0x9c, 0xdb, 0x3d, 0xc8, 0x46, 0x9f, 0x3c, 0xf2, 0x64, 0x9e, 0x3d,
  0xea, 0x4d, 0xb6, 0xbd, 0x46, 0x9d, 0xe3, 0xbd, 0xdc, 0xaa, 0x42, 0x3d,
  0x20, 0xfa, 0x0c, 0xbe, 0xe9, 0x11, 0x64, 0x3e, 0x40, 0x6c, 0xe2, 0x3b,
  0x3f, 0x52, 0x58, 0xbe, 0x84, 0xb0, 0x52, 0x3d, 0xc2, 0xc1, 0xd2, 0xbd,
  0xd1, 0xa0, 0x13, 0x3e, 0x40, 0x1e, 0xdc, 0xbd, 0x56, 0x8f, 0x99, 0xbd,
  0xbf, 0xc1, 0x6e, 0x3e, 0x6a, 0x8b, 0xb8, 0x3d, 0x28, 0x49, 0x04, 0xbe,
  0x28, 0x5a, 0xc7, 0x3c, 0xd6, 0x68, 0x70, 0xbe, 0x20, 0xb7, 0x3a, 0xbd,
  0x9c, 0xe7, 0x0f, 0xbd, 0x7b, 0x47, 0x53, 0xbe, 0xd1, 0xe9, 0x65, 0x3e,
  0xd8, 0x2a, 0x42, 0xbd, 0xae, 0xa0, 0x2c, 0xbe, 0x16, 0x52, 0xfb, 0x3d,
  0x88, 0xf5, 0xa2, 0xbc, 0x42, 0x36, 0xf6, 0x3d, 0x0c, 0xc0, 0x23, 0x3d,
  0xa0, 0x06, 0x26, 0xbc, 0x4a, 0xcb, 0xe0, 0x3d, 0x1d, 0xde, 0x51, 0x3e,
  0xba, 0xab, 0x32, 0xbe, 0xaa, 0x34, 0x3c, 0xbe, 0xdc, 0x68, 0x74, 0xbd,
  0x64, 0x3b, 0x5d, 0xbe, 0x80, 0x62, 0x46, 0xbb, 0x9e, 0x96, 0xd9, 0xbd,
  0x5c, 0x15, 0x47, 0x3d, 0x04, 0xae, 0xa8, 0xbd, 0xdc, 0xe9, 0x37, 0x3d,
  0xa9, 0x5a, 0x07, 0x3e, 0x25, 0x3b, 0x29, 0x3e, 0x16, 0xf5, 0xf1, 0x3d,
  0x8a, 0x86, 0xab, 0xbd, 0xcb, 0xe3, 0x60, 0x3e, 0xb0, 0x56, 0x54, 0x3c,
  0x1c, 0x93, 0x43, 0xbd, 0x9e, 0x23, 0x0c, 0xbe, 0xac, 0x3d, 0x2d, 0xbe,
  0x3a, 0x7a, 0x8c, 0x3d, 0x98, 0xdf, 0x63, 0xbe, 0x1d, 0x43, 0x14, 0x3e,
  0xfe, 0x35, 0xd0, 0x3d, 0x68, 0xfd, 0x9e, 0x3c, 0xf0, 0x87, 0x52, 0x3c,
  0xac, 0x53, 0x5e, 0x3d, 0x8c, 0x73, 0x28, 0xbd, 0x15, 0x38, 0x3c, 0x3e,
  0x6f, 0x5b, 0x36, 0x3e, 0xf6, 0xdb, 0xdd, 0x3d, 0x4c, 0xaa, 0x55, 0xbe,
  0x08, 0x1f, 0xd6, 0x3c, 0xd9, 0x55, 0x06, 0x3e, 0xbc, 0x7a, 0x79, 0x3d,
  0x00, 0xd9, 0x63, 0xba, 0x50, 0x37, 0x48, 0xbd, 0xdb, 0x82, 0x02, 0x3e,
  0x9e, 0xe3, 0xe0, 0x3d, 0xa0, 0x81, 0xff, 0xbc, 0x5c, 0xe6, 0x23, 0xbd,
  0x26, 0x7c, 0x8a, 0x3d, 0x94, 0x7e, 0x65, 0xbe, 0xda, 0x89, 0x9c, 0x3d,
  0x87, 0x83, 0x67, 0x3e, 0x09, 0xee, 0x3b, 0x3e, 0x0e, 0xa0, 0x98, 0xbd,
  0x32, 0x01, 0xe6, 0xbd, 0x40, 0x17, 0x37, 0x3b, 0x68, 0xa9, 0x9e, 0xbc,
  0x62, 0xe0, 0xcb, 0xbd, 0xdb, 0x6b, 0x1f, 0xbe, 0x44, 0x91, 0x2b, 0x3d,
  0xe8, 0x2c, 0x22, 0xbd, 0x96, 0xc9, 0xcf, 0xbd, 0x2c, 0x25, 0x5a, 0xbe,
  0x22, 0x97, 0xca, 0x3d, 0x94, 0xfb, 0x5e, 0xbe, 0x78, 0x72, 0xf1, 0xbd,
  0xdf, 0xb3, 0x20, 0x3e, 0x3d, 0x8c, 0x67, 0xbe, 0x90, 0xf8, 0x44, 0xbe,
  0x1f, 0x95, 0x2e, 0xbe, 0x1e, 0x1f, 0xd1, 0x3d, 0xd4, 0x36, 0xba, 0xbd,
  0xb0, 0x08, 0x4f, 0xbc, 0x28, 0x71, 0x5a, 0xbe, 0xf3, 0x17, 0x28, 0x3e,
  0x1c, 0xab, 0x0e, 0x3d, 0x33, 0xc4, 0x5b, 0x3e, 0x19, 0x9b, 0x37, 0x3e,
  0x5a, 0x5d, 0x40, 0xbe, 0xd5, 0xcd, 0x16, 0x3e, 0xcc, 0xac, 0x50, 0xbe,
  0xf0, 0xc3, 0x1e, 0xbd, 0x5c, 0x8c, 0x3e, 0x3d, 0x74, 0xd4, 0x2d, 0xbe,
  0xba, 0xa9, 0x61, 0xbe, 0x78, 0xa3, 0xeb, 0xbc, 0xf0, 0x47, 0x3b, 0xbe,
  0x73, 0x99, 0x29, 0x3e, 0xc0, 0x19, 0x05, 0xbc, 0xd2, 0x0f, 0xa2, 0x3d,
  0xd0, 0xba, 0x59, 0xbc, 0xd4, 0x48, 0xb7, 0xbd, 0x43, 0x28, 0x56, 0x3e,
  0x5c, 0x3c, 0x72, 0x3d, 0xc8, 0xd4, 0x1d, 0xbe, 0x10, 0x2b, 0x9e, 0xbc,
  0x20, 0xef, 0x15, 0x3c, 0x52, 0x0d, 0x23, 0xbe, 0xc2, 0x9d, 0x85, 0xbd,
  0xec, 0x56, 0x3d, 0x3d, 0xa4, 0x06, 0x26, 0xbd, 0xaf, 0xf4, 0x21, 0x3e,
  0x90, 0x26, 0x01, 0xbe, 0x56, 0x30, 0x9d, 0xbd, 0x9c, 0xf1, 0x9f, 0xbd,
  0xe0, 0x63, 0xa7, 0x3b, 0x4a, 0x0a, 0x68, 0xbe, 0xd1, 0xfb, 0x0e, 0x3e,
  0x2d, 0xd9, 0x61, 0xbe, 0x53, 0x4a, 0x16, 0x3e, 0x60, 0xea, 0x84, 0xbd,
  0x7b, 0x76, 0x59, 0xbe, 0x80, 0x21, 0x58, 0xbd, 0x4a, 0x5f, 0x0c, 0xbe,
  0x80, 0x29, 0xd0, 0xbd, 0xfa, 0xeb, 0xcc, 0xbd, 0x28, 0xbd, 0x93, 0xbd,
  0x7a, 0x26, 0x87, 0x3d, 0x00, 0x00, 0x16, 0xb9, 0x48, 0x7c, 0x1d, 0xbe,
  0xe8, 0x6d, 0x48, 0xbe, 0x12, 0xc4, 0xde, 0xbd, 0x9d, 0xd5, 0x19, 0xbe,
  0x37, 0x0f, 0xf6, 0xbd, 0xb6, 0xb6, 0xce, 0x3d, 0x70, 0x9a, 0x69, 0x3c,
  0x67, 0xd3, 0x09, 0x3e, 0x54, 0xcd, 0x30, 0x3d, 0x4d, 0x23, 0x59, 0xbe,
  0x6a, 0x41, 0xeb, 0x3d, 0x38, 0xa3, 0xed, 0x3c, 0x10, 0xa6, 0xcc, 0xbc,
  0x86, 0x32, 0xdd, 0x3d, 0xd7, 0x9c, 0x38, 0x3e, 0x06, 0xf4, 0x59, 0xbe,
  0x78, 0x2b, 0xb7, 0x3c, 0xa8, 0x69, 0x2e, 0xbe, 0x63, 0xb8, 0x4e, 0x3e,
  0x78, 0x8f, 0x8b, 0xbd, 0xb2, 0x33, 0xd3, 0x3d, 0xb4, 0x24, 0xf0, 0xbd,
  0xfe, 0xcc, 0xfc, 0xbd, 0x20, 0x60, 0xee, 0xbc, 0x43, 0xf1, 0x67, 0xbe,
  0xda, 0x9d, 0xb6, 0x3d, 0xcc, 0x75, 0x42, 0x3d, 0x9c, 0xd8, 0x62, 0xbe,
  0x32, 0xbb, 0x21, 0xbe, 0x90, 0xdb, 0x19, 0xbe, 0xc2, 0x24, 0xa2, 0xbd,
  0x44, 0x53, 0x4d, 0x3d, 0xb1, 0x72, 0x39, 0x3e, 0x58, 0x90, 0xeb, 0x3c,
  0x42, 0xa5, 0xa2, 0x3d, 0xe9, 0x6f, 0x3a, 0xbe, 0xf5, 0xbb, 0x66, 0xbe,
  0x47, 0x94, 0x3b, 0xbe, 0x5b, 0xe3, 0x72, 0xbe, 0x06, 0x0e, 0xd8, 0xbd,
  0x1e, 0x89, 0x30, 0xbe, 0x54, 0xdb, 0x18, 0xbd, 0x8e, 0x2c, 0xb3, 0xbd,
  0xd1, 0xa6, 0x65, 0x3e, 0x16, 0x78, 0xc9, 0x3d, 0x60, 0x9a, 0x53, 0xbd,
  0x1f, 0xb9, 0x0f, 0x3e, 0x8a, 0x13, 0x0c, 0xbe, 0x60, 0x23, 0x2b, 0xbe,
  0xc0, 0x41, 0x92, 0x3b, 0x56, 0x13, 0xd1, 0x3d, 0xb0, 0xfa, 0x1c, 0xbe,
  0x6f, 0x1e, 0x28, 0x3e, 0x40, 0xd3, 0x20, 0x3c, 0x89, 0x22, 0x4c, 0x3e,
  0x43, 0x73, 0x41, 0x3e, 0xdc, 0xfe, 0x71, 0x3d, 0x30, 0x76, 0x31, 0x3c,
  0x08, 0x5a, 0x3a, 0xbd, 0xcd, 0xc5, 0x44, 0x3e, 0xcb, 0x61, 0x32, 0xbe,
  0xc8, 0x40, 0x00, 0xbe, 0xd6, 0xe1, 0x60, 0xbe, 0x26, 0x31, 0xec, 0x3d,
  0x5e, 0xbb, 0xb1, 0x3d, 0x80, 0x73, 0x72, 0x3b, 0xfe, 0xfd, 0xc6, 0x3d,
  0x38, 0x46, 0x9b, 0x3c, 0xf5, 0x8b, 0x52, 0xbe, 0x09, 0xd4, 0xd6, 0x3e,
  0x17, 0x3f, 0x78, 0xbe, 0x20, 0x2d, 0xc7, 0xbe, 0x8d, 0xf6, 0xb5, 0x3e,
  0x2a, 0x13, 0xa6, 0x3c, 0x76, 0xf0, 0xcd, 0x3e, 0xf8, 0xd7, 0x00, 0x3f,
  0x05, 0xd9, 0xfd, 0xbc, 0x1b, 0xb2, 0x83, 0xbe, 0x76, 0xdf, 0x01, 0xbc,
  0x99, 0x2c, 0xcd, 0xbd, 0x69, 0xab, 0x09, 0x3f, 0xcf, 0xcb, 0x72, 0x3e,
  0x27, 0xf7, 0x78, 0xbd, 0x2b, 0xce, 0xea, 0xbe, 0x6e, 0xe0, 0x49, 0x3e,
  0x4b, 0xd6, 0x1e, 0x3e, 0xc2, 0x3f, 0x7b, 0x3e, 0x4c, 0x16, 0x2a, 0xbc,
  0x26, 0x18, 0xf4, 0xbb, 0x22, 0xe9, 0x04, 0xbc, 0x45, 0x5f, 0x58, 0x3e,
  0x54, 0xdb, 0xf2, 0x3d, 0xe7, 0x89, 0x06, 0x3f, 0x33, 0x8e, 0x28, 0x3e,
  0xad, 0x6f, 0xe9, 0x3d, 0x68, 0x1a, 0x27, 0x3d, 0xb4, 0x41, 0x56, 0x3d,
  0x1a, 0x4c, 0x49, 0xbe, 0xd2, 0xbc, 0x08, 0x3f, 0xae, 0x3c, 0xf5, 0x3d,
  0xc2, 0x7c, 0x41, 0x3f, 0x77, 0x4d, 0x06, 0x3e, 0x04, 0x7e, 0x79, 0x3e,
  0x38, 0x1d, 0xfa, 0xbd, 0xee, 0x2e, 0xb7, 0x3e, 0x14, 0xd7, 0x9b, 0x3c,
  0x53, 0x4f, 0x35, 0x3f, 0x93, 0xda, 0x08, 0x3e, 0x9f, 0x6e, 0x51, 0x3e,
  0xcd, 0x83, 0x25, 0xbd, 0x70, 0xfc, 0x01, 0x3f, 0x77, 0xbd, 0xfc, 0xbd,
  0xc2, 0xed, 0x1c, 0x3f, 0x81, 0xc2, 0x63, 0x3e, 0x45, 0x8f, 0x45, 0x3e,
  0xd3, 0x83, 0x99, 0xbe, 0x16, 0x4c, 0xbb, 0x3e, 0x8c, 0xdc, 0x7e, 0xbe,
  0x90, 0x95, 0x06, 0x3f, 0x2e, 0x2a, 0x28, 0x3e, 0x5b, 0xa7, 0x0d, 0x3b,
  0xd0, 0x5e, 0xaf, 0xbe, 0xbc, 0x69, 0xe6, 0x3e, 0xfe, 0x1e, 0x27, 0xbe,
  0xfc, 0xc5, 0x09, 0x3f, 0xb7, 0x1e, 0xbb, 0x3e, 0x97, 0xcf, 0x38, 0xbe,
  0x5f, 0x80, 0xb6, 0xbe, 0x0d, 0xbb, 0x60, 0x3e, 0x8b, 0x90, 0xed, 0xbd,
  0xd8, 0x27, 0x1e, 0x3f, 0x03, 0xf8, 0x89, 0x3e, 0xe7, 0xba, 0x38, 0x3e,
  0xc4, 0x72, 0xa2, 0xbe, 0xa7, 0xb6, 0xdf, 0x3b, 0xaf, 0x67, 0xfa, 0x3d,
  0x5f, 0x06, 0x04, 0x3f, 0x09, 0xb8, 0xcf, 0x3e, 0x09, 0x11, 0x0f, 0xbc,
  0xaa, 0x99, 0x83, 0xbe, 0xe0, 0x1b, 0x3f, 0x3e, 0x5e, 0x98, 0xfd, 0x3d,
  0x19, 0x98, 0xdd, 0x3e, 0xc1, 0xd5, 0xef, 0x3e, 0x85, 0x7e, 0xb4, 0x3c,
  0x4b, 0x47, 0xb3, 0x3b, 0x16, 0x4d, 0x1b, 0xbc, 0x76, 0x3e, 0x6e, 0x3c,
  0x9e, 0x0d, 0x9d, 0x3e, 0xd9, 0xe0, 0x12, 0x3f, 0x81, 0xd5, 0xd6, 0xbd,
  0x5d, 0x76, 0x13, 0x3e, 0xe2, 0xe1, 0x24, 0x3e, 0xeb, 0x73, 0xe0, 0x3d,
  0xe3, 0xa9, 0xe2, 0x3e, 0x33, 0x9e, 0x21, 0x3f, 0x6d, 0xa8, 0x33, 0x3e,
  0x3d, 0x1b, 0xe4, 0xbd, 0x7a, 0xc6, 0xbb, 0x3d, 0xd6, 0xfe, 0xff, 0xff,
  0x04, 0x00, 0x00, 0x00, 0x40, 0x00, 0x00, 0x00, 0x00, 0x00, 0x00, 0x00,
  0x00, 0x00, 0x00, 0x00, 0x5c, 0x73, 0xb9, 0x3d, 0x00, 0x00, 0x00, 0x00,
  0x00, 0x00, 0x00, 0x00, 0x00, 0x00, 0x00, 0x00, 0xbd, 0xc1, 0x88, 0xbd,
  0x73, 0xda, 0xdc, 0xb9, 0x00, 0x00, 0x00, 0x00, 0x00, 0x00, 0x00, 0x00,
  0xd4, 0x1e, 0x81, 0xbc, 0x00, 0x00, 0x00, 0x00, 0x00, 0x00, 0x00, 0x00,
  0x00, 0x00, 0x00, 0x00, 0x00, 0x00, 0x00, 0x00, 0xe1, 0x6f, 0x94, 0x3d,
  0x22, 0xff, 0xff, 0xff, 0x04, 0x00, 0x00, 0x00, 0x10, 0x00, 0x00, 0x00,
  0xbe, 0x67, 0xe4, 0x3e, 0x60, 0x87, 0x01, 0xbf, 0xcc, 0x7f, 0xa6, 0xbe,
  0xd5, 0x6e, 0x1d, 0x3e, 0x3e, 0xff, 0xff, 0xff, 0x04, 0x00, 0x00, 0x00,
  0x20, 0x00, 0x00, 0x00, 0x00, 0x00, 0x00, 0x00, 0xee, 0xb8, 0x29, 0x3e,
  0x00, 0x00, 0x00, 0x00, 0x77, 0x6d, 0xae, 0xbd, 0xfb, 0x2f, 0xaa, 0x3e,
  0x40, 0xe1, 0x58, 0xbe, 0x9d, 0x22, 0x83, 0x3e, 0x9c, 0x7e, 0x6a, 0xba,
  0x5c, 0xfa, 0xff, 0xff, 0x60, 0xfa, 0xff, 0xff, 0x0f, 0x00, 0x00, 0x00,
  0x4d, 0x4c, 0x49, 0x52, 0x20, 0x43, 0x6f, 0x6e, 0x76, 0x65, 0x72, 0x74,
  0x65, 0x64, 0x2e, 0x00, 0x01, 0x00, 0x00, 0x00, 0x14, 0x00, 0x00, 0x00,
  0x00, 0x00, 0x0e, 0x00, 0x18, 0x00, 0x14, 0x00, 0x10, 0x00, 0x0c, 0x00,
  0x08, 0x00, 0x04, 0x00, 0x0e, 0x00, 0x00, 0x00, 0x14, 0x00, 0x00, 0x00,
  0x1c, 0x00, 0x00, 0x00, 0x24, 0x01, 0x00, 0x00, 0x28, 0x01, 0x00, 0x00,
  0x2c, 0x01, 0x00, 0x00, 0x04, 0x00, 0x00, 0x00, 0x6d, 0x61, 0x69, 0x6e,
  0x00, 0x00, 0x00, 0x00, 0x04, 0x00, 0x00, 0x00, 0xcc, 0x00, 0x00, 0x00,
  0x84, 0x00, 0x00, 0x00, 0x50, 0x00, 0x00, 0x00, 0x14, 0x00, 0x00, 0x00,
  0x00, 0x00, 0x0e, 0x00, 0x1a, 0x00, 0x14, 0x00, 0x10, 0x00, 0x0c, 0x00,
  0x0b, 0x00, 0x04, 0x00, 0x0e, 0x00, 0x00, 0x00, 0x1c, 0x00, 0x00, 0x00,
  0x00, 0x00, 0x00, 0x09, 0x1c, 0x00, 0x00, 0x00, 0x20, 0x00, 0x00, 0x00,
  0x01, 0x00, 0x00, 0x00, 0x00, 0x00, 0x06, 0x00, 0x08, 0x00, 0x04, 0x00,
  0x06, 0x00, 0x00, 0x00, 0x00, 0x00, 0x80, 0x3f, 0x01, 0x00, 0x00, 0x00,
  0x0a, 0x00, 0x00, 0x00, 0x01, 0x00, 0x00, 0x00, 0x09, 0x00, 0x00, 0x00,
  0x9a, 0xff, 0xff, 0xff, 0x10, 0x00, 0x00, 0x00, 0x00, 0x00, 0x00, 0x08,
  0x0c, 0x00, 0x00, 0x00, 0x10, 0x00, 0x00, 0x00, 0x24, 0xfb, 0xff, 0xff,
  0x01, 0x00, 0x00, 0x00, 0x09, 0x00, 0x00, 0x00, 0x03, 0x00, 0x00, 0x00,
  0x08, 0x00, 0x00, 0x00, 0x06, 0x00, 0x00, 0x00, 0x02, 0x00, 0x00, 0x00,
  0xca, 0xff, 0xff, 0xff, 0x10, 0x00, 0x00, 0x00, 0x00, 0x00, 0x00, 0x08,
  0x10, 0x00, 0x00, 0x00, 0x14, 0x00, 0x00, 0x00, 0xba, 0xff, 0xff, 0xff,
  0x00, 0x00, 0x00, 0x01, 0x01, 0x00, 0x00, 0x00, 0x08, 0x00, 0x00, 0x00,
  0x03, 0x00, 0x00, 0x00, 0x07, 0x00, 0x00, 0x00, 0x05, 0x00, 0x00, 0x00,
  0x01, 0x00, 0x00, 0x00, 0x00, 0x00, 0x0e, 0x00, 0x16, 0x00, 0x00, 0x00,
  0x10, 0x00, 0x0c, 0x00, 0x0b, 0x00, 0x04, 0x00, 0x0e, 0x00, 0x00, 0x00,
  0x18, 0x00, 0x00, 0x00, 0x00, 0x00, 0x00, 0x08, 0x18, 0x00, 0x00, 0x00,
  0x1c, 0x00, 0x00, 0x00, 0x00, 0x00, 0x06, 0x00, 0x08, 0x00, 0x07, 0x00,
  0x06, 0x00, 0x00, 0x00, 0x00, 0x00, 0x00, 0x01, 0x01, 0x00, 0x00, 0x00,
  0x07, 0x00, 0x00, 0x00, 0x03, 0x00, 0x00, 0x00, 0x00, 0x00, 0x00, 0x00,
  0x04, 0x00, 0x00, 0x00, 0x03, 0x00, 0x00, 0x00, 0x01, 0x00, 0x00, 0x00,
  0x0a, 0x00, 0x00, 0x00, 0x01, 0x00, 0x00, 0x00, 0x00, 0x00, 0x00, 0x00,
  0x0b, 0x00, 0x00, 0x00, 0x04, 0x04, 0x00, 0x00, 0x94, 0x03, 0x00, 0x00,
  0x24, 0x03, 0x00, 0x00, 0xd0, 0x02, 0x00, 0x00, 0x88, 0x02, 0x00, 0x00,
  0x3c, 0x02, 0x00, 0x00, 0xf0, 0x01, 0x00, 0x00, 0x68, 0x01, 0x00, 0x00,
  0xd8, 0x00, 0x00, 0x00, 0x60, 0x00, 0x00, 0x00, 0x04, 0x00, 0x00, 0x00,
  0x3e, 0xfc, 0xff, 0xff, 0x00, 0x00, 0x00, 0x01, 0x14, 0x00, 0x00, 0x00,
  0x1c, 0x00, 0x00, 0x00, 0x1c, 0x00, 0x00, 0x00, 0x0b, 0x00, 0x00, 0x00,
  0x34, 0x00, 0x00, 0x00, 0x02, 0x00, 0x00, 0x00, 0xff, 0xff, 0xff, 0xff,
  0x04, 0x00, 0x00, 0x00, 0x28, 0xfc, 0xff, 0xff, 0x19, 0x00, 0x00, 0x00,
  0x53, 0x74, 0x61, 0x74, 0x65, 0x66, 0x75, 0x6c, 0x50, 0x61, 0x72, 0x74,
  0x69, 0x74, 0x69, 0x6f, 0x6e, 0x65, 0x64, 0x43, 0x61, 0x6c, 0x6c, 0x3a,
  0x30, 0x00, 0x00, 0x00, 0x02, 0x00, 0x00, 0x00, 0x01, 0x00, 0x00, 0x00,
  0x04, 0x00, 0x00, 0x00, 0x96, 0xfc, 0xff, 0xff, 0x00, 0x00, 0x00, 0x01,
  0x14, 0x00, 0x00, 0x00, 0x1c, 0x00, 0x00, 0x00, 0x1c, 0x00, 0x00, 0x00,
  0x0a, 0x00, 0x00, 0x00, 0x50, 0x00, 0x00, 0x00, 0x02, 0x00, 0x00, 0x00,
  0xff, 0xff, 0xff, 0xff, 0x04, 0x00, 0x00, 0x00, 0x80, 0xfc, 0xff, 0xff,
  0x34, 0x00, 0x00, 0x00, 0x73, 0x65, 0x71, 0x75, 0x65, 0x6e, 0x74, 0x69,
  0x61, 0x6c, 0x2f, 0x64, 0x65, 0x6e, 0x73, 0x65, 0x5f, 0x32, 0x2f, 0x4d,
  0x61, 0x74, 0x4d, 0x75, 0x6c, 0x3b, 0x73, 0x65, 0x71, 0x75, 0x65, 0x6e,
  0x74, 0x69, 0x61, 0x6c, 0x2f, 0x64, 0x65, 0x6e, 0x73, 0x65, 0x5f, 0x32,
  0x2f, 0x42, 0x69, 0x61, 0x73, 0x41, 0x64, 0x64, 0x00, 0x00, 0x00, 0x00,
  0x02, 0x00, 0x00, 0x00, 0x01, 0x00, 0x00, 0x00, 0x04, 0x00, 0x00, 0x00,
  0x0a, 0xfd, 0xff, 0xff, 0x00, 0x00, 0x00, 0x01, 0x14, 0x00, 0x00, 0x00,
  0x1c, 0x00, 0x00, 0x00, 0x1c, 0x00, 0x00, 0x00, 0x09, 0x00, 0x00, 0x00,
  0x68, 0x00, 0x00, 0x00, 0x02, 0x00, 0x00, 0x00, 0xff, 0xff, 0xff, 0xff,
  0x08, 0x00, 0x00, 0x00, 0xf4, 0xfc, 0xff, 0xff, 0x4c, 0x00, 0x00, 0x00,
  0x73, 0x65, 0x71, 0x75, 0x65, 0x6e, 0x74, 0x69, 0x61, 0x6c, 0x2f, 0x64,
  0x65, 0x6e, 0x73, 0x65, 0x5f, 0x31, 0x2f, 0x4d, 0x61, 0x74, 0x4d, 0x75,
  0x6c, 0x3b, 0x73, 0x65, 0x71, 0x75, 0x65, 0x6e, 0x74, 0x69, 0x61, 0x6c,
  0x2f, 0x64, 0x65, 0x6e, 0x73, 0x65, 0x5f, 0x31, 0x2f, 0x52, 0x65, 0x6c,
  0x75, 0x3b, 0x73, 0x65, 0x71, 0x75, 0x65, 0x6e, 0x74, 0x69, 0x61, 0x6c,
  0x2f, 0x64, 0x65, 0x6e, 0x73, 0x65, 0x5f, 0x31, 0x2f, 0x42, 0x69, 0x61,
  0x73, 0x41, 0x64, 0x64, 0x00, 0x00, 0x00, 0x00, 0x02, 0x00, 0x00, 0x00,
  0x01, 0x00, 0x00, 0x00, 0x08, 0x00, 0x00, 0x00, 0x96, 0xfd, 0xff, 0xff,
  0x00, 0x00, 0x00, 0x01, 0x14, 0x00, 0x00, 0x00, 0x1c, 0x00, 0x00, 0x00,
  0x1c, 0x00, 0x00, 0x00, 0x08, 0x00, 0x00, 0x00, 0x60, 0x00, 0x00, 0x00,
  0x02, 0x00, 0x00, 0x00, 0xff, 0xff, 0xff, 0xff, 0x10, 0x00, 0x00, 0x00,
  0x80, 0xfd, 0xff, 0xff, 0x46, 0x00, 0x00, 0x00, 0x73, 0x65, 0x71, 0x75,
  0x65, 0x6e, 0x74, 0x69, 0x61, 0x6c, 0x2f, 0x64, 0x65, 0x6e, 0x73, 0x65,
  0x2f, 0x4d, 0x61, 0x74, 0x4d, 0x75, 0x6c, 0x3b, 0x73, 0x65, 0x71, 0x75,
  0x65, 0x6e, 0x74, 0x69, 0x61, 0x6c, 0x2f, 0x64, 0x65, 0x6e, 0x73, 0x65,
  0x2f, 0x52, 0x65, 0x6c, 0x75, 0x3b, 0x73, 0x65, 0x71, 0x75, 0x65, 0x6e,
  0x74, 0x69, 0x61, 0x6c, 0x2f, 0x64, 0x65, 0x6e, 0x73, 0x65, 0x2f, 0x42,
  0x69, 0x61, 0x73, 0x41, 0x64, 0x64, 0x00, 0x00, 0x02, 0x00, 0x00, 0x00,
  0x01, 0x00, 0x00, 0x00, 0x10, 0x00, 0x00, 0x00, 0x86, 0xfe, 0xff, 0xff,
  0x00, 0x00, 0x00, 0x01, 0x10, 0x00, 0x00, 0x00, 0x10, 0x00, 0x00, 0x00,
  0x07, 0x00, 0x00, 0x00, 0x28, 0x00, 0x00, 0x00, 0xf4, 0xfd, 0xff, 0xff,
  0x19, 0x00, 0x00, 0x00, 0x73, 0x65, 0x71, 0x75, 0x65, 0x6e, 0x74, 0x69,
  0x61, 0x6c, 0x2f, 0x64, 0x65, 0x6e, 0x73, 0x65, 0x5f, 0x32, 0x2f, 0x4d,
  0x61, 0x74, 0x4d, 0x75, 0x6c, 0x00, 0x00, 0x00, 0x02, 0x00, 0x00, 0x00,
  0x04, 0x00, 0x00, 0x00, 0x08, 0x00, 0x00, 0x00, 0xce, 0xfe, 0xff, 0xff,
  0x00, 0x00, 0x00, 0x01, 0x10, 0x00, 0x00, 0x00, 0x10, 0x00, 0x00, 0x00,
  0x06, 0x00, 0x00, 0x00, 0x28, 0x00, 0x00, 0x00, 0x3c, 0xfe, 0xff, 0xff,
  0x19, 0x00, 0x00, 0x00, 0x73, 0x65, 0x71, 0x75, 0x65, 0x6e, 0x74, 0x69,
  0x61, 0x6c, 0x2f, 0x64, 0x65, 0x6e, 0x73, 0x65, 0x5f, 0x31, 0x2f, 0x4d,
  0x61, 0x74, 0x4d, 0x75, 0x6c, 0x00, 0x00, 0x00, 0x02, 0x00, 0x00, 0x00,
  0x08, 0x00, 0x00, 0x00, 0x10, 0x00, 0x00, 0x00, 0x16, 0xff, 0xff, 0xff,
  0x00, 0x00, 0x00, 0x01, 0x10, 0x00, 0x00, 0x00, 0x10, 0x00, 0x00, 0x00,
  0x05, 0x00, 0x00, 0x00, 0x24, 0x00, 0x00, 0x00, 0x84, 0xfe, 0xff, 0xff,
  0x17, 0x00, 0x00, 0x00, 0x73, 0x65, 0x71, 0x75, 0x65, 0x6e, 0x74, 0x69,
  0x61, 0x6c, 0x2f, 0x64, 0x65, 0x6e, 0x73, 0x65, 0x2f, 0x4d, 0x61, 0x74,
  0x4d, 0x75, 0x6c, 0x00, 0x02, 0x00, 0x00, 0x00, 0x10, 0x00, 0x00, 0x00,
  0x5a, 0x00, 0x00, 0x00, 0x5a, 0xff, 0xff, 0xff, 0x00, 0x00, 0x00, 0x01,
  0x10, 0x00, 0x00, 0x00, 0x10, 0x00, 0x00, 0x00, 0x04, 0x00, 0x00, 0x00,
  0x34, 0x00, 0x00, 0x00, 0xc8, 0xfe, 0xff, 0xff, 0x27, 0x00, 0x00, 0x00,
  0x73, 0x65, 0x71, 0x75, 0x65, 0x6e, 0x74, 0x69, 0x61, 0x6c, 0x2f, 0x64,
  0x65, 0x6e, 0x73, 0x65, 0x2f, 0x42, 0x69, 0x61, 0x73, 0x41, 0x64, 0x64,
  0x2f, 0x52, 0x65, 0x61, 0x64, 0x56, 0x61, 0x72, 0x69, 0x61, 0x62, 0x6c,
  0x65, 0x4f, 0x70, 0x00, 0x01, 0x00, 0x00, 0x00, 0x10, 0x00, 0x00, 0x00,
  0xaa, 0xff, 0xff, 0xff, 0x00, 0x00, 0x00, 0x01, 0x10, 0x00, 0x00, 0x00,
  0x10, 0x00, 0x00, 0x00, 0x03, 0x00, 0x00, 0x00, 0x38, 0x00, 0x00, 0x00,
  0x18, 0xff, 0xff, 0xff, 0x29, 0x00, 0x00, 0x00, 0x73, 0x65, 0x71, 0x75,
  0x65, 0x6e, 0x74, 0x69, 0x61, 0x6c, 0x2f, 0x64, 0x65, 0x6e, 0x73, 0x65,
  0x5f, 0x32, 0x2f, 0x42, 0x69, 0x61, 0x73, 0x41, 0x64, 0x64, 0x2f, 0x52,
  0x65, 0x61, 0x64, 0x56, 0x61, 0x72, 0x69, 0x61, 0x62, 0x6c, 0x65, 0x4f,
  0x70, 0x00, 0x00, 0x00, 0x01, 0x00, 0x00, 0x00, 0x04, 0x00, 0x00, 0x00,
  0x00, 0x00, 0x16, 0x00, 0x18, 0x00, 0x14, 0x00, 0x00, 0x00, 0x10, 0x00,
  0x0c, 0x00, 0x08, 0x00, 0x00, 0x00, 0x00, 0x00, 0x00, 0x00, 0x07, 0x00,
  0x16, 0x00, 0x00, 0x00, 0x00, 0x00, 0x00, 0x01, 0x10, 0x00, 0x00, 0x00,
  0x10, 0x00, 0x00, 0x00, 0x02, 0x00, 0x00, 0x00, 0x38, 0x00, 0x00, 0x00,
  0x84, 0xff, 0xff, 0xff, 0x29, 0x00, 0x00, 0x00, 0x73, 0x65, 0x71, 0x75,
  0x65, 0x6e, 0x74, 0x69, 0x61, 0x6c, 0x2f, 0x64, 0x65, 0x6e, 0x73, 0x65,
  0x5f, 0x31, 0x2f, 0x42, 0x69, 0x61, 0x73, 0x41, 0x64, 0x64, 0x2f, 0x52,
  0x65, 0x61, 0x64, 0x56, 0x61, 0x72, 0x69, 0x61, 0x62, 0x6c, 0x65, 0x4f,
  0x70, 0x00, 0x00, 0x00, 0x01, 0x00, 0x00, 0x00, 0x08, 0x00, 0x00, 0x00,
  0x00, 0x00, 0x16, 0x00, 0x1c, 0x00, 0x18, 0x00, 0x00, 0x00, 0x14, 0x00,
  0x10, 0x00, 0x0c, 0x00, 0x00, 0x00, 0x00, 0x00, 0x08, 0x00, 0x07, 0x00,
  0x16, 0x00, 0x00, 0x00, 0x00, 0x00, 0x00, 0x01, 0x14, 0x00, 0x00, 0x00,
  0x20, 0x00, 0x00, 0x00, 0x20, 0x00, 0x00, 0x00, 0x01, 0x00, 0x00, 0x00,
  0x3c, 0x00, 0x00, 0x00, 0x02, 0x00, 0x00, 0x00, 0xff, 0xff, 0xff, 0xff,
  0x5a, 0x00, 0x00, 0x00, 0x04, 0x00, 0x04, 0x00, 0x04, 0x00, 0x00, 0x00,
  0x1d, 0x00, 0x00, 0x00, 0x73, 0x65, 0x72, 0x76, 0x69, 0x6e, 0x67, 0x5f,
  0x64, 0x65, 0x66, 0x61, 0x75, 0x6c, 0x74, 0x5f, 0x64, 0x65, 0x6e, 0x73,
  0x65, 0x5f, 0x69, 0x6e, 0x70, 0x75, 0x74, 0x3a, 0x30, 0x00, 0x00, 0x00,
  0x02, 0x00, 0x00, 0x00, 0x01, 0x00, 0x00, 0x00, 0x5a, 0x00, 0x00, 0x00,
  0x02, 0x00, 0x00, 0x00, 0x20, 0x00, 0x00, 0x00, 0x04, 0x00, 0x00, 0x00,
  0xf4, 0xff, 0xff, 0xff, 0x19, 0x00, 0x00, 0x00, 0x00, 0x00, 0x00, 0x19,
  0x0c, 0x00, 0x0c, 0x00, 0x0b, 0x00, 0x00, 0x00, 0x00, 0x00, 0x04, 0x00,
  0x0c, 0x00, 0x00, 0x00, 0x09, 0x00, 0x00, 0x00, 0x00, 0x00, 0x00, 0x09
}; 
