const unsigned char gesture_model [] = {  
  0x1c, 0x00, 0x00, 0x00, 0x54, 0x46, 0x4c, 0x33, 0x14, 0x00, 0x20, 0x00,
  0x1c, 0x00, 0x18, 0x00, 0x14, 0x00, 0x10, 0x00, 0x0c, 0x00, 0x00, 0x00,
  0x08, 0x00, 0x04, 0x00, 0x14, 0x00, 0x00, 0x00, 0x1c, 0x00, 0x00, 0x00,
  0x90, 0x00, 0x00, 0x00, 0xe8, 0x00, 0x00, 0x00, 0xdc, 0x33, 0x00, 0x00,
  0xec, 0x33, 0x00, 0x00, 0xa8, 0x39, 0x00, 0x00, 0x03, 0x00, 0x00, 0x00,
  0x01, 0x00, 0x00, 0x00, 0x10, 0x00, 0x00, 0x00, 0x00, 0x00, 0x0a, 0x00,
  0x10, 0x00, 0x0c, 0x00, 0x08, 0x00, 0x04, 0x00, 0x0a, 0x00, 0x00, 0x00,
  0x0c, 0x00, 0x00, 0x00, 0x1c, 0x00, 0x00, 0x00, 0x38, 0x00, 0x00, 0x00,
  0x0f, 0x00, 0x00, 0x00, 0x73, 0x65, 0x72, 0x76, 0x69, 0x6e, 0x67, 0x5f,
  0x64, 0x65, 0x66, 0x61, 0x75, 0x6c, 0x74, 0x00, 0x01, 0x00, 0x00, 0x00,
  0x04, 0x00, 0x00, 0x00, 0x98, 0xff, 0xff, 0xff, 0x0a, 0x00, 0x00, 0x00,
  0x04, 0x00, 0x00, 0x00, 0x07, 0x00, 0x00, 0x00, 0x64, 0x65, 0x6e, 0x73,
  0x65, 0x5f, 0x32, 0x00, 0x01, 0x00, 0x00, 0x00, 0x04, 0x00, 0x00, 0x00,
  0x06, 0xcc, 0xff, 0xff, 0x04, 0x00, 0x00, 0x00, 0x0b, 0x00, 0x00, 0x00,
  0x64, 0x65, 0x6e, 0x73, 0x65, 0x5f, 0x69, 0x6e, 0x70, 0x75, 0x74, 0x00,
  0x02, 0x00, 0x00, 0x00, 0x34, 0x00, 0x00, 0x00, 0x04, 0x00, 0x00, 0x00,
  0xdc, 0xff, 0xff, 0xff, 0x0d, 0x00, 0x00, 0x00, 0x04, 0x00, 0x00, 0x00,
  0x13, 0x00, 0x00, 0x00, 0x43, 0x4f, 0x4e, 0x56, 0x45, 0x52, 0x53, 0x49,
  0x4f, 0x4e, 0x5f, 0x4d, 0x45, 0x54, 0x41, 0x44, 0x41, 0x54, 0x41, 0x00,
  0x08, 0x00, 0x0c, 0x00, 0x08, 0x00, 0x04, 0x00, 0x08, 0x00, 0x00, 0x00,
  0x0c, 0x00, 0x00, 0x00, 0x04, 0x00, 0x00, 0x00, 0x13, 0x00, 0x00, 0x00,
  0x6d, 0x69, 0x6e, 0x5f, 0x72, 0x75, 0x6e, 0x74, 0x69, 0x6d, 0x65, 0x5f,
  0x76, 0x65, 0x72, 0x73, 0x69, 0x6f, 0x6e, 0x00, 0x0e, 0x00, 0x00, 0x00,
  0xf0, 0x32, 0x00, 0x00, 0xe8, 0x32, 0x00, 0x00, 0x98, 0x32, 0x00, 0x00,
  0x68, 0x32, 0x00, 0x00, 0xd8, 0x31, 0x00, 0x00, 0xc8, 0x0a, 0x00, 0x00,
  0xb8, 0x02, 0x00, 0x00, 0xa8, 0x00, 0x00, 0x00, 0xa0, 0x00, 0x00, 0x00,
  0x98, 0x00, 0x00, 0x00, 0x90, 0x00, 0x00, 0x00, 0x88, 0x00, 0x00, 0x00,
  0x68, 0x00, 0x00, 0x00, 0x04, 0x00, 0x00, 0x00, 0xb6, 0xcc, 0xff, 0xff,
  0x04, 0x00, 0x00, 0x00, 0x54, 0x00, 0x00, 0x00, 0x0c, 0x00, 0x00, 0x00,
  0x08, 0x00, 0x0e, 0x00, 0x08, 0x00, 0x04, 0x00, 0x08, 0x00, 0x00, 0x00,
  0x10, 0x00, 0x00, 0x00, 0x24, 0x00, 0x00, 0x00, 0x00, 0x00, 0x06, 0x00,
  0x08, 0x00, 0x04, 0x00, 0x06, 0x00, 0x00, 0x00, 0x04, 0x00, 0x00, 0x00,
  0x00, 0x00, 0x00, 0x00, 0x00, 0x00, 0x0a, 0x00, 0x10, 0x00, 0x0c, 0x00,
  0x08, 0x00, 0x04, 0x00, 0x0a, 0x00, 0x00, 0x00, 0x02, 0x00, 0x00, 0x00,
  0x02, 0x00, 0x00, 0x00, 0x04, 0x00, 0x00, 0x00, 0x06, 0x00, 0x00, 0x00,
  0x32, 0x2e, 0x31, 0x30, 0x2e, 0x30, 0x00, 0x00, 0x16, 0xcd, 0xff, 0xff,
  0x04, 0x00, 0x00, 0x00, 0x10, 0x00, 0x00, 0x00, 0x31, 0x2e, 0x35, 0x2e,
  0x30, 0x00, 0x00, 0x00, 0x00, 0x00, 0x00, 0x00, 0x00, 0x00, 0x00, 0x00,
  0x24, 0xc8, 0xff, 0xff, 0x28, 0xc8, 0xff, 0xff, 0x2c, 0xc8, 0xff, 0xff,
  0x30, 0xc8, 0xff, 0xff, 0x42, 0xcd, 0xff, 0xff, 0x04, 0x00, 0x00, 0x00,
  0x00, 0x02, 0x00, 0x00, 0x41, 0xcb, 0x15, 0x3d, 0x0b, 0xbc, 0x90, 0xbe,
  0x79, 0xaa, 0xc9, 0xbd, 0x5c, 0x3b, 0x88, 0x3e, 0xa0, 0xed, 0x96, 0xbf,
  0xea, 0xfc, 0xa5, 0xbf, 0xd8, 0xfe, 0x3a, 0x3e, 0x51, 0x93, 0x26, 0x3f,
  0xc0, 0xca, 0x83, 0xbc, 0xe5, 0xf8, 0xff, 0xbe, 0x02, 0xe6, 0x29, 0x3e,
  0x9f, 0x5d, 0x76, 0x3f, 0xa8, 0x9c, 0x86, 0x3e, 0x0a, 0xd4, 0x67, 0x3e,
  0xc5, 0x88, 0x25, 0xbd, 0x13, 0xef, 0x2f, 0xbf, 0x25, 0x6f, 0x00, 0x3f,
  0xef, 0x74, 0x2e, 0x3f, 0x4f, 0x81, 0x79, 0xbe, 0xa1, 0x26, 0xa1, 0x3e,
  0x01, 0xbc, 0x7a, 0x3e, 0x51, 0x66, 0x06, 0xc0, 0x38, 0x02, 0xfb, 0xbf,
  0xf7, 0xee, 0xf4, 0xbf, 0x58, 0xcd, 0xd4, 0x3e, 0x13, 0xe9, 0xa1, 0x3e,
  0x56, 0x5f, 0x97, 0xbe, 0xb5, 0x8e, 0x34, 0xbc, 0x1b, 0xd7, 0x17, 0x3d,
  0x99, 0x98, 0xdf, 0x3e, 0xb6, 0x0c, 0x28, 0x3e, 0x94, 0x36, 0x87, 0x3d,
  0x78, 0x47, 0x53, 0xbf, 0x87, 0xe7, 0x31, 0x3f, 0x96, 0xd7, 0x9c, 0xbf,
  0x53, 0x63, 0x19, 0x3e, 0x5a, 0x32, 0x28, 0x3e, 0x11, 0x1d, 0xd6, 0xbc,
  0xbb, 0x9c, 0x95, 0xbf, 0xa8, 0x8d, 0x30, 0x3f, 0xd8, 0xb3, 0xa8, 0xbe,
  0x2f, 0x57, 0xc4, 0xbe, 0x01, 0x05, 0xe2, 0xbf, 0x3a, 0x08, 0x9f, 0xbe,
  0x6a, 0xd9, 0xcc, 0xbe, 0x76, 0x69, 0xa1, 0xbe, 0xb4, 0x46, 0x08, 0xbe,
  0x9c, 0xfb, 0xb5, 0x3e, 0x63, 0x54, 0xc5, 0xbe, 0xf8, 0x55, 0xa7, 0x3e,
  0x5e, 0x2e, 0x10, 0xc0, 0xcb, 0x98, 0xd9, 0x3e, 0xdd, 0x94, 0x4d, 0x3f,
  0x60, 0xbb, 0x14, 0xbf, 0x2a, 0xd1, 0xe6, 0x3e, 0x31, 0x67, 0x41, 0x3e,
  0x78, 0xdf, 0xd4, 0xbe, 0x6b, 0x50, 0x61, 0x3e, 0xe0, 0x12, 0xac, 0xbe,
  0x89, 0x44, 0x8f, 0x3e, 0x5e, 0x73, 0xe8, 0x3e, 0xfa, 0xfc, 0xe8, 0xbd,
  0x4f, 0xb7, 0xf6, 0xbf, 0x4b, 0x11, 0x7a, 0xbf, 0xab, 0xd0, 0x1b, 0xc0,
  0xfe, 0x11, 0x21, 0xbe, 0xc5, 0xee, 0x97, 0x3e, 0x79, 0x9e, 0x0b, 0x3e,
  0xd7, 0x88, 0x5c, 0xbf, 0x41, 0x14, 0xae, 0x3e, 0xd9, 0xa9, 0x66, 0xbe,
  0xa4, 0xd9, 0xd3, 0x3e, 0xcc, 0x86, 0xb0, 0xbe, 0x5a, 0xca, 0x3b, 0xbd,
  0x5b, 0xc3, 0xd6, 0xbf, 0xe3, 0xc1, 0x09, 0x3e, 0x2e, 0xa9, 0xb3, 0x3e,
  0x31, 0xd5, 0x66, 0xbe, 0x7a, 0x67, 0xdd, 0xbe, 0xeb, 0xf2, 0xdd, 0x3e,
  0x15, 0x97, 0xad, 0x3e, 0x7f, 0x5e, 0x02, 0xbf, 0x05, 0xe2, 0x9c, 0x3f,
  0x7f, 0xf3, 0xa0, 0x3e, 0x08, 0x57, 0x35, 0x3e, 0x05, 0xcc, 0x07, 0xbf,
  0x6d, 0xb8, 0xc1, 0xbe, 0x83, 0xe4, 0x03, 0xbf, 0x9c, 0x21, 0x91, 0x3e,
  0x28, 0x11, 0x38, 0xbe, 0x9e, 0x29, 0xe8, 0xbd, 0xd0, 0xda, 0xd2, 0xbe,
  0xc5, 0x3f, 0xf6, 0x3e, 0x6b, 0xe3, 0xf1, 0x3d, 0x4a, 0xce, 0x4f, 0x3f,
  0x5c, 0x50, 0xa5, 0xbf, 0x3e, 0x90, 0x76, 0xbf, 0xc7, 0x4e, 0xb8, 0xbf,
  0x7b, 0x1d, 0x9b, 0x3e, 0xaf, 0x98, 0x94, 0x3d, 0x86, 0xba, 0xcc, 0x3e,
  0x02, 0xf0, 0x07, 0x3f, 0x04, 0xd8, 0x89, 0xbe, 0x4d, 0x82, 0x2b, 0x3d,
  0x54, 0x82, 0xc9, 0x3e, 0xde, 0x89, 0x43, 0x3e, 0x02, 0xaa, 0x29, 0xbe,
  0x0f, 0x28, 0xd7, 0x3c, 0x39, 0x51, 0x80, 0xbd, 0x79, 0x80, 0xd4, 0x3e,
  0xc0, 0x93, 0x29, 0x3f, 0x6f, 0xe9, 0xbd, 0xbe, 0x00, 0x51, 0x23, 0xbe,
  0xa3, 0x0a, 0x16, 0xbf, 0x1d, 0x01, 0x14, 0xc0, 0xf6, 0x18, 0x9e, 0x3e,
  0xf8, 0x49, 0x09, 0xbf, 0xa0, 0x45, 0x1d, 0x3e, 0x11, 0xbe, 0x27, 0x3e,
  0x2e, 0x74, 0x39, 0xbd, 0x1c, 0x1b, 0xac, 0x3e, 0xc2, 0x04, 0xa5, 0x3e,
  0x7a, 0x80, 0xee, 0xbc, 0xdd, 0xb5, 0x30, 0xbf, 0x02, 0x97, 0xb6, 0x3e,
  0x00, 0x94, 0x74, 0xbd, 0x50, 0x38, 0x27, 0xbf, 0x67, 0x18, 0x85, 0x3f,
  0x4e, 0xcf, 0xff, 0xff, 0x04, 0x00, 0x00, 0x00, 0x00, 0x08, 0x00, 0x00,
  0xe4, 0x38, 0x17, 0x3e, 0x59, 0x94, 0xa0, 0x3e, 0x48, 0x90, 0x12, 0x3e,
  0xf5, 0x99, 0xa6, 0xbe, 0x80, 0xfc, 0xfd, 0x3d, 0x57, 0x6f, 0x0e, 0x3e,
  0x00, 0x61, 0xcc, 0x3d, 0xf0, 0x11, 0x59, 0xbd, 0x82, 0xb5, 0x4d, 0xbe,
  0xc4, 0x63, 0x8c, 0x3e, 0xd4, 0xda, 0x8f, 0xbd, 0x0e, 0xa8, 0x57, 0x3f,
  0xbd, 0x20, 0xf4, 0xbe, 0x78, 0x25, 0xc3, 0x3e, 0x25, 0xc0, 0xdd, 0x3e,
  0x8a, 0x02, 0x69, 0x3f, 0x6d, 0x38, 0x66, 0x3e, 0xc4, 0x7b, 0xcc, 0x3c,
  0xeb, 0xe2, 0x8b, 0xbe, 0x1e, 0x34, 0x85, 0xbd, 0xac, 0x3a, 0x8a, 0xbd,
  0x31, 0xa9, 0x5c, 0xbe, 0x66, 0x06, 0x67, 0xbe, 0x7b, 0x1d, 0x34, 0x3f,
  0x90, 0x7d, 0x13, 0xbf, 0x27, 0x22, 0x85, 0x3e, 0x12, 0xda, 0x14, 0xbe,
  0x37, 0x21, 0x26, 0xbf, 0x3c, 0xad, 0x23, 0xbf, 0xdf, 0x92, 0x03, 0x3f,
  0x58, 0x66, 0xb2, 0x3d, 0x38, 0x8d, 0x1d, 0x3f, 0xa8, 0x4c, 0x3a, 0xbe,
  0x83, 0x62, 0x01, 0x3f, 0x79, 0x5b, 0x4d, 0xbf, 0x12, 0x0a, 0xa2, 0xbe,
  0x3a, 0xf3, 0x80, 0xbe, 0x67, 0xb1, 0x8c, 0x3d, 0x36, 0x17, 0x0c, 0x3f,
  0x12, 0x85, 0x35, 0x3e, 0xf3, 0xcf, 0xf1, 0xbe, 0x2f, 0x5d, 0x84, 0x3d,
  0x0e, 0xde, 0x49, 0x3e, 0xba, 0x34, 0x82, 0x3e, 0x98, 0x44, 0xe6, 0xbe,
  0x0b, 0xb9, 0x40, 0x3e, 0x8f, 0x8d, 0xe3, 0x3e, 0xea, 0x1f, 0x96, 0x3e,
  0xec, 0x38, 0x53, 0x3f, 0x38, 0x13, 0xa8, 0x3e, 0xee, 0xd2, 0xba, 0xbe,
  0xb0, 0x37, 0x6c, 0x3f, 0x38, 0xc6, 0x47, 0x3d, 0xea, 0xb8, 0x56, 0x3e,
  0x77, 0xd3, 0xbb, 0x3d, 0x7c, 0x9f, 0xc5, 0x3c, 0x00, 0xbc, 0xa8, 0xbe,
  0xa8, 0x54, 0x60, 0x3d, 0x90, 0x31, 0xac, 0x3d, 0x1c, 0x06, 0x55, 0x3f,
  0x70, 0x09, 0xdc, 0x3e, 0x73, 0x45, 0xf0, 0xbe, 0xbd, 0xec, 0x80, 0x3e,
  0x2a, 0xe1, 0xbf, 0x3e, 0x13, 0xc6, 0x1d, 0x3e, 0x46, 0xa4, 0xbc, 0x3f,
  0x49, 0x88, 0xab, 0x3e, 0x4c, 0xdb, 0xa4, 0xbe, 0x5e, 0x22, 0x63, 0x3e,
  0xc2, 0x47, 0x5b, 0x3e, 0xca, 0xbf, 0xe7, 0xbe, 0x26, 0xc2, 0x2b, 0x3e,
  0xe4, 0xdf, 0x0e, 0x3f, 0x50, 0x5a, 0x23, 0x3f, 0x65, 0x18, 0xaa, 0x3e,
  0x31, 0x8f, 0xab, 0xbe, 0x8e, 0x5e, 0xf3, 0xbe, 0x91, 0x91, 0x29, 0xbf,
  0xc8, 0xe2, 0x13, 0x3f, 0x60, 0xe3, 0xf6, 0x3c, 0xf5, 0xa2, 0xaf, 0x3d,
  0x8c, 0xee, 0x8a, 0xbe, 0x6e, 0x08, 0xdd, 0xbd, 0x76, 0x0d, 0x3b, 0x3e,
  0x8e, 0x14, 0x82, 0xbe, 0x49, 0x95, 0xab, 0xbe, 0x04, 0xf9, 0x2b, 0x3f,
  0x7f, 0xd6, 0xc2, 0x3e, 0x2b, 0xce, 0x2e, 0x3f, 0xc0, 0x79, 0x9a, 0x3b,
  0x5b, 0x15, 0xa6, 0x3e, 0x96, 0x7a, 0x36, 0xbf, 0xa8, 0x19, 0x45, 0x3e,
  0x4d, 0x74, 0xca, 0x3e, 0xe0, 0x48, 0x94, 0x3c, 0xf3, 0x9a, 0xc7, 0xbe,
  0xa6, 0x3d, 0xe8, 0xbd, 0x0e, 0x27, 0x0d, 0xbc, 0x97, 0xdc, 0xa2, 0xbe,
  0xa3, 0xf2, 0xdf, 0x3c, 0xf2, 0xab, 0x28, 0x3e, 0xd4, 0x76, 0x93, 0x3e,
  0xc9, 0x7f, 0x9c, 0x3c, 0x8d, 0x58, 0x83, 0x3e, 0x9b, 0xb0, 0xaa, 0xbb,
  0x22, 0xec, 0x74, 0xbe, 0x56, 0xd5, 0x55, 0x3e, 0x47, 0xfc, 0xd4, 0xbd,
  0x69, 0x79, 0x57, 0xbe, 0x42, 0xa1, 0x1c, 0x3e, 0x65, 0x1d, 0x73, 0x3d,
  0xb9, 0xae, 0xfd, 0xbd, 0xcd, 0x27, 0x07, 0xbe, 0xa0, 0x21, 0x4d, 0xbd,
  0x2a, 0x07, 0xd3, 0xbd, 0x2f, 0x59, 0x1b, 0xbe, 0xdb, 0x0d, 0x9c, 0x3e,
  0x28, 0x34, 0xc5, 0xbd, 0xd0, 0x59, 0x35, 0xbe, 0x5d, 0xaa, 0x22, 0xbd,
  0x38, 0x5c, 0xf7, 0xbe, 0xf5, 0x9b, 0x64, 0xbe, 0x40, 0xea, 0x9a, 0xbc,
  0x0a, 0x5c, 0x66, 0x3e, 0x6f, 0x78, 0x7e, 0x3e, 0x28, 0x9b, 0xd4, 0xbe,
  0x84, 0xf5, 0x9f, 0xbe, 0x05, 0x62, 0x22, 0xbe, 0x74, 0x52, 0x1b, 0xbe,
  0x86, 0x36, 0xfe, 0xbb, 0xc6, 0x68, 0x0e, 0xbf, 0xc8, 0x22, 0xb4, 0x3d,
  0x6a, 0x74, 0x40, 0x3e, 0xc1, 0xb4, 0x28, 0xbe, 0xde, 0x17, 0xca, 0x3e,
  0x3e, 0xd2, 0x89, 0xbe, 0x4f, 0x79, 0x76, 0x3c, 0x2a, 0x93, 0xf5, 0xbe,
  0xca, 0x78, 0x27, 0xbe, 0x7c, 0x35, 0x0b, 0x3e, 0x9e, 0x1f, 0x64, 0x3f,
  0x5a, 0xf0, 0x87, 0x3e, 0xcb, 0xb9, 0xe5, 0xbe, 0x53, 0x96, 0x6e, 0xbe,
  0xc9, 0xfe, 0x0f, 0x3f, 0x81, 0xb0, 0x4f, 0xbe, 0x43, 0x51, 0x54, 0x3e,
  0x10, 0xb2, 0x6c, 0x3f, 0xd0, 0xa8, 0xd9, 0x3d, 0xe8, 0xd3, 0x7b, 0x3d,
  0x99, 0x8a, 0xf3, 0xbe, 0xdb, 0xfb, 0xdb, 0xbe, 0x77, 0xc1, 0x3f, 0xbe,
  0x30, 0x48, 0x5d, 0xbd, 0xd0, 0xbe, 0x9f, 0x3d, 0x33, 0x71, 0xec, 0x3d,
  0x80, 0x01, 0x9d, 0x3d, 0x75, 0x24, 0x2b, 0xbf, 0x5a, 0xef, 0x41, 0x3e,
  0x17, 0x4f, 0x7a, 0x3e, 0x8a, 0xcd, 0x41, 0x3e, 0xf8, 0xef, 0xae, 0xbf,
  0x48, 0x90, 0x6a, 0x3c, 0x80, 0x07, 0x02, 0xbd, 0x90, 0x44, 0xb3, 0xbd,
  0x71, 0xd4, 0x2a, 0xbe, 0x1f, 0x1b, 0xc1, 0x3e, 0xce, 0x2e, 0x27, 0x3e,
  0xd3, 0x82, 0x2c, 0x3e, 0x71, 0x94, 0x20, 0x3e, 0x00, 0xae, 0x95, 0xbb,
  0xaf, 0x57, 0xe0, 0xbe, 0xd9, 0x30, 0x68, 0x3f, 0xa3, 0xba, 0x3a, 0x3e,
  0xbf, 0x1f, 0x0e, 0xbe, 0x3c, 0x01, 0x14, 0xbf, 0x54, 0xc2, 0xed, 0xbe,
  0x37, 0xfa, 0xa1, 0xbe, 0x3b, 0xc9, 0x62, 0x3f, 0xfb, 0x7a, 0x0b, 0xbf,
  0x30, 0x02, 0x86, 0xbc, 0x34, 0xe1, 0x98, 0x3d, 0x68, 0x60, 0x54, 0x3f,
  0xa6, 0xfa, 0xee, 0x3e, 0xc8, 0xdf, 0x85, 0x3f, 0x3e, 0x53, 0x1b, 0xbe,
  0xbf, 0xa4, 0x87, 0x3e, 0x9f, 0x9b, 0x4f, 0x3e, 0xd0, 0xb6, 0x57, 0x3f,
  0x28, 0xd8, 0x2b, 0x3e, 0xb6, 0x1b, 0x17, 0x3e, 0x70, 0x4b, 0x99, 0xbe,
  0x3e, 0x7e, 0xa1, 0x3e, 0xaa, 0x7e, 0x27, 0xbe, 0xd1, 0x9d, 0x39, 0x3f,
  0xf7, 0x2e, 0xa3, 0xbe, 0x20, 0x9c, 0xc1, 0xbd, 0x06, 0x6f, 0x87, 0xbe,
  0x4b, 0xf7, 0xca, 0xbd, 0x60, 0x2f, 0x76, 0xbc, 0xc1, 0xde, 0x29, 0x3f,
  0xc5, 0x72, 0x6b, 0x3f, 0xe6, 0x8f, 0x4e, 0xbe, 0x64, 0x80, 0xfa, 0xbe,
  0x45, 0xa5, 0xa6, 0x3e, 0x6e, 0x5c, 0x2e, 0x3f, 0x78, 0x4a, 0x9d, 0x3e,
  0x74, 0xac, 0x14, 0x3f, 0x55, 0xc4, 0x5d, 0x3f, 0xc4, 0xe9, 0x1f, 0xbe,
  0x84, 0xf5, 0x73, 0x3e, 0x47, 0xc2, 0x3a, 0xbf, 0x74, 0x23, 0xb6, 0x3d,
  0xc4, 0xbc, 0x11, 0x3e, 0x57, 0xa8, 0x2d, 0xbf, 0x38, 0x17, 0xb4, 0x3d,
  0xb1, 0xd3, 0x14, 0x3e, 0x15, 0x80, 0x8a, 0x3e, 0xc8, 0xa9, 0xbf, 0xbd,
  0x97, 0x52, 0x5f, 0x3e, 0xd4, 0x9d, 0x9d, 0x3e, 0x55, 0x90, 0x87, 0xbe,
  0x5a, 0x3e, 0x6e, 0x3e, 0x15, 0x46, 0x48, 0x3d, 0xe6, 0x7d, 0x3d, 0xbe,
  0x88, 0x77, 0x95, 0x3f, 0xd7, 0x94, 0xf1, 0x3d, 0x4d, 0x4c, 0xf3, 0x3d,
  0xf8, 0xc2, 0x0b, 0x3d, 0xf4, 0x8e, 0xd4, 0x3d, 0x6b, 0xcf, 0xb7, 0x3e,
  0x8a, 0x61, 0x2d, 0x3e, 0xe9, 0x3e, 0x76, 0x3d, 0x53, 0xd0, 0x36, 0x3f,
  0xed, 0x41, 0x8f, 0xbe, 0xce, 0xa1, 0xf4, 0xbe, 0x46, 0xf8, 0xac, 0xbd,
  0xd6, 0xd6, 0xb1, 0xbe, 0x9d, 0xb7, 0x4a, 0xbe, 0xdb, 0x5b, 0xb8, 0x3e,
  0xb1, 0x14, 0x1a, 0x3f, 0x25, 0x2a, 0x8a, 0xbe, 0x28, 0x04, 0x95, 0x3d,
  0x2f, 0x68, 0xcd, 0x3d, 0x9a, 0x5a, 0x1c, 0x3e, 0xb4, 0xcb, 0xd3, 0x3d,
  0x9b, 0x41, 0xed, 0x3e, 0x18, 0xf0, 0x68, 0xbe, 0x67, 0x2d, 0x2c, 0x3e,
  0x1e, 0x16, 0x18, 0xbe, 0xf0, 0x9d, 0x86, 0x3c, 0x9c, 0xab, 0x10, 0x3f,
  0xc6, 0xc4, 0x27, 0xbd, 0xb1, 0xd2, 0x17, 0xbd, 0x4c, 0xab, 0x96, 0xbd,
  0x6b, 0xc2, 0x92, 0xbd, 0x19, 0xb1, 0xa0, 0xbe, 0xc8, 0x29, 0x70, 0xbd,
  0x12, 0x11, 0x4c, 0xbe, 0x30, 0xc4, 0xe7, 0x3d, 0xe8, 0x5d, 0x4f, 0xbe,
  0x64, 0x30, 0x53, 0xbe, 0x76, 0x6f, 0x3c, 0x3e, 0xf7, 0x1b, 0x54, 0xbe,
  0x90, 0x1f, 0x66, 0xbe, 0x0e, 0x7f, 0x85, 0xbe, 0x43, 0xaf, 0x87, 0x3e,
  0xf8, 0x47, 0x68, 0xbd, 0xca, 0x60, 0x33, 0x3e, 0xbe, 0xfe, 0x51, 0xbe,
  0x40, 0xdf, 0x4f, 0xbd, 0x76, 0x04, 0xf4, 0xbd, 0x49, 0xa1, 0x87, 0x3e,
  0x54, 0x57, 0xca, 0x3d, 0xcd, 0xaa, 0xa8, 0xbe, 0xa8, 0x12, 0x92, 0xbe,
  0x20, 0x19, 0x3d, 0xbe, 0xd4, 0x21, 0xbb, 0xbd, 0x70, 0x13, 0xd5, 0xbc,
  0x3e, 0x95, 0x8d, 0xbe, 0x30, 0x95, 0xb4, 0xbd, 0x96, 0x0a, 0xf3, 0xbd,
  0x52, 0x8f, 0x2e, 0x3e, 0xdb, 0x88, 0x96, 0xbe, 0x30, 0x60, 0x81, 0xbc,
  0x8f, 0x37, 0x99, 0x3e, 0x3d, 0xd3, 0x80, 0x3e, 0x84, 0xa4, 0x1b, 0xbe,
  0x94, 0x4e, 0xcf, 0xbd, 0xad, 0x6a, 0xb6, 0xbe, 0x39, 0xf9, 0x78, 0xbe,
  0x0e, 0x01, 0x21, 0x3e, 0xa4, 0xd4, 0x7c, 0xbe, 0x40, 0x78, 0x58, 0xbc,
  0x6b, 0x13, 0x24, 0xbd, 0xff, 0x9b, 0xa4, 0xbe, 0xf1, 0x8f, 0xb9, 0xbe,
  0x06, 0x9b, 0x08, 0xbd, 0x42, 0x05, 0x24, 0x3e, 0x95, 0x15, 0x72, 0x3e,
  0xd1, 0x03, 0x96, 0x3e, 0x8e, 0xb9, 0x61, 0xbe, 0x8a, 0xe7, 0xa5, 0xbe,
  0xc2, 0x4c, 0x88, 0xbd, 0xd8, 0x88, 0xb5, 0x3c, 0x4a, 0x89, 0x60, 0x3e,
  0xad, 0xce, 0xc5, 0x3d, 0xc6, 0x32, 0xf3, 0x3d, 0x1a, 0x02, 0x84, 0xbe,
  0xb9, 0x42, 0xa2, 0x3e, 0x56, 0xce, 0x5b, 0x3e, 0x2d, 0xab, 0x86, 0x3e,
  0x45, 0x35, 0x94, 0xbc, 0x73, 0xa8, 0x45, 0xbe, 0x26, 0xd5, 0x4b, 0x3e,
  0xe2, 0xcb, 0xae, 0xbe, 0x3b, 0xde, 0x48, 0xbe, 0xee, 0x28, 0x9b, 0xbe,
  0x20, 0xa6, 0x19, 0xbd, 0x09, 0xcd, 0x28, 0xbe, 0xaa, 0x35, 0x81, 0x3d,
  0x33, 0x57, 0xb5, 0x3d, 0xaa, 0x06, 0x8f, 0x3f, 0x01, 0x07, 0x97, 0xbd,
  0x89, 0x43, 0x90, 0x3e, 0xe6, 0x35, 0x89, 0x3e, 0x19, 0xcb, 0xf6, 0xbd,
  0x90, 0xe5, 0x72, 0x3d, 0xbf, 0x51, 0x92, 0x3e, 0xe5, 0xaf, 0xcc, 0x3e,
  0xca, 0xd9, 0x17, 0x3e, 0xd6, 0xb8, 0xbc, 0x3e, 0x76, 0x48, 0x80, 0xbe,
  0x68, 0x52, 0xb0, 0x3e, 0x39, 0x2d, 0xdf, 0x3e, 0x3f, 0x66, 0xdd, 0x3e,
  0xe5, 0xf9, 0x99, 0x3e, 0x03, 0xd0, 0xe0, 0x3d, 0x78, 0x99, 0xce, 0x3e,
  0xb1, 0xfe, 0x69, 0xbf, 0x77, 0x4e, 0x35, 0xbe, 0xcc, 0xd9, 0xc8, 0x3d,
  0x29, 0xdb, 0xdb, 0xbd, 0xf8, 0x3f, 0x3c, 0x3e, 0x91, 0x5a, 0x75, 0xbe,
  0x8c, 0x47, 0xec, 0xbd, 0xe3, 0x5d, 0x81, 0x3e, 0x02, 0xeb, 0x11, 0xbf,
  0xe4, 0x2c, 0x38, 0xbf, 0xd6, 0x41, 0xf3, 0x3e, 0xcd, 0x99, 0x88, 0x3e,
  0xa5, 0xc3, 0xda, 0x3e, 0xc0, 0x8a, 0xf0, 0x3c, 0x3d, 0xfd, 0x1b, 0x3f,
  0x1c, 0x79, 0xd9, 0xbe, 0xa4, 0x9d, 0xc7, 0x3d, 0xc1, 0x42, 0xa5, 0x3e,
  0x38, 0xb7, 0x70, 0xbd, 0x34, 0xf8, 0x91, 0xbd, 0x53, 0x99, 0x97, 0x3e,
  0xcb, 0x06, 0x21, 0x3e, 0x9b, 0x74, 0x98, 0x3d, 0x80, 0x94, 0x54, 0x3b,
  0x6c, 0xca, 0x26, 0xbe, 0xde, 0xb5, 0x25, 0xbe, 0xf9, 0x95, 0x36, 0x3e,
  0x2e, 0x4b, 0xac, 0x3e, 0xb5, 0x55, 0x47, 0xbe, 0x5f, 0xf2, 0x13, 0x3d,
  0x98, 0xd6, 0xf6, 0x3d, 0xb9, 0x1e, 0x0b, 0xbe, 0xe3, 0x02, 0x17, 0x3e,
  0x82, 0xb9, 0x13, 0x3e, 0x00, 0x32, 0x7d, 0xbd, 0x4c, 0x8b, 0x9a, 0x3d,
  0x1b, 0xb8, 0x83, 0x3e, 0xf6, 0x15, 0x8d, 0x3e, 0x8e, 0x38, 0x6a, 0x3e,
  0x86, 0xdf, 0x11, 0xbe, 0x93, 0x70, 0x64, 0xbe, 0x36, 0xba, 0x0d, 0x3f,
  0x6f, 0xa9, 0x98, 0xbe, 0x4e, 0x0b, 0x9b, 0xbe, 0x71, 0xe9, 0xa1, 0xbe,
  0x89, 0x7f, 0x81, 0x3e, 0xcc, 0x3c, 0x11, 0x3e, 0x04, 0x52, 0x59, 0xbe,
  0x2f, 0x68, 0x9b, 0x3e, 0x6c, 0x90, 0xe9, 0xbd, 0xd2, 0x55, 0x94, 0xbe,
  0x57, 0xd9, 0xa7, 0xbe, 0xc6, 0xcd, 0x3d, 0x3e, 0xbb, 0xfb, 0x91, 0xbe,
  0xba, 0x58, 0x9c, 0x3d, 0xf0, 0x0e, 0x96, 0xbd, 0x26, 0x2b, 0x38, 0xbe,
  0x69, 0x36, 0x78, 0x3d, 0x58, 0xdf, 0xc9, 0x3d, 0x43, 0x4d, 0xca, 0xbc,
  0xd2, 0x93, 0xd2, 0x3c, 0xad, 0x58, 0xa5, 0x3e, 0xdc, 0x20, 0x64, 0x3e,
  0xc6, 0xa0, 0x6f, 0xbd, 0xcc, 0x0b, 0x9b, 0x3e, 0x54, 0xf5, 0xf2, 0x3d,
  0xc3, 0xa6, 0xb0, 0x3e, 0x1b, 0x53, 0x81, 0xbe, 0x4b, 0xf5, 0xae, 0xbe,
  0xcd, 0x65, 0xaf, 0x3e, 0x7e, 0xda, 0x72, 0x3e, 0x6a, 0x79, 0x4c, 0xbe,
  0xbf, 0x99, 0x8e, 0xbe, 0xc0, 0x0d, 0x94, 0xbd, 0xe0, 0xcb, 0xd5, 0xbd,
  0xc0, 0xb4, 0x3f, 0xbc, 0x30, 0xfc, 0xa6, 0x3d, 0x83, 0xe3, 0xe2, 0xbd,
  0xbb, 0xe9, 0xc6, 0xbd, 0x3b, 0xb1, 0x57, 0x3d, 0x8e, 0x1f, 0x79, 0x3e,
  0x00, 0xc8, 0xe6, 0xb9, 0xa9, 0xf7, 0xa0, 0x3e, 0xca, 0xc7, 0xb0, 0xbe,
  0x48, 0xd9, 0x13, 0xbe, 0x16, 0x8c, 0xe5, 0xbd, 0x92, 0x87, 0x6e, 0x3e,
  0xac, 0x6f, 0x95, 0xbd, 0x5a, 0xc3, 0xb3, 0xbe, 0x5a, 0x17, 0x71, 0x3d,
  0x45, 0xf0, 0xa5, 0x3e, 0x17, 0x5c, 0x48, 0xbe, 0xfa, 0x8b, 0x5a, 0x3d,
  0x11, 0x8d, 0x90, 0x3e, 0x04, 0xc7, 0xe9, 0xbd, 0x56, 0x68, 0x58, 0xbd,
  0xce, 0x39, 0x16, 0x3e, 0x9c, 0x1f, 0x37, 0xbe, 0xd2, 0x75, 0x54, 0x3e,
  0x6e, 0x13, 0x8d, 0x3d, 0x10, 0x1d, 0x39, 0xbe, 0x5a, 0xa9, 0xc0, 0x3d,
  0x37, 0x54, 0x02, 0xbe, 0xca, 0x56, 0x4b, 0x3e, 0xe2, 0x6d, 0x18, 0xbe,
  0x4b, 0x89, 0x94, 0x3e, 0x00, 0x98, 0xc8, 0xbd, 0xd0, 0xe1, 0x59, 0x3d,
  0xc7, 0xa8, 0x98, 0xbe, 0x9f, 0x7c, 0x89, 0xbd, 0xd0, 0xd5, 0x8b, 0x3f,
  0x11, 0x21, 0x49, 0x3f, 0x42, 0x46, 0x8a, 0x3e, 0x06, 0x07, 0x4c, 0x3e,
  0x7b, 0x19, 0xa2, 0xbe, 0x89, 0xaf, 0xba, 0x3e, 0x20, 0x2c, 0xc4, 0x3c,
  0x02, 0x60, 0xac, 0xbe, 0x9f, 0x10, 0x1e, 0xbf, 0xe6, 0x0d, 0x4e, 0xbe,
  0x06, 0xd7, 0xaf, 0x3e, 0x24, 0xf5, 0xab, 0xbd, 0xcd, 0xb7, 0x8f, 0xbc,
  0x41, 0x88, 0xe0, 0xbe, 0x47, 0x03, 0xcc, 0xbd, 0x90, 0xca, 0x80, 0xbe,
  0xea, 0xd4, 0x2f, 0xbe, 0x5b, 0x71, 0x2d, 0x3f, 0x39, 0x5b, 0x2e, 0x3f,
  0xcb, 0x9a, 0xaa, 0xbe, 0x90, 0x56, 0x85, 0x3d, 0x82, 0x1e, 0x17, 0x3f,
  0x73, 0x52, 0xa9, 0x3e, 0x5e, 0x26, 0xc1, 0x3d, 0x6a, 0x88, 0x7b, 0x3e,
  0xb6, 0x59, 0x30, 0x3e, 0x22, 0x8a, 0xb5, 0xbd, 0x99, 0x5a, 0x89, 0xbf,
  0x38, 0x0e, 0x96, 0x3f, 0x20, 0xcb, 0xa3, 0xbd, 0xf6, 0x74, 0x4d, 0xbe,
  0x7d, 0xd1, 0xb9, 0xbd, 0xdb, 0xcc, 0xa6, 0xbf, 0x3a, 0xf3, 0xfe, 0xbe,
  0x46, 0xe2, 0x95, 0x3e, 0x38, 0x52, 0x07, 0xbd, 0x8b, 0x44, 0xbc, 0xbc,
  0xfc, 0x27, 0xa7, 0x3e, 0x31, 0x22, 0x2b, 0xbe, 0xa2, 0x78, 0x2f, 0x3f,
  0xea, 0xe4, 0xd0, 0x3c, 0xd0, 0x0c, 0xbd, 0x3d, 0x23, 0x11, 0x39, 0x3e,
  0x0b, 0xbd, 0xf8, 0xbe, 0x72, 0x59, 0xf8, 0xbe, 0xba, 0x7e, 0xcf, 0x3e,
  0x4a, 0x00, 0x0d, 0xbe, 0x19, 0x86, 0x68, 0xbe, 0x91, 0x48, 0x2e, 0xbd,
  0xf2, 0xfb, 0x8f, 0x3e, 0x72, 0x07, 0xc2, 0xbf, 0x28, 0x72, 0x06, 0xbd,
  0x3b, 0x79, 0x1f, 0xbe, 0x9f, 0x87, 0xa5, 0x3d, 0xc5, 0x40, 0xd2, 0x3e,
  0x76, 0xed, 0x91, 0x3f, 0xc5, 0xde, 0x48, 0xbe, 0x65, 0xde, 0x8d, 0xbe,
  0x51, 0x3e, 0xec, 0x3d, 0x99, 0x39, 0x92, 0x3f, 0xda, 0xbe, 0x07, 0xbe,
  0x08, 0x91, 0x80, 0xbd, 0x23, 0xcf, 0xb2, 0x3e, 0x5a, 0xd7, 0xff, 0xff,
  0x04, 0x00, 0x00, 0x00, 0x00, 0x27, 0x00, 0x00, 0xaf, 0x47, 0x5e, 0x3e,
  0x49, 0xe7, 0x19, 0x3e, 0x0b, 0x4d, 0x85, 0x3d, 0x2d, 0xf3, 0x19, 0xbe,
  0x65, 0xde, 0x09, 0xbc, 0xca, 0x62, 0x84, 0xbd, 0xf0, 0x03, 0x62, 0xbe,
  0x6f, 0xe5, 0x31, 0xbe, 0x36, 0x34, 0xda, 0xbd, 0xeb, 0x49, 0xba, 0xbd,
  0x4b, 0x19, 0x86, 0x3d, 0x4a, 0x7d, 0x59, 0x3e, 0xd1, 0x2d, 0x1b, 0x3d,
  0x46, 0xdd, 0x03, 0x3d, 0x04, 0x67, 0x47, 0xbe, 0x65, 0x87, 0x4a, 0x3c,
  0xf7, 0x13, 0xa5, 0x3b, 0xd9, 0x1d, 0x97, 0x3a, 0x95, 0xd1, 0x1c, 0xbe,
  0xd6, 0xea, 0x47, 0x3e, 0x28, 0x0c, 0x2a, 0x3e, 0x51, 0xd2, 0x1b, 0x3e,
  0x5c, 0x72, 0x33, 0x3e, 0x00, 0xa5, 0x6e, 0xbc, 0x7a, 0xce, 0xa6, 0x3d,
  0x46, 0x3d, 0x4a, 0x3e, 0x38, 0x6e, 0xa2, 0xbc, 0x4d, 0x96, 0xcb, 0xbd,
  0x0b, 0x5b, 0x1c, 0x3d, 0x10, 0x95, 0xdb, 0x3c, 0x81, 0xf9, 0xd6, 0xbd,
  0x10, 0xeb, 0x3b, 0xbd, 0xe0, 0x66, 0x13, 0xbe, 0xa1, 0x12, 0x55, 0x3e,
  0xb1, 0x6f, 0x0e, 0xbe, 0xb4, 0xf8, 0x80, 0xbe, 0xd4, 0x95, 0x26, 0x3e,
  0xd2, 0x57, 0xa2, 0xbd, 0x83, 0xe5, 0xc3, 0x3d, 0x5b, 0x66, 0x75, 0xbd,
  0x03, 0xca, 0x1f, 0xbd, 0x91, 0xc7, 0x18, 0x3e, 0xac, 0x3b, 0x92, 0xbc,
  0x2b, 0x25, 0x3a, 0x3e, 0x83, 0x43, 0x25, 0x3c, 0x1f, 0xbf, 0xa8, 0xbd,
  0xeb, 0x43, 0x35, 0xbc, 0xe2, 0x05, 0xfd, 0x3d, 0xc1, 0xf9, 0x53, 0x3e,
  0xd7, 0x38, 0x73, 0xbe, 0xb7, 0x2f, 0xd8, 0x3a, 0x6d, 0xd0, 0x03, 0x3e,
  0x42, 0x1a, 0x08, 0xbd, 0x21, 0x58, 0x5d, 0xbe, 0x4a, 0x0f, 0xee, 0xbb,
  0x01, 0x7c, 0x0f, 0xbd, 0x99, 0x16, 0xf2, 0x3d, 0x6f, 0x9f, 0x34, 0xbe,
  0x72, 0xc1, 0xd8, 0x3d, 0x24, 0x72, 0x6a, 0xbe, 0x00, 0xbc, 0x7e, 0xbc,
  0x8a, 0x56, 0xb1, 0xbd, 0x83, 0xe6, 0x33, 0xbe, 0xe4, 0xb3, 0xfe, 0x3d,
  0xc2, 0xae, 0x32, 0x3e, 0xb6, 0xf0, 0xbb, 0xbc, 0x3e, 0x1b, 0xa3, 0x3d,
  0x97, 0x69, 0x87, 0xbc, 0x22, 0xbb, 0xef, 0xbc, 0x47, 0xca, 0xe5, 0xbd,
  0x34, 0x00, 0x7c, 0xbe, 0x07, 0xb3, 0xdc, 0xbd, 0x06, 0x5f, 0x83, 0xbd,
  0x5b, 0xa2, 0xe6, 0xbc, 0x8a, 0x76, 0xef, 0x3d, 0x3b, 0x1d, 0xb8, 0x3c,
  0x3b, 0xff, 0x7d, 0xbe, 0xe4, 0xd2, 0x46, 0xbb, 0x87, 0x8c, 0x77, 0xbe,
  0x26, 0xed, 0x36, 0xbf, 0xd5, 0x57, 0xc8, 0xbe, 0xe1, 0x7d, 0x64, 0xbb,
  0x13, 0xe5, 0x9d, 0xbd, 0xd2, 0x3b, 0x43, 0x3d, 0x19, 0xce, 0x42, 0xbe,
  0x15, 0x92, 0x83, 0xbf, 0x45, 0x6b, 0x50, 0xbd, 0x11, 0xf4, 0x1c, 0x3e,
  0x69, 0xac, 0x16, 0x3d, 0xcd, 0x3d, 0x72, 0xbe, 0xdc, 0x04, 0x0a, 0x3c,
  0x2c, 0x52, 0x32, 0xbf, 0x68, 0xa9, 0xce, 0xbe, 0xc3, 0x56, 0x12, 0xbc,
  0x56, 0x7e, 0x9c, 0x3e, 0xcf, 0x47, 0x03, 0x3e, 0xcb, 0xd1, 0x17, 0xbd,
  0x4d, 0x5c, 0x8f, 0xbe, 0xdc, 0x2e, 0x72, 0xbe, 0xc8, 0xde, 0x67, 0xbd,
  0x66, 0xdf, 0x55, 0x3e, 0x7d, 0x31, 0x14, 0xbd, 0xfc, 0x3a, 0xfa, 0x3d,
  0x84, 0x5b, 0xe3, 0xbc, 0x41, 0xa7, 0x62, 0xbe, 0xfb, 0x63, 0x84, 0xbe,
  0x43, 0xb1, 0x0f, 0x3e, 0x19, 0x05, 0x94, 0xbe, 0x39, 0x66, 0x39, 0x3d,
  0x23, 0xd8, 0xc9, 0xbd, 0xf0, 0xa5, 0x67, 0x3d, 0x54, 0x67, 0x0f, 0xbc,
  0x0f, 0xc4, 0xc8, 0x3e, 0x34, 0x8a, 0xd7, 0xbe, 0x9f, 0xe8, 0xdf, 0x3d,
  0x9d, 0x4a, 0x3c, 0x3e, 0xa1, 0x9d, 0x83, 0xbd, 0xe0, 0xfe, 0xb8, 0x3d,
  0x0e, 0xf7, 0xd8, 0x3e, 0x76, 0x4e, 0x5e, 0xbd, 0x8e, 0x4b, 0x40, 0xbe,
  0x58, 0x8f, 0x95, 0x3e, 0x4e, 0x93, 0xc0, 0x3d, 0xca, 0x80, 0xe7, 0x3d,
  0xf9, 0x40, 0x88, 0xbc, 0x64, 0xe6, 0xca, 0xbe, 0x4b, 0xbd, 0x16, 0xbe,
  0x61, 0xa5, 0xa1, 0x3e, 0x14, 0xcd, 0xd5, 0x3e, 0x9b, 0x99, 0x11, 0x3e,
  0x5d, 0xc2, 0x03, 0x3e, 0xda, 0x48, 0xb1, 0xbe, 0x3e, 0x54, 0x49, 0x3c,
  0xdb, 0x12, 0xfb, 0x3e, 0x18, 0xdc, 0x20, 0x3e, 0x2a, 0x84, 0x84, 0xbd,
  0x85, 0x53, 0xf7, 0x3d, 0x5f, 0x7c, 0x6a, 0xbe, 0x96, 0x53, 0x26, 0x3e,
  0x4e, 0x47, 0xbf, 0x3e, 0x3f, 0xe0, 0xeb, 0x3e, 0x5a, 0x75, 0xd5, 0x3d,
  0xb6, 0x2a, 0x5d, 0x3e, 0x31, 0xd1, 0xd6, 0xbd, 0xd0, 0x05, 0x21, 0xbe,
  0x09, 0x14, 0x5c, 0x3f, 0x52, 0x8d, 0x01, 0x3e, 0x20, 0x20, 0xdf, 0xbd,
  0x55, 0xde, 0x8f, 0x3e, 0x5a, 0x84, 0xc6, 0xbe, 0x1e, 0xf4, 0x35, 0xbe,
  0xc3, 0x56, 0x15, 0x3f, 0xd6, 0x42, 0x06, 0x3f, 0x80, 0xb7, 0x54, 0x3b,
  0x98, 0xbe, 0xcd, 0x3e, 0x21, 0x50, 0x84, 0xbe, 0x70, 0xb8, 0x8a, 0x3e,
  0x96, 0x04, 0x9f, 0x3e, 0x41, 0xfd, 0x0e, 0x3e, 0x10, 0xba, 0x44, 0x3e,
  0xd6, 0x0a, 0x8f, 0x3e, 0x2a, 0x0e, 0x50, 0x3e, 0xfe, 0xe2, 0x89, 0x3e,
  0xb2, 0x13, 0x2a, 0x3e, 0xa1, 0x79, 0x9f, 0x3e, 0x5e, 0xd0, 0x3b, 0x3e,
  0x08, 0xaa, 0x2f, 0x3d, 0xb7, 0x23, 0x11, 0x3f, 0x32, 0x11, 0xdf, 0x3d,
  0x8d, 0xdd, 0x88, 0xbd, 0x74, 0xe5, 0xc7, 0x3e, 0xcd, 0xc8, 0xb9, 0xbc,
  0xd1, 0x49, 0xe0, 0xbd, 0x52, 0x6f, 0xec, 0x3e, 0x0c, 0x91, 0x33, 0xbe,
  0x21, 0xe6, 0x8b, 0xbe, 0xaa, 0x1b, 0xdf, 0x3e, 0xb9, 0x1c, 0xbd, 0x3d,
  0x6b, 0x8f, 0xe8, 0xbd, 0xcf, 0x64, 0xf5, 0x3e, 0x81, 0x14, 0x26, 0xbe,
  0x86, 0x1c, 0xbc, 0xbd, 0x7c, 0x3d, 0x22, 0x3f, 0xd3, 0x3a, 0x22, 0x3d,
  0xef, 0x5b, 0x70, 0xbe, 0x86, 0xb4, 0xec, 0x3e, 0x0b, 0xda, 0x24, 0xbc,
  0xcc, 0xf9, 0x42, 0xbe, 0x6b, 0xd3, 0x2a, 0x3f, 0xcd, 0x8b, 0x6e, 0x3e,
  0x5b, 0x07, 0xfc, 0x3d, 0xf9, 0x88, 0x26, 0x3e, 0x86, 0x85, 0xb2, 0xbe,
  0x57, 0x43, 0xdc, 0xbe, 0x4a, 0x76, 0x86, 0x3e, 0x97, 0x16, 0xfc, 0xbd,
  0xe6, 0x29, 0x07, 0x3e, 0x51, 0xcc, 0xd0, 0x3e, 0x13, 0x0b, 0x07, 0xbf,
  0x4e, 0xcf, 0x8c, 0xbe, 0x26, 0xca, 0xa3, 0x3e, 0x97, 0xd9, 0x16, 0xbe,
  0xba, 0xaa, 0x06, 0xbe, 0xe9, 0x77, 0x53, 0xbd, 0xd5, 0x10, 0xee, 0xbe,
  0x97, 0x5b, 0xb5, 0xbd, 0xa9, 0x74, 0xba, 0x3e, 0xc0, 0x60, 0xc3, 0x3d,
  0x3a, 0x11, 0x89, 0xbd, 0x78, 0x03, 0xb8, 0xbd, 0x7e, 0x3c, 0x33, 0xbf,
  0x8c, 0x7d, 0x22, 0xbe, 0x84, 0x4d, 0xd9, 0x3d, 0xd1, 0x90, 0x5b, 0xbe,
  0x2b, 0x7e, 0x45, 0x3e, 0x3d, 0xab, 0x6d, 0x3d, 0xab, 0x34, 0x1d, 0xbf,
  0x32, 0x20, 0xb7, 0xbd, 0x08, 0x82, 0x61, 0x3e, 0xdc, 0x68, 0xee, 0x3d,
  0x47, 0x9b, 0xb8, 0x3d, 0xf4, 0x86, 0x45, 0x3e, 0x3b, 0xe5, 0x37, 0xbf,
  0x82, 0xa3, 0xd5, 0xbe, 0x8a, 0x7c, 0xc8, 0x3e, 0xac, 0x5e, 0x37, 0x3e,
  0x5d, 0xf9, 0xe7, 0xbc, 0x0a, 0xf0, 0x2b, 0x3e, 0x71, 0x97, 0x42, 0xbf,
  0x8a, 0x3a, 0xac, 0xbe, 0xc8, 0xef, 0x98, 0x3e, 0x8e, 0xc5, 0x14, 0x3e,
  0x8c, 0x88, 0x71, 0xbd, 0xe6, 0x34, 0x1b, 0x3e, 0x4e, 0x09, 0x5d, 0xbe,
  0xca, 0xb2, 0x80, 0xbe, 0x6b, 0xe6, 0x49, 0x3e, 0x5e, 0xfc, 0x0b, 0x3c,
  0xf6, 0x37, 0x79, 0xbd, 0xf0, 0x3c, 0xc3, 0xbc, 0xc1, 0xd2, 0x2d, 0x3d,
  0xf6, 0x08, 0x33, 0x3c, 0x90, 0x2c, 0x5e, 0xbe, 0x9b, 0x88, 0x5f, 0x3d,
  0x91, 0xda, 0xd9, 0xbd, 0x42, 0x6e, 0x4a, 0xbe, 0x3c, 0x5d, 0x15, 0xbe,
  0x02, 0x95, 0x06, 0xbe, 0x5e, 0xd9, 0x1b, 0x3e, 0x00, 0x57, 0x8a, 0x3b,
  0x92, 0xd0, 0x1e, 0xbe, 0x99, 0xdf, 0x97, 0xbd, 0x44, 0x2f, 0x3f, 0xbe,
  0x41, 0x55, 0x0f, 0x3d, 0x16, 0x75, 0xa5, 0xbd, 0xbc, 0x37, 0x4a, 0x3e,
  0x8b, 0xfd, 0x3c, 0x3e, 0x99, 0x31, 0x33, 0x3e, 0xaf, 0x78, 0x9f, 0x3c,
  0x54, 0x89, 0xb8, 0x3d, 0x02, 0x7e, 0xfe, 0x3c, 0x86, 0x7f, 0x80, 0x3d,
  0xab, 0x69, 0x3f, 0x3e, 0xea, 0xbd, 0x17, 0xbc, 0xee, 0x97, 0x1a, 0xbe,
  0x8b, 0xb0, 0x36, 0x3e, 0x20, 0x86, 0x23, 0x3e, 0xaf, 0xc6, 0x78, 0x3d,
  0xe1, 0x5e, 0x62, 0xbd, 0xb3, 0x45, 0xa3, 0xbd, 0xe1, 0x59, 0x07, 0x3d,
  0x11, 0x19, 0xa1, 0x3d, 0x37, 0xf6, 0x8e, 0xbd, 0x25, 0x08, 0xba, 0xbc,
  0xee, 0x24, 0x5a, 0xbe, 0xaf, 0xe6, 0x1e, 0xbe, 0xe8, 0xce, 0x3b, 0x3e,
  0x27, 0xb5, 0x47, 0xbc, 0x5a, 0x7f, 0x96, 0x3d, 0x74, 0x86, 0xca, 0x3d,
  0xa5, 0x06, 0x61, 0xbe, 0xc0, 0x5c, 0xff, 0xbd, 0x64, 0xd1, 0x6f, 0xbe,
  0x00, 0xf4, 0x15, 0x3e, 0xc2, 0x49, 0x85, 0xbd, 0x36, 0x50, 0x6e, 0xbe,
  0x58, 0xfb, 0xf0, 0x3d, 0x3b, 0x74, 0x0d, 0xbe, 0x0c, 0x2b, 0x83, 0xba,
  0x7f, 0xe6, 0x13, 0x3e, 0xe4, 0x11, 0x1c, 0xbd, 0xbc, 0xa4, 0x54, 0x3e,
  0x15, 0x0f, 0xb3, 0x3d, 0x57, 0x8f, 0x45, 0xbe, 0x44, 0x5a, 0x6f, 0xbd,
  0xa7, 0xb9, 0xd6, 0xbd, 0x09, 0x54, 0x38, 0xbe, 0x2f, 0xf7, 0xd0, 0x3d,
  0xce, 0xdd, 0x94, 0x3d, 0xaa, 0x67, 0x5e, 0x3e, 0xe3, 0x53, 0xb4, 0xbd,
  0x61, 0xf3, 0xc7, 0x3d, 0x16, 0x06, 0x52, 0x3d, 0x3b, 0x70, 0xdc, 0xbd,
  0xb2, 0x70, 0x5e, 0xbe, 0x2e, 0x5f, 0xb6, 0xbd, 0x7f, 0xa9, 0xdf, 0xbd,
  0x8a, 0x5d, 0x67, 0xbe, 0x6c, 0x80, 0x60, 0x3e, 0x31, 0xad, 0x56, 0x3e,
  0xa1, 0x62, 0x71, 0xbc, 0xb5, 0xb6, 0x2a, 0x3d, 0xd0, 0x97, 0x7c, 0x3c,
  0xc6, 0xda, 0x64, 0x3e, 0x30, 0xb2, 0x40, 0xbe, 0xb6, 0xac, 0xf4, 0xbd,
  0x56, 0x79, 0x1d, 0x3e, 0x2c, 0xdf, 0xd8, 0xbd, 0xac, 0xa8, 0xb2, 0x3d,
  0x0e, 0xd9, 0x4d, 0xbe, 0xa0, 0x2f, 0xc6, 0x3d, 0x06, 0x63, 0x02, 0xbe,
  0x60, 0x94, 0xa7, 0x3c, 0xde, 0x60, 0x1d, 0xbe, 0x38, 0x25, 0xac, 0xbd,
  0xe4, 0x23, 0x56, 0xbd, 0x80, 0xcb, 0x67, 0x3e, 0x7d, 0xc7, 0xe0, 0xbd,
  0x9a, 0x4b, 0x12, 0xbe, 0x91, 0x55, 0x27, 0xbe, 0x28, 0x54, 0x43, 0x3d,
  0x6b, 0xb9, 0x61, 0xbe, 0x62, 0xfa, 0xc2, 0xbd, 0xc2, 0x0f, 0x16, 0xbe,
  0x19, 0x57, 0x02, 0xbe, 0x52, 0x98, 0x26, 0x3e, 0x87, 0x1c, 0x43, 0xbe,
  0xf4, 0x61, 0xdb, 0xbd, 0x94, 0xb0, 0x59, 0xbd, 0x48, 0x04, 0x4f, 0xbd,
  0x34, 0x12, 0x90, 0x3d, 0x98, 0x3d, 0x9e, 0x3d, 0x67, 0x55, 0x06, 0xbe,
  0x4c, 0x7f, 0xd3, 0x3d, 0x0c, 0xda, 0x31, 0xbd, 0xf4, 0x79, 0x5c, 0x3e,
  0x10, 0xc3, 0xbe, 0xbd, 0xb0, 0x00, 0x2c, 0x3d, 0x3e, 0x88, 0x60, 0x3e,
  0x56, 0xc8, 0x30, 0x3e, 0xa0, 0x13, 0x8e, 0xbd, 0x34, 0x25, 0x87, 0xbd,
  0xa3, 0x43, 0x32, 0xbe, 0x16, 0x68, 0x8b, 0xbd, 0x58, 0xf6, 0x81, 0x3d,
  0x31, 0xd4, 0x57, 0xbe, 0x13, 0xa2, 0x66, 0xbe, 0x24, 0xad, 0x78, 0xbd,
  0xcf, 0x72, 0x6b, 0xbe, 0x90, 0xc8, 0x67, 0xbd, 0x70, 0x6c, 0xe3, 0x3c,
  0xa0, 0xd0, 0x96, 0x3d, 0x5f, 0xcd, 0x63, 0xbe, 0x20, 0x8a, 0x71, 0x3c,
  0x46, 0x87, 0x12, 0xbe, 0x98, 0x68, 0xb3, 0x3d, 0x60, 0x51, 0x76, 0x3d,
  0x60, 0x48, 0xa7, 0x3c, 0xb0, 0xee, 0xe8, 0x3d, 0x34, 0xcc, 0xbe, 0xbd,
  0xee, 0xfe, 0x2e, 0x3e, 0x28, 0x1f, 0x15, 0x3d, 0xea, 0x6d, 0xb1, 0xbd,
  0xec, 0x75, 0x36, 0x3e, 0x4c, 0x53, 0xe7, 0xbd, 0xac, 0x60, 0x80, 0xbd,
  0xb0, 0x77, 0x3b, 0x3c, 0x7d, 0x2d, 0x17, 0xbe, 0xbc, 0x07, 0x5a, 0xbe,
  0x80, 0xd4, 0xb6, 0x3d, 0x8e, 0xcf, 0xc1, 0xbd, 0xf0, 0xf9, 0xd6, 0xbd,
  0xf0, 0x5b, 0x9d, 0xbd, 0x5e, 0x83, 0x61, 0xbe, 0x20, 0x8b, 0xf1, 0x3b,
  0x8e, 0x2c, 0x46, 0xbe, 0xf8, 0x12, 0xbc, 0xbc, 0x9c, 0x66, 0xb7, 0x3d,
  0x04, 0x3a, 0x68, 0xbd, 0xde, 0xe8, 0x6d, 0xbe, 0xe6, 0x9e, 0x48, 0x3d,
  0x15, 0xdc, 0x0b, 0x3e, 0x48, 0x47, 0x06, 0x3e, 0x5b, 0x60, 0xd9, 0xbc,
  0xed, 0xf7, 0x99, 0xbb, 0xd8, 0x59, 0x2b, 0xbe, 0xa9, 0x87, 0x1c, 0xbd,
  0x1e, 0x9c, 0x53, 0xbd, 0x68, 0x14, 0x4e, 0xbd, 0xd4, 0x71, 0x41, 0x3e,
  0xcf, 0x33, 0x62, 0x3d, 0x2e, 0x54, 0xe4, 0xbc, 0x39, 0xab, 0x9c, 0xbd,
  0x41, 0x8b, 0x71, 0xbe, 0x93, 0xf4, 0x6e, 0x3d, 0x52, 0x49, 0x5f, 0xbd,
  0x03, 0xd6, 0x6f, 0x3d, 0x2b, 0xfb, 0x3e, 0xbe, 0xef, 0xa8, 0x22, 0xbe,
  0x77, 0x08, 0x4b, 0x3e, 0x05, 0xf2, 0x81, 0xbe, 0x78, 0x39, 0xe2, 0xbd,
  0x65, 0x54, 0xe4, 0x3c, 0x2b, 0xc4, 0x22, 0x3e, 0x94, 0x50, 0x43, 0xbd,
  0xbe, 0xa6, 0x8a, 0x3d, 0x4c, 0x18, 0x30, 0x3e, 0x89, 0x8f, 0x1c, 0xbd,
  0x40, 0x8a, 0xcf, 0x3d, 0x25, 0xb2, 0x02, 0x3e, 0x93, 0x20, 0x49, 0xbe,
  0x02, 0x1f, 0xcd, 0x3c, 0xdb, 0x2c, 0xd4, 0x3c, 0x17, 0x19, 0xac, 0x3d,
  0x9d, 0xd0, 0x4c, 0x3d, 0xbb, 0x7e, 0x5c, 0x3e, 0x24, 0x2d, 0x09, 0xbc,
  0x16, 0x85, 0xf4, 0x3b, 0xcb, 0xb8, 0xf4, 0xbc, 0x5e, 0xd0, 0x09, 0xbe,
  0x80, 0xb1, 0x5c, 0xbd, 0x80, 0xd4, 0xb5, 0x3d, 0x0b, 0x23, 0x40, 0x3c,
  0x4a, 0x08, 0x3b, 0xbd, 0x86, 0x6f, 0x51, 0x3c, 0x69, 0x94, 0x56, 0xbd,
  0x41, 0x41, 0x34, 0xbd, 0x29, 0x0d, 0x29, 0x3e, 0x9c, 0x1c, 0xf9, 0x3d,
  0x28, 0x6a, 0x79, 0xbd, 0xa2, 0xa0, 0x0c, 0x3e, 0x16, 0xe9, 0x51, 0x3e,
  0xed, 0xfb, 0x17, 0xbe, 0xc5, 0xce, 0xce, 0x3d, 0x9d, 0xa9, 0x70, 0x3d,
  0x58, 0x55, 0x02, 0x3e, 0x94, 0x45, 0xd6, 0xbd, 0x3e, 0xa0, 0x60, 0xba,
  0x49, 0x1b, 0x96, 0x3d, 0xfe, 0x17, 0x1e, 0xbe, 0xb4, 0x7e, 0xc9, 0x3c,
  0x23, 0x57, 0x37, 0x3e, 0x68, 0x3b, 0x22, 0xbe, 0xe7, 0xc4, 0x3c, 0xbe,
  0x32, 0x39, 0x2c, 0x3d, 0x44, 0x05, 0x88, 0xbd, 0x97, 0x2b, 0xa0, 0xbb,
  0xd9, 0x8d, 0x92, 0xbc, 0x05, 0x43, 0xb1, 0x3d, 0x11, 0xc3, 0xe8, 0xbd,
  0x10, 0x66, 0xac, 0xbd, 0x28, 0x15, 0x31, 0xbe, 0xab, 0xd9, 0xda, 0x3d,
  0xc4, 0x9a, 0x7e, 0xbe, 0x8b, 0xfc, 0x27, 0xbe, 0x7b, 0xfb, 0x75, 0xbd,
  0xd3, 0xf6, 0x97, 0x3d, 0xe1, 0xc9, 0x58, 0xbe, 0x87, 0xd8, 0x12, 0xbe,
  0xf4, 0x3b, 0xe6, 0x3c, 0x78, 0x3a, 0x36, 0xbd, 0x4d, 0x3d, 0x87, 0xbe,
  0xa8, 0xc8, 0x10, 0x3c, 0x56, 0xd4, 0x4e, 0x3e, 0xaf, 0x7b, 0x84, 0x3e,
  0x65, 0x49, 0xd2, 0x3e, 0x0d, 0x21, 0x0e, 0xbf, 0x96, 0x6a, 0xb7, 0xbc,
  0xc2, 0x08, 0x6a, 0xbe, 0x33, 0xbb, 0xd8, 0x3d, 0x95, 0xc7, 0xb3, 0x3e,
  0x24, 0x62, 0xa1, 0x3e, 0x97, 0x04, 0x12, 0xbf, 0xff, 0x68, 0x30, 0xbb,
  0x75, 0xee, 0x3d, 0x3e, 0x75, 0x56, 0x05, 0xbd, 0x92, 0xd6, 0xbc, 0x3e,
  0x0f, 0xd5, 0xa1, 0x3e, 0xb6, 0xf3, 0xf7, 0xbe, 0x51, 0x59, 0x61, 0x3e,
  0x83, 0x2b, 0x60, 0x3d, 0x53, 0x41, 0xcf, 0xbd, 0x52, 0x70, 0x8c, 0x3e,
  0x80, 0x1e, 0x51, 0x3e, 0xb4, 0xd3, 0x26, 0xbf, 0xb3, 0xe8, 0x53, 0x3c,
  0xf1, 0x17, 0x91, 0x3d, 0xa1, 0xf2, 0x37, 0xbd, 0x44, 0x32, 0xa6, 0x3e,
  0x5c, 0x58, 0x05, 0x3f, 0xf3, 0x78, 0xb7, 0xbe, 0xa0, 0x49, 0x4a, 0x3e,
  0x2e, 0x9e, 0xfa, 0xbc, 0xd9, 0x37, 0x7e, 0x3e, 0x41, 0x5a, 0xb2, 0x3e,
  0xd7, 0x32, 0x7d, 0x3e, 0x6d, 0x9f, 0xea, 0xbe, 0x8c, 0x48, 0x4d, 0x3e,
  0xb1, 0x55, 0x50, 0x3e, 0x65, 0xe7, 0x36, 0x3d, 0x31, 0x0e, 0xc7, 0x3e,
  0xce, 0xb9, 0x8c, 0x3e, 0xf2, 0x96, 0x79, 0xbe, 0xd0, 0xb2, 0x1c, 0x3e,
  0x8b, 0x8d, 0xae, 0x3e, 0x9b, 0xee, 0xa4, 0x3e, 0xd5, 0x9d, 0x38, 0x3f,
  0x42, 0xc6, 0x49, 0x3e, 0xc0, 0x2d, 0xfa, 0xbd, 0x06, 0x79, 0xaf, 0x3b,
  0xc8, 0x38, 0x0b, 0x3e, 0x00, 0x50, 0x97, 0x3e, 0x7e, 0x20, 0x1c, 0x3f,
  0x4b, 0xb1, 0x4b, 0xbe, 0xe3, 0xb4, 0x0b, 0xbe, 0x42, 0x67, 0xfc, 0xbd,
  0x80, 0x6d, 0x91, 0x3d, 0xbb, 0xd5, 0xdd, 0x3d, 0x25, 0xc2, 0x3c, 0x3f,
  0xfe, 0xed, 0x80, 0x3d, 0xe8, 0x27, 0x0a, 0x3e, 0x43, 0x87, 0xe4, 0x3d,
  0xcc, 0x5f, 0x90, 0x3e, 0xde, 0x0c, 0x6e, 0x3e, 0x71, 0x73, 0x2b, 0x3f,
  0x74, 0x1f, 0xf5, 0xbd, 0x4f, 0xec, 0x24, 0x3e, 0x72, 0x7a, 0x33, 0x3a,
  0x17, 0x6a, 0x6e, 0x3e, 0xc7, 0x37, 0x16, 0x3e, 0xec, 0xdd, 0x4c, 0x3f,
  0xf9, 0x5c, 0x26, 0xbe, 0xb0, 0x8f, 0x88, 0x3e, 0x3c, 0x06, 0xa3, 0x3c,
  0xa2, 0xd9, 0x43, 0x3c, 0xdc, 0x3f, 0x84, 0x3d, 0x00, 0xde, 0x1a, 0x3d,
  0x98, 0xc4, 0x21, 0xbe, 0xd0, 0x19, 0xe2, 0x3d, 0xe4, 0xc8, 0x5e, 0xbe,
  0x00, 0xcc, 0x89, 0x39, 0x34, 0xc7, 0x22, 0x3e, 0x72, 0xe3, 0x2e, 0xbe,
  0xf0, 0xc9, 0x8a, 0x3d, 0xf2, 0xb4, 0x24, 0x3e, 0x1f, 0xd7, 0x0f, 0xbe,
  0x3c, 0xf5, 0x93, 0x3d, 0x59, 0xc5, 0x2b, 0xbe, 0xae, 0x6f, 0xd7, 0xbd,
  0xc0, 0x5d, 0x04, 0xbe, 0x1a, 0x01, 0x0c, 0xbe, 0xb4, 0x8f, 0x04, 0xbd,
  0x72, 0x74, 0xc3, 0xbd, 0x64, 0xbc, 0x7a, 0xbd, 0x7c, 0x3f, 0xd7, 0x3d,
  0xb0, 0x3d, 0x50, 0x3e, 0x96, 0x34, 0x91, 0xbd, 0x3e, 0x06, 0x02, 0x3e,
  0x90, 0xd8, 0xea, 0xbd, 0x00, 0xac, 0x0a, 0xbc, 0x20, 0x5d, 0xef, 0x3d,
  0x54, 0x2a, 0xba, 0x3d, 0x3a, 0xe4, 0x43, 0x3e, 0xde, 0xc2, 0xf7, 0xbd,
  0x10, 0xd1, 0x1c, 0x3e, 0xdc, 0x7d, 0x6e, 0xbd, 0x16, 0xf7, 0x17, 0xbe,
  0x0e, 0xf8, 0x0d, 0x3e, 0x60, 0x14, 0x4e, 0x3d, 0x18, 0x36, 0x76, 0x3d,
  0xca, 0xa3, 0x51, 0x3e, 0xd8, 0x8f, 0x8f, 0xbc, 0x8c, 0xe1, 0xf3, 0x3d,
  0x80, 0xc3, 0x40, 0xbe, 0x0b, 0x11, 0x39, 0xbe, 0x80, 0xa5, 0x22, 0xbc,
  0x1e, 0xe4, 0xa3, 0xbd, 0x58, 0x47, 0xb2, 0x3d, 0xf4, 0x2f, 0xcf, 0xbd,
  0x64, 0x18, 0x0f, 0xbd, 0x2e, 0x81, 0x53, 0xbe, 0x2e, 0x8f, 0x53, 0xbe,
  0x3a, 0xd3, 0x35, 0x3e, 0x74, 0x72, 0x5b, 0xbd, 0x20, 0x5c, 0x51, 0x3c,
  0xa4, 0x72, 0xff, 0x3d, 0xbc, 0xab, 0xc8, 0xbd, 0x53, 0xcb, 0x40, 0xbe,
  0x3a, 0x3f, 0x39, 0x3e, 0x38, 0x92, 0x86, 0x3d, 0x70, 0xe2, 0x77, 0x3d,
  0xc8, 0xbd, 0x3f, 0xbe, 0xa9, 0x4c, 0x54, 0xbe, 0xfc, 0x1a, 0xd4, 0xbd,
  0x48, 0xa1, 0x26, 0x3d, 0x36, 0x7c, 0x12, 0xbe, 0xd6, 0x1a, 0x42, 0x3e,
  0x01, 0x21, 0x22, 0xbe, 0x33, 0xc5, 0x09, 0xbe, 0x7a, 0x99, 0x3c, 0x3e,
  0x59, 0xbe, 0x19, 0xbe, 0x14, 0x7a, 0x0e, 0x3e, 0xb0, 0xe5, 0x23, 0xbc,
  0xdc, 0x8b, 0x19, 0xbe, 0xd8, 0xff, 0x6c, 0x3d, 0xd0, 0x35, 0x2b, 0x3c,
  0x7e, 0x77, 0xa5, 0xbd, 0x40, 0xe5, 0x7e, 0xbd, 0xde, 0xcf, 0x3a, 0x3e,
  0x66, 0xa4, 0x34, 0xbe, 0x10, 0x4b, 0x1c, 0xbe, 0xc0, 0x32, 0xc8, 0x3d,
  0xfc, 0x45, 0x38, 0xbe, 0xe4, 0xf2, 0x75, 0xbd, 0x81, 0x2b, 0xc2, 0x3b,
  0x38, 0xa3, 0xeb, 0xbe, 0x6a, 0x69, 0xf3, 0x3e, 0x62, 0x5c, 0xd4, 0x3d,
  0xa5, 0xf6, 0x74, 0x3c, 0xd1, 0x11, 0x0b, 0x3f, 0x18, 0x09, 0x3d, 0xbb,
  0xd9, 0x4d, 0xb6, 0xbe, 0x0d, 0xd9, 0xa9, 0x3e, 0x03, 0x9a, 0x4e, 0xbe,
  0x04, 0xda, 0x78, 0xbe, 0x4f, 0xa3, 0x06, 0x3f, 0x51, 0x1b, 0x2d, 0x3e,
  0x92, 0x8c, 0x6a, 0xbe, 0xe6, 0x71, 0xb2, 0x3e, 0xf3, 0x65, 0x49, 0xbe,
  0xa4, 0xbc, 0x48, 0x3d, 0x67, 0xf6, 0x87, 0x3e, 0x69, 0xfd, 0x76, 0x3e,
  0x40, 0x22, 0xef, 0xbd, 0x96, 0xc6, 0x30, 0x3e, 0x91, 0xb8, 0xf6, 0xbd,
  0x93, 0xb0, 0xc2, 0x3d, 0x28, 0x57, 0x0e, 0x3f, 0x52, 0x5a, 0xd8, 0x3d,
  0xe9, 0x6d, 0x5e, 0xbe, 0xc2, 0x08, 0x6b, 0x3c, 0xe8, 0x55, 0xcd, 0xbe,
  0x28, 0xbd, 0x8c, 0xbe, 0xf4, 0x95, 0xb2, 0x3e, 0x16, 0xa4, 0xd0, 0xbd,
  0x29, 0x67, 0x69, 0xbe, 0x20, 0xf2, 0xbd, 0x3e, 0x78, 0xd4, 0xe8, 0xbc,
  0xe9, 0xc9, 0x7d, 0x3d, 0x31, 0x0c, 0x40, 0x3c, 0x88, 0xaa, 0x96, 0x3e,
  0x2c, 0x7a, 0x22, 0xbd, 0x1d, 0xda, 0x3a, 0xbc, 0xf7, 0x21, 0x10, 0xbd,
  0x79, 0xa6, 0x58, 0xbe, 0x55, 0xc0, 0xb0, 0x3e, 0xbd, 0xed, 0xe7, 0x3d,
  0x96, 0x38, 0x90, 0xbd, 0x71, 0x82, 0xdf, 0x3d, 0x0e, 0xec, 0x6e, 0xbe,
  0x0c, 0xd1, 0x9b, 0xbc, 0xa6, 0x09, 0xa3, 0x3e, 0xb2, 0x0c, 0x53, 0x3e,
  0xc8, 0x48, 0x2d, 0x3e, 0x2e, 0xd9, 0x72, 0x3e, 0x47, 0xd6, 0x94, 0xbe,
  0xd2, 0x68, 0x4b, 0xbd, 0xcd, 0xb4, 0xaa, 0x3d, 0xb6, 0xc7, 0x9d, 0xbd,
  0x31, 0x24, 0xfc, 0x3d, 0xdc, 0xa3, 0xb1, 0x3e, 0x01, 0xcb, 0x83, 0xbd,
  0x99, 0x96, 0x8e, 0xbe, 0xb7, 0xc9, 0x90, 0xbd, 0xd1, 0x4e, 0x0b, 0xbc,
  0x8b, 0x29, 0x3e, 0x3f, 0x30, 0xf8, 0x17, 0x3d, 0xe4, 0xbc, 0xab, 0xbe,
  0x42, 0xec, 0xd7, 0xbe, 0x67, 0x11, 0x0a, 0x3d, 0x25, 0x71, 0x8f, 0x3e,
  0xa3, 0xd5, 0x4a, 0x3f, 0xd7, 0x31, 0xe7, 0xbc, 0xf3, 0x49, 0x1c, 0xbe,
  0xd6, 0x27, 0x55, 0xbe, 0x2d, 0xd6, 0xf6, 0xbb, 0x2d, 0xc3, 0x34, 0x3e,
  0x75, 0xd0, 0x60, 0x3f, 0x4b, 0xa6, 0x98, 0xbe, 0xd8, 0x42, 0xb3, 0xbe,
  0x76, 0xcb, 0x7e, 0xbe, 0x8a, 0x96, 0xd3, 0xbd, 0x9b, 0xb5, 0x37, 0xbc,
  0x07, 0x31, 0x73, 0xbd, 0x8d, 0x45, 0xd6, 0x3e, 0x67, 0x83, 0xfd, 0x3d,
  0x99, 0xd9, 0x69, 0x3d, 0x92, 0x33, 0x43, 0x3d, 0x81, 0x5a, 0x0e, 0x3d,
  0x1d, 0xc8, 0xee, 0x3d, 0xc9, 0x81, 0xfd, 0x3e, 0xe6, 0x45, 0x32, 0xbe,
  0x71, 0xe4, 0x90, 0xbb, 0x3a, 0x72, 0x2c, 0xbe, 0x0c, 0x41, 0xd6, 0xbd,
  0x1c, 0x05, 0xad, 0xbe, 0x55, 0x72, 0x1f, 0x3f, 0x45, 0x96, 0x30, 0xbc,
  0x4b, 0x8d, 0xbd, 0x3e, 0xa4, 0x58, 0xff, 0xbd, 0x32, 0xe2, 0xa6, 0xbc,
  0x13, 0x39, 0x9d, 0xbe, 0x81, 0x00, 0x14, 0x3f, 0x48, 0x8f, 0xc6, 0xbe,
  0xf7, 0xa9, 0xf8, 0x3d, 0xb4, 0x5e, 0xff, 0x3d, 0x07, 0x5b, 0x0d, 0xbe,
  0x4e, 0xc1, 0xd0, 0xbd, 0x4e, 0x3a, 0xcd, 0x3e, 0x4d, 0x5c, 0x35, 0xbe,
  0x17, 0x39, 0x45, 0x3e, 0xa4, 0x13, 0x02, 0xbe, 0x25, 0x4d, 0x58, 0x3d,
  0x68, 0x3e, 0x25, 0x3c, 0x3c, 0x6a, 0x1c, 0x3f, 0x60, 0xaa, 0xee, 0xbe,
  0xe0, 0x1b, 0x6c, 0x3e, 0x6f, 0x01, 0xc7, 0x3d, 0x40, 0x75, 0x1a, 0xbe,
  0x6c, 0x9c, 0x28, 0x3d, 0x63, 0xb9, 0x01, 0x3f, 0xe7, 0x15, 0x01, 0xbf,
  0x74, 0xf7, 0xed, 0x3d, 0xe4, 0x19, 0x91, 0x3d, 0x84, 0x4e, 0xc6, 0xbe,
  0x7e, 0xbd, 0x94, 0x3e, 0x7b, 0x5c, 0x81, 0x3e, 0xfc, 0x76, 0x85, 0xbe,
  0x9d, 0xc3, 0x9f, 0xbd, 0x2b, 0x10, 0xb0, 0xbe, 0x01, 0xae, 0xb5, 0xbe,
  0xa8, 0x9d, 0xae, 0x3e, 0x86, 0x2e, 0x71, 0x3e, 0xa5, 0xdb, 0xff, 0xbe,
  0x2e, 0x43, 0x94, 0x3e, 0x0e, 0x50, 0x2f, 0xbd, 0x3c, 0xae, 0xb6, 0xbe,
  0x9b, 0x95, 0x0c, 0x3f, 0xdf, 0xd3, 0x1f, 0x3e, 0xab, 0x78, 0x85, 0xbd,
  0x9c, 0x4b, 0x97, 0x3c, 0xf3, 0x22, 0xad, 0xbd, 0x8e, 0x16, 0xcc, 0xbe,
  0x55, 0xa0, 0xa9, 0x3e, 0x6d, 0x26, 0xae, 0x3e, 0x15, 0x0a, 0x23, 0xbe,
  0x1b, 0x7a, 0xde, 0x3d, 0xdd, 0x6b, 0x99, 0xbe, 0xe1, 0x4d, 0xf1, 0x3c,
  0xe9, 0x55, 0x71, 0x3f, 0xa6, 0x87, 0xaa, 0x3e, 0x9b, 0xc0, 0x9d, 0xbe,
  0xdc, 0x93, 0x9b, 0xbd, 0xeb, 0x57, 0x0f, 0xbe, 0x6c, 0x37, 0xdc, 0xbe,
  0xea, 0x46, 0x93, 0x3f, 0xc1, 0x7f, 0x88, 0x3e, 0xc2, 0x24, 0x15, 0xbe,
  0xd3, 0x10, 0xa3, 0x3e, 0x4a, 0x2c, 0xa8, 0xbe, 0xd9, 0x50, 0x32, 0xbe,
  0x10, 0x2b, 0x42, 0x3c, 0x30, 0x2a, 0x31, 0xbc, 0xf4, 0x5c, 0xb2, 0x3d,
  0x1a, 0xee, 0x2d, 0x3e, 0x9c, 0x01, 0x6c, 0xbe, 0xa8, 0x3b, 0x84, 0x3d,
  0xd0, 0x8f, 0x68, 0x3c, 0x00, 0xe8, 0xb6, 0x3a, 0x3c, 0x3c, 0xdb, 0x3d,
  0x80, 0x23, 0x3f, 0xbb, 0x82, 0x30, 0x51, 0x3e, 0x58, 0x25, 0x98, 0x3d,
  0x7e, 0x3e, 0x25, 0xbe, 0x90, 0x91, 0x6d, 0x3e, 0xe3, 0x26, 0x50, 0xbe,
  0x70, 0xdd, 0x44, 0x3e, 0xf0, 0x16, 0x41, 0xbe, 0x73, 0xfe, 0x05, 0xbe,
  0xec, 0x7d, 0x60, 0xbd, 0xe3, 0x35, 0x0a, 0xbe, 0x9e, 0xf4, 0x41, 0xbe,
  0xb4, 0x30, 0x95, 0x3d, 0xf8, 0x8b, 0x88, 0xbc, 0x60, 0xaa, 0x9b, 0x3d,
  0xa0, 0x37, 0x58, 0x3d, 0x5e, 0xdc, 0xce, 0xbd, 0xf0, 0x29, 0x81, 0xbd,
  0x1d, 0xb7, 0x5c, 0xbe, 0xc2, 0x8d, 0x35, 0xbe, 0xe6, 0xfa, 0x2f, 0x3e,
  0x22, 0xd7, 0xed, 0xbd, 0x22, 0x9b, 0x30, 0x3e, 0x4e, 0xf1, 0xc8, 0xbd,
  0x82, 0xee, 0x62, 0xbe, 0x58, 0x15, 0xf2, 0xbd, 0xe4, 0xe5, 0x6b, 0x3e,
  0xa6, 0xe5, 0x09, 0x3e, 0x60, 0xe3, 0x5d, 0x3d, 0xbc, 0x9b, 0x63, 0xbd,
  0x4a, 0x9d, 0x42, 0x3e, 0x08, 0x31, 0x21, 0x3e, 0xd8, 0x01, 0x6a, 0xbe,
  0x60, 0x0f, 0x74, 0x3d, 0x80, 0x8d, 0x5e, 0x3c, 0x68, 0x2a, 0x16, 0x3d,
  0xe0, 0xc6, 0x0b, 0x3c, 0x84, 0xba, 0x26, 0x3e, 0x24, 0x4a, 0xbf, 0x3d,
  0x68, 0x11, 0x0e, 0xbe, 0x60, 0xd0, 0x2c, 0xbd, 0x70, 0x2c, 0x0d, 0x3c,
  0x88, 0xa9, 0xea, 0xbd, 0x0a, 0x3d, 0x34, 0xbe, 0xc8, 0xc8, 0xc7, 0x3d,
  0xec, 0xe6, 0x65, 0xbd, 0x98, 0xf0, 0x3c, 0xbe, 0xac, 0x1d, 0x0e, 0xbd,
  0xe0, 0x7f, 0x00, 0xbd, 0x00, 0x5f, 0x25, 0x3e, 0x08, 0x55, 0x2b, 0x3d,
  0x6c, 0xfd, 0xb4, 0xbd, 0x26, 0x93, 0x53, 0xbe, 0xc4, 0xf6, 0xc5, 0x3d,
  0xc0, 0x30, 0x01, 0xbc, 0xa4, 0x76, 0xea, 0x3d, 0x40, 0xfe, 0x12, 0xbc,
  0x20, 0x81, 0x27, 0x3e, 0xe8, 0x76, 0xf7, 0xbd, 0x94, 0xc4, 0xbf, 0x3d,
  0xa2, 0x64, 0x1c, 0x3e, 0xfe, 0xba, 0x3b, 0x3e, 0xf0, 0xb4, 0x5a, 0x3d,
  0xa9, 0x04, 0x6a, 0xbe, 0x78, 0x45, 0xba, 0xbc, 0x50, 0xd7, 0x1e, 0xbc,
  0xd3, 0x7e, 0x66, 0xbe, 0xf0, 0xb3, 0x6a, 0x3d, 0x08, 0xd4, 0x4d, 0x3d,
  0xa4, 0x20, 0x50, 0xbd, 0x0d, 0xa6, 0x98, 0xbd, 0x60, 0x7e, 0xaf, 0x3e,
  0x78, 0x75, 0xbf, 0x3d, 0x93, 0x96, 0xaf, 0x3c, 0x0d, 0x14, 0x10, 0x3e,
  0xa8, 0xbb, 0x44, 0xbd, 0x78, 0x9d, 0x8f, 0xbe, 0xcd, 0x09, 0xeb, 0x3e,
  0xf8, 0xba, 0x78, 0xbe, 0xa4, 0xae, 0xcd, 0x3d, 0x51, 0x78, 0x90, 0x3d,
  0x9b, 0xd1, 0x8a, 0xbd, 0x53, 0x1a, 0x48, 0xbd, 0x80, 0xfe, 0x9b, 0x3e,
  0xc7, 0x80, 0xcd, 0xbd, 0xf3, 0xfe, 0x0c, 0x3e, 0x24, 0x45, 0x4a, 0xbd,
  0xa7, 0xe6, 0xf8, 0x3d, 0x37, 0x53, 0x82, 0xbe, 0xe9, 0xef, 0xdf, 0x3e,
  0xdc, 0x37, 0x07, 0xbe, 0x7e, 0x19, 0xef, 0xbd, 0xae, 0xe5, 0xb9, 0xbe,
  0xa5, 0x44, 0x95, 0x3e, 0x32, 0x0d, 0xdc, 0xbe, 0xe2, 0x5b, 0x24, 0x3f,
  0x72, 0x50, 0x57, 0xbe, 0xeb, 0x1c, 0xe7, 0xbd, 0x2e, 0x18, 0x84, 0xbe,
  0xf3, 0x42, 0x99, 0x3e, 0x9a, 0xc1, 0x25, 0xbe, 0x59, 0x4a, 0x1c, 0x3f,
  0x05, 0x93, 0x31, 0x3e, 0xdf, 0xc4, 0x04, 0x3d, 0x52, 0x1a, 0x56, 0xbe,
  0x04, 0x0f, 0x78, 0x3e, 0xc1, 0xdf, 0x2c, 0xbe, 0x72, 0x33, 0x55, 0x3f,
  0x05, 0xc7, 0x55, 0x3e, 0x6b, 0x2d, 0xb1, 0xbd, 0x42, 0x93, 0x03, 0xbd,
  0x6a, 0x25, 0xd8, 0x3e, 0x0e, 0x3d, 0x44, 0xbe, 0x20, 0xb1, 0xd5, 0x3e,
  0x36, 0x9b, 0x83, 0x3e, 0xa5, 0x0e, 0x8e, 0xbe, 0xb3, 0x79, 0x7d, 0xbe,
  0xf5, 0x45, 0xe2, 0x3e, 0x02, 0x2a, 0x7a, 0xbe, 0x7d, 0xfb, 0x49, 0x3f,
  0x07, 0x8c, 0x1e, 0x3e, 0x75, 0x1d, 0xe6, 0xbd, 0xc4, 0x7d, 0x17, 0xbe,
  0x01, 0x05, 0x50, 0x3e, 0xb4, 0xd8, 0xac, 0xbe, 0x4a, 0x6a, 0x02, 0x3f,
  0xec, 0xcd, 0xb1, 0x3d, 0xc4, 0x61, 0xf9, 0xbd, 0xa0, 0x7d, 0x11, 0x3e,
  0xd6, 0x51, 0x63, 0xbe, 0x3a, 0x48, 0x2a, 0xbe, 0x5d, 0xb0, 0x25, 0x3f,
  0x94, 0x9d, 0x19, 0xbe, 0x5e, 0xfd, 0x7c, 0xbd, 0x2f, 0x2e, 0x0d, 0xbe,
  0x47, 0xa9, 0xe2, 0xbd, 0x83, 0xc1, 0xbd, 0x3d, 0xce, 0x06, 0xce, 0x3e,
  0xf9, 0x9b, 0x0a, 0xbe, 0x15, 0x7b, 0x48, 0x3c, 0xb5, 0xd3, 0x84, 0xbd,
  0x56, 0x3b, 0x93, 0xbe, 0xff, 0xdf, 0x03, 0xbd, 0xe4, 0xbf, 0xdb, 0x3e,
  0x82, 0xc1, 0x8d, 0x3e, 0x83, 0x1a, 0x40, 0xbb, 0x44, 0x23, 0xbc, 0x3e,
  0xf7, 0x66, 0xae, 0x3e, 0x86, 0x5f, 0x88, 0xbd, 0x80, 0x2b, 0x0e, 0xbe,
  0xc8, 0xe0, 0x7a, 0xbb, 0xaf, 0x00, 0x4d, 0xbe, 0x79, 0x3d, 0xb2, 0x3e,
  0xe8, 0x5d, 0x3e, 0xbd, 0x60, 0xc2, 0x60, 0x3e, 0x3f, 0x0e, 0x1e, 0x3c,
  0x07, 0x13, 0x8e, 0xbe, 0xe5, 0xa2, 0xf0, 0xbe, 0x87, 0xd7, 0x01, 0x3f,
  0xa5, 0x41, 0x7a, 0x3e, 0xc5, 0xea, 0x08, 0xbb, 0xd2, 0x32, 0xe3, 0x3d,
  0x25, 0x23, 0xb5, 0xbd, 0x63, 0x06, 0xd8, 0xbe, 0xbe, 0x4e, 0x2a, 0x3f,
  0x8e, 0xfd, 0x9b, 0x3e, 0x65, 0x58, 0x54, 0xbe, 0xe4, 0xc1, 0x5f, 0xbe,
  0xcd, 0x14, 0x8d, 0xbe, 0xbb, 0xfc, 0x56, 0x3d, 0x17, 0xb3, 0xe2, 0x3e,
  0xc6, 0x79, 0x8c, 0x3d, 0xba, 0xa3, 0x20, 0x3e, 0xf1, 0x58, 0x33, 0xbe,
  0x81, 0xc1, 0x9b, 0xbe, 0x00, 0x3c, 0xaa, 0xbd, 0xc3, 0x51, 0x46, 0x3f,
  0xd6, 0x96, 0x80, 0x3d, 0x1a, 0x0b, 0x9b, 0x3e, 0x0e, 0xb6, 0x7c, 0xbe,
  0xbe, 0xae, 0x85, 0x3d, 0x09, 0x4b, 0x36, 0xbe, 0x21, 0x7a, 0x06, 0x3f,
  0xa5, 0x18, 0xd1, 0xba, 0x8d, 0x18, 0xe0, 0x3e, 0xd1, 0x78, 0xd1, 0xbe,
  0xca, 0x30, 0x33, 0xbe, 0x23, 0xaa, 0x2e, 0xbd, 0xa3, 0x1a, 0x24, 0x3f,
  0xc2, 0xc4, 0x83, 0xbe, 0xae, 0x91, 0x70, 0x3e, 0x76, 0x23, 0x86, 0xbc,
  0x89, 0x37, 0xb3, 0xbe, 0x7a, 0x03, 0xe3, 0x3d, 0x47, 0x95, 0x29, 0x3f,
  0x7e, 0x9c, 0xdb, 0xbe, 0xd0, 0xf3, 0xbc, 0x3e, 0x2f, 0xa4, 0x39, 0xbe,
  0x95, 0xde, 0x61, 0xbe, 0xf1, 0x80, 0x73, 0x3e, 0xa9, 0x5d, 0x89, 0x3e,
  0x6a, 0xa8, 0x06, 0xbf, 0x3a, 0xdc, 0x4f, 0x3e, 0x74, 0x8a, 0xdf, 0xbd,
  0xfc, 0x73, 0x28, 0xbc, 0x64, 0x3f, 0x39, 0x3e, 0x9e, 0x10, 0x99, 0x3e,
  0xa4, 0xbc, 0x19, 0xbf, 0x0e, 0xd7, 0xb2, 0x3e, 0x06, 0x68, 0xb7, 0xbe,
  0xa9, 0x6a, 0x8b, 0xbe, 0x4e, 0x9b, 0x41, 0xbc, 0xb0, 0x31, 0x04, 0x3e,
  0x33, 0x64, 0x67, 0xbe, 0x0d, 0xbd, 0x69, 0x3e, 0x0b, 0x3a, 0x8f, 0xbe,
  0x01, 0x82, 0x4e, 0xbe, 0xd1, 0xb8, 0xa2, 0x3d, 0xbd, 0xb7, 0xc5, 0x3e,
  0x0b, 0xd7, 0x1a, 0xbf, 0x40, 0xad, 0xca, 0x3d, 0x98, 0xc2, 0x10, 0xbe,
  0xea, 0x79, 0x34, 0xbe, 0x6d, 0xea, 0x57, 0x3e, 0x38, 0xba, 0x30, 0x3f,
  0xb9, 0xe9, 0xdb, 0x3e, 0x97, 0xa8, 0x88, 0x3e, 0x6a, 0x9c, 0x41, 0x3e,
  0xdc, 0x61, 0x8e, 0xbe, 0x3b, 0xf4, 0x00, 0xbf, 0x04, 0xe2, 0x37, 0x3f,
  0x57, 0x16, 0x34, 0x3f, 0x35, 0xb1, 0xff, 0x3d, 0xe9, 0xa8, 0xa7, 0x3d,
  0x3a, 0x83, 0x61, 0xbb, 0x73, 0x57, 0xc9, 0xbe, 0x93, 0x20, 0xb8, 0x3e,
  0x42, 0xdc, 0x2c, 0x3f, 0x52, 0xd2, 0x3f, 0x3e, 0x7e, 0x48, 0xe8, 0x3e,
  0xd7, 0x82, 0x46, 0xbe, 0xf5, 0xfd, 0x12, 0xbf, 0x10, 0x6a, 0xae, 0x3e,
  0x0f, 0xad, 0x03, 0x3f, 0x6f, 0x9b, 0x58, 0x3e, 0x6f, 0x52, 0xba, 0x3e,
  0xee, 0xeb, 0x9a, 0xbe, 0xf3, 0xd4, 0xe9, 0xbe, 0x75, 0xb9, 0xd1, 0x3e,
  0xff, 0x40, 0xae, 0x3e, 0xfd, 0xbd, 0xb2, 0x3e, 0x34, 0xce, 0xa1, 0x3e,
  0x5c, 0x86, 0xef, 0xbd, 0x6c, 0x26, 0x3b, 0xbe, 0x8d, 0x29, 0xc0, 0x3e,
  0x41, 0x26, 0xc8, 0x3e, 0x6b, 0xc7, 0xb9, 0x3e, 0xca, 0xf3, 0x6d, 0x3e,
  0xec, 0xfb, 0x04, 0xbe, 0xe9, 0x74, 0x74, 0xbe, 0x3f, 0xa5, 0x6e, 0x3e,
  0x89, 0x53, 0xb5, 0x3e, 0x18, 0x08, 0xb7, 0x3e, 0x22, 0xc6, 0x81, 0x3e,
  0x81, 0x88, 0x67, 0xbe, 0xf1, 0x3c, 0x43, 0x3c, 0xcd, 0xdf, 0x9c, 0x3e,
  0x06, 0x7e, 0xb6, 0x3e, 0x7e, 0x76, 0x3c, 0x3e, 0xb1, 0xb7, 0xcf, 0x3e,
  0xb1, 0xf3, 0xbb, 0xbe, 0x7f, 0x9d, 0x09, 0xbd, 0xd9, 0x91, 0xf4, 0x3d,
  0x55, 0xd4, 0x61, 0x3d, 0x9f, 0x56, 0xec, 0x3d, 0x10, 0xf3, 0x1a, 0x3e,
  0x27, 0x3c, 0xa9, 0xbe, 0x61, 0x52, 0x03, 0xbe, 0x11, 0xc7, 0xb9, 0x3e,
  0x60, 0xfe, 0xe5, 0xbc, 0x38, 0x10, 0x51, 0xbe, 0xdb, 0x16, 0xab, 0x3d,
  0x4d, 0xaa, 0xf3, 0x3c, 0x6c, 0x22, 0x36, 0x3e, 0xd6, 0x2e, 0x89, 0xbd,
  0x70, 0xed, 0xbd, 0xbe, 0xaa, 0x4e, 0x0f, 0xbe, 0x76, 0x24, 0x1f, 0x3e,
  0x6d, 0x6c, 0x8f, 0xbe, 0x7e, 0x69, 0x9f, 0xbd, 0x4e, 0x6c, 0x8c, 0xbc,
  0x36, 0x3b, 0xce, 0xbe, 0xc4, 0x70, 0xf7, 0xbc, 0x86, 0xaf, 0x1f, 0x3e,
  0x1c, 0x62, 0x9a, 0xbe, 0xb8, 0xb6, 0x55, 0x3e, 0x90, 0xc6, 0x18, 0x3e,
  0xee, 0x3b, 0xbd, 0xbe, 0xb2, 0x0e, 0xf2, 0xbd, 0x35, 0xa2, 0xdd, 0x3d,
  0x0b, 0x8e, 0x81, 0xbe, 0xc2, 0xbe, 0x7d, 0x3e, 0x61, 0x90, 0x9f, 0x3e,
  0x71, 0x11, 0xb0, 0xbe, 0x8b, 0x69, 0x3a, 0x3c, 0x92, 0xb8, 0x9b, 0x3e,
  0x69, 0xba, 0xa5, 0x3e, 0xcb, 0x35, 0x8f, 0x3e, 0xcb, 0x64, 0x80, 0xbe,
  0xa5, 0x89, 0x1c, 0xbf, 0xbf, 0x93, 0x8d, 0x3e, 0x1c, 0x8d, 0x2e, 0x3e,
  0x81, 0x61, 0x44, 0x3e, 0xb4, 0x3a, 0xce, 0x3d, 0x9d, 0x96, 0x91, 0x3d,
  0x87, 0xd9, 0xec, 0xbe, 0x9d, 0xc9, 0xb5, 0x3e, 0x99, 0xd2, 0xc7, 0x3d,
  0x0b, 0x17, 0x55, 0x3e, 0xde, 0x88, 0x04, 0xbe, 0xbf, 0xc8, 0x46, 0xbe,
  0xaa, 0x81, 0x03, 0xbe, 0x75, 0xc1, 0x5e, 0x3e, 0x26, 0x8b, 0xc5, 0x3d,
  0xb0, 0x29, 0xb0, 0x3e, 0x48, 0x43, 0x95, 0xbd, 0xf6, 0x9e, 0xb8, 0xbe,
  0x74, 0x7d, 0x10, 0xbe, 0x6e, 0x56, 0xcb, 0xbd, 0x42, 0x6e, 0x6c, 0xbd,
  0xe3, 0xd5, 0x2d, 0xbd, 0xbf, 0xa4, 0x4c, 0xbe, 0x32, 0x05, 0x9a, 0xbd,
  0x77, 0xba, 0xb4, 0x3d, 0xc2, 0x66, 0xe3, 0x3d, 0x54, 0xf0, 0x80, 0x3d,
  0x65, 0x69, 0x9c, 0x3d, 0xcb, 0x63, 0x38, 0xbe, 0xee, 0x82, 0x04, 0xbe,
  0x70, 0x38, 0xb2, 0x3b, 0x20, 0xf4, 0x81, 0x3d, 0xc3, 0x5e, 0xf9, 0x3c,
  0x19, 0x99, 0xb9, 0x3d, 0x7a, 0x14, 0x09, 0x3d, 0x7f, 0x0a, 0x79, 0xbc,
  0xc6, 0xd2, 0xa2, 0x3d, 0xfc, 0x3b, 0x3d, 0x3e, 0x0e, 0xca, 0x76, 0x3e,
  0x36, 0x95, 0x0c, 0xbe, 0x92, 0x4d, 0xf1, 0x3d, 0x8d, 0x89, 0x71, 0xbe,
  0x65, 0x98, 0xa1, 0x3e, 0xe8, 0xf5, 0x66, 0xbe, 0xbe, 0x36, 0xf2, 0x3d,
  0xf5, 0xf3, 0x2d, 0x3e, 0x84, 0x4e, 0x3f, 0xbe, 0xb9, 0xed, 0xb0, 0x3d,
  0x5a, 0xed, 0xe0, 0x3e, 0xa9, 0x97, 0xe4, 0x3d, 0xc1, 0x6f, 0xa6, 0x3d,
  0xca, 0xaa, 0x84, 0x3d, 0xc3, 0x83, 0x46, 0x3d, 0xe4, 0x5a, 0x2e, 0xbe,
  0xf6, 0x3e, 0x6c, 0x3f, 0x7f, 0xa5, 0x21, 0xbe, 0x3c, 0xb0, 0x41, 0x3e,
  0x54, 0x2f, 0x09, 0x3e, 0x4b, 0x63, 0xe2, 0xbd, 0xd1, 0x9e, 0xf9, 0xbc,
  0xdc, 0xe1, 0x88, 0x3f, 0xaa, 0xbb, 0xaf, 0x3d, 0x44, 0x3c, 0x1c, 0x3d,
  0x86, 0x4e, 0xb7, 0xbd, 0x1d, 0xf9, 0x05, 0xbe, 0xfb, 0xa8, 0x8d, 0xbd,
  0xc7, 0x4c, 0x82, 0x3f, 0xf1, 0x71, 0xa4, 0x3d, 0x9e, 0xc4, 0x6d, 0xbd,
  0xeb, 0x61, 0x1e, 0xbe, 0xa8, 0xf8, 0x7f, 0xbe, 0x85, 0xca, 0x37, 0xbe,
  0xa8, 0x91, 0x7f, 0x3e, 0x16, 0x54, 0x5d, 0x3e, 0x9d, 0x9f, 0x3b, 0xbe,
  0x6a, 0x48, 0xfd, 0x3d, 0x61, 0xd1, 0xb8, 0xbe, 0x3d, 0x2b, 0x0f, 0x3e,
  0x83, 0xfd, 0x5e, 0x3e, 0x68, 0x10, 0x85, 0x3e, 0x92, 0x59, 0x8c, 0x3d,
  0x47, 0x8c, 0x19, 0x3e, 0x7b, 0xe6, 0x92, 0xbe, 0x9e, 0xdb, 0xae, 0xbe,
  0x55, 0x1c, 0x8e, 0x3e, 0x22, 0x37, 0xf9, 0x3e, 0x6f, 0xc7, 0xee, 0x3d,
  0xd1, 0x31, 0xfb, 0x3c, 0xf7, 0xfa, 0xeb, 0xbd, 0x1e, 0x29, 0x9c, 0xbe,
  0x5d, 0x8d, 0x77, 0x3e, 0x7c, 0x9c, 0x8a, 0x3e, 0xfa, 0x23, 0xb0, 0x3d,
  0x4b, 0x5e, 0x79, 0x3e, 0xd4, 0x39, 0x05, 0xbf, 0xf9, 0x5a, 0x5e, 0xbe,
  0x4f, 0x68, 0xa9, 0x3e, 0x9d, 0xb1, 0x56, 0x3e, 0x4f, 0xb7, 0x25, 0xbc,
  0x35, 0x03, 0xb8, 0xbd, 0xb7, 0xa2, 0xc8, 0xbe, 0x1d, 0x4c, 0x77, 0xbd,
  0x02, 0x94, 0xfb, 0x3c, 0xc3, 0xff, 0xf8, 0x3e, 0x8a, 0x70, 0x87, 0x3e,
  0x92, 0xb9, 0x9b, 0x3e, 0xd4, 0xdb, 0x7d, 0xbe, 0x14, 0x86, 0x11, 0xbf,
  0x41, 0x3e, 0xba, 0x3e, 0x81, 0x5e, 0xa0, 0x3e, 0xa9, 0x27, 0xaa, 0x3d,
  0x89, 0x86, 0x9b, 0x3e, 0x68, 0x80, 0x84, 0xbd, 0xa0, 0xd1, 0x97, 0xbe,
  0x73, 0xdb, 0x69, 0x3e, 0x63, 0xa9, 0x49, 0xbd, 0x01, 0x24, 0x60, 0x3e,
  0x0e, 0x03, 0x30, 0x3e, 0xae, 0x83, 0xfb, 0xbd, 0xc6, 0xd5, 0x83, 0xbe,
  0xce, 0xb6, 0x90, 0x3e, 0xa9, 0x5c, 0x2d, 0x3e, 0x53, 0x03, 0x81, 0x3e,
  0xc4, 0xa5, 0xf3, 0xbb, 0x36, 0x97, 0x93, 0xbe, 0x18, 0x85, 0xc2, 0xbe,
  0x7d, 0x3e, 0x63, 0x3e, 0xa6, 0xa8, 0x2a, 0x3e, 0x53, 0x8b, 0x75, 0x3e,
  0xd0, 0xb9, 0x7a, 0xbd, 0x61, 0x82, 0xcc, 0x3c, 0x4a, 0x7e, 0xeb, 0xbe,
  0x48, 0x1f, 0xf9, 0x3e, 0xa9, 0x7b, 0x46, 0x3e, 0x60, 0xf9, 0x7f, 0x3e,
  0x9d, 0xdb, 0x6c, 0x3e, 0x21, 0x7a, 0x34, 0xbe, 0xe8, 0xa8, 0x10, 0xbf,
  0xe0, 0x96, 0xbd, 0x3e, 0xb7, 0xdc, 0x87, 0xbd, 0xe6, 0x54, 0x12, 0x3e,
  0x22, 0x0f, 0x77, 0x3e, 0xf7, 0xa5, 0xa3, 0xbd, 0x53, 0xce, 0x19, 0xbf,
  0xa6, 0xad, 0x25, 0x3e, 0xe9, 0x6e, 0x44, 0x3d, 0x7b, 0x7c, 0x65, 0xbd,
  0xf4, 0xa1, 0x70, 0x3d, 0x41, 0x5f, 0x19, 0x3d, 0xeb, 0x0d, 0xea, 0xbc,
  0xdf, 0x0b, 0xd8, 0x3d, 0xf1, 0xca, 0x16, 0xbe, 0xbf, 0x85, 0xf7, 0x3a,
  0x4b, 0x1c, 0x33, 0x3e, 0xcf, 0x37, 0x4b, 0xbf, 0x5a, 0x82, 0x99, 0x3d,
  0x6f, 0xc9, 0xd2, 0x3e, 0xb8, 0xb2, 0x33, 0x3e, 0x77, 0x58, 0xb8, 0xbd,
  0xa4, 0x9f, 0x9d, 0x3e, 0xb7, 0x79, 0x19, 0xbf, 0xd2, 0x6d, 0x7c, 0x3e,
  0x21, 0x55, 0x19, 0x3e, 0x09, 0x06, 0xee, 0x3e, 0x25, 0xa4, 0x0f, 0x3e,
  0x15, 0x9f, 0xd1, 0x3e, 0xc1, 0x77, 0x4a, 0xbf, 0x05, 0x18, 0x8c, 0x3e,
  0x4f, 0x08, 0xe4, 0x3d, 0x7c, 0x2e, 0xd1, 0x3d, 0xf3, 0x37, 0x88, 0xbd,
  0x1a, 0x18, 0x22, 0x3e, 0xa9, 0xa2, 0x0b, 0xbf, 0xf4, 0xff, 0x29, 0xbd,
  0xa4, 0xa3, 0x4a, 0x3c, 0xc6, 0xc7, 0x05, 0x3f, 0xb7, 0xa9, 0x0a, 0x3c,
  0x91, 0x51, 0x88, 0xbd, 0x03, 0x0b, 0x01, 0xbf, 0x43, 0xeb, 0x86, 0x3e,
  0x4a, 0x68, 0x11, 0x3e, 0xc5, 0x2c, 0xb2, 0x3e, 0x50, 0x16, 0x77, 0x3d,
  0x78, 0x27, 0x9f, 0x3e, 0x80, 0xb2, 0x08, 0xbf, 0x81, 0xe9, 0x6e, 0xbe,
  0x41, 0x9f, 0x47, 0x3e, 0x84, 0xb1, 0x04, 0x3e, 0xdc, 0x70, 0x3c, 0x3e,
  0x57, 0x70, 0x78, 0x3e, 0x55, 0xc0, 0x12, 0xbe, 0x4a, 0xb7, 0x0a, 0xbb,
  0xeb, 0xf5, 0x77, 0x3e, 0x54, 0xea, 0x78, 0x3e, 0xf0, 0xa9, 0x39, 0x3d,
  0xfe, 0x51, 0x9d, 0x3e, 0x4a, 0x55, 0x36, 0xbe, 0x47, 0xec, 0x6c, 0x3d,
  0x3a, 0x13, 0x06, 0x3d, 0x7a, 0xdf, 0x2f, 0x3d, 0xea, 0xd1, 0x33, 0xbe,
  0x6b, 0xc0, 0xf9, 0x3d, 0x60, 0x61, 0x17, 0xbe, 0x89, 0x85, 0x4a, 0xbe,
  0x9b, 0x57, 0x5d, 0xbe, 0xb7, 0xfc, 0x4f, 0x3e, 0x24, 0x8f, 0x10, 0xbe,
  0xd4, 0x6e, 0x6b, 0xbd, 0x4e, 0x98, 0xd8, 0xbc, 0x97, 0x06, 0x8c, 0xbd,
  0x48, 0x57, 0xf4, 0x3d, 0xbe, 0xdd, 0xb6, 0x3c, 0x53, 0xc7, 0xe8, 0x3d,
  0xc4, 0xef, 0x7e, 0x3e, 0xc9, 0x3b, 0xab, 0xbe, 0x12, 0x1f, 0xbf, 0x3d,
  0x03, 0x86, 0xa5, 0x3e, 0x8a, 0x01, 0xa6, 0x3e, 0xbe, 0xd3, 0x52, 0xbe,
  0x30, 0x23, 0x96, 0xbb, 0x84, 0x73, 0xa3, 0xbd, 0xb2, 0x94, 0x30, 0x3d,
  0x14, 0x56, 0xda, 0x3e, 0x2d, 0x5d, 0x99, 0x3d, 0x1a, 0xcd, 0x80, 0xbe,
  0xa3, 0x50, 0x09, 0x3e, 0x09, 0x69, 0x7e, 0xbe, 0x98, 0xb0, 0x87, 0x3d,
  0x81, 0x70, 0xc1, 0x3d, 0xd5, 0xbc, 0xfd, 0xbc, 0x64, 0x48, 0x61, 0x3e,
  0xb6, 0x43, 0x01, 0xbe, 0x5e, 0xda, 0x61, 0xbe, 0xa4, 0x15, 0xaf, 0xbc,
  0x9f, 0x25, 0x4a, 0xbe, 0x87, 0xc0, 0xf2, 0x3d, 0xa9, 0x45, 0xe6, 0xbd,
  0xc7, 0x74, 0x05, 0x3e, 0x49, 0x12, 0x4c, 0x3d, 0xa9, 0x5e, 0xb2, 0xbd,
  0x2b, 0xa1, 0x43, 0xbd, 0xc0, 0x2b, 0x2b, 0xbe, 0x87, 0xed, 0x89, 0x3a,
  0x7f, 0xca, 0xce, 0x3d, 0xe9, 0x60, 0x81, 0xbd, 0x51, 0x43, 0x1d, 0xbb,
  0x94, 0x40, 0x67, 0xbe, 0x8f, 0x19, 0xec, 0xbc, 0x28, 0x36, 0x5e, 0x3e,
  0x1d, 0xd6, 0xc0, 0xbd, 0x7f, 0x4e, 0x60, 0xbc, 0xbe, 0xc2, 0x62, 0x3e,
  0x6a, 0x34, 0x8b, 0xbd, 0x2f, 0x32, 0x5b, 0xbe, 0x01, 0x38, 0xab, 0xbd,
  0x04, 0x85, 0x4e, 0xbe, 0x06, 0xa8, 0xda, 0x3d, 0x71, 0xf8, 0x5c, 0xbe,
  0x44, 0xab, 0x0c, 0x3e, 0x59, 0x1f, 0x01, 0xbe, 0x50, 0xbf, 0xed, 0xbd,
  0xd2, 0x0d, 0xaa, 0xbd, 0x12, 0xa6, 0x4d, 0x3e, 0x8b, 0x34, 0x54, 0x3e,
  0x73, 0xca, 0x11, 0xbe, 0xf6, 0x3f, 0x7d, 0x3c, 0x9f, 0xc8, 0xaa, 0xbd,
  0x63, 0x4b, 0x3b, 0xbe, 0xb4, 0xc8, 0xe4, 0x3d, 0xd1, 0x7b, 0x1f, 0xbe,
  0x86, 0xd4, 0x72, 0xbe, 0xe5, 0xc7, 0x5a, 0xbe, 0xb7, 0xea, 0x3c, 0x3e,
  0xed, 0x6c, 0x54, 0x3d, 0x58, 0xf3, 0x30, 0x3a, 0xc5, 0xe4, 0x12, 0x3e,
  0xac, 0x69, 0x25, 0x3e, 0x0f, 0xaf, 0xf0, 0xbd, 0x69, 0xe9, 0x5b, 0x3d,
  0xa6, 0x03, 0x01, 0xbe, 0x78, 0x23, 0x6d, 0xbe, 0x78, 0x02, 0x2b, 0x3e,
  0xb1, 0x89, 0xb3, 0x3d, 0xb0, 0x48, 0x9e, 0x3b, 0xe3, 0x38, 0x81, 0xba,
  0x48, 0x62, 0xf3, 0xbd, 0xf3, 0x1d, 0x42, 0x3e, 0x72, 0xbf, 0xd2, 0x3d,
  0x96, 0x91, 0x3a, 0x3d, 0xaf, 0x49, 0x3a, 0x3e, 0x1f, 0x7a, 0x98, 0x3d,
  0xd5, 0x19, 0x22, 0xbe, 0x73, 0xf8, 0xca, 0xbd, 0x32, 0xe1, 0x04, 0x3c,
  0xb6, 0xc0, 0x9d, 0xbd, 0x08, 0x2e, 0x4b, 0x3e, 0x50, 0x3f, 0xcc, 0x3d,
  0x6e, 0x00, 0x48, 0x3e, 0x90, 0x4f, 0x95, 0xbd, 0x8c, 0x58, 0x2e, 0xbe,
  0x2d, 0x07, 0x54, 0xbe, 0xa6, 0x48, 0xb9, 0xbd, 0xd6, 0xf0, 0x75, 0xbd,
  0x90, 0xfe, 0x66, 0x3e, 0xd0, 0x97, 0x0a, 0xbe, 0xae, 0x4f, 0xa3, 0x3d,
  0x72, 0x04, 0xe7, 0x3c, 0x07, 0x2a, 0xac, 0xbd, 0x15, 0x02, 0x80, 0xbe,
  0x2c, 0xd1, 0x2c, 0xbe, 0xab, 0xe6, 0x34, 0x3f, 0xe3, 0x8d, 0xa1, 0x3e,
  0x78, 0x74, 0x8b, 0xbe, 0xd4, 0x15, 0x84, 0x3d, 0x80, 0x9e, 0xb4, 0x3c,
  0xb5, 0x43, 0x5c, 0xbe, 0xd8, 0x98, 0xe7, 0x3e, 0xc5, 0xe8, 0x68, 0x3e,
  0x36, 0xdb, 0x67, 0xbe, 0x6a, 0xe4, 0xa6, 0x3d, 0x63, 0xbf, 0x45, 0x3d,
  0x71, 0x53, 0xc8, 0xbe, 0xdd, 0x43, 0x1b, 0x3f, 0xb6, 0xb6, 0x80, 0x3e,
  0xd7, 0xe5, 0x52, 0x3d, 0x67, 0x4b, 0xa6, 0xbe, 0x0e, 0x6b, 0x59, 0xbe,
  0x98, 0xb9, 0xc1, 0xbe, 0xfc, 0xef, 0x94, 0x3e, 0x0e, 0x12, 0xba, 0x3e,
  0x54, 0xe2, 0x51, 0xbd, 0xe8, 0xd8, 0xad, 0xbd, 0xd6, 0xe7, 0x85, 0xbe,
  0xf0, 0xf7, 0xad, 0xbc, 0x46, 0xd5, 0x0c, 0x3f, 0x71, 0x2f, 0xe9, 0x3e,
  0x26, 0xfe, 0x7b, 0xbe, 0x10, 0xe6, 0x6d, 0x3c, 0xae, 0xd2, 0x99, 0xbe,
  0x3c, 0xb4, 0x0b, 0xbe, 0x9d, 0x42, 0x01, 0x3f, 0x15, 0x76, 0x07, 0x3f,
  0x73, 0xcb, 0x27, 0xbd, 0x2d, 0xb3, 0x0a, 0x3e, 0xb9, 0x35, 0x2f, 0xbe,
  0xe7, 0x4f, 0xb6, 0xbe, 0x2a, 0x1f, 0x04, 0x3f, 0x29, 0x1e, 0x6a, 0x3e,
  0x11, 0x70, 0x8b, 0xbe, 0x71, 0xea, 0x95, 0x3d, 0x95, 0x15, 0x13, 0x3e,
  0xf6, 0x0d, 0xad, 0xbe, 0x3e, 0x38, 0x6a, 0x3e, 0xab, 0xbf, 0x91, 0x3d,
  0x48, 0xca, 0x1c, 0x3d, 0x35, 0xc2, 0x88, 0x3e, 0xca, 0xdc, 0xe1, 0xbc,
  0xbb, 0xd1, 0x99, 0xbe, 0x63, 0xc4, 0x00, 0x3f, 0x37, 0xdc, 0x9b, 0x3e,
  0x0a, 0x19, 0x97, 0xbe, 0x61, 0x66, 0x6d, 0x3e, 0xe6, 0x9d, 0x5e, 0xbd,
  0x40, 0x89, 0x28, 0x3d, 0x2d, 0x37, 0xe8, 0x3e, 0x0b, 0x00, 0x2b, 0x3e,
  0xc2, 0x95, 0xdf, 0xbb, 0xd3, 0x5c, 0xb2, 0x3d, 0xd0, 0x34, 0xa8, 0xbe,
  0x04, 0xdd, 0x54, 0xbe, 0x61, 0xc7, 0xfd, 0x3e, 0xdd, 0x9a, 0x9f, 0x3d,
  0x02, 0xf1, 0xcd, 0xbe, 0x97, 0xa2, 0x93, 0x3e, 0xde, 0x86, 0xa7, 0xbe,
  0xb5, 0xcc, 0x87, 0x3d, 0xbc, 0xa3, 0xde, 0x3e, 0x5d, 0x0d, 0xdf, 0x3b,
  0x93, 0x44, 0x08, 0xbf, 0xea, 0x02, 0xc3, 0x3d, 0x46, 0x8a, 0xc9, 0xbc,
  0xb4, 0x8e, 0x95, 0xbc, 0xff, 0x53, 0x9b, 0x3d, 0x37, 0xb7, 0x0f, 0x3d,
  0x70, 0xd8, 0xc7, 0x3e, 0x73, 0x46, 0xa2, 0xbe, 0xe5, 0xd7, 0x2e, 0x3e,
  0x79, 0xd6, 0x6d, 0x3e, 0x16, 0x4c, 0x4b, 0xbf, 0x2d, 0x63, 0x63, 0x3d,
  0x4c, 0x70, 0x13, 0x3f, 0xbb, 0x8a, 0x17, 0xbd, 0xf4, 0x3c, 0x01, 0xbe,
  0x70, 0xc5, 0x82, 0x3e, 0xa0, 0x3f, 0x5e, 0xbf, 0x1c, 0x70, 0xc1, 0xbb,
  0x3f, 0xf2, 0x00, 0x3f, 0x9a, 0x0a, 0x64, 0xbe, 0x44, 0x1a, 0x92, 0x3c,
  0x0f, 0x9c, 0xab, 0x3e, 0x50, 0x78, 0xc4, 0xbe, 0x9b, 0xb9, 0xde, 0x3e,
  0x5e, 0x4e, 0xe5, 0x3e, 0x95, 0x5e, 0x3b, 0xbe, 0xfe, 0x84, 0x25, 0x3e,
  0xe6, 0xd0, 0x29, 0x3e, 0xac, 0x60, 0xfc, 0xbe, 0xa3, 0x6d, 0x02, 0x3e,
  0xfd, 0x2b, 0x66, 0x3e, 0x74, 0x6f, 0xa9, 0xbe, 0xb0, 0xd3, 0x80, 0xbd,
  0x6b, 0xbc, 0x23, 0x3e, 0x3c, 0x96, 0x39, 0xbe, 0x9d, 0xd6, 0xdd, 0xbc,
  0x60, 0x9c, 0x8b, 0x3e, 0x7e, 0x55, 0x80, 0xbe, 0x91, 0xe7, 0xd9, 0x3d,
  0x56, 0x51, 0x5a, 0x3e, 0x61, 0x11, 0xbd, 0xbe, 0xe7, 0x83, 0x59, 0x3e,
  0x44, 0xa2, 0xb3, 0x3c, 0x5d, 0xc5, 0x87, 0xbe, 0xde, 0x15, 0x20, 0xbe,
  0x4c, 0xf2, 0x52, 0x3e, 0x92, 0x9e, 0x77, 0xbe, 0x10, 0xb9, 0x49, 0x3b,
  0x50, 0xfe, 0x91, 0x3e, 0x10, 0x1f, 0x89, 0xbe, 0xaf, 0x21, 0xb1, 0xbd,
  0x2c, 0x41, 0x4e, 0x3e, 0x13, 0x15, 0x9c, 0xbd, 0xfe, 0x08, 0xa7, 0x3e,
  0xb1, 0xc8, 0x24, 0x3e, 0x3f, 0xc5, 0x08, 0xbd, 0x06, 0x44, 0x11, 0xbe,
  0xeb, 0x72, 0xf3, 0x3d, 0xde, 0x1b, 0xf5, 0x3d, 0x0c, 0xf6, 0xad, 0x3d,
  0xce, 0x82, 0xb2, 0xbd, 0xd2, 0x63, 0xb3, 0xbe, 0x44, 0xa8, 0xa2, 0x3d,
  0x00, 0xef, 0xc7, 0x3e, 0xda, 0x0a, 0x89, 0xbe, 0xa8, 0xa0, 0x0e, 0x3e,
  0xe4, 0xe4, 0x13, 0xbf, 0x83, 0xb5, 0x21, 0xbe, 0x89, 0x1f, 0x23, 0x3d,
  0xa0, 0x1b, 0x84, 0x3e, 0x2e, 0x7c, 0x94, 0x3d, 0xdc, 0x81, 0x45, 0x3e,
  0x31, 0x7c, 0xd1, 0xbe, 0x01, 0x94, 0x64, 0x3e, 0x84, 0x0b, 0x98, 0x3d,
  0x99, 0x28, 0xdf, 0x3d, 0x24, 0x33, 0x38, 0xbe, 0xfb, 0x39, 0x95, 0x3e,
  0xc3, 0x54, 0x08, 0xbf, 0x6f, 0x3c, 0x8c, 0x3e, 0xad, 0x4a, 0x2c, 0x3e,
  0x83, 0x14, 0xa5, 0x3d, 0x8b, 0xe1, 0x9d, 0x3d, 0xf8, 0x1e, 0xb5, 0xbc,
  0x1c, 0x06, 0xe0, 0xbd, 0x78, 0x4b, 0x1b, 0xbd, 0xd0, 0x5c, 0xb3, 0x3c,
  0x0c, 0x2b, 0x28, 0x3e, 0x5e, 0x2d, 0x1f, 0x3e, 0x10, 0x8a, 0x74, 0xbc,
  0x40, 0x3f, 0x37, 0xbc, 0x98, 0x87, 0xf8, 0xbc, 0x46, 0x1f, 0x3f, 0xbe,
  0x30, 0x71, 0x7a, 0x3d, 0x5f, 0x6f, 0x2c, 0xbe, 0x30, 0xfe, 0xa6, 0xbd,
  0x60, 0x7d, 0x90, 0x3c, 0xe8, 0x7b, 0xd0, 0x3d, 0xcc, 0x65, 0x78, 0xbd,
  0xbc, 0xe6, 0xc4, 0xbd, 0x82, 0x6b, 0xcf, 0xbd, 0xb2, 0x7f, 0x6b, 0x3e,
  0xf0, 0x17, 0xaa, 0xbc, 0xac, 0xd2, 0x8b, 0xbd, 0xa8, 0x0b, 0x34, 0xbe,
  0xf8, 0xb2, 0x03, 0xbe, 0x0c, 0x80, 0x73, 0xbd, 0x1f, 0x89, 0x51, 0xbe,
  0x04, 0xd6, 0xf2, 0x3d, 0xec, 0xda, 0x06, 0x3e, 0xc0, 0xd2, 0x4b, 0x3e,
  0x87, 0x21, 0x29, 0xbe, 0xf8, 0xab, 0x3f, 0x3d, 0x90, 0x94, 0x2f, 0xbe,
  0xf4, 0xf1, 0x0d, 0xbe, 0xeb, 0xee, 0x5c, 0xbe, 0x18, 0xcf, 0xf3, 0xbc,
  0x80, 0x2f, 0xa2, 0x3a, 0x44, 0xbc, 0x56, 0x3e, 0xd0, 0x5f, 0xf6, 0x3d,
  0x20, 0xad, 0xf1, 0x3d, 0x5a, 0x35, 0x1f, 0xbe, 0x7e, 0xb1, 0x2f, 0x3e,
  0x68, 0x3b, 0xd7, 0xbc, 0x44, 0x24, 0x3e, 0xbe, 0x54, 0xba, 0x31, 0x3e,
  0x92, 0x7a, 0x44, 0x3e, 0x6c, 0xfd, 0x13, 0xbe, 0xc0, 0xfe, 0x67, 0x3c,
  0x64, 0xd5, 0x33, 0x3e, 0x50, 0x1a, 0xdf, 0x3d, 0xfc, 0x9e, 0xb2, 0x3d,
  0x10, 0xfe, 0x4b, 0xbd, 0x6c, 0x47, 0x82, 0xbd, 0xc0, 0x14, 0xa8, 0xbb,
  0xc0, 0xcc, 0xd9, 0x3b, 0x08, 0x6a, 0x07, 0x3e, 0xa4, 0x8b, 0x13, 0xbe,
  0xd0, 0xe9, 0x3f, 0x3d, 0x34, 0x77, 0xe0, 0x3d, 0x00, 0x67, 0x46, 0x3e,
  0xa4, 0x72, 0x31, 0x3e, 0x90, 0x63, 0x5a, 0xbe, 0xf6, 0xb5, 0x58, 0xbe,
  0xa0, 0x3e, 0xe0, 0xbc, 0x70, 0x62, 0xaf, 0xbd, 0xd8, 0x2d, 0x80, 0xbd,
  0xa6, 0xaa, 0xd7, 0xbd, 0xe0, 0x32, 0x39, 0xbd, 0x48, 0x46, 0xbe, 0xbc,
  0x48, 0x57, 0x5e, 0x3e, 0xf0, 0xa3, 0xed, 0x3c, 0x20, 0x95, 0x46, 0xbe,
  0xb0, 0x91, 0x66, 0x3c, 0x14, 0x31, 0x40, 0xbe, 0x40, 0x0d, 0x0c, 0x3d,
  0x2c, 0x2b, 0xaf, 0xbd, 0xae, 0xf1, 0x52, 0xbe, 0x05, 0x8b, 0xfb, 0xbd,
  0xfc, 0x29, 0x1c, 0xbe, 0xb0, 0x2e, 0x0f, 0x3e, 0x40, 0xe6, 0xc0, 0x3b,
  0xf3, 0x01, 0x0e, 0xbe, 0x98, 0xa8, 0xa2, 0xbd, 0x98, 0x03, 0xef, 0xbd,
  0x2c, 0x7f, 0x89, 0x3d, 0x42, 0x0f, 0x6c, 0x3e, 0x89, 0xb3, 0x62, 0xbe,
  0xba, 0x2f, 0x3f, 0x3e, 0xe2, 0xdc, 0x47, 0xbe, 0x5a, 0x41, 0x22, 0xbe,
  0x00, 0x52, 0x51, 0x3d, 0xd0, 0x49, 0x8e, 0xbd, 0xb0, 0x77, 0xa6, 0x3d,
  0x70, 0x60, 0x0d, 0xbd, 0x3b, 0x21, 0x64, 0xbe, 0xe0, 0x20, 0x1a, 0x3e,
  0xa2, 0x85, 0x4b, 0x3e, 0x00, 0x7d, 0x84, 0xbb, 0xe3, 0x9d, 0x39, 0xbe,
  0x34, 0x6a, 0xbf, 0x3d, 0xc1, 0x25, 0x69, 0xbe, 0x45, 0xde, 0x6e, 0xbe,
  0x3a, 0x2a, 0x29, 0xbe, 0x10, 0xdd, 0x38, 0x3e, 0xf4, 0x24, 0xc7, 0x3d,
  0x9a, 0x09, 0x2d, 0xbe, 0xac, 0x22, 0x3d, 0x3e, 0x25, 0x28, 0x6e, 0xbe,
  0xd8, 0x7f, 0x64, 0xbd, 0x50, 0xed, 0x03, 0x3e, 0x7c, 0x30, 0x3e, 0x3e,
  0x42, 0x13, 0x1f, 0x3e, 0x9c, 0xf3, 0x45, 0xbd, 0xc4, 0x1b, 0xb5, 0x3d,
  0x52, 0x62, 0x0d, 0x3e, 0xa6, 0x80, 0x40, 0x3e, 0xe8, 0x39, 0x2e, 0x3d,
  0xbc, 0x91, 0x18, 0xbd, 0x90, 0xc7, 0xa3, 0x3c, 0x42, 0x7c, 0x0f, 0x3e,
  0xb0, 0xc4, 0x85, 0x3d, 0x98, 0xae, 0xca, 0xbd, 0xce, 0xb3, 0x22, 0xbe,
  0xb4, 0xfd, 0x92, 0xbd, 0x10, 0x2d, 0xf1, 0xbc, 0xe0, 0xfd, 0xb9, 0x3c,
  0x94, 0x06, 0x2a, 0x3e, 0x1b, 0xc1, 0x6a, 0xbe, 0x42, 0x0c, 0x58, 0x3e,
  0x78, 0x28, 0x02, 0x3d, 0xb8, 0x85, 0x08, 0x3d, 0x4e, 0x6c, 0x2f, 0xbe,
  0x6e, 0x25, 0xa4, 0xbd, 0xf2, 0x43, 0x5b, 0xbe, 0x38, 0xe5, 0x3c, 0x3e,
  0xfc, 0x4d, 0x09, 0xbe, 0x5a, 0x0c, 0xec, 0xbd, 0x00, 0xfa, 0xc2, 0x3a,
  0x20, 0x80, 0x71, 0xbc, 0xb0, 0x4a, 0x65, 0xbd, 0xc0, 0x80, 0xd7, 0xbc,
  0x60, 0xd7, 0xc4, 0x3d, 0x0d, 0x57, 0x32, 0xbe, 0xe2, 0x27, 0xa2, 0xbd,
  0x12, 0x2a, 0x20, 0xbe, 0x50, 0x91, 0x95, 0xbc, 0x50, 0xb1, 0xce, 0x3d,
  0x2a, 0x8d, 0x84, 0xbd, 0x74, 0x46, 0x85, 0x3d, 0x24, 0xbc, 0xd5, 0x3d,
  0x34, 0x61, 0xd7, 0x3d, 0x4e, 0x90, 0x52, 0x3e, 0x22, 0x64, 0xf9, 0xbd,
  0x32, 0xb7, 0x46, 0xbe, 0xea, 0x81, 0x4b, 0xbe, 0xfe, 0x83, 0x0b, 0xbe,
  0x50, 0x7a, 0xbb, 0x3d, 0x80, 0x43, 0xf4, 0x3b, 0xe5, 0x70, 0x40, 0xbd,
  0xe5, 0xeb, 0x66, 0xbd, 0xfb, 0xf4, 0x46, 0xbe, 0x67, 0xfa, 0x29, 0xbe,
  0x0e, 0xc3, 0xea, 0xbc, 0xd5, 0xab, 0xda, 0x3e, 0x4e, 0x6f, 0x81, 0x3d,
  0x94, 0x52, 0xef, 0xbe, 0x89, 0x3f, 0xd3, 0xbe, 0x74, 0x89, 0x54, 0x3e,
  0x57, 0xfe, 0x43, 0x3e, 0x4f, 0xb2, 0x93, 0x3e, 0xea, 0x50, 0x07, 0x3d,
  0xb2, 0xc7, 0xc0, 0xbe, 0xcd, 0x49, 0xe4, 0xbe, 0xac, 0x63, 0x5d, 0x3d,
  0xa8, 0xb3, 0x74, 0x3e, 0x85, 0x65, 0xd8, 0x3e, 0x96, 0xed, 0x24, 0xbe,
  0x97, 0x24, 0xcf, 0xbe, 0x5a, 0x4d, 0x01, 0xbe, 0x7a, 0x71, 0x8e, 0xbe,
  0x32, 0xe4, 0x98, 0x3c, 0xd1, 0x88, 0xda, 0x3e, 0xc3, 0xdd, 0x2a, 0x3e,
  0x12, 0x82, 0x79, 0x3c, 0xcb, 0x37, 0xed, 0xbd, 0xc4, 0x1a, 0x12, 0xbe,
  0x4b, 0x3a, 0xda, 0x3e, 0x5c, 0x35, 0x30, 0x3e, 0xfe, 0xb9, 0x3a, 0x3e,
  0xe1, 0x56, 0x93, 0xbe, 0x14, 0x76, 0x5a, 0x3d, 0x72, 0xa3, 0x22, 0x3d,
  0x21, 0x21, 0xdb, 0x3e, 0xaf, 0x36, 0xce, 0x3e, 0x38, 0x69, 0x44, 0x3e,
  0x3c, 0x27, 0xdb, 0xbe, 0x86, 0xc5, 0x26, 0x3d, 0x30, 0x7d, 0x9a, 0xbe,
  0xb9, 0xff, 0x5c, 0x3e, 0x64, 0x6c, 0x10, 0x3e, 0xaa, 0x18, 0x36, 0xbe,
  0x6a, 0x5b, 0xa8, 0xbe, 0x44, 0x7b, 0x13, 0x3e, 0x9d, 0x8e, 0xe9, 0xbd,
  0x81, 0xbb, 0xc7, 0x3e, 0x41, 0xec, 0xf3, 0x3e, 0xfa, 0xe9, 0x58, 0xbe,
  0xca, 0xa0, 0x5a, 0xbe, 0xae, 0x3a, 0xbe, 0x3e, 0xbe, 0xe5, 0xba, 0xbe,
  0x97, 0x40, 0xf6, 0x3d, 0x6f, 0xc6, 0x5d, 0x3e, 0xbd, 0x29, 0x99, 0x3d,
  0x5b, 0x6d, 0x81, 0xbe, 0xd8, 0xc1, 0x12, 0x3d, 0xb6, 0x13, 0x60, 0xbe,
  0xdd, 0xa3, 0xea, 0x3e, 0x32, 0x63, 0x51, 0x3e, 0x24, 0x9f, 0x80, 0xbd,
  0x66, 0xcf, 0x4b, 0x3d, 0xa6, 0x15, 0x60, 0x3e, 0xc8, 0x12, 0xe7, 0xbb,
  0x47, 0x5b, 0xf4, 0x3d, 0xe4, 0x92, 0x86, 0x3e, 0x3e, 0x4f, 0xaa, 0xbd,
  0xac, 0x57, 0xaa, 0x3c, 0x68, 0xc6, 0x14, 0x3e, 0x24, 0xe7, 0x6f, 0x3d,
  0x0d, 0x35, 0xa8, 0x3e, 0x66, 0x6d, 0x4d, 0x3e, 0x83, 0x62, 0x3a, 0x3e,
  0x30, 0x00, 0x51, 0xbd, 0xf9, 0xde, 0x8f, 0x3e, 0xc2, 0x5d, 0x3d, 0xbe,
  0x75, 0x41, 0xac, 0x3e, 0x7e, 0x35, 0x09, 0x3e, 0x73, 0x11, 0xbf, 0x3d,
  0xc7, 0x31, 0x04, 0xbf, 0x4d, 0x43, 0x84, 0xbc, 0xe1, 0x5f, 0xb7, 0xbd,
  0xd3, 0x37, 0xbb, 0x3d, 0xd8, 0xd5, 0x43, 0x3f, 0x44, 0xe9, 0x55, 0x3e,
  0xf6, 0x7c, 0x29, 0xbf, 0x7b, 0x0b, 0x84, 0xbe, 0xd8, 0x4a, 0x4d, 0x3e,
  0xfd, 0x25, 0x86, 0xbe, 0x3c, 0x3f, 0x6b, 0x3f, 0xdf, 0x04, 0x70, 0xbe,
  0x78, 0x86, 0x28, 0xbf, 0xa6, 0xc1, 0x8e, 0x3d, 0x11, 0x18, 0xc4, 0xbc,
  0xa9, 0x9e, 0x24, 0x3d, 0x14, 0x76, 0xe4, 0x3e, 0x31, 0x66, 0x66, 0x3d,
  0xe5, 0x62, 0xd5, 0xbe, 0x7c, 0x2b, 0x3d, 0x3d, 0x43, 0xd3, 0x5a, 0x3e,
  0xfb, 0x10, 0x90, 0x3d, 0xc8, 0xed, 0x1c, 0x3f, 0x17, 0x35, 0xfe, 0xbd,
  0xa5, 0xe6, 0x84, 0x3d, 0x2c, 0xce, 0x4b, 0x3d, 0x80, 0xf3, 0x19, 0x3d,
  0xae, 0x68, 0xe8, 0x3c, 0x76, 0x74, 0x0a, 0x3f, 0xc1, 0x27, 0x5e, 0xbe,
  0xb8, 0x6c, 0xe7, 0xbd, 0xab, 0x12, 0xdd, 0xbd, 0xfa, 0xf4, 0x22, 0x3e,
  0x9f, 0x99, 0x0d, 0x3d, 0x48, 0x0b, 0xff, 0x3e, 0xd9, 0xc4, 0xa5, 0xbd,
  0x5a, 0x93, 0x54, 0x3e, 0xc8, 0x51, 0x1f, 0xbe, 0x94, 0xd6, 0xb8, 0xbb,
  0xb2, 0x53, 0x43, 0xbe, 0x2d, 0xd1, 0xdf, 0x3e, 0x82, 0xac, 0x83, 0xbe,
  0x79, 0x31, 0x88, 0x3e, 0xab, 0xcd, 0x33, 0xbe, 0xcb, 0x56, 0xb3, 0x3c,
  0x8d, 0x61, 0x32, 0x3e, 0x70, 0x72, 0x8a, 0x3e, 0x40, 0x59, 0x92, 0x3d,
  0x5f, 0xad, 0xdc, 0x3d, 0xc1, 0xfc, 0x95, 0xbe, 0x5d, 0x90, 0xcb, 0x3e,
  0x16, 0xdb, 0x7f, 0x3e, 0x7d, 0x3f, 0xcd, 0x3e, 0xe8, 0x62, 0x74, 0xbe,
  0xc4, 0x70, 0xaa, 0x3e, 0x5a, 0xe4, 0x47, 0xbd, 0x7a, 0x99, 0x6d, 0xbd,
  0xf5, 0x53, 0x2d, 0xbe, 0x8b, 0x49, 0x59, 0x3e, 0x54, 0x90, 0x93, 0xbe,
  0x63, 0x8f, 0xcb, 0x3e, 0x25, 0x07, 0x19, 0xbe, 0x73, 0x95, 0x4f, 0x3e,
  0xdc, 0xc3, 0x61, 0xbe, 0xdc, 0xc7, 0x37, 0x3d, 0xa7, 0xf7, 0xa3, 0xbe,
  0x45, 0xa2, 0x89, 0x3e, 0x40, 0x9b, 0x94, 0x3d, 0xee, 0x1b, 0xb5, 0x3c,
  0x4e, 0x4e, 0xcd, 0x3d, 0x68, 0xed, 0xce, 0x3e, 0x8d, 0x70, 0x36, 0xbe,
  0xdb, 0x53, 0x46, 0x3e, 0x5c, 0x6f, 0xaa, 0xbd, 0x67, 0x2c, 0x89, 0xbc,
  0xaf, 0x5e, 0x40, 0x3e, 0x85, 0xfb, 0xd4, 0x3e, 0x46, 0xb6, 0x6b, 0xbd,
  0xe4, 0xa6, 0x09, 0xbf, 0x13, 0x6d, 0xc1, 0xbc, 0xa8, 0xb7, 0x58, 0x3d,
  0x32, 0xcc, 0x24, 0xbe, 0xd1, 0xca, 0x08, 0x3f, 0xe2, 0x26, 0x90, 0xbe,
  0x88, 0xcc, 0x0e, 0xbf, 0x3d, 0x6c, 0xe3, 0x3d, 0x03, 0x60, 0x6a, 0x3b,
  0x7e, 0x83, 0x1b, 0xbe, 0x05, 0x88, 0xd6, 0x3e, 0x60, 0x41, 0x2c, 0xbe,
  0x84, 0xc4, 0xb2, 0xbe, 0xcd, 0xcd, 0x03, 0x3d, 0xe8, 0x68, 0x16, 0xbe,
  0xe4, 0x9b, 0x17, 0xbe, 0x18, 0xe2, 0x44, 0x3f, 0x29, 0x4d, 0x9c, 0x3e,
  0xfe, 0x01, 0xb6, 0xbe, 0xfc, 0x4f, 0x2c, 0xbe, 0xda, 0x98, 0x78, 0xbe,
  0x09, 0x5c, 0x15, 0xbe, 0x43, 0xd5, 0xee, 0x3e, 0xbe, 0x58, 0xc6, 0x3d,
  0x13, 0xd4, 0x78, 0xbe, 0xb2, 0x93, 0x14, 0x3d, 0xea, 0x33, 0xd2, 0xbe,
  0x06, 0x06, 0x99, 0x3d, 0x61, 0x7a, 0xd7, 0x3e, 0x7d, 0xae, 0xc3, 0x3e,
  0xdd, 0xd0, 0xe9, 0x3c, 0x81, 0x10, 0x98, 0xbe, 0x59, 0x3c, 0xfc, 0xbe,
  0xab, 0x82, 0x73, 0x3d, 0x67, 0x2e, 0xf0, 0x3e, 0xdf, 0x68, 0x3d, 0x3e,
  0xa8, 0x3e, 0xae, 0xbe, 0xee, 0x62, 0x4d, 0xbe, 0x1b, 0xe3, 0x99, 0xbe,
  0x57, 0x2f, 0xe2, 0xbc, 0x81, 0xb0, 0xbd, 0x3e, 0xf9, 0x85, 0xea, 0x3d,
  0xa3, 0x13, 0xad, 0xbe, 0x7c, 0xfe, 0x8c, 0xbc, 0x41, 0x93, 0xed, 0xbe,
  0x72, 0x87, 0xda, 0x3d, 0x99, 0xa6, 0x4b, 0x3e, 0xb3, 0xc1, 0x35, 0x3e,
  0x06, 0x2c, 0x16, 0x3e, 0x9d, 0x1a, 0xd7, 0x3c, 0x36, 0x26, 0xb2, 0xbe,
  0x0f, 0x98, 0xf9, 0xbd, 0x87, 0x4f, 0x9c, 0x3e, 0x0b, 0x05, 0xe9, 0x3e,
  0x37, 0x8e, 0x1c, 0x3e, 0x77, 0x05, 0x95, 0xbd, 0x90, 0xbc, 0x8b, 0xbe,
  0x2f, 0xbb, 0xb1, 0xbc, 0x62, 0x11, 0x88, 0x3e, 0x05, 0xba, 0x05, 0x3f,
  0xb5, 0x47, 0x11, 0x3e, 0xd4, 0x12, 0x9e, 0x3a, 0xba, 0x9f, 0x8b, 0xbe,
  0xe4, 0x78, 0xd4, 0x39, 0x3a, 0x8a, 0x37, 0x3e, 0xfd, 0xdc, 0xd6, 0x3e,
  0x91, 0x4b, 0x10, 0x3f, 0xbe, 0xa0, 0x80, 0x3e, 0x57, 0xc3, 0x67, 0xbc,
  0x6e, 0xff, 0x8b, 0x3d, 0x71, 0x60, 0xdb, 0x3e, 0x49, 0x9b, 0x06, 0x3f,
  0x46, 0x19, 0xa7, 0x3e, 0xda, 0xc2, 0x75, 0xbd, 0xf6, 0x95, 0xa9, 0xbe,
  0xbc, 0x77, 0xd9, 0xbd, 0x30, 0x95, 0x68, 0x3e, 0x58, 0x2f, 0x1e, 0x3d,
  0x68, 0xf9, 0xa3, 0xbd, 0xa0, 0xaa, 0xd7, 0x3d, 0xb0, 0x79, 0x6a, 0x3e,
  0xb1, 0x1d, 0x4f, 0xbe, 0x72, 0x85, 0xf9, 0xbd, 0x24, 0x21, 0x45, 0x3e,
  0xf8, 0x09, 0x79, 0x3d, 0x54, 0xbe, 0x3c, 0xbd, 0xda, 0x12, 0x0e, 0x3e,
  0xd0, 0x4b, 0x66, 0x3d, 0x69, 0x5f, 0xe5, 0xbd, 0x55, 0x4b, 0x53, 0xbe,
  0x81, 0x73, 0x50, 0xbe, 0x86, 0xf0, 0x02, 0x3e, 0x00, 0xa2, 0x19, 0xbe,
  0xe4, 0xf7, 0x74, 0xbd, 0x4c, 0x26, 0xc7, 0x3d, 0x48, 0x94, 0xe9, 0x3d,
  0x8e, 0x7c, 0x21, 0xbe, 0x94, 0xac, 0xc7, 0xbd, 0x8c, 0x44, 0x4c, 0xbe,
  0xc5, 0xc1, 0xdf, 0xbd, 0x12, 0xb8, 0x4a, 0xbe, 0xe0, 0x0e, 0x46, 0x3d,
  0x00, 0xb9, 0x32, 0x3a, 0xe2, 0x6c, 0x0d, 0x3e, 0x06, 0x13, 0x3e, 0x3e,
  0x99, 0x43, 0x53, 0xbe, 0xf1, 0xf1, 0x00, 0xbe, 0xa8, 0x36, 0x97, 0x3d,
  0x7e, 0xc3, 0x11, 0x3e, 0xd8, 0x43, 0x29, 0x3e, 0x50, 0xf9, 0x28, 0xbe,
  0x00, 0xa8, 0xc6, 0x3c, 0x94, 0x30, 0x02, 0x3e, 0xb0, 0x27, 0x03, 0xbd,
  0xd0, 0x30, 0x2e, 0x3c, 0x5c, 0x82, 0xe3, 0xbd, 0x6a, 0xd4, 0xa6, 0xbd,
  0x34, 0xe5, 0x1b, 0x3e, 0x40, 0x2f, 0x4f, 0x3b, 0x8c, 0x83, 0x79, 0xbd,
  0x3b, 0xbf, 0x56, 0xbe, 0x74, 0xd1, 0x3e, 0x3e, 0xa2, 0x95, 0x4d, 0x3e,
  0x1c, 0x99, 0x83, 0x3d, 0x40, 0x73, 0xc1, 0xbd, 0x68, 0x64, 0x3d, 0x3e,
  0xb8, 0x04, 0x4a, 0x3d, 0x90, 0xa7, 0x0b, 0x3d, 0xd6, 0x84, 0x1b, 0xbe,
  0xd4, 0xd0, 0x3f, 0xbe, 0xe4, 0xd9, 0x80, 0x3d, 0xae, 0xc0, 0x48, 0x3e,
  0x9a, 0x83, 0x32, 0x3e, 0x8c, 0xb3, 0xeb, 0x3d, 0x7c, 0x22, 0x9b, 0xbd,
  0x4c, 0x5e, 0x27, 0xbe, 0xd4, 0xa2, 0xd0, 0x3d, 0x2e, 0x07, 0x50, 0x3e,
  0x38, 0x26, 0x07, 0xbd, 0x34, 0xa7, 0x0b, 0xbe, 0xdc, 0xbf, 0x52, 0xbe,
  0x5c, 0x14, 0x8e, 0xbd, 0x88, 0x64, 0x18, 0xbe, 0x14, 0xbd, 0x3f, 0xbe,
  0x76, 0x30, 0xf5, 0xbd, 0xa8, 0x40, 0x19, 0x3d, 0x1a, 0x4f, 0x25, 0xbe,
  0x88, 0xdd, 0xf9, 0xbc, 0x44, 0xfb, 0x0d, 0xbe, 0xbb, 0xe4, 0x53, 0xbe,
  0x8e, 0xa6, 0x17, 0x3e, 0x18, 0xf9, 0x5f, 0xbd, 0xd5, 0xcc, 0x37, 0xbe,
  0x44, 0xf2, 0xd5, 0xbd, 0xbc, 0x22, 0x3d, 0xbe, 0x40, 0xb1, 0x20, 0xbe,
  0xdc, 0xe2, 0xab, 0x3d, 0x74, 0xad, 0x56, 0xbe, 0x84, 0x90, 0xe4, 0xbd,
  0xe8, 0x62, 0x2a, 0xbe, 0x2e, 0x19, 0x1f, 0xbe, 0x48, 0xf4, 0x46, 0xbd,
  0xd2, 0x51, 0x14, 0x3e, 0xf8, 0x87, 0x4e, 0x3d, 0x80, 0x97, 0x87, 0xbb,
  0xb6, 0x16, 0xb5, 0xbd, 0x8d, 0x46, 0x18, 0xbe, 0x6a, 0xeb, 0x0a, 0xbe,
  0x78, 0x2a, 0xd7, 0xbc, 0xc1, 0x47, 0x07, 0xbe, 0xb0, 0xdd, 0x45, 0x3e,
  0xb2, 0xef, 0x00, 0x3e, 0xec, 0x90, 0x77, 0xbd, 0x89, 0xef, 0x4e, 0xbe,
  0x86, 0x90, 0x2c, 0x3e, 0x90, 0x18, 0x99, 0x3d, 0x80, 0x30, 0x30, 0x3c,
  0x2c, 0x3b, 0x11, 0x3e, 0x5e, 0xb7, 0x00, 0x3e, 0x58, 0x9b, 0xe9, 0xbd,
  0x82, 0x98, 0x25, 0xbe, 0xc0, 0x73, 0x05, 0xbe, 0xac, 0x7b, 0xe0, 0xbd,
  0x6e, 0x48, 0x00, 0xbe, 0x10, 0x3d, 0xc9, 0xbd, 0x90, 0x86, 0x74, 0x3c,
  0xa6, 0x69, 0xff, 0xbd, 0xfb, 0x63, 0x14, 0xbe, 0xd0, 0x34, 0x62, 0xbd,
  0x80, 0x95, 0xfa, 0xbd, 0x0a, 0x52, 0x12, 0xbe, 0xa0, 0x57, 0x23, 0xbe,
  0x90, 0x07, 0x9f, 0x3d, 0x92, 0x5f, 0x1d, 0x3e, 0xb0, 0x87, 0x12, 0x3d,
  0xb2, 0x19, 0x9a, 0xbd, 0x57, 0x26, 0xe1, 0xbd, 0x54, 0x85, 0xf1, 0x3d,
  0x84, 0x34, 0xad, 0x3d, 0x94, 0x1c, 0x52, 0x3e, 0x56, 0xc5, 0x4a, 0xbe,
  0x66, 0x97, 0x56, 0x3e, 0xd8, 0x7b, 0xee, 0x3d, 0x43, 0xc9, 0xfa, 0xbd,
  0xd0, 0xcc, 0xc6, 0xbc, 0x39, 0x88, 0x66, 0xbe, 0x00, 0x2c, 0x48, 0x3e,
  0xa7, 0x72, 0x61, 0xbe, 0x88, 0xe7, 0xab, 0xbd, 0x70, 0x5d, 0xb2, 0x3d,
  0x1a, 0xfd, 0x15, 0x3e, 0xc2, 0x4a, 0x07, 0x3e, 0x0c, 0x63, 0x5f, 0xbe,
  0x50, 0xd9, 0xb7, 0x3d, 0xec, 0xaf, 0x47, 0x3e, 0x42, 0x39, 0x92, 0xbd,
  0x90, 0x5f, 0x29, 0x3d, 0xc6, 0xe2, 0x25, 0x3e, 0x94, 0x08, 0x0d, 0x3e,
  0x80, 0x3e, 0x54, 0xbe, 0x90, 0xc4, 0x01, 0x3c, 0x80, 0xae, 0x88, 0xbd,
  0x28, 0xe4, 0x17, 0xbe, 0x7e, 0xb0, 0x1b, 0x3e, 0xa0, 0x21, 0x92, 0x3c,
  0x30, 0x09, 0x40, 0x3e, 0x0e, 0xbc, 0xcc, 0xbd, 0x32, 0x9a, 0xbb, 0xbd,
  0x80, 0x53, 0x1a, 0x3d, 0x1b, 0x3c, 0x32, 0xbe, 0xcc, 0xa2, 0x4d, 0xbd,
  0x80, 0xf8, 0x41, 0xbb, 0xf4, 0xbe, 0xa7, 0xbd, 0xae, 0xc2, 0xc5, 0xbd,
  0x0e, 0xd6, 0xad, 0x3e, 0x67, 0x10, 0x60, 0xbe, 0xc0, 0x8f, 0x97, 0xbe,
  0xbe, 0xe5, 0x1a, 0xbe, 0x40, 0x15, 0x2a, 0xbe, 0x91, 0xb4, 0x31, 0xbe,
  0xb6, 0x18, 0x40, 0x3e, 0xc5, 0x04, 0x42, 0xbe, 0x23, 0x13, 0x63, 0xbe,
  0x8e, 0x08, 0xf2, 0xbc, 0x2e, 0x2d, 0x07, 0xbf, 0xe7, 0x68, 0x25, 0xbe,
  0xaf, 0x13, 0xb0, 0x3e, 0x57, 0x9b, 0x28, 0xbe, 0x9b, 0x8b, 0x65, 0xbd,
  0x3d, 0x59, 0x9d, 0x3e, 0x79, 0xcd, 0x00, 0xbf, 0x68, 0xbd, 0xa7, 0x3d,
  0x8f, 0x53, 0x0a, 0x3f, 0x36, 0xbe, 0x9f, 0xbd, 0xd6, 0xf2, 0x1b, 0xbd,
  0xf8, 0x2b, 0xbf, 0x3e, 0x4e, 0xfc, 0x1c, 0xbe, 0xea, 0x1c, 0x46, 0x3e,
  0xec, 0xd3, 0xa9, 0x3e, 0x93, 0x63, 0x94, 0xbb, 0x8b, 0x24, 0x9a, 0xbe,
  0x36, 0x5d, 0x4a, 0x3e, 0x38, 0x94, 0xf1, 0xbc, 0x4b, 0xd0, 0x30, 0x3c,
  0x7e, 0x75, 0xc8, 0x3e, 0x8f, 0xc9, 0x00, 0xbe, 0x27, 0x54, 0x6d, 0xbd,
  0xd5, 0x00, 0xa0, 0x3e, 0x9a, 0x81, 0x78, 0x3d, 0xc2, 0xdd, 0xa4, 0x3e,
  0x81, 0x6b, 0x84, 0x3e, 0x10, 0x64, 0x25, 0xbe, 0x85, 0xc3, 0x24, 0xbe,
  0x14, 0x5b, 0x53, 0x3e, 0x8e, 0x78, 0x55, 0xbd, 0xd0, 0xbb, 0xe9, 0x3e,
  0xf9, 0x03, 0xad, 0x3e, 0x6e, 0xa2, 0xe9, 0x3b, 0x29, 0x8a, 0x21, 0xbe,
  0xfa, 0x22, 0xac, 0x3d, 0xd1, 0x83, 0xf2, 0x3a, 0x49, 0x90, 0x1a, 0x3f,
  0xba, 0x69, 0x2c, 0x3a, 0xaf, 0x97, 0x67, 0x3d, 0xc5, 0xc8, 0x43, 0xbe,
  0x35, 0x9a, 0xa3, 0x3e, 0x3a, 0xa5, 0x91, 0x3b, 0x85, 0x42, 0x08, 0x3f,
  0x4f, 0x26, 0xdf, 0xbd, 0x57, 0x96, 0xbb, 0xbd, 0xa7, 0x96, 0x13, 0xbe,
  0xfb, 0x34, 0x64, 0x3c, 0x0f, 0x37, 0x48, 0xbe, 0xc2, 0xc9, 0x2d, 0x3f,
  0xa9, 0x81, 0x9f, 0xbb, 0xf9, 0xe9, 0xd1, 0xbc, 0xd0, 0x84, 0x21, 0xbe,
  0x09, 0xb0, 0x97, 0x3e, 0x6e, 0xa9, 0x76, 0xbd, 0xef, 0xd4, 0x42, 0x3f,
  0x6a, 0x4a, 0xa8, 0x3c, 0x39, 0x6f, 0x54, 0x3e, 0xd5, 0x10, 0x8f, 0xbe,
  0x6a, 0xe5, 0x97, 0x3e, 0xcf, 0xfb, 0xd2, 0x3d, 0x1a, 0xc5, 0x3b, 0x3f,
  0x41, 0x40, 0x6d, 0xbe, 0x8f, 0xd0, 0x4b, 0x3e, 0x2b, 0x4b, 0x64, 0xbe,
  0xcd, 0x01, 0xdd, 0xbd, 0xa9, 0xe2, 0x59, 0xbe, 0xc0, 0xed, 0x37, 0x3e,
  0x80, 0x27, 0xfa, 0xbe, 0x8a, 0x81, 0x89, 0x3e, 0x21, 0x86, 0x4f, 0xbe,
  0xfa, 0x30, 0x11, 0x3e, 0xde, 0x1a, 0x2d, 0x3e, 0xd8, 0xbd, 0x9f, 0xbd,
  0x3d, 0x15, 0xb5, 0xbe, 0x18, 0x68, 0xa0, 0xbd, 0x08, 0x2e, 0x8b, 0xbe,
  0x2e, 0xb2, 0x11, 0x3e, 0x58, 0xc2, 0xd6, 0xbc, 0x0d, 0xa6, 0x51, 0x3e,
  0xdc, 0xa9, 0x13, 0xbc, 0x09, 0xe8, 0x4b, 0xbe, 0x3b, 0x35, 0x50, 0xbe,
  0xa3, 0x38, 0x52, 0x3e, 0x9c, 0xd9, 0xaa, 0x3d, 0x29, 0x12, 0x94, 0x3e,
  0xdd, 0x30, 0x2d, 0x3d, 0x4c, 0xd9, 0xa6, 0xbe, 0xf4, 0x72, 0x50, 0xbe,
  0x58, 0x4a, 0x8e, 0x3e, 0xb7, 0x2b, 0x81, 0xbd, 0x80, 0xd0, 0xc3, 0x3e,
  0xb4, 0x1a, 0x5b, 0xbe, 0x74, 0x17, 0x6b, 0xbe, 0x71, 0x40, 0xfe, 0xbe,
  0x38, 0x6f, 0xff, 0xbc, 0xf8, 0x58, 0xa4, 0x3e, 0x20, 0x8e, 0x79, 0x3d,
  0xd6, 0x04, 0xd3, 0xbd, 0xbd, 0x70, 0x07, 0xbf, 0x4a, 0xca, 0x14, 0xbf,
  0x5e, 0xed, 0xec, 0x3c, 0xe0, 0x72, 0x8f, 0x3e, 0xed, 0x97, 0x96, 0x3e,
  0x47, 0x9e, 0xb1, 0x3e, 0x62, 0x2f, 0x5b, 0xbe, 0x55, 0xad, 0x41, 0xbf,
  0x97, 0x3d, 0x84, 0x3d, 0xd3, 0x9f, 0xf5, 0x3d, 0xd0, 0xe2, 0x10, 0x3f,
  0x3f, 0x2c, 0x92, 0xbb, 0x16, 0x47, 0x89, 0xbe, 0x86, 0x1a, 0x7b, 0xbe,
  0x09, 0xc9, 0x62, 0xbe, 0x87, 0x50, 0x69, 0xbc, 0x64, 0xfc, 0x32, 0x3f,
  0xb0, 0xe2, 0xe8, 0x3e, 0x25, 0xfe, 0x0f, 0xbe, 0x62, 0x05, 0x15, 0xbf,
  0xb4, 0xd6, 0x0b, 0x3e, 0x35, 0xd0, 0xb0, 0x3e, 0xbb, 0x0d, 0x35, 0x3f,
  0x1d, 0x14, 0xc8, 0x3e, 0xfa, 0x64, 0x9d, 0x3d, 0xbd, 0xb7, 0x4e, 0xbe,
  0x13, 0x15, 0x21, 0xbe, 0xcf, 0x10, 0x1e, 0x3e, 0xaa, 0xcd, 0x33, 0x3f,
  0x79, 0x23, 0x21, 0x3f, 0x2c, 0xe7, 0x8b, 0xbe, 0xa4, 0xc3, 0x19, 0xbd,
  0x3b, 0x1f, 0xe8, 0x3d, 0x3c, 0x1e, 0x8f, 0x3e, 0x95, 0xd5, 0x4b, 0x3f,
  0xf8, 0xcc, 0x49, 0x3f, 0x97, 0x0e, 0xa3, 0xbe, 0xcc, 0xa7, 0xfd, 0xbd,
  0xde, 0x8c, 0x89, 0xbe, 0xd6, 0x74, 0xd7, 0x3d, 0xd2, 0xe6, 0x7b, 0x3f,
  0x43, 0xde, 0x31, 0x3f, 0x5b, 0x3f, 0xae, 0xbe, 0x78, 0xe3, 0x76, 0x3d,
  0xd1, 0xbc, 0x39, 0xbe, 0xa4, 0x0e, 0x4b, 0xbd, 0xb4, 0x69, 0x59, 0xbe,
  0x73, 0x30, 0x48, 0x3d, 0x3d, 0x68, 0x33, 0xbc, 0x7a, 0x1c, 0x57, 0x3e,
  0x39, 0xe1, 0x55, 0xbd, 0xaa, 0xc8, 0x4a, 0x3f, 0xdc, 0xd8, 0x82, 0xbe,
  0xeb, 0xbe, 0x85, 0xbe, 0x87, 0xcf, 0x27, 0x3e, 0x4d, 0xd3, 0x31, 0xbd,
  0x84, 0x65, 0xc9, 0xbd, 0x8c, 0x6f, 0x34, 0x3f, 0x60, 0x70, 0xf0, 0x3d,
  0x2e, 0xe1, 0xe5, 0xbd, 0xac, 0x28, 0x2b, 0x3c, 0x97, 0x3d, 0x4a, 0x3e,
  0x66, 0xd1, 0x4b, 0x3d, 0xe7, 0xab, 0xf1, 0x3e, 0xe0, 0xd2, 0x8a, 0x3d,
  0x75, 0xba, 0x4c, 0xbe, 0x49, 0x4a, 0xb3, 0xbd, 0x1a, 0xfe, 0x85, 0xbd,
  0xa8, 0xa8, 0xbe, 0xbc, 0xf1, 0x46, 0x31, 0x3f, 0x7b, 0x3a, 0xa0, 0xbd,
  0x81, 0xb9, 0x73, 0xbe, 0xbd, 0xd2, 0x07, 0xbe, 0xc8, 0x11, 0xb3, 0x3c,
  0x98, 0xce, 0x05, 0x3c, 0xf1, 0x22, 0xf9, 0x3e, 0xbc, 0xb6, 0x75, 0xbe,
  0x7d, 0xae, 0x83, 0x3d, 0xdf, 0x17, 0x0b, 0x3e, 0x53, 0x0c, 0xaf, 0x3e,
  0x30, 0x6b, 0x37, 0x3e, 0xa8, 0xe3, 0x1c, 0x3e, 0xf7, 0x0f, 0xdc, 0xbe,
  0xf3, 0xae, 0xa7, 0xbe, 0xb8, 0x47, 0xa5, 0x3e, 0x52, 0x1d, 0xbb, 0x3e,
  0x3a, 0x1a, 0x4f, 0x3e, 0x4e, 0x88, 0xd1, 0x3e, 0x93, 0x5b, 0x14, 0xbf,
  0x9e, 0xb1, 0x2b, 0xbe, 0x84, 0x57, 0x86, 0x3e, 0xc8, 0x27, 0x18, 0x3e,
  0xf1, 0x7b, 0x9d, 0xbc, 0x8b, 0x28, 0x97, 0x3e, 0x66, 0xc3, 0xde, 0xbe,
  0xc8, 0x41, 0xba, 0xbe, 0x6f, 0x3d, 0x52, 0x3e, 0xa8, 0x46, 0xdf, 0x3e,
  0x6d, 0x95, 0x33, 0x3e, 0x93, 0x67, 0xc0, 0x3e, 0x69, 0xc9, 0x16, 0xbf,
  0xd5, 0x64, 0x93, 0xbe, 0xbe, 0x94, 0x91, 0x3d, 0x4b, 0x14, 0x50, 0x3e,
  0x3f, 0x3e, 0x01, 0x3d, 0x09, 0x64, 0x5e, 0x3e, 0xa4, 0x3d, 0x9f, 0xbe,
  0xc8, 0x78, 0x9a, 0xbe, 0xf8, 0x2b, 0xd6, 0x3e, 0x3f, 0x21, 0x08, 0x3e,
  0xd9, 0x8f, 0xb2, 0x3e, 0xfc, 0xf9, 0xd0, 0x3e, 0x06, 0x31, 0x1d, 0xbf,
  0x27, 0xe5, 0xff, 0xbe, 0x15, 0xdd, 0x47, 0x3e, 0xce, 0xb9, 0x12, 0x3e,
  0xe2, 0x7a, 0x97, 0x3d, 0x8d, 0x5f, 0x7e, 0x3e, 0xc1, 0x0d, 0x58, 0xbf,
  0x28, 0x0d, 0x0b, 0xbf, 0x87, 0x00, 0xd0, 0x3e, 0x0b, 0x2e, 0x8e, 0x3e,
  0x5d, 0x34, 0x58, 0x3d, 0x94, 0xac, 0xec, 0x3d, 0x72, 0x30, 0x24, 0xbe,
  0x83, 0xbc, 0x5e, 0xbe, 0xc0, 0x75, 0xe4, 0xbc, 0x52, 0xe1, 0xa3, 0xbd,
  0x68, 0x8a, 0x39, 0xbd, 0xa8, 0xca, 0x12, 0xbe, 0xc0, 0xe5, 0x5d, 0xbb,
  0xd8, 0xe1, 0x25, 0xbe, 0x16, 0x10, 0x2f, 0x3e, 0x54, 0x14, 0x0a, 0x3e,
  0x5d, 0xcf, 0x24, 0xbe, 0x70, 0x97, 0x23, 0x3c, 0x0a, 0x8b, 0x14, 0xbe,
  0x94, 0xf1, 0x26, 0x3e, 0xe0, 0xaf, 0x16, 0xbc, 0x90, 0x9d, 0x30, 0xbc,
  0x8d, 0x94, 0x03, 0xbe, 0x14, 0xbb, 0xd5, 0x3d, 0x56, 0x37, 0x20, 0xbe,
  0x1e, 0xe4, 0xa7, 0xbd, 0xc8, 0xef, 0x60, 0xbd, 0x56, 0x8a, 0x40, 0x3e,
  0x04, 0x40, 0x06, 0xbe, 0x0a, 0x92, 0x00, 0xbe, 0xe0, 0xa0, 0x82, 0x3d,
  0xa4, 0x0d, 0x3e, 0x3e, 0x70, 0x34, 0xfb, 0x3d, 0xe8, 0xbe, 0x08, 0xbe,
  0xbc, 0xa0, 0xc5, 0x3d, 0xe0, 0x71, 0x3f, 0x3e, 0xf6, 0x56, 0x11, 0xbe,
  0xb8, 0xef, 0x29, 0x3d, 0xae, 0x1b, 0x6c, 0xbe, 0x70, 0xce, 0x2d, 0x3d,
  0x1a, 0x5a, 0x81, 0xbd, 0x40, 0x4e, 0x2d, 0x3e, 0xd8, 0xb5, 0xac, 0x3d,
  0x4c, 0x00, 0xea, 0xbd, 0x48, 0x7f, 0x08, 0x3d, 0xbd, 0x9f, 0x19, 0xbe,
  0x9d, 0xfe, 0x23, 0xbe, 0xc8, 0x3c, 0x24, 0xbd, 0x08, 0x77, 0x48, 0x3d,
  0x90, 0xa0, 0x40, 0x3d, 0x05, 0xf1, 0x07, 0xbe, 0xd0, 0x74, 0x4a, 0x3d,
  0x44, 0x50, 0x09, 0xbe, 0x24, 0x4e, 0x19, 0xbe, 0x7e, 0x71, 0x47, 0x3e,
  0xb8, 0xb2, 0x14, 0x3e, 0x44, 0x7c, 0xc1, 0xbd, 0x54, 0x11, 0xcb, 0xbd,
  0x98, 0x65, 0x01, 0xbe, 0xa4, 0xfb, 0x68, 0xbe, 0x32, 0x88, 0x19, 0xbe,
  0xe6, 0x4d, 0x55, 0x3e, 0x08, 0xff, 0x36, 0x3e, 0x88, 0xd4, 0xdd, 0xbc,
  0x84, 0x48, 0x1e, 0xbd, 0xf0, 0x60, 0xb1, 0xbc, 0xe4, 0x0f, 0xda, 0xbd,
  0x30, 0x15, 0x60, 0x3d, 0x6c, 0xac, 0x47, 0xbe, 0xa0, 0x91, 0x08, 0x3e,
  0x9b, 0x31, 0x69, 0xbe, 0x0c, 0x1b, 0xe2, 0x3d, 0x30, 0x18, 0x01, 0xbe,
  0x66, 0x91, 0xcf, 0xbd, 0x24, 0xf8, 0x39, 0xbe, 0xd9, 0xef, 0x14, 0xbe,
  0xf4, 0xa7, 0xe3, 0x3d, 0x00, 0x37, 0x6a, 0x3c, 0x07, 0xd1, 0x52, 0xbe,
  0xa4, 0x96, 0x4c, 0xbe, 0x2a, 0x90, 0x65, 0x3e, 0xa0, 0x70, 0xa8, 0xbc,
  0x8e, 0x00, 0x1c, 0x3e, 0xf8, 0x44, 0x50, 0xbe, 0x17, 0x73, 0x80, 0xbd,
  0xee, 0xe7, 0x6a, 0xbb, 0x7f, 0x29, 0xa4, 0x3e, 0x7d, 0x8d, 0x5e, 0x3e,
  0xa5, 0x3b, 0x51, 0xbe, 0x16, 0x62, 0x78, 0xbe, 0x80, 0x04, 0x17, 0xbe,
  0xfa, 0x5f, 0x83, 0x3e, 0xc3, 0xb6, 0x66, 0x3d, 0xfa, 0x0f, 0x45, 0x3e,
  0xfe, 0xe9, 0x34, 0x3e, 0xfa, 0x7b, 0xb2, 0xbe, 0x24, 0x6e, 0xc3, 0xbd,
  0x88, 0x76, 0xb5, 0x3e, 0xbe, 0x4e, 0x49, 0x3e, 0xf7, 0x7f, 0xfc, 0x3d,
  0x48, 0x23, 0xcd, 0xbc, 0x6f, 0x9e, 0x44, 0xbd, 0xa0, 0x30, 0xf6, 0x3d,
  0xd6, 0x8b, 0x9a, 0x3e, 0xad, 0x0d, 0x39, 0x3e, 0x47, 0x61, 0xe7, 0x3e,
  0x35, 0x9f, 0xbb, 0xbd, 0x30, 0xe2, 0xbf, 0xbd, 0xed, 0x6a, 0x42, 0xbe,
  0xb7, 0xdc, 0xec, 0x3e, 0x3c, 0x50, 0xf1, 0x3d, 0x35, 0x61, 0x02, 0x3f,
  0x74, 0x42, 0x74, 0xbe, 0xb1, 0x12, 0x81, 0xbd, 0x2a, 0x2b, 0x8e, 0x3d,
  0x39, 0x7f, 0x05, 0x3f, 0xbe, 0x4e, 0x6b, 0xbe, 0xf7, 0xb1, 0xdf, 0x3d,
  0xc7, 0x2a, 0x3d, 0xbe, 0x1e, 0x0d, 0xe3, 0xbe, 0x65, 0xa4, 0x4d, 0x3e,
  0xf3, 0xf1, 0x21, 0x3f, 0x6b, 0xd2, 0xad, 0xbe, 0xca, 0x2b, 0x0d, 0x3f,
  0x62, 0xf7, 0x47, 0xbe, 0x85, 0xa8, 0x67, 0xbe, 0xe2, 0x78, 0x9e, 0x3e,
  0x49, 0xa0, 0x26, 0x3f, 0x5f, 0x6f, 0xaa, 0x3d, 0x86, 0x13, 0xdb, 0x3e,
  0x88, 0x82, 0xa8, 0xbd, 0x47, 0xd8, 0x0d, 0x3d, 0x3a, 0x34, 0xcd, 0x3d,
  0x88, 0x84, 0x50, 0x3f, 0xa9, 0xf8, 0x96, 0xbe, 0xbd, 0x10, 0xab, 0x3e,
  0xcf, 0x8e, 0xea, 0x3d, 0x5a, 0x34, 0xb8, 0xbd, 0x2b, 0x33, 0xe0, 0x3e,
  0x28, 0x73, 0x04, 0x3f, 0x2e, 0x54, 0x9d, 0x3d, 0x32, 0x14, 0x02, 0x3f,
  0xf4, 0xb9, 0x27, 0xbd, 0x24, 0x23, 0x3e, 0x3c, 0xd8, 0x3a, 0x1a, 0x3e,
  0x22, 0x01, 0xfa, 0x3e, 0xcf, 0xe6, 0xa2, 0xbd, 0x2c, 0x75, 0xd3, 0x3e,
  0x29, 0x81, 0xd9, 0x3d, 0x1f, 0x2e, 0x69, 0xbd, 0x20, 0xc6, 0x92, 0x3d,
  0xd8, 0xdb, 0x26, 0x3f, 0x21, 0x55, 0xfa, 0x3c, 0xab, 0x94, 0xec, 0x3e,
  0x26, 0xaf, 0xaa, 0x3d, 0x9a, 0x3d, 0x27, 0xbe, 0x39, 0xf5, 0x70, 0x3e,
  0xc2, 0x18, 0x5c, 0x3e, 0x5b, 0xc1, 0x30, 0xbe, 0x77, 0xe7, 0x0e, 0x3e,
  0x7c, 0x38, 0x27, 0xbe, 0xe4, 0x1a, 0xc5, 0xbb, 0x66, 0xfe, 0xff, 0xff,
  0x04, 0x00, 0x00, 0x00, 0x80, 0x00, 0x00, 0x00, 0x22, 0x85, 0x9f, 0xbc,
  0x2c, 0x52, 0x16, 0x3d, 0xf5, 0x9f, 0x19, 0x3e, 0x37, 0x75, 0x2e, 0xbc,
  0x00, 0x00, 0x00, 0x00, 0x1d, 0xbe, 0x82, 0xbc, 0x51, 0x8b, 0x2b, 0xbd,
  0x00, 0x00, 0x00, 0x00, 0xd7, 0x4c, 0xf5, 0x3d, 0x80, 0xeb, 0x39, 0x3e,
  0x00, 0x00, 0x00, 0x00, 0x48, 0x53, 0x00, 0x3d, 0x44, 0x92, 0x40, 0xbe,
  0xe5, 0xe1, 0xb9, 0xbd, 0xc0, 0x34, 0x3e, 0x3e, 0xc4, 0xe6, 0x8f, 0x3d,
  0xd7, 0x85, 0x45, 0xbd, 0xb8, 0xf6, 0x0a, 0xbc, 0x4b, 0xbb, 0x3e, 0x3d,
  0x68, 0x80, 0xf8, 0xbd, 0x00, 0x00, 0x00, 0x00, 0x00, 0x00, 0x00, 0x00,
  0x10, 0xde, 0x17, 0x3e, 0xe7, 0x07, 0x52, 0x3e, 0xf5, 0xc8, 0x0d, 0x3e,
  0x00, 0x00, 0x00, 0x00, 0x00, 0x00, 0x00, 0x00, 0xe6, 0x56, 0xc8, 0xbd,
  0x62, 0x05, 0x56, 0x3d, 0xc0, 0x1a, 0x5b, 0x3e, 0x00, 0x00, 0x00, 0x00,
  0x11, 0xb6, 0x94, 0x3c, 0xf2, 0xfe, 0xff, 0xff, 0x04, 0x00, 0x00, 0x00,
  0x20, 0x00, 0x00, 0x00, 0x91, 0x89, 0x10, 0x3e, 0xd5, 0x1d, 0xda, 0x3d,
  0x0f, 0xdb, 0x01, 0x3d, 0x2a, 0x93, 0x00, 0xbe, 0xe8, 0x0a, 0x14, 0xbd,
  0xa1, 0x3b, 0xc5, 0xbd, 0x35, 0xec, 0xa2, 0xbd, 0x18, 0x35, 0xf1, 0xbb,
  0x1e, 0xff, 0xff, 0xff, 0x04, 0x00, 0x00, 0x00, 0x40, 0x00, 0x00, 0x00,
  0x99, 0xfa, 0x8f, 0x3e, 0x62, 0x7c, 0x1d, 0x3d, 0x61, 0xcf, 0x9e, 0x3d,
  0xd7, 0xa0, 0xab, 0xbd, 0x58, 0x96, 0x4f, 0xbe, 0x93, 0x73, 0x08, 0x3d,
  0x5f, 0xc5, 0xc5, 0x3d, 0x48, 0x9b, 0xc5, 0x3d, 0x00, 0x00, 0x00, 0x00,
  0x0d, 0xb8, 0x18, 0xbd, 0x38, 0x19, 0x3d, 0x3e, 0x6a, 0xbf, 0x09, 0x3d,
  0x1d, 0xe1, 0xae, 0xbb, 0xff, 0x45, 0x66, 0xbc, 0x4f, 0xca, 0x2c, 0x3e,
  0x3a, 0x57, 0xf1, 0x3d, 0x5c, 0xfa, 0xff, 0xff, 0x60, 0xfa, 0xff, 0xff,
  0x0f, 0x00, 0x00, 0x00, 0x4d, 0x4c, 0x49, 0x52, 0x20, 0x43, 0x6f, 0x6e,
  0x76, 0x65, 0x72, 0x74, 0x65, 0x64, 0x2e, 0x00, 0x01, 0x00, 0x00, 0x00,
  0x14, 0x00, 0x00, 0x00, 0x00, 0x00, 0x0e, 0x00, 0x18, 0x00, 0x14, 0x00,
  0x10, 0x00, 0x0c, 0x00, 0x08, 0x00, 0x04, 0x00, 0x0e, 0x00, 0x00, 0x00,
  0x14, 0x00, 0x00, 0x00, 0x1c, 0x00, 0x00, 0x00, 0x24, 0x01, 0x00, 0x00,
  0x28, 0x01, 0x00, 0x00, 0x2c, 0x01, 0x00, 0x00, 0x04, 0x00, 0x00, 0x00,
  0x6d, 0x61, 0x69, 0x6e, 0x00, 0x00, 0x00, 0x00, 0x04, 0x00, 0x00, 0x00,
  0xcc, 0x00, 0x00, 0x00, 0x84, 0x00, 0x00, 0x00, 0x50, 0x00, 0x00, 0x00,
  0x14, 0x00, 0x00, 0x00, 0x00, 0x00, 0x0e, 0x00, 0x1a, 0x00, 0x14, 0x00,
  0x10, 0x00, 0x0c, 0x00, 0x0b, 0x00, 0x04, 0x00, 0x0e, 0x00, 0x00, 0x00,
  0x1c, 0x00, 0x00, 0x00, 0x00, 0x00, 0x00, 0x09, 0x1c, 0x00, 0x00, 0x00,
  0x20, 0x00, 0x00, 0x00, 0x01, 0x00, 0x00, 0x00, 0x00, 0x00, 0x06, 0x00,
  0x08, 0x00, 0x04, 0x00, 0x06, 0x00, 0x00, 0x00, 0x00, 0x00, 0x80, 0x3f,
  0x01, 0x00, 0x00, 0x00, 0x0a, 0x00, 0x00, 0x00, 0x01, 0x00, 0x00, 0x00,
  0x09, 0x00, 0x00, 0x00, 0x9a, 0xff, 0xff, 0xff, 0x10, 0x00, 0x00, 0x00,
  0x00, 0x00, 0x00, 0x08, 0x0c, 0x00, 0x00, 0x00, 0x10, 0x00, 0x00, 0x00,
  0x24, 0xfb, 0xff, 0xff, 0x01, 0x00, 0x00, 0x00, 0x09, 0x00, 0x00, 0x00,
  0x03, 0x00, 0x00, 0x00, 0x08, 0x00, 0x00, 0x00, 0x06, 0x00, 0x00, 0x00,
  0x02, 0x00, 0x00, 0x00, 0xca, 0xff, 0xff, 0xff, 0x10, 0x00, 0x00, 0x00,
  0x00, 0x00, 0x00, 0x08, 0x10, 0x00, 0x00, 0x00, 0x14, 0x00, 0x00, 0x00,
  0xba, 0xff, 0xff, 0xff, 0x00, 0x00, 0x00, 0x01, 0x01, 0x00, 0x00, 0x00,
  0x08, 0x00, 0x00, 0x00, 0x03, 0x00, 0x00, 0x00, 0x07, 0x00, 0x00, 0x00,
  0x05, 0x00, 0x00, 0x00, 0x01, 0x00, 0x00, 0x00, 0x00, 0x00, 0x0e, 0x00,
  0x16, 0x00, 0x00, 0x00, 0x10, 0x00, 0x0c, 0x00, 0x0b, 0x00, 0x04, 0x00,
  0x0e, 0x00, 0x00, 0x00, 0x18, 0x00, 0x00, 0x00, 0x00, 0x00, 0x00, 0x08,
  0x18, 0x00, 0x00, 0x00, 0x1c, 0x00, 0x00, 0x00, 0x00, 0x00, 0x06, 0x00,
  0x08, 0x00, 0x07, 0x00, 0x06, 0x00, 0x00, 0x00, 0x00, 0x00, 0x00, 0x01,
  0x01, 0x00, 0x00, 0x00, 0x07, 0x00, 0x00, 0x00, 0x03, 0x00, 0x00, 0x00,
  0x00, 0x00, 0x00, 0x00, 0x04, 0x00, 0x00, 0x00, 0x03, 0x00, 0x00, 0x00,
  0x01, 0x00, 0x00, 0x00, 0x0a, 0x00, 0x00, 0x00, 0x01, 0x00, 0x00, 0x00,
  0x00, 0x00, 0x00, 0x00, 0x0b, 0x00, 0x00, 0x00, 0x04, 0x04, 0x00, 0x00,
  0x94, 0x03, 0x00, 0x00, 0x24, 0x03, 0x00, 0x00, 0xd0, 0x02, 0x00, 0x00,
  0x88, 0x02, 0x00, 0x00, 0x3c, 0x02, 0x00, 0x00, 0xf0, 0x01, 0x00, 0x00,
  0x68, 0x01, 0x00, 0x00, 0xd8, 0x00, 0x00, 0x00, 0x60, 0x00, 0x00, 0x00,
  0x04, 0x00, 0x00, 0x00, 0x3e, 0xfc, 0xff, 0xff, 0x00, 0x00, 0x00, 0x01,
  0x14, 0x00, 0x00, 0x00, 0x1c, 0x00, 0x00, 0x00, 0x1c, 0x00, 0x00, 0x00,
  0x0b, 0x00, 0x00, 0x00, 0x34, 0x00, 0x00, 0x00, 0x02, 0x00, 0x00, 0x00,
  0xff, 0xff, 0xff, 0xff, 0x08, 0x00, 0x00, 0x00, 0x28, 0xfc, 0xff, 0xff,
  0x19, 0x00, 0x00, 0x00, 0x53, 0x74, 0x61, 0x74, 0x65, 0x66, 0x75, 0x6c,
  0x50, 0x61, 0x72, 0x74, 0x69, 0x74, 0x69, 0x6f, 0x6e, 0x65, 0x64, 0x43,
  0x61, 0x6c, 0x6c, 0x3a, 0x30, 0x00, 0x00, 0x00, 0x02, 0x00, 0x00, 0x00,
  0x01, 0x00, 0x00, 0x00, 0x08, 0x00, 0x00, 0x00, 0x96, 0xfc, 0xff, 0xff,
  0x00, 0x00, 0x00, 0x01, 0x14, 0x00, 0x00, 0x00, 0x1c, 0x00, 0x00, 0x00,
  0x1c, 0x00, 0x00, 0x00, 0x0a, 0x00, 0x00, 0x00, 0x50, 0x00, 0x00, 0x00,
  0x02, 0x00, 0x00, 0x00, 0xff, 0xff, 0xff, 0xff, 0x08, 0x00, 0x00, 0x00,
  0x80, 0xfc, 0xff, 0xff, 0x34, 0x00, 0x00, 0x00, 0x73, 0x65, 0x71, 0x75,
  0x65, 0x6e, 0x74, 0x69, 0x61, 0x6c, 0x2f, 0x64, 0x65, 0x6e, 0x73, 0x65,
  0x5f, 0x32, 0x2f, 0x4d, 0x61, 0x74, 0x4d, 0x75, 0x6c, 0x3b, 0x73, 0x65,
  0x71, 0x75, 0x65, 0x6e, 0x74, 0x69, 0x61, 0x6c, 0x2f, 0x64, 0x65, 0x6e,
  0x73, 0x65, 0x5f, 0x32, 0x2f, 0x42, 0x69, 0x61, 0x73, 0x41, 0x64, 0x64,
  0x00, 0x00, 0x00, 0x00, 0x02, 0x00, 0x00, 0x00, 0x01, 0x00, 0x00, 0x00,
  0x08, 0x00, 0x00, 0x00, 0x0a, 0xfd, 0xff, 0xff, 0x00, 0x00, 0x00, 0x01,
  0x14, 0x00, 0x00, 0x00, 0x1c, 0x00, 0x00, 0x00, 0x1c, 0x00, 0x00, 0x00,
  0x09, 0x00, 0x00, 0x00, 0x68, 0x00, 0x00, 0x00, 0x02, 0x00, 0x00, 0x00,
  0xff, 0xff, 0xff, 0xff, 0x10, 0x00, 0x00, 0x00, 0xf4, 0xfc, 0xff, 0xff,
  0x4c, 0x00, 0x00, 0x00, 0x73, 0x65, 0x71, 0x75, 0x65, 0x6e, 0x74, 0x69,
  0x61, 0x6c, 0x2f, 0x64, 0x65, 0x6e, 0x73, 0x65, 0x5f, 0x31, 0x2f, 0x4d,
  0x61, 0x74, 0x4d, 0x75, 0x6c, 0x3b, 0x73, 0x65, 0x71, 0x75, 0x65, 0x6e,
  0x74, 0x69, 0x61, 0x6c, 0x2f, 0x64, 0x65, 0x6e, 0x73, 0x65, 0x5f, 0x31,
  0x2f, 0x52, 0x65, 0x6c, 0x75, 0x3b, 0x73, 0x65, 0x71, 0x75, 0x65, 0x6e,
  0x74, 0x69, 0x61, 0x6c, 0x2f, 0x64, 0x65, 0x6e, 0x73, 0x65, 0x5f, 0x31,
  0x2f, 0x42, 0x69, 0x61, 0x73, 0x41, 0x64, 0x64, 0x00, 0x00, 0x00, 0x00,
  0x02, 0x00, 0x00, 0x00, 0x01, 0x00, 0x00, 0x00, 0x10, 0x00, 0x00, 0x00,
  0x96, 0xfd, 0xff, 0xff, 0x00, 0x00, 0x00, 0x01, 0x14, 0x00, 0x00, 0x00,
  0x1c, 0x00, 0x00, 0x00, 0x1c, 0x00, 0x00, 0x00, 0x08, 0x00, 0x00, 0x00,
  0x60, 0x00, 0x00, 0x00, 0x02, 0x00, 0x00, 0x00, 0xff, 0xff, 0xff, 0xff,
  0x20, 0x00, 0x00, 0x00, 0x80, 0xfd, 0xff, 0xff, 0x46, 0x00, 0x00, 0x00,
  0x73, 0x65, 0x71, 0x75, 0x65, 0x6e, 0x74, 0x69, 0x61, 0x6c, 0x2f, 0x64,
  0x65, 0x6e, 0x73, 0x65, 0x2f, 0x4d, 0x61, 0x74, 0x4d, 0x75, 0x6c, 0x3b,
  0x73, 0x65, 0x71, 0x75, 0x65, 0x6e, 0x74, 0x69, 0x61, 0x6c, 0x2f, 0x64,
  0x65, 0x6e, 0x73, 0x65, 0x2f, 0x52, 0x65, 0x6c, 0x75, 0x3b, 0x73, 0x65,
  0x71, 0x75, 0x65, 0x6e, 0x74, 0x69, 0x61, 0x6c, 0x2f, 0x64, 0x65, 0x6e,
  0x73, 0x65, 0x2f, 0x42, 0x69, 0x61, 0x73, 0x41, 0x64, 0x64, 0x00, 0x00,
  0x02, 0x00, 0x00, 0x00, 0x01, 0x00, 0x00, 0x00, 0x20, 0x00, 0x00, 0x00,
  0x86, 0xfe, 0xff, 0xff, 0x00, 0x00, 0x00, 0x01, 0x10, 0x00, 0x00, 0x00,
  0x10, 0x00, 0x00, 0x00, 0x07, 0x00, 0x00, 0x00, 0x28, 0x00, 0x00, 0x00,
  0xf4, 0xfd, 0xff, 0xff, 0x19, 0x00, 0x00, 0x00, 0x73, 0x65, 0x71, 0x75,
  0x65, 0x6e, 0x74, 0x69, 0x61, 0x6c, 0x2f, 0x64, 0x65, 0x6e, 0x73, 0x65,
  0x5f, 0x32, 0x2f, 0x4d, 0x61, 0x74, 0x4d, 0x75, 0x6c, 0x00, 0x00, 0x00,
  0x02, 0x00, 0x00, 0x00, 0x08, 0x00, 0x00, 0x00, 0x10, 0x00, 0x00, 0x00,
  0xce, 0xfe, 0xff, 0xff, 0x00, 0x00, 0x00, 0x01, 0x10, 0x00, 0x00, 0x00,
  0x10, 0x00, 0x00, 0x00, 0x06, 0x00, 0x00, 0x00, 0x28, 0x00, 0x00, 0x00,
  0x3c, 0xfe, 0xff, 0xff, 0x19, 0x00, 0x00, 0x00, 0x73, 0x65, 0x71, 0x75,
  0x65, 0x6e, 0x74, 0x69, 0x61, 0x6c, 0x2f, 0x64, 0x65, 0x6e, 0x73, 0x65,
  0x5f, 0x31, 0x2f, 0x4d, 0x61, 0x74, 0x4d, 0x75, 0x6c, 0x00, 0x00, 0x00,
  0x02, 0x00, 0x00, 0x00, 0x10, 0x00, 0x00, 0x00, 0x20, 0x00, 0x00, 0x00,
  0x16, 0xff, 0xff, 0xff, 0x00, 0x00, 0x00, 0x01, 0x10, 0x00, 0x00, 0x00,
  0x10, 0x00, 0x00, 0x00, 0x05, 0x00, 0x00, 0x00, 0x24, 0x00, 0x00, 0x00,
  0x84, 0xfe, 0xff, 0xff, 0x17, 0x00, 0x00, 0x00, 0x73, 0x65, 0x71, 0x75,
  0x65, 0x6e, 0x74, 0x69, 0x61, 0x6c, 0x2f, 0x64, 0x65, 0x6e, 0x73, 0x65,
  0x2f, 0x4d, 0x61, 0x74, 0x4d, 0x75, 0x6c, 0x00, 0x02, 0x00, 0x00, 0x00,
  0x20, 0x00, 0x00, 0x00, 0x4e, 0x00, 0x00, 0x00, 0x5a, 0xff, 0xff, 0xff,
  0x00, 0x00, 0x00, 0x01, 0x10, 0x00, 0x00, 0x00, 0x10, 0x00, 0x00, 0x00,
  0x04, 0x00, 0x00, 0x00, 0x34, 0x00, 0x00, 0x00, 0xc8, 0xfe, 0xff, 0xff,
  0x27, 0x00, 0x00, 0x00, 0x73, 0x65, 0x71, 0x75, 0x65, 0x6e, 0x74, 0x69,
  0x61, 0x6c, 0x2f, 0x64, 0x65, 0x6e, 0x73, 0x65, 0x2f, 0x42, 0x69, 0x61,
  0x73, 0x41, 0x64, 0x64, 0x2f, 0x52, 0x65, 0x61, 0x64, 0x56, 0x61, 0x72,
  0x69, 0x61, 0x62, 0x6c, 0x65, 0x4f, 0x70, 0x00, 0x01, 0x00, 0x00, 0x00,
  0x20, 0x00, 0x00, 0x00, 0xaa, 0xff, 0xff, 0xff, 0x00, 0x00, 0x00, 0x01,
  0x10, 0x00, 0x00, 0x00, 0x10, 0x00, 0x00, 0x00, 0x03, 0x00, 0x00, 0x00,
  0x38, 0x00, 0x00, 0x00, 0x18, 0xff, 0xff, 0xff, 0x29, 0x00, 0x00, 0x00,
  0x73, 0x65, 0x71, 0x75, 0x65, 0x6e, 0x74, 0x69, 0x61, 0x6c, 0x2f, 0x64,
  0x65, 0x6e, 0x73, 0x65, 0x5f, 0x32, 0x2f, 0x42, 0x69, 0x61, 0x73, 0x41,
  0x64, 0x64, 0x2f, 0x52, 0x65, 0x61, 0x64, 0x56, 0x61, 0x72, 0x69, 0x61,
  0x62, 0x6c, 0x65, 0x4f, 0x70, 0x00, 0x00, 0x00, 0x01, 0x00, 0x00, 0x00,
  0x08, 0x00, 0x00, 0x00, 0x00, 0x00, 0x16, 0x00, 0x18, 0x00, 0x14, 0x00,
  0x00, 0x00, 0x10, 0x00, 0x0c, 0x00, 0x08, 0x00, 0x00, 0x00, 0x00, 0x00,
  0x00, 0x00, 0x07, 0x00, 0x16, 0x00, 0x00, 0x00, 0x00, 0x00, 0x00, 0x01,
  0x10, 0x00, 0x00, 0x00, 0x10, 0x00, 0x00, 0x00, 0x02, 0x00, 0x00, 0x00,
  0x38, 0x00, 0x00, 0x00, 0x84, 0xff, 0xff, 0xff, 0x29, 0x00, 0x00, 0x00,
  0x73, 0x65, 0x71, 0x75, 0x65, 0x6e, 0x74, 0x69, 0x61, 0x6c, 0x2f, 0x64,
  0x65, 0x6e, 0x73, 0x65, 0x5f, 0x31, 0x2f, 0x42, 0x69, 0x61, 0x73, 0x41,
  0x64, 0x64, 0x2f, 0x52, 0x65, 0x61, 0x64, 0x56, 0x61, 0x72, 0x69, 0x61,
  0x62, 0x6c, 0x65, 0x4f, 0x70, 0x00, 0x00, 0x00, 0x01, 0x00, 0x00, 0x00,
  0x10, 0x00, 0x00, 0x00, 0x00, 0x00, 0x16, 0x00, 0x1c, 0x00, 0x18, 0x00,
  0x00, 0x00, 0x14, 0x00, 0x10, 0x00, 0x0c, 0x00, 0x00, 0x00, 0x00, 0x00,
  0x08, 0x00, 0x07, 0x00, 0x16, 0x00, 0x00, 0x00, 0x00, 0x00, 0x00, 0x01,
  0x14, 0x00, 0x00, 0x00, 0x20, 0x00, 0x00, 0x00, 0x20, 0x00, 0x00, 0x00,
  0x01, 0x00, 0x00, 0x00, 0x3c, 0x00, 0x00, 0x00, 0x02, 0x00, 0x00, 0x00,
  0xff, 0xff, 0xff, 0xff, 0x4e, 0x00, 0x00, 0x00, 0x04, 0x00, 0x04, 0x00,
  0x04, 0x00, 0x00, 0x00, 0x1d, 0x00, 0x00, 0x00, 0x73, 0x65, 0x72, 0x76,
  0x69, 0x6e, 0x67, 0x5f, 0x64, 0x65, 0x66, 0x61, 0x75, 0x6c, 0x74, 0x5f,
  0x64, 0x65, 0x6e, 0x73, 0x65, 0x5f, 0x69, 0x6e, 0x70, 0x75, 0x74, 0x3a,
  0x30, 0x00, 0x00, 0x00, 0x02, 0x00, 0x00, 0x00, 0x01, 0x00, 0x00, 0x00,
  0x4e, 0x00, 0x00, 0x00, 0x02, 0x00, 0x00, 0x00, 0x20, 0x00, 0x00, 0x00,
  0x04, 0x00, 0x00, 0x00, 0xf4, 0xff, 0xff, 0xff, 0x19, 0x00, 0x00, 0x00,
  0x00, 0x00, 0x00, 0x19, 0x0c, 0x00, 0x0c, 0x00, 0x0b, 0x00, 0x00, 0x00,
  0x00, 0x00, 0x04, 0x00, 0x0c, 0x00, 0x00, 0x00, 0x09, 0x00, 0x00, 0x00,
  0x00, 0x00, 0x00, 0x09
}; 
