const unsigned char gesture_model [] = {  
  0x1c, 0x00, 0x00, 0x00, 0x54, 0x46, 0x4c, 0x33, 0x14, 0x00, 0x20, 0x00,
  0x1c, 0x00, 0x18, 0x00, 0x14, 0x00, 0x10, 0x00, 0x0c, 0x00, 0x00, 0x00,
  0x08, 0x00, 0x04, 0x00, 0x14, 0x00, 0x00, 0x00, 0x1c, 0x00, 0x00, 0x00,
  0x90, 0x00, 0x00, 0x00, 0xe8, 0x00, 0x00, 0x00, 0xdc, 0x39, 0x00, 0x00,
  0xec, 0x39, 0x00, 0x00, 0xa8, 0x3f, 0x00, 0x00, 0x03, 0x00, 0x00, 0x00,
  0x01, 0x00, 0x00, 0x00, 0x10, 0x00, 0x00, 0x00, 0x00, 0x00, 0x0a, 0x00,
  0x10, 0x00, 0x0c, 0x00, 0x08, 0x00, 0x04, 0x00, 0x0a, 0x00, 0x00, 0x00,
  0x0c, 0x00, 0x00, 0x00, 0x1c, 0x00, 0x00, 0x00, 0x38, 0x00, 0x00, 0x00,
  0x0f, 0x00, 0x00, 0x00, 0x73, 0x65, 0x72, 0x76, 0x69, 0x6e, 0x67, 0x5f,
  0x64, 0x65, 0x66, 0x61, 0x75, 0x6c, 0x74, 0x00, 0x01, 0x00, 0x00, 0x00,
  0x04, 0x00, 0x00, 0x00, 0x98, 0xff, 0xff, 0xff, 0x0a, 0x00, 0x00, 0x00,
  0x04, 0x00, 0x00, 0x00, 0x07, 0x00, 0x00, 0x00, 0x64, 0x65, 0x6e, 0x73,
  0x65, 0x5f, 0x32, 0x00, 0x01, 0x00, 0x00, 0x00, 0x04, 0x00, 0x00, 0x00,
  0x06, 0xc6, 0xff, 0xff, 0x04, 0x00, 0x00, 0x00, 0x0b, 0x00, 0x00, 0x00,
  0x64, 0x65, 0x6e, 0x73, 0x65, 0x5f, 0x69, 0x6e, 0x70, 0x75, 0x74, 0x00,
  0x02, 0x00, 0x00, 0x00, 0x34, 0x00, 0x00, 0x00, 0x04, 0x00, 0x00, 0x00,
  0xdc, 0xff, 0xff, 0xff, 0x0d, 0x00, 0x00, 0x00, 0x04, 0x00, 0x00, 0x00,
  0x13, 0x00, 0x00, 0x00, 0x43, 0x4f, 0x4e, 0x56, 0x45, 0x52, 0x53, 0x49,
  0x4f, 0x4e, 0x5f, 0x4d, 0x45, 0x54, 0x41, 0x44, 0x41, 0x54, 0x41, 0x00,
  0x08, 0x00, 0x0c, 0x00, 0x08, 0x00, 0x04, 0x00, 0x08, 0x00, 0x00, 0x00,
  0x0c, 0x00, 0x00, 0x00, 0x04, 0x00, 0x00, 0x00, 0x13, 0x00, 0x00, 0x00,
  0x6d, 0x69, 0x6e, 0x5f, 0x72, 0x75, 0x6e, 0x74, 0x69, 0x6d, 0x65, 0x5f,
  0x76, 0x65, 0x72, 0x73, 0x69, 0x6f, 0x6e, 0x00, 0x0e, 0x00, 0x00, 0x00,
  0xf0, 0x38, 0x00, 0x00, 0xe8, 0x38, 0x00, 0x00, 0x98, 0x38, 0x00, 0x00,
  0x68, 0x38, 0x00, 0x00, 0xd8, 0x37, 0x00, 0x00, 0xc8, 0x0a, 0x00, 0x00,
  0xb8, 0x02, 0x00, 0x00, 0xa8, 0x00, 0x00, 0x00, 0xa0, 0x00, 0x00, 0x00,
  0x98, 0x00, 0x00, 0x00, 0x90, 0x00, 0x00, 0x00, 0x88, 0x00, 0x00, 0x00,
  0x68, 0x00, 0x00, 0x00, 0x04, 0x00, 0x00, 0x00, 0xb6, 0xc6, 0xff, 0xff,
  0x04, 0x00, 0x00, 0x00, 0x54, 0x00, 0x00, 0x00, 0x0c, 0x00, 0x00, 0x00,
  0x08, 0x00, 0x0e, 0x00, 0x08, 0x00, 0x04, 0x00, 0x08, 0x00, 0x00, 0x00,
  0x10, 0x00, 0x00, 0x00, 0x24, 0x00, 0x00, 0x00, 0x00, 0x00, 0x06, 0x00,
  0x08, 0x00, 0x04, 0x00, 0x06, 0x00, 0x00, 0x00, 0x04, 0x00, 0x00, 0x00,
  0x00, 0x00, 0x00, 0x00, 0x00, 0x00, 0x0a, 0x00, 0x10, 0x00, 0x0c, 0x00,
  0x08, 0x00, 0x04, 0x00, 0x0a, 0x00, 0x00, 0x00, 0x02, 0x00, 0x00, 0x00,
  0x02, 0x00, 0x00, 0x00, 0x04, 0x00, 0x00, 0x00, 0x06, 0x00, 0x00, 0x00,
  0x32, 0x2e, 0x31, 0x30, 0x2e, 0x30, 0x00, 0x00, 0x16, 0xc7, 0xff, 0xff,
  0x04, 0x00, 0x00, 0x00, 0x10, 0x00, 0x00, 0x00, 0x31, 0x2e, 0x35, 0x2e,
  0x30, 0x00, 0x00, 0x00, 0x00, 0x00, 0x00, 0x00, 0x00, 0x00, 0x00, 0x00,
  0x24, 0xc2, 0xff, 0xff, 0x28, 0xc2, 0xff, 0xff, 0x2c, 0xc2, 0xff, 0xff,
  0x30, 0xc2, 0xff, 0xff, 0x42, 0xc7, 0xff, 0xff, 0x04, 0x00, 0x00, 0x00,
  0x00, 0x02, 0x00, 0x00, 0xe4, 0x8b, 0xf7, 0xbe, 0x02, 0x3b, 0x85, 0xbf,
  0x45, 0x98, 0xce, 0xbd, 0xb7, 0x81, 0xa7, 0x3f, 0xd0, 0x27, 0xd4, 0x3d,
  0x1b, 0xdc, 0xd7, 0x3d, 0xfd, 0xa6, 0xc7, 0x3e, 0x55, 0x81, 0x3f, 0xbf,
  0x5f, 0x03, 0x88, 0xbf, 0x35, 0xc1, 0xf4, 0xbe, 0xc3, 0xa3, 0xb2, 0xbe,
  0xed, 0x93, 0x0b, 0x3f, 0xc2, 0x94, 0xc6, 0xbd, 0x05, 0x61, 0xee, 0x3e,
  0x67, 0x20, 0xae, 0xbe, 0x23, 0xa8, 0xa0, 0xbe, 0x70, 0x22, 0xa3, 0xbd,
  0x39, 0x0b, 0x85, 0x3e, 0xbc, 0xa4, 0x9b, 0x3e, 0xf8, 0x03, 0x53, 0xbf,
  0x41, 0x15, 0xad, 0x3c, 0x16, 0x11, 0x26, 0xbf, 0x5b, 0xd3, 0x89, 0xbd,
  0x5c, 0x51, 0x3a, 0xbf, 0x69, 0x85, 0xcb, 0xbf, 0xce, 0x67, 0xd2, 0x3f,
  0xc1, 0x35, 0x65, 0xbe, 0x0c, 0x50, 0x3c, 0xbf, 0x12, 0x72, 0xd9, 0x36,
  0xde, 0xc8, 0xb2, 0x3e, 0xbd, 0x83, 0xc4, 0xbf, 0x3e, 0x64, 0xc9, 0x3e,
  0xf8, 0xf4, 0xec, 0x3e, 0xf5, 0xff, 0x2b, 0x3f, 0x14, 0x0b, 0xc5, 0xbe,
  0x89, 0xbf, 0x89, 0xbf, 0xe8, 0x6f, 0x28, 0xc0, 0x7c, 0x80, 0xf6, 0xbe,
  0xa4, 0x48, 0x29, 0xbd, 0x56, 0xae, 0x8e, 0xbf, 0x34, 0xb9, 0x9e, 0x3e,
  0x0c, 0x04, 0xab, 0x3f, 0x52, 0xe4, 0xf4, 0x3e, 0xa7, 0xe5, 0x0c, 0xc0,
  0x77, 0x9d, 0xf4, 0x3b, 0x8d, 0x62, 0xba, 0xbd, 0x99, 0x7c, 0x0a, 0xbf,
  0x9c, 0x76, 0xa2, 0xbe, 0x2c, 0x5d, 0xa0, 0xbe, 0x48, 0xe1, 0x55, 0xbe,
  0x3f, 0x1f, 0x86, 0xbf, 0x1b, 0x5b, 0x39, 0xbf, 0xb8, 0x80, 0x86, 0xbe,
  0xb3, 0xa6, 0x44, 0x3f, 0xd5, 0xe3, 0xda, 0xbe, 0x19, 0x49, 0x69, 0xbf,
  0xf0, 0x8f, 0xfc, 0xbf, 0xe7, 0xf5, 0x6e, 0xbe, 0x6f, 0xaa, 0xae, 0x3e,
  0x51, 0xe2, 0x16, 0xc0, 0x64, 0xdf, 0x9f, 0x3d, 0x77, 0xc2, 0xe9, 0x3d,
  0x88, 0x86, 0xb0, 0x3e, 0xac, 0x33, 0xd7, 0x3e, 0xd4, 0x7e, 0xa7, 0x3e,
  0xd8, 0x0d, 0x53, 0xbe, 0xa9, 0x6d, 0x0f, 0xc0, 0x09, 0x6c, 0x60, 0x3e,
  0x72, 0x67, 0xcc, 0xbf, 0xb9, 0xa0, 0x17, 0xbf, 0xfa, 0xf9, 0x96, 0xbe,
  0x81, 0x27, 0x81, 0xbf, 0xb6, 0x35, 0x80, 0x3f, 0x7b, 0xca, 0xd3, 0x3c,
  0xab, 0xb1, 0xbe, 0xbe, 0xa7, 0x11, 0xbf, 0xbf, 0x1a, 0x21, 0xa4, 0xbe,
  0x46, 0xd6, 0x9f, 0xbe, 0x8a, 0xc3, 0x37, 0xbf, 0x24, 0x5d, 0x96, 0x3e,
  0xa4, 0x32, 0xa3, 0x3e, 0xd5, 0x6f, 0x74, 0xbf, 0x97, 0xf2, 0x14, 0x3f,
  0x9b, 0x9d, 0x3a, 0x3f, 0x4a, 0x34, 0x41, 0x3f, 0x98, 0x57, 0x79, 0xbf,
  0x7e, 0x02, 0xb8, 0xbd, 0x21, 0xc5, 0x82, 0x3f, 0x69, 0xbf, 0x31, 0xbf,
  0xf2, 0x87, 0x19, 0x3f, 0x61, 0x5f, 0xcc, 0x3d, 0x81, 0xbd, 0x19, 0x3f,
  0xb1, 0x83, 0xd7, 0xbe, 0x1c, 0x71, 0x48, 0xbf, 0xb7, 0x25, 0xcc, 0xbe,
  0x11, 0x75, 0x35, 0xbe, 0x00, 0xc0, 0x64, 0x3b, 0xd5, 0x39, 0x4b, 0xbf,
  0x6f, 0x4d, 0xd1, 0x3e, 0x80, 0xe5, 0xbd, 0x3e, 0xd6, 0x0c, 0x6c, 0xbe,
  0x88, 0x8e, 0xae, 0xbf, 0x67, 0xd5, 0xc4, 0x3e, 0xde, 0xb8, 0x5d, 0x3e,
  0xf0, 0x3c, 0xbd, 0x3e, 0x2a, 0xc1, 0xc6, 0x3e, 0xb3, 0x25, 0x92, 0xbe,
  0x34, 0xd2, 0x43, 0x3e, 0x0e, 0x93, 0xf9, 0xbe, 0x7a, 0x7e, 0xfe, 0xbf,
  0xdd, 0xfd, 0x19, 0x3e, 0x50, 0xb3, 0x26, 0x3e, 0x00, 0x1d, 0xd7, 0xbd,
  0xb3, 0x10, 0x01, 0x3f, 0x59, 0xe9, 0x7d, 0xbe, 0x43, 0xfa, 0xda, 0xbf,
  0xd1, 0x88, 0x20, 0xbf, 0xe6, 0x47, 0x36, 0x3a, 0xcf, 0x96, 0xd9, 0x3e,
  0x9b, 0xc8, 0xca, 0xbf, 0x94, 0xb4, 0x16, 0xbc, 0xa2, 0x21, 0x23, 0xbf,
  0x30, 0x3b, 0x5e, 0xbe, 0x22, 0x6a, 0x80, 0xbe, 0x18, 0xbb, 0xab, 0x3e,
  0x24, 0x91, 0x4b, 0xbe, 0xed, 0x08, 0xcd, 0x3e, 0x58, 0xc4, 0xd5, 0xbe,
  0x4e, 0xc9, 0xff, 0xff, 0x04, 0x00, 0x00, 0x00, 0x00, 0x08, 0x00, 0x00,
  0xea, 0x70, 0x07, 0xbe, 0x46, 0x5e, 0x23, 0xbe, 0xe8, 0xaf, 0x2e, 0xbe,
  0x48, 0x88, 0xaf, 0xbe, 0x5c, 0xc6, 0xf0, 0x3d, 0x75, 0x8b, 0xae, 0x3e,
  0xfc, 0x4e, 0x91, 0xbe, 0xb3, 0xc5, 0xa5, 0x3e, 0x50, 0x8f, 0x44, 0xbd,
  0x47, 0x9e, 0x85, 0x3e, 0x40, 0xe6, 0xa8, 0x3b, 0xec, 0xeb, 0xc6, 0xbd,
  0x62, 0x32, 0x1f, 0x3e, 0xdc, 0x59, 0xa3, 0xbd, 0x58, 0x6d, 0xbb, 0x3d,
  0xb1, 0x62, 0x9c, 0x3e, 0x29, 0xce, 0x8c, 0xbe, 0x6e, 0x52, 0xab, 0xbe,
  0xba, 0x36, 0x75, 0xbe, 0x26, 0x49, 0x6e, 0xbe, 0x69, 0x11, 0x3e, 0xbe,
  0x6c, 0x0e, 0x08, 0xbe, 0x30, 0x7e, 0x57, 0x3d, 0x99, 0xe6, 0x9b, 0xbe,
  0xf4, 0x47, 0x9e, 0xbd, 0x40, 0x55, 0xa4, 0xbe, 0x26, 0xb5, 0x08, 0x3e,
  0x04, 0xd0, 0x8a, 0xbe, 0x6a, 0xc3, 0x11, 0x3e, 0xc8, 0xf0, 0xae, 0x3d,
  0x5a, 0x51, 0xa4, 0xbe, 0x96, 0xbd, 0x24, 0x3e, 0x5d, 0x7a, 0x42, 0x3f,
  0x18, 0x40, 0xa9, 0x3e, 0x89, 0x5b, 0x78, 0x3f, 0x6c, 0x86, 0xde, 0xbd,
  0x3f, 0xd6, 0x26, 0x3e, 0xfc, 0xb2, 0x98, 0xbe, 0xc9, 0x99, 0xf4, 0x3e,
  0x70, 0x9d, 0xa6, 0xbd, 0xee, 0x09, 0xa7, 0xbe, 0xa0, 0x92, 0x52, 0x3d,
  0x25, 0x68, 0x5e, 0xbd, 0xa1, 0x67, 0x3c, 0xbd, 0x89, 0x51, 0xd6, 0x3e,
  0xfc, 0x1a, 0x5a, 0x3f, 0x62, 0x51, 0x00, 0xbf, 0xd4, 0xd1, 0xb2, 0x3e,
  0x2c, 0x55, 0x83, 0xbe, 0x44, 0xfd, 0x39, 0x3c, 0x6a, 0x0f, 0x4d, 0x3e,
  0xff, 0xa3, 0x95, 0x3e, 0x53, 0xe3, 0xf2, 0xbe, 0x29, 0x3b, 0x56, 0x3e,
  0xcc, 0x15, 0xbd, 0xbd, 0x3d, 0x5c, 0xdd, 0x3e, 0x88, 0xd8, 0x59, 0x3d,
  0x8e, 0x29, 0x07, 0x3f, 0x93, 0x96, 0x93, 0x3e, 0x6f, 0xd4, 0x1b, 0xbe,
  0xea, 0xd9, 0xca, 0xbd, 0xc5, 0xcb, 0x0c, 0x3d, 0xbe, 0x35, 0x3d, 0xbe,
  0x17, 0x68, 0x94, 0xbe, 0xdf, 0xe4, 0xb8, 0x3e, 0xd0, 0xf9, 0x22, 0x3f,
  0x61, 0xcb, 0x97, 0xbe, 0xa9, 0x6c, 0x02, 0x3d, 0x80, 0x76, 0xba, 0xbe,
  0x07, 0xaa, 0xb5, 0x3e, 0xc4, 0xd0, 0x52, 0x3e, 0x6c, 0xfd, 0x4e, 0x3e,
  0xe4, 0xc2, 0xd7, 0x3d, 0x5b, 0x68, 0x9b, 0x3e, 0x7d, 0xd4, 0x4c, 0x3f,
  0x57, 0x6e, 0xa8, 0x3e, 0x14, 0x73, 0xfd, 0xbe, 0xfe, 0x4a, 0x44, 0xbf,
  0x01, 0x60, 0x41, 0x3e, 0x3d, 0x51, 0xf1, 0xbd, 0xb1, 0x3a, 0x31, 0x3c,
  0x4a, 0x4a, 0xf6, 0x3d, 0xd3, 0x66, 0x94, 0xbe, 0x18, 0x28, 0x87, 0xbe,
  0x6d, 0x8d, 0x4b, 0x3e, 0x88, 0x71, 0xcc, 0x3e, 0xf0, 0xd2, 0x80, 0xbc,
  0x6c, 0xd9, 0x5a, 0xbf, 0x2b, 0x06, 0x52, 0xbe, 0x93, 0x87, 0x6e, 0xbf,
  0x14, 0x91, 0xcf, 0xbd, 0xfb, 0xa8, 0xaa, 0x3e, 0x85, 0x51, 0x4d, 0x3d,
  0x2c, 0x7b, 0x11, 0x3f, 0x52, 0x85, 0x98, 0xbe, 0xb7, 0x29, 0x12, 0x3e,
  0x50, 0x78, 0xa9, 0x3d, 0xc8, 0xc6, 0x59, 0x3f, 0x35, 0xd5, 0xff, 0x3e,
  0x32, 0x5c, 0xfa, 0x3d, 0xf2, 0x48, 0x40, 0x3f, 0x8c, 0x40, 0x59, 0xbf,
  0x56, 0x9d, 0xd1, 0xbe, 0x57, 0xed, 0x66, 0x3e, 0x78, 0x1c, 0x66, 0xbe,
  0xd6, 0x95, 0x4f, 0x3e, 0x72, 0x7c, 0x6c, 0xbe, 0xd6, 0x98, 0x1a, 0x3d,
  0x4c, 0xec, 0xeb, 0x3e, 0xe5, 0x6a, 0x98, 0x3e, 0xec, 0xe1, 0x08, 0xbd,
  0xc4, 0x2c, 0x40, 0x3e, 0x19, 0x24, 0x85, 0xb9, 0x02, 0xb5, 0xcc, 0x3d,
  0x30, 0xad, 0xfd, 0x3c, 0xd8, 0xdf, 0x9d, 0x3d, 0xfe, 0xf0, 0x27, 0xbe,
  0xfd, 0xb1, 0x94, 0x3d, 0xfc, 0xde, 0x86, 0xbe, 0xf7, 0xec, 0x58, 0x3e,
  0x44, 0x1e, 0xac, 0xbe, 0x0b, 0x24, 0xef, 0x3d, 0x75, 0xdd, 0x9c, 0x3e,
  0xb5, 0x79, 0xa6, 0xbf, 0xae, 0x81, 0x24, 0xbd, 0x0a, 0x83, 0xf8, 0xbd,
  0x0d, 0x28, 0xad, 0x3e, 0xef, 0xee, 0x4d, 0x3f, 0xde, 0xd1, 0x3b, 0x3e,
  0xda, 0x2e, 0x03, 0xbf, 0x4c, 0x91, 0x0d, 0xbf, 0x5b, 0x6c, 0x91, 0x3e,
  0x22, 0x06, 0x12, 0xbe, 0xbf, 0xd5, 0x05, 0x3f, 0xcc, 0x2e, 0xd9, 0xbe,
  0x50, 0xb0, 0x82, 0xbe, 0xc6, 0xe5, 0xe2, 0xbd, 0x56, 0x02, 0x88, 0xbe,
  0xa8, 0xd0, 0x23, 0x3f, 0x56, 0x71, 0x07, 0x3e, 0xc9, 0xad, 0x24, 0xbf,
  0xc8, 0x4b, 0x60, 0xbf, 0x09, 0xaa, 0x23, 0x3e, 0xd3, 0xb9, 0x40, 0xbe,
  0x3c, 0x39, 0x7f, 0x3e, 0xc2, 0x92, 0x26, 0xbe, 0x9a, 0x0b, 0x63, 0xbe,
  0x32, 0x2d, 0x0e, 0xbe, 0xbb, 0x0d, 0x96, 0x3e, 0x0e, 0x07, 0xc0, 0x3e,
  0xec, 0x72, 0xe5, 0x3d, 0x3f, 0x46, 0x10, 0xbf, 0xd2, 0xff, 0x13, 0x3e,
  0xe1, 0x64, 0xc5, 0xbe, 0x30, 0xd8, 0x72, 0xbe, 0x34, 0x02, 0xcb, 0x3e,
  0x0b, 0xae, 0x90, 0x3e, 0x59, 0xa7, 0x82, 0xbe, 0x1e, 0x7e, 0xab, 0xbe,
  0x7c, 0x36, 0xb3, 0x3e, 0xa3, 0x20, 0xfe, 0xbe, 0xc5, 0xb4, 0x34, 0xbf,
  0x9a, 0x1a, 0x92, 0x3e, 0x40, 0x02, 0xa9, 0xbe, 0x5b, 0x9f, 0x73, 0x3e,
  0xc0, 0xdf, 0x3d, 0x3e, 0xd9, 0xe1, 0xe0, 0xbe, 0xc3, 0x5c, 0x7b, 0x3e,
  0x7e, 0x72, 0x3f, 0x3e, 0x8a, 0x5f, 0x1d, 0xbe, 0xa7, 0xfc, 0xa2, 0xbe,
  0x3a, 0xd4, 0x9d, 0xbe, 0x0a, 0xe5, 0x31, 0x3f, 0x80, 0xa2, 0x36, 0x3e,
  0x88, 0xa1, 0xe4, 0x3e, 0x22, 0xc5, 0x55, 0xbe, 0x7e, 0x70, 0xac, 0x3e,
  0x1b, 0x1a, 0xa1, 0xbe, 0x00, 0x91, 0xb2, 0x3b, 0xd7, 0xdf, 0x90, 0x3e,
  0xc2, 0x27, 0x97, 0x3e, 0x1d, 0xa5, 0xa6, 0x3e, 0x40, 0x6f, 0xd3, 0xbc,
  0xec, 0x8f, 0x5d, 0x3f, 0xbc, 0xb6, 0x84, 0xbe, 0x44, 0x54, 0x16, 0x3f,
  0x46, 0xb5, 0x7f, 0x3e, 0x5d, 0xd3, 0x03, 0x3e, 0x08, 0xaa, 0xae, 0xbc,
  0x3e, 0xa9, 0x7e, 0xbf, 0x90, 0x88, 0x02, 0xbe, 0x77, 0xf2, 0x10, 0xbf,
  0x31, 0x81, 0x4e, 0xbe, 0xb6, 0xf7, 0x50, 0xbd, 0x06, 0xc3, 0x66, 0x3d,
  0xe4, 0x70, 0xfd, 0xbd, 0x61, 0x0d, 0xf9, 0xbd, 0x30, 0x7a, 0x9f, 0xbe,
  0xdc, 0x6c, 0x2f, 0x3e, 0xd5, 0xd6, 0x4b, 0xbd, 0xee, 0x2e, 0x79, 0x3e,
  0x47, 0x3d, 0xa8, 0x3e, 0xb7, 0xcb, 0x6b, 0x3e, 0x3a, 0x38, 0x62, 0xbe,
  0x06, 0x0d, 0x8f, 0xbd, 0x1f, 0xcb, 0xe9, 0x3d, 0x90, 0x8c, 0x27, 0xbe,
  0x44, 0x3b, 0xf5, 0x3d, 0x6d, 0x30, 0x93, 0x3e, 0x36, 0x10, 0x6a, 0x3e,
  0xa0, 0x40, 0x28, 0xbd, 0xa8, 0x60, 0xa0, 0x3d, 0xd3, 0x2e, 0xc2, 0xbe,
  0x7a, 0xb9, 0xa9, 0xbe, 0x68, 0x5b, 0x11, 0xbe, 0xe4, 0x98, 0x5c, 0x3e,
  0xd3, 0x9f, 0x10, 0xbe, 0x78, 0x3b, 0x57, 0xbd, 0x87, 0x21, 0x81, 0xbe,
  0x4c, 0xbc, 0x96, 0xbe, 0x20, 0xcd, 0x18, 0x3c, 0x44, 0x17, 0x4a, 0x3e,
  0x34, 0x83, 0xba, 0xbd, 0x6f, 0x55, 0x4f, 0xba, 0x9f, 0x56, 0x65, 0xbd,
  0x56, 0x9f, 0x1a, 0x3f, 0x74, 0xd5, 0xa4, 0xbd, 0x1d, 0x03, 0x93, 0x3e,
  0x8a, 0x4c, 0x83, 0x3e, 0x02, 0xeb, 0xc6, 0x3e, 0x43, 0x7d, 0xa4, 0xbe,
  0xc4, 0x9d, 0xd4, 0x3d, 0x5e, 0xec, 0x04, 0x3e, 0x08, 0x92, 0x08, 0xbe,
  0x71, 0x7b, 0x80, 0x3e, 0xa1, 0x6d, 0xb2, 0x3e, 0x59, 0xc6, 0xef, 0xbd,
  0xc6, 0x78, 0xd8, 0xbe, 0xce, 0xc1, 0xab, 0x3e, 0xee, 0x6b, 0x3b, 0x3e,
  0xec, 0x90, 0xff, 0x3d, 0x8e, 0x5a, 0x73, 0x3e, 0x29, 0xc2, 0x9d, 0xbe,
  0x77, 0xbf, 0x9f, 0xbe, 0x5f, 0xb2, 0xb4, 0x3e, 0x73, 0xe2, 0x0b, 0xbe,
  0x45, 0x73, 0xa4, 0x3e, 0x3d, 0x01, 0x07, 0xbf, 0x5d, 0xc3, 0x6b, 0xbe,
  0xe6, 0x50, 0x18, 0xbf, 0x33, 0x33, 0x8b, 0x3e, 0xf9, 0xc8, 0x20, 0xbf,
  0x00, 0x5f, 0x8d, 0x3d, 0x09, 0xbe, 0x83, 0x3e, 0xd9, 0xf0, 0x2a, 0xbe,
  0x69, 0xfd, 0x2e, 0x3e, 0xc5, 0xcf, 0xec, 0x3e, 0x7e, 0xca, 0x84, 0x3f,
  0xc4, 0x1c, 0x27, 0x3f, 0x5c, 0x89, 0x16, 0xbe, 0x16, 0xab, 0x99, 0x3c,
  0x68, 0x48, 0x1c, 0xbe, 0x6d, 0xc4, 0x87, 0x3f, 0xcf, 0x83, 0x2c, 0xbe,
  0x96, 0xb3, 0x62, 0x3e, 0x72, 0x02, 0xaa, 0xbe, 0x9f, 0xb1, 0x8b, 0xbe,
  0xf7, 0x1d, 0xaa, 0xbd, 0x0b, 0x5f, 0xc6, 0x3e, 0x8a, 0x55, 0x4e, 0x3f,
  0x21, 0x40, 0xe7, 0xbe, 0x8a, 0xb8, 0xa6, 0xbe, 0x72, 0xdd, 0x20, 0x3d,
  0xf1, 0x43, 0x10, 0xbe, 0xc0, 0x80, 0xa6, 0xbc, 0x6e, 0x85, 0x2e, 0x3e,
  0xd7, 0x86, 0xb6, 0x3e, 0x66, 0x36, 0xaa, 0xbe, 0x50, 0x09, 0x72, 0xbe,
  0x07, 0x01, 0xa3, 0x3e, 0x60, 0x7e, 0x24, 0x3c, 0x4c, 0x5a, 0x2e, 0x3e,
  0x07, 0x8c, 0x85, 0x3e, 0xbd, 0x84, 0x1b, 0xbe, 0x7f, 0x51, 0x0b, 0x3e,
  0x19, 0x77, 0xa5, 0x3f, 0x82, 0x4a, 0xad, 0xbe, 0x55, 0xed, 0x89, 0x3f,
  0x4b, 0xe1, 0xd2, 0x3e, 0x5c, 0x7b, 0x18, 0xbf, 0x6e, 0xbc, 0xe7, 0x3b,
  0xc6, 0x38, 0xb2, 0x3e, 0x5b, 0x7b, 0xf9, 0x3e, 0x7c, 0x45, 0xf2, 0xbd,
  0x35, 0xff, 0x0e, 0x3f, 0x66, 0x57, 0x21, 0xbd, 0x42, 0x72, 0x19, 0x3e,
  0xe7, 0x56, 0x29, 0xbe, 0x59, 0xd9, 0x1c, 0x3f, 0xc2, 0xa0, 0x47, 0xbe,
  0x51, 0x3d, 0x5b, 0xbe, 0x1d, 0x32, 0x31, 0x3d, 0x9c, 0x27, 0x44, 0xbf,
  0xeb, 0x29, 0xcf, 0xbb, 0xc4, 0xf9, 0x3a, 0x3e, 0x46, 0xc7, 0x3c, 0x3e,
  0xfd, 0xdf, 0xa0, 0x3e, 0x06, 0xf1, 0xee, 0xbd, 0x5b, 0x12, 0xb3, 0xbf,
  0xfc, 0x1b, 0xe8, 0x3d, 0xc2, 0x17, 0x67, 0x3e, 0xe8, 0x5e, 0xe6, 0x3d,
  0x72, 0xc8, 0x3d, 0x3e, 0xd8, 0x26, 0x95, 0xbe, 0x8e, 0x7b, 0x4f, 0x3e,
  0x5c, 0x2a, 0x53, 0x3f, 0x80, 0xa8, 0x9c, 0x3e, 0xd1, 0xdf, 0x81, 0x3e,
  0x73, 0x65, 0xaa, 0x3e, 0x48, 0x29, 0x46, 0xbf, 0x29, 0x04, 0xd3, 0x3d,
  0xb0, 0xc7, 0x51, 0xbd, 0x8f, 0x44, 0x1e, 0xbd, 0x70, 0x51, 0x12, 0x3e,
  0xc6, 0x24, 0xe5, 0x3d, 0x0a, 0x8b, 0x70, 0x3e, 0x59, 0x21, 0x99, 0xbe,
  0x79, 0x45, 0x91, 0xbe, 0xd4, 0x4f, 0xc3, 0xbd, 0x26, 0x24, 0xa7, 0xbe,
  0xcf, 0x1e, 0x9c, 0x3e, 0xc2, 0x85, 0x31, 0x3e, 0xc1, 0xe4, 0xc0, 0xbd,
  0xda, 0xaf, 0x17, 0x3e, 0x97, 0xba, 0xbf, 0xbd, 0x40, 0xaf, 0x6f, 0xbc,
  0xca, 0x3f, 0x3a, 0xbe, 0x17, 0xc7, 0xa5, 0xbe, 0x61, 0xd2, 0x47, 0xbe,
  0xd0, 0x21, 0x7c, 0xbe, 0xf8, 0x62, 0x23, 0xbe, 0xf5, 0xe6, 0x2d, 0xbe,
  0xc9, 0x2b, 0xac, 0x3e, 0x2c, 0x98, 0xf4, 0x3d, 0x00, 0xde, 0x56, 0x3d,
  0x9e, 0x60, 0x98, 0xbe, 0x4c, 0x70, 0x6c, 0xbe, 0xdd, 0x05, 0xa7, 0xbe,
  0xd6, 0xd3, 0x08, 0xbe, 0x01, 0x6c, 0xe7, 0x3d, 0xf0, 0xec, 0x06, 0xbd,
  0xe0, 0xa6, 0x5d, 0xbe, 0xda, 0x1e, 0x38, 0x3e, 0x36, 0x95, 0x09, 0x3f,
  0x98, 0xbe, 0x96, 0xbe, 0x2e, 0x63, 0xa5, 0x3b, 0x22, 0xda, 0x3b, 0x3e,
  0x26, 0x9f, 0xaa, 0x3e, 0xe3, 0xa3, 0x40, 0xbf, 0x9b, 0xd9, 0x7e, 0xbe,
  0x74, 0x81, 0xcd, 0xbd, 0xc8, 0x6c, 0x68, 0xbe, 0x4b, 0x70, 0xf7, 0x3e,
  0x38, 0x9f, 0x0b, 0x3e, 0x20, 0xc0, 0x35, 0x3e, 0x04, 0xd7, 0x32, 0xbf,
  0x66, 0x26, 0x1b, 0x3f, 0xb6, 0x60, 0x71, 0x3e, 0xda, 0xa3, 0x5b, 0x3e,
  0xdf, 0x4c, 0x1f, 0xbe, 0xea, 0x37, 0x61, 0x3e, 0x90, 0x7b, 0x2b, 0x3d,
  0x7f, 0x92, 0x18, 0x3e, 0x41, 0xb1, 0x7b, 0x3d, 0xc0, 0x13, 0x29, 0xbe,
  0x7a, 0xe0, 0x0c, 0xbf, 0x5f, 0x11, 0xae, 0x3e, 0xe7, 0xb5, 0x80, 0xbe,
  0x11, 0x40, 0x8c, 0x3e, 0x9a, 0x3e, 0xda, 0xbe, 0xa0, 0xdb, 0x88, 0xbe,
  0x03, 0x2d, 0x8c, 0x3e, 0xff, 0xdd, 0x94, 0x3e, 0x71, 0x48, 0xfe, 0x3d,
  0x97, 0xde, 0x11, 0xbe, 0x70, 0xa7, 0x03, 0x3e, 0xd3, 0x14, 0x31, 0xbd,
  0x04, 0x31, 0xf7, 0x3d, 0xec, 0x98, 0xc5, 0xbd, 0xf2, 0x53, 0x95, 0x3d,
  0xe1, 0x3a, 0x3d, 0x3d, 0xba, 0xe5, 0x38, 0x3e, 0xfb, 0xd9, 0xa3, 0x3e,
  0x20, 0x25, 0xab, 0xbd, 0x5e, 0xc7, 0xa6, 0xbc, 0x61, 0x50, 0x8a, 0x3e,
  0xb0, 0x98, 0xc7, 0xbd, 0xaf, 0x4f, 0x69, 0xbc, 0x7b, 0xf8, 0x62, 0xbe,
  0x00, 0x3f, 0x6a, 0x3b, 0x94, 0x38, 0x72, 0xbe, 0x1b, 0x63, 0xa6, 0xbe,
  0x48, 0x6a, 0x78, 0xbd, 0x18, 0x59, 0x62, 0xbd, 0x5e, 0x18, 0x4f, 0xbe,
  0xa1, 0x9c, 0x2c, 0x3d, 0xe8, 0x5b, 0x69, 0x3d, 0xaf, 0x6e, 0xe5, 0xbc,
  0x10, 0x4e, 0x21, 0xbd, 0xb3, 0x35, 0xdb, 0xbd, 0xc0, 0xa4, 0x59, 0x3d,
  0x37, 0xa3, 0x95, 0x3d, 0x57, 0x32, 0x63, 0xbe, 0x79, 0xb4, 0x73, 0xbe,
  0x3e, 0x41, 0x40, 0x3e, 0xdb, 0xd2, 0x23, 0xbe, 0xe7, 0x1d, 0x0e, 0x3e,
  0x84, 0xe0, 0x9d, 0x3d, 0xa9, 0x58, 0xd8, 0x3e, 0x20, 0x91, 0x2e, 0xbc,
  0x0b, 0x1a, 0x2c, 0x3f, 0x38, 0xf1, 0x2e, 0xbe, 0xe3, 0xfe, 0x0c, 0xbf,
  0x59, 0x11, 0x13, 0xbe, 0xab, 0x87, 0xb2, 0x3e, 0xae, 0x79, 0x59, 0x3e,
  0x07, 0xa2, 0x05, 0x3f, 0x98, 0xec, 0x60, 0xbd, 0x25, 0x67, 0x03, 0x3f,
  0x2f, 0x95, 0x21, 0xbe, 0x8e, 0x6d, 0x6e, 0x3e, 0xea, 0x04, 0x8b, 0xbe,
  0x8b, 0x4e, 0xb3, 0xbe, 0x84, 0x7e, 0xcc, 0x3d, 0x80, 0x91, 0x48, 0xbd,
  0x40, 0x43, 0x4a, 0xbc, 0xca, 0x6d, 0x90, 0xbe, 0xb1, 0x28, 0xc1, 0x3e,
  0xa8, 0xb6, 0x64, 0x3d, 0x07, 0x66, 0x02, 0x3f, 0xb5, 0xfd, 0x61, 0xbe,
  0xaa, 0x75, 0x4a, 0x3e, 0xcf, 0x69, 0x90, 0x3e, 0x71, 0xd1, 0x41, 0x3d,
  0xc0, 0x0a, 0xed, 0x3d, 0x2e, 0x18, 0x76, 0xbe, 0x29, 0x44, 0x9d, 0x3e,
  0x65, 0x85, 0x3c, 0xbf, 0xcc, 0x30, 0xb7, 0xbe, 0x1b, 0xc4, 0xf5, 0xbd,
  0x8f, 0x88, 0xef, 0x3e, 0xbf, 0x2a, 0x58, 0xbe, 0x2f, 0x26, 0xe2, 0x3d,
  0x1c, 0xf7, 0x11, 0x3f, 0x7f, 0x97, 0xdb, 0x3e, 0x28, 0x44, 0xb7, 0xbe,
  0x20, 0x32, 0xf7, 0x3d, 0xa4, 0x76, 0xd3, 0x3d, 0xbf, 0x4d, 0xd3, 0xbe,
  0x08, 0xe7, 0xab, 0x3d, 0x74, 0xf0, 0x4a, 0x3d, 0xab, 0x5e, 0x8e, 0x3f,
  0xca, 0x52, 0xf6, 0x3e, 0x22, 0x8f, 0x81, 0x3e, 0xfd, 0x81, 0x7e, 0x3e,
  0xe0, 0x57, 0x4b, 0xbe, 0xf0, 0x5a, 0x08, 0xbd, 0xc3, 0x94, 0x8e, 0x3e,
  0x38, 0x3e, 0x6c, 0x3f, 0x8a, 0x5e, 0xe6, 0x3e, 0xbf, 0x4e, 0x15, 0xbe,
  0xa4, 0x52, 0x16, 0x3f, 0x12, 0xcf, 0x41, 0x3e, 0x04, 0xeb, 0x20, 0x3f,
  0xe3, 0x6e, 0x80, 0x3e, 0xbc, 0xd5, 0xf2, 0xbe, 0xcd, 0x09, 0x9c, 0x3e,
  0x2c, 0x9c, 0x94, 0x3e, 0x68, 0x80, 0xa4, 0xbd, 0x0b, 0x2c, 0x0c, 0x3f,
  0xb8, 0x46, 0x82, 0x3a, 0x09, 0xf6, 0x43, 0x3e, 0x33, 0xb4, 0xe4, 0x3d,
  0xec, 0xe1, 0x83, 0x3d, 0x75, 0x6b, 0xed, 0xbd, 0xf4, 0xae, 0x23, 0x3d,
  0x19, 0xf0, 0x4d, 0xbe, 0xa6, 0x74, 0x5f, 0xbe, 0xcc, 0x58, 0xcd, 0xbd,
  0x20, 0xf1, 0x5a, 0xbc, 0x7b, 0xcb, 0x95, 0x3c, 0x56, 0x27, 0x17, 0x3e,
  0x5e, 0x6f, 0x54, 0x3d, 0x0c, 0x6f, 0xfb, 0xbd, 0x07, 0xbf, 0xd6, 0xbd,
  0xc0, 0xf6, 0x56, 0xbd, 0x40, 0xde, 0x8d, 0xbc, 0x00, 0xbf, 0xf4, 0xba,
  0x3e, 0xea, 0x76, 0x3e, 0x00, 0xe6, 0xa8, 0xbe, 0x82, 0x97, 0x47, 0x3e,
  0x7b, 0xba, 0x47, 0xbe, 0x60, 0x65, 0xc7, 0xbd, 0x15, 0x9b, 0xbf, 0xbe,
  0x20, 0xe7, 0x88, 0xbd, 0x5a, 0x79, 0x9c, 0x3e, 0x7a, 0x8a, 0x7d, 0xbe,
  0x02, 0x96, 0x02, 0x3e, 0xad, 0x64, 0xa2, 0xbe, 0x2a, 0xe3, 0x11, 0xbe,
  0x87, 0x7b, 0x62, 0xbe, 0x02, 0xed, 0xa5, 0xbe, 0x5a, 0xd1, 0xff, 0xff,
  0x04, 0x00, 0x00, 0x00, 0x00, 0x2d, 0x00, 0x00, 0x77, 0x7a, 0xea, 0xbe,
  0x70, 0x06, 0x40, 0xbe, 0xc3, 0xe4, 0x11, 0xbf, 0x3f, 0x5d, 0xf5, 0x3d,
  0xc8, 0xa6, 0x62, 0xbe, 0x9b, 0xeb, 0x10, 0x3f, 0x10, 0xab, 0xe8, 0xbe,
  0x89, 0x6b, 0x80, 0xbe, 0xd4, 0x0c, 0xe2, 0xbe, 0xee, 0xc3, 0xd6, 0x3d,
  0xba, 0x6d, 0xa2, 0xbd, 0x55, 0x4d, 0x3b, 0x3f, 0x69, 0x86, 0xdc, 0xbe,
  0xa2, 0xdb, 0xb4, 0xbe, 0x9b, 0xcd, 0xdd, 0xbe, 0xd1, 0x2b, 0x76, 0xbd,
  0x76, 0x34, 0x43, 0xbe, 0x98, 0x56, 0x0f, 0x3f, 0x6d, 0x00, 0x50, 0xbd,
  0x26, 0x43, 0x3e, 0xbe, 0x4c, 0x75, 0xac, 0xbe, 0x3b, 0xd5, 0xc0, 0x3d,
  0xa2, 0x09, 0x11, 0x3e, 0x18, 0xa0, 0xb2, 0x3e, 0x1f, 0x35, 0x3e, 0xbd,
  0x64, 0xe4, 0x22, 0x3e, 0x84, 0xee, 0x25, 0xbf, 0x8c, 0x89, 0x34, 0x3d,
  0x05, 0xa5, 0x5f, 0x3e, 0xaf, 0x12, 0x4e, 0x3e, 0x98, 0xb3, 0x3e, 0x3d,
  0x78, 0xae, 0xd0, 0x3d, 0x25, 0xd4, 0x6b, 0xbe, 0x31, 0xa7, 0x8a, 0xbd,
  0xcd, 0x15, 0x72, 0x3e, 0x09, 0x8a, 0x6d, 0xbc, 0x0d, 0xec, 0x46, 0xbe,
  0x95, 0x03, 0xfd, 0x3d, 0xb5, 0x63, 0x8c, 0xbe, 0xfa, 0xd2, 0xb2, 0x3e,
  0x66, 0x72, 0x54, 0x3e, 0xfd, 0xd4, 0x12, 0x3e, 0x9f, 0x1a, 0x22, 0x3e,
  0x15, 0x1c, 0x9d, 0x3e, 0x80, 0xfe, 0x72, 0xbe, 0x4b, 0xf1, 0xb0, 0x3e,
  0x99, 0x6f, 0xbe, 0x3e, 0xba, 0xf1, 0x9c, 0xbd, 0xf5, 0x38, 0x8d, 0x3d,
  0xe0, 0x37, 0x40, 0x3e, 0xf4, 0x72, 0x4c, 0xbe, 0xcf, 0x51, 0xa7, 0x3d,
  0x39, 0x75, 0x89, 0xbd, 0x41, 0xb2, 0xd1, 0xbd, 0xa0, 0xbb, 0x9a, 0x3e,
  0x07, 0xf1, 0xf9, 0x3d, 0x0d, 0xd7, 0x76, 0x3e, 0x14, 0x1b, 0x8d, 0x3d,
  0xe0, 0xea, 0x99, 0x3e, 0x62, 0x9e, 0x06, 0x3c, 0x7e, 0x1b, 0xbd, 0x3c,
  0x4a, 0xb5, 0xd4, 0x3d, 0xec, 0x27, 0x19, 0x3d, 0xba, 0x3d, 0x33, 0x3e,
  0x06, 0xcc, 0x36, 0x3e, 0x7e, 0x74, 0x83, 0x3e, 0x98, 0x42, 0x3a, 0x3d,
  0x9a, 0x98, 0x5c, 0x3d, 0xcb, 0x1f, 0xe5, 0xbc, 0x18, 0xb4, 0x6e, 0x3e,
  0xe9, 0xe5, 0x47, 0xbe, 0x73, 0xc4, 0xa0, 0x3c, 0x7c, 0x14, 0xa6, 0x3d,
  0xdc, 0xfa, 0xc1, 0xbd, 0xaa, 0x78, 0xd4, 0x3d, 0x73, 0xce, 0x56, 0x3e,
  0xcd, 0xf6, 0x07, 0xb9, 0x7c, 0xca, 0x1f, 0xbd, 0x19, 0xc2, 0x24, 0xbe,
  0x16, 0x58, 0x13, 0xbd, 0x6f, 0x80, 0xaf, 0x3e, 0x06, 0x35, 0x4e, 0xbc,
  0x14, 0xe8, 0xdc, 0x3d, 0xbc, 0x5e, 0x87, 0xbd, 0x9c, 0x1d, 0x33, 0xbd,
  0x19, 0x37, 0xc2, 0xbe, 0xd8, 0x5b, 0x84, 0x3e, 0xf5, 0xef, 0x06, 0x3e,
  0x45, 0xed, 0x44, 0xbe, 0x48, 0x9c, 0xe3, 0x3d, 0x2c, 0xb3, 0x3c, 0xbe,
  0x81, 0x40, 0xe0, 0xbe, 0x9d, 0x08, 0xb9, 0xbe, 0x92, 0xb6, 0x0b, 0x3e,
  0x6d, 0xdf, 0x99, 0xbd, 0x44, 0xb6, 0x69, 0x3f, 0x39, 0x51, 0xb3, 0xbe,
  0x83, 0xb1, 0x1c, 0xbf, 0xd4, 0x0b, 0x86, 0xbc, 0x70, 0x90, 0xaf, 0xbe,
  0x98, 0x0b, 0x87, 0xbc, 0x1d, 0x8d, 0x1d, 0x3f, 0x09, 0xae, 0xa0, 0xbe,
  0x0a, 0x23, 0x54, 0xbf, 0x37, 0x67, 0x4d, 0xbe, 0xe5, 0xda, 0xad, 0xbe,
  0x99, 0x53, 0x24, 0x3e, 0x03, 0xb5, 0x32, 0x3f, 0x21, 0x0b, 0x74, 0xbe,
  0xff, 0xa7, 0xd4, 0xbe, 0x5f, 0x5f, 0x99, 0xbe, 0x06, 0x57, 0xe5, 0xbe,
  0x3c, 0xd8, 0x29, 0x3d, 0x20, 0xf3, 0x39, 0x3f, 0x2d, 0xb5, 0x10, 0xbe,
  0x19, 0xac, 0xde, 0xbe, 0xae, 0xcf, 0xb0, 0xbe, 0xa4, 0xff, 0xb8, 0xbd,
  0xd4, 0xc7, 0x23, 0x3e, 0xec, 0x62, 0xec, 0x3e, 0x5e, 0x47, 0x01, 0x3e,
  0x9f, 0x5d, 0xea, 0xbe, 0x6a, 0x5c, 0x1d, 0xbe, 0x29, 0x17, 0x96, 0xbe,
  0xa7, 0x68, 0xbd, 0x3e, 0x76, 0x21, 0xec, 0x3e, 0x1c, 0xe1, 0x35, 0xbd,
  0x36, 0x78, 0xc6, 0xbe, 0x67, 0xea, 0x91, 0xbe, 0x2f, 0x4a, 0x40, 0xbd,
  0x04, 0x08, 0xd4, 0x3e, 0x92, 0xf0, 0xc7, 0x3e, 0x4a, 0x93, 0x76, 0x3e,
  0xa0, 0xe4, 0xda, 0xbe, 0x70, 0xdb, 0xc2, 0xbc, 0xee, 0x3d, 0x3c, 0xbe,
  0x4d, 0xba, 0xdc, 0x3e, 0xb0, 0xfa, 0x66, 0x3d, 0x4c, 0xa1, 0x0d, 0xbe,
  0xac, 0x68, 0xf3, 0xbd, 0x9c, 0x70, 0xa7, 0x3e, 0x7b, 0x9c, 0xc0, 0xbd,
  0x85, 0x2b, 0x71, 0x3d, 0xc5, 0x03, 0x0b, 0x3d, 0xa4, 0xbf, 0x17, 0xbe,
  0x0f, 0xa1, 0x9f, 0x3d, 0x97, 0xd8, 0x75, 0x3e, 0x63, 0x7d, 0x54, 0x3d,
  0xb6, 0x3d, 0x4e, 0x3e, 0x0a, 0xa4, 0xd5, 0xba, 0x95, 0x72, 0x04, 0x3e,
  0x33, 0x28, 0x86, 0x3e, 0x82, 0xae, 0x30, 0x3e, 0x30, 0xf7, 0x58, 0xbe,
  0xf7, 0x54, 0x91, 0x3e, 0x51, 0x0c, 0x64, 0x3e, 0xd9, 0xdb, 0xfb, 0xbd,
  0x46, 0x57, 0xec, 0x3e, 0x65, 0x9c, 0x9b, 0x3e, 0xea, 0x8d, 0x79, 0xbe,
  0x8e, 0xbc, 0xae, 0x3e, 0x11, 0x49, 0x90, 0x3e, 0x75, 0xb9, 0xa0, 0xbd,
  0xb5, 0x39, 0xfb, 0x3e, 0x1f, 0xd7, 0x68, 0x3e, 0xed, 0x11, 0x8a, 0x3d,
  0x0a, 0x38, 0xce, 0xbd, 0x7d, 0x37, 0x73, 0xbb, 0xe7, 0xda, 0xa7, 0xbe,
  0x2b, 0x71, 0x3c, 0x3e, 0x29, 0x60, 0xae, 0x3e, 0xed, 0x3c, 0x15, 0x3e,
  0x46, 0xc7, 0x75, 0x3e, 0xb0, 0x12, 0x1c, 0x3e, 0xf9, 0xdf, 0xc4, 0xbe,
  0x64, 0x0e, 0x04, 0x3f, 0x0a, 0xda, 0xec, 0x3e, 0xc3, 0x26, 0x57, 0x3e,
  0x46, 0x58, 0x40, 0x3d, 0xf3, 0x51, 0x81, 0x3e, 0x5e, 0x47, 0xbc, 0xbe,
  0xcd, 0x3d, 0xc7, 0xbe, 0x04, 0xc2, 0x39, 0x3e, 0x46, 0x86, 0x91, 0xbe,
  0xd7, 0x44, 0x1a, 0xbc, 0x20, 0x8a, 0x28, 0xbc, 0xf8, 0x8a, 0x7d, 0xbd,
  0x44, 0xf3, 0xba, 0xbe, 0x9c, 0xbc, 0xc5, 0x3c, 0x1b, 0x6d, 0xc2, 0xbe,
  0xd9, 0x15, 0x19, 0xbe, 0x5b, 0x6d, 0xaa, 0x3e, 0xf9, 0x91, 0x67, 0xbe,
  0xff, 0x42, 0x8f, 0xbe, 0x61, 0x22, 0xb2, 0x3d, 0x20, 0xab, 0xdd, 0xbd,
  0x35, 0x78, 0x26, 0x3e, 0x62, 0x0b, 0xe3, 0xbb, 0x1c, 0x85, 0xb3, 0x3d,
  0xd2, 0x60, 0x1f, 0xbe, 0xa3, 0xd7, 0xdd, 0xbe, 0xa6, 0x54, 0x15, 0xbe,
  0x71, 0x1d, 0x02, 0x3d, 0xf3, 0xd5, 0x54, 0x3e, 0x9c, 0x38, 0xe6, 0xbd,
  0x82, 0x02, 0x2f, 0x3e, 0xcc, 0x30, 0x0a, 0xbf, 0x32, 0x58, 0x47, 0xbe,
  0x70, 0xa1, 0x18, 0x3e, 0x8e, 0xd2, 0x22, 0x3e, 0x86, 0x5e, 0x19, 0xbd,
  0x65, 0x29, 0x80, 0xbb, 0x8c, 0x73, 0xbe, 0xbe, 0x02, 0x98, 0xb1, 0xbe,
  0x67, 0x62, 0x03, 0x3c, 0xb8, 0x38, 0x88, 0x3d, 0xbc, 0xf7, 0x65, 0x3d,
  0xa8, 0x12, 0x00, 0x3e, 0x3d, 0x88, 0x61, 0xbe, 0x2a, 0xdf, 0x26, 0xbe,
  0x34, 0xd1, 0x3d, 0x3e, 0x0f, 0x76, 0x24, 0xbb, 0xe6, 0x5f, 0x1c, 0x3f,
  0x7c, 0x16, 0x8d, 0xbd, 0x33, 0xd1, 0x05, 0xbe, 0xc3, 0x25, 0x20, 0x3c,
  0x89, 0x78, 0x05, 0xbe, 0x99, 0xaf, 0x44, 0x3e, 0x33, 0xe9, 0x16, 0x3f,
  0xe7, 0xce, 0xec, 0x3d, 0x2d, 0xd4, 0x89, 0x3c, 0xa8, 0x64, 0xb2, 0xbd,
  0x91, 0xb4, 0x5a, 0xbe, 0x26, 0x05, 0x37, 0xbe, 0x2a, 0x82, 0xe2, 0x3e,
  0x0b, 0xf1, 0x2d, 0x3e, 0xe7, 0xec, 0x19, 0xbe, 0x4b, 0x9a, 0x4c, 0xbe,
  0xe2, 0x0c, 0x34, 0xbd, 0x54, 0x5f, 0x28, 0xbe, 0x6d, 0x3f, 0xd3, 0x3e,
  0xe3, 0x28, 0x23, 0x3f, 0xe2, 0x2d, 0xc1, 0x3c, 0x50, 0x8c, 0x18, 0x3e,
  0x66, 0xbc, 0xb9, 0x3d, 0xd7, 0x8c, 0x17, 0xbc, 0xdb, 0xa2, 0x42, 0x3f,
  0xf0, 0x16, 0x21, 0x3f, 0xf4, 0xe8, 0x8d, 0x3d, 0xae, 0x9f, 0x89, 0xbc,
  0xf4, 0xb9, 0x49, 0x3c, 0xf4, 0xbf, 0x35, 0x3e, 0x59, 0x1b, 0x58, 0x3f,
  0xb1, 0xb6, 0xbf, 0x3e, 0xe4, 0x70, 0x8e, 0xbe, 0xe6, 0xac, 0xe5, 0xbd,
  0x99, 0x0e, 0x3d, 0xbe, 0x03, 0x01, 0x7e, 0xbd, 0xe2, 0xc5, 0x41, 0x3f,
  0x33, 0xfe, 0xf2, 0x3e, 0xcf, 0x6d, 0x9d, 0xbe, 0xcc, 0x78, 0x07, 0x3e,
  0x2b, 0x40, 0x60, 0xbe, 0x85, 0xa2, 0x50, 0x3e, 0xc6, 0xcf, 0x5d, 0x3f,
  0x8d, 0xac, 0x30, 0x3f, 0xdf, 0xe5, 0x8c, 0xbd, 0xef, 0xb4, 0x3e, 0x3e,
  0xb8, 0xa8, 0x6b, 0xbe, 0xb5, 0x35, 0x35, 0xbd, 0xad, 0x1a, 0x38, 0x3e,
  0x04, 0xdf, 0x93, 0x3d, 0xf0, 0x75, 0x0d, 0xbe, 0xfb, 0xca, 0x58, 0xbd,
  0x70, 0x3a, 0x2d, 0xbe, 0x3f, 0x90, 0x38, 0x3d, 0x02, 0xcd, 0x3a, 0xbe,
  0xec, 0x36, 0x7d, 0x3d, 0xf4, 0x30, 0xc9, 0x3d, 0x37, 0x51, 0x93, 0x3d,
  0xc6, 0xfd, 0x7b, 0x3d, 0x34, 0xdd, 0xa0, 0xbd, 0x4d, 0xf3, 0xad, 0xbc,
  0xde, 0x81, 0x4e, 0xbe, 0x99, 0xc6, 0x9c, 0xbd, 0x7f, 0x66, 0x2c, 0xbe,
  0xd7, 0xc9, 0x41, 0x3e, 0x53, 0x7b, 0x92, 0x3d, 0xeb, 0x74, 0x30, 0x3d,
  0x4c, 0xdb, 0xea, 0x3c, 0xcb, 0x18, 0xe0, 0x3d, 0x45, 0x7f, 0x87, 0x3d,
  0xfd, 0xae, 0x26, 0x3c, 0x34, 0xd5, 0xfb, 0xbc, 0x84, 0x26, 0x1b, 0xbe,
  0x93, 0x67, 0x81, 0xbd, 0x22, 0xee, 0xce, 0xbd, 0xd7, 0xe7, 0xb4, 0x3d,
  0x8d, 0x05, 0x1f, 0x3e, 0x2f, 0xb9, 0x60, 0xbe, 0x38, 0xbe, 0x57, 0x3e,
  0xe0, 0x0b, 0xf2, 0xbd, 0x9f, 0x33, 0x52, 0xbd, 0x26, 0x64, 0xb1, 0x3d,
  0xa4, 0x75, 0xe4, 0x3b, 0x99, 0xaa, 0x15, 0xbd, 0x7e, 0x08, 0x7d, 0xbc,
  0x1a, 0xcb, 0xb5, 0xbc, 0x84, 0x3f, 0xd2, 0x3d, 0xf3, 0x3b, 0x93, 0x3c,
  0x61, 0x70, 0x04, 0x3e, 0x29, 0x87, 0x85, 0x3d, 0x20, 0x47, 0x1c, 0x3e,
  0xa8, 0x1b, 0x39, 0xbe, 0x1c, 0xc3, 0x65, 0x3d, 0xeb, 0x2c, 0x52, 0x3e,
  0xdb, 0xeb, 0x56, 0x3e, 0xb2, 0xde, 0x59, 0xbe, 0xaf, 0x38, 0x18, 0xbe,
  0xfa, 0xda, 0x4f, 0x3c, 0x1c, 0x37, 0x22, 0xbe, 0x11, 0x7f, 0x07, 0x3e,
  0x58, 0xaf, 0xf6, 0x3c, 0xde, 0xdb, 0x0e, 0xbe, 0x90, 0x2d, 0x64, 0xbe,
  0xbe, 0x14, 0x10, 0x3e, 0x7b, 0xcd, 0xaa, 0x3d, 0xa4, 0x07, 0x13, 0xbe,
  0xd2, 0x02, 0x54, 0xbe, 0xf4, 0xc1, 0xde, 0x3d, 0x7b, 0xdc, 0x3b, 0xbe,
  0x13, 0x3a, 0x53, 0x3e, 0x07, 0xcf, 0xd8, 0x3c, 0xad, 0xf8, 0x0a, 0xbe,
  0x9a, 0x03, 0x33, 0xbe, 0x56, 0x63, 0x46, 0xbd, 0x6a, 0x24, 0x4a, 0x3e,
  0xb0, 0xb0, 0x36, 0xbe, 0xd4, 0x71, 0x3f, 0x3e, 0x22, 0xfa, 0x40, 0xbe,
  0x9d, 0x5e, 0xbc, 0x3d, 0xc2, 0x7d, 0x24, 0xbe, 0x2e, 0xc2, 0xff, 0xbc,
  0xa0, 0x14, 0x2e, 0xbe, 0x29, 0x42, 0x48, 0xbe, 0x17, 0x24, 0x52, 0x3e,
  0x80, 0xbf, 0x53, 0x3e, 0xdc, 0xae, 0x88, 0xbd, 0x39, 0x81, 0xff, 0x3c,
  0x2f, 0x1b, 0xae, 0xbd, 0xd2, 0xbd, 0x31, 0xbe, 0xbf, 0xb3, 0x0d, 0x3e,
  0xbc, 0xb5, 0xa1, 0xbc, 0x40, 0xe9, 0x41, 0x3e, 0x2c, 0xbd, 0xf5, 0xbb,
  0xb3, 0xba, 0x9d, 0x3d, 0x7d, 0x41, 0x8d, 0x3d, 0x24, 0x2f, 0x5c, 0xbe,
  0x83, 0xed, 0x78, 0xbd, 0x44, 0x47, 0xd0, 0x3d, 0xcf, 0x85, 0x14, 0x3e,
  0x87, 0x0d, 0xb3, 0xbe, 0x1d, 0x6f, 0xb3, 0xbe, 0xe4, 0x26, 0xed, 0xbd,
  0x4a, 0x57, 0x7a, 0x3d, 0x21, 0xd5, 0x02, 0xbf, 0x61, 0x79, 0x16, 0x3d,
  0x7f, 0x8f, 0x49, 0xbe, 0x8b, 0x7c, 0x14, 0xbe, 0x03, 0xcf, 0x8d, 0xbe,
  0x8f, 0xdd, 0xb8, 0x3e, 0xd3, 0x81, 0x6b, 0xbe, 0xed, 0x9c, 0x84, 0x3d,
  0x3d, 0x0b, 0x56, 0xbe, 0xbf, 0x0d, 0x88, 0xbe, 0xc3, 0x04, 0x11, 0x3d,
  0xac, 0x9e, 0xbd, 0x3e, 0x8f, 0x68, 0xa8, 0xbe, 0x1d, 0x66, 0xc4, 0x3c,
  0x22, 0xf1, 0xae, 0xbd, 0xbf, 0x92, 0xd7, 0xbd, 0x7e, 0x41, 0xb7, 0xbd,
  0x10, 0x1f, 0xf3, 0x3e, 0xca, 0xd7, 0x6b, 0xbd, 0x55, 0x71, 0xe0, 0x3d,
  0x67, 0x1e, 0xd8, 0xbd, 0x1a, 0xc7, 0x58, 0x3d, 0xa7, 0x54, 0xad, 0xbe,
  0xd7, 0x7b, 0xe1, 0x3e, 0x16, 0x24, 0xac, 0xbe, 0x07, 0xb9, 0xf3, 0x3d,
  0x2f, 0x83, 0x3a, 0x3d, 0x14, 0xf4, 0xe7, 0xbd, 0xe6, 0xda, 0xa6, 0xbc,
  0xde, 0xb9, 0x8f, 0x3e, 0x47, 0xd6, 0x69, 0xbe, 0x03, 0x3f, 0x20, 0xbd,
  0xb3, 0x88, 0x41, 0x3e, 0xea, 0x9f, 0xae, 0xbd, 0x1c, 0xcf, 0xf6, 0xbd,
  0x2d, 0xf3, 0x09, 0x3e, 0x6c, 0x15, 0xc4, 0xbe, 0xe5, 0xfb, 0xf2, 0xbd,
  0x83, 0x36, 0x03, 0x3f, 0x12, 0x37, 0x43, 0xbe, 0x48, 0x01, 0x31, 0xbd,
  0xc5, 0x2e, 0xf2, 0x3e, 0x61, 0x92, 0xbe, 0xbe, 0x38, 0xf8, 0x42, 0x3e,
  0x1d, 0x25, 0x7b, 0x3e, 0xef, 0xf3, 0x47, 0x3e, 0x90, 0x1f, 0x92, 0x3d,
  0xb5, 0x69, 0xa1, 0x3e, 0x02, 0x6c, 0x05, 0xbe, 0x18, 0x4e, 0x3e, 0x3e,
  0x0a, 0x54, 0xeb, 0x3e, 0x36, 0x2b, 0xce, 0x3c, 0xfc, 0xb8, 0x29, 0xbd,
  0xce, 0xb6, 0x50, 0x3e, 0xce, 0x5b, 0xc3, 0xbe, 0xe2, 0xa7, 0x5c, 0xbd,
  0xc2, 0xf1, 0x14, 0x3f, 0x79, 0x7c, 0x42, 0x3e, 0xb3, 0x41, 0xe4, 0x3b,
  0xd8, 0x95, 0x8a, 0xba, 0x89, 0x50, 0xaf, 0xbd, 0xf9, 0x41, 0x84, 0x3e,
  0x75, 0x56, 0x1e, 0x3f, 0xc3, 0xf0, 0x04, 0xbd, 0xc4, 0x54, 0x90, 0x3e,
  0xca, 0x7b, 0x5c, 0x3e, 0x8f, 0x57, 0xa9, 0xbe, 0x6d, 0xe8, 0xc9, 0x3d,
  0x29, 0xbb, 0x3b, 0x3f, 0xb3, 0xa5, 0x8c, 0x3e, 0xb8, 0x43, 0x19, 0x3e,
  0xce, 0x35, 0x45, 0x3e, 0x2a, 0x8f, 0xa3, 0xbe, 0xbd, 0xab, 0xb2, 0x3d,
  0xd3, 0x75, 0x0b, 0x3f, 0xb0, 0xce, 0xdf, 0x3c, 0x20, 0xc0, 0x0b, 0x3e,
  0x75, 0x64, 0x45, 0x3e, 0xfa, 0x11, 0x02, 0xbe, 0xc3, 0x6f, 0x56, 0x3e,
  0x40, 0x5c, 0xfc, 0x3e, 0x8d, 0xe5, 0xb1, 0x3e, 0x2b, 0x04, 0x8b, 0x3e,
  0x1b, 0x00, 0x4b, 0xbd, 0x0f, 0x8d, 0x23, 0xbd, 0xbf, 0x19, 0xf0, 0x3d,
  0xb9, 0xcd, 0xe8, 0x3e, 0x4f, 0xaf, 0xb4, 0x3e, 0x7b, 0x62, 0xf3, 0x3d,
  0x62, 0x5f, 0x44, 0xbe, 0xe2, 0x51, 0x62, 0x3e, 0xdc, 0xb8, 0x9c, 0x3e,
  0xce, 0xd6, 0xc8, 0x3c, 0xf2, 0xa2, 0x9d, 0x3e, 0xa6, 0xb5, 0x66, 0x3d,
  0x6b, 0xa3, 0x9f, 0xbd, 0x47, 0x5b, 0x2e, 0x3e, 0xd7, 0xe4, 0xb8, 0x3e,
  0x41, 0x91, 0x51, 0x3e, 0x40, 0xe7, 0x18, 0x3f, 0xa3, 0x3b, 0xb8, 0x3e,
  0x78, 0x26, 0x93, 0x3d, 0x7c, 0xe6, 0xa7, 0x3e, 0x95, 0xa1, 0x25, 0x3e,
  0x87, 0x69, 0x79, 0xbb, 0x67, 0x6e, 0xf4, 0x3e, 0xd1, 0x9b, 0x00, 0x3f,
  0x1a, 0x38, 0x53, 0xbe, 0x05, 0xc6, 0x1c, 0x3a, 0x01, 0xf2, 0x29, 0x3d,
  0xf8, 0x03, 0x2c, 0x3e, 0x9a, 0xa1, 0xce, 0x3e, 0x4b, 0x4a, 0x04, 0x3f,
  0x2a, 0xd2, 0x87, 0xbe, 0x5e, 0x74, 0xc9, 0x3e, 0x96, 0x7b, 0xd3, 0x3d,
  0x48, 0x5b, 0xa6, 0xbe, 0x5c, 0x89, 0x9d, 0x3e, 0xe0, 0x42, 0x93, 0x3e,
  0x6a, 0xb7, 0xf3, 0xbd, 0x88, 0x35, 0x86, 0x3e, 0xa7, 0x6c, 0xca, 0x3c,
  0x4b, 0xdb, 0x92, 0xbe, 0x62, 0x56, 0x05, 0x3f, 0xa6, 0x78, 0xf3, 0x3e,
  0xfd, 0x8e, 0xa3, 0xbe, 0x0c, 0xc7, 0x81, 0x3e, 0x82, 0x76, 0x8d, 0xbe,
  0x61, 0x68, 0x16, 0xbe, 0x11, 0x02, 0xac, 0x3e, 0x87, 0x6c, 0xd4, 0x3d,
  0x10, 0xcb, 0xc4, 0xbb, 0xe8, 0x22, 0xdf, 0x3e, 0x64, 0x7f, 0xd0, 0xbe,
  0x72, 0xdb, 0x92, 0xbe, 0x62, 0x07, 0x78, 0x3e, 0x9f, 0xbe, 0x1b, 0x3e,
  0xb1, 0x5e, 0x82, 0xbd, 0x28, 0x70, 0x18, 0x3e, 0x06, 0x93, 0x74, 0xbe,
  0xbb, 0x8d, 0x55, 0xbe, 0xb2, 0xe6, 0x28, 0x3e, 0x9e, 0x4d, 0x8c, 0x3e,
  0x52, 0x2b, 0x7b, 0xbe, 0xf9, 0x63, 0xab, 0x3d, 0xc4, 0xb9, 0x3e, 0xbe,
  0x01, 0x98, 0xaa, 0xbe, 0x9a, 0xbc, 0x1e, 0xbe, 0xa7, 0xfa, 0x42, 0x3e,
  0x5e, 0x1a, 0x34, 0xbe, 0x84, 0x88, 0x2e, 0x3e, 0x45, 0x8c, 0xf6, 0xbe,
  0x46, 0xc8, 0xbb, 0xbe, 0x80, 0x9b, 0x46, 0xbe, 0x2c, 0xd8, 0xd5, 0x3d,
  0x15, 0x69, 0xbf, 0xbc, 0x0c, 0xe5, 0x54, 0x3e, 0x19, 0x36, 0xa4, 0xbe,
  0x37, 0x19, 0x16, 0xbf, 0x81, 0x21, 0x92, 0xbe, 0x26, 0xc4, 0xdc, 0xba,
  0xd9, 0xa9, 0xb5, 0xbd, 0x67, 0x5e, 0x62, 0x3e, 0x19, 0xbc, 0x53, 0xbe,
  0x1a, 0x12, 0x0c, 0xbf, 0xfb, 0x02, 0x49, 0xbd, 0x20, 0x74, 0xc0, 0xbd,
  0x15, 0xd1, 0x9c, 0xbc, 0x3d, 0xe2, 0xd4, 0x3d, 0x09, 0x47, 0x90, 0xbd,
  0xed, 0x95, 0x98, 0xbe, 0xc5, 0x29, 0x81, 0xbe, 0x3c, 0xe7, 0x6d, 0x3e,
  0xb5, 0x47, 0x99, 0x3e, 0xbe, 0x6e, 0xda, 0x3d, 0xb0, 0x74, 0x8d, 0xbe,
  0x1e, 0x64, 0xb3, 0x3a, 0x6f, 0xd2, 0x95, 0xbe, 0xb1, 0x84, 0x5c, 0xbe,
  0x8c, 0xf4, 0xb7, 0xbe, 0x56, 0x49, 0x0a, 0x3f, 0x20, 0xda, 0x1e, 0xbe,
  0xb3, 0xcc, 0xf0, 0xbb, 0x9f, 0x87, 0xba, 0xbe, 0xe4, 0xed, 0x9d, 0x3c,
  0x1a, 0x61, 0xb9, 0xbe, 0x0d, 0x58, 0x01, 0x3f, 0x2c, 0x43, 0x49, 0x3e,
  0xdf, 0x51, 0x87, 0x3b, 0xe3, 0xab, 0xec, 0xbd, 0xa5, 0xa3, 0xff, 0xbc,
  0x66, 0xe2, 0x34, 0xbd, 0x12, 0x11, 0xe2, 0x3e, 0x27, 0x20, 0x50, 0x3e,
  0xed, 0xd8, 0xa7, 0x3d, 0x84, 0xa9, 0x9a, 0xbe, 0xd0, 0xdb, 0x27, 0xbe,
  0x49, 0x05, 0x97, 0xbd, 0x29, 0x95, 0xcf, 0x3e, 0x39, 0x66, 0x75, 0x3e,
  0xc7, 0xe0, 0xba, 0xbd, 0x43, 0xde, 0x0a, 0xbf, 0xe0, 0x22, 0x65, 0x3d,
  0x12, 0xfa, 0xda, 0x3b, 0xeb, 0x1a, 0x39, 0x3e, 0x76, 0x6b, 0xf6, 0x3e,
  0x24, 0x75, 0x65, 0xbe, 0x15, 0xc5, 0x0d, 0xbf, 0xbc, 0x57, 0xa7, 0x3c,
  0x9a, 0xd7, 0xc6, 0xbd, 0x7f, 0x28, 0xf0, 0x3e, 0x59, 0x00, 0xfa, 0x3e,
  0xe2, 0x5f, 0x9a, 0xbd, 0x38, 0x6b, 0x48, 0xbe, 0xbd, 0x5d, 0x93, 0xbe,
  0x87, 0x87, 0x40, 0xbe, 0xdd, 0xae, 0x13, 0x3e, 0x60, 0x19, 0x0f, 0x3f,
  0xc8, 0x91, 0xaa, 0xbd, 0xc8, 0xdf, 0x1e, 0xbd, 0xe1, 0x7a, 0x1d, 0xbd,
  0xe2, 0x4a, 0x9e, 0xbe, 0x42, 0x55, 0xcf, 0x3e, 0x3a, 0x28, 0xa0, 0x3e,
  0x8c, 0xa4, 0xbd, 0xbe, 0x70, 0x91, 0xc6, 0x3d, 0x16, 0x78, 0x6a, 0xbe,
  0xbe, 0x4d, 0xa2, 0xbe, 0x99, 0x5a, 0x66, 0x3e, 0xed, 0xba, 0x17, 0x3f,
  0x4e, 0x26, 0x9d, 0x3b, 0xb8, 0x78, 0xc6, 0x3d, 0x39, 0xa8, 0xee, 0xbd,
  0x3e, 0x4b, 0x2c, 0x3c, 0xa9, 0x0c, 0xb5, 0x3e, 0xab, 0x2c, 0x90, 0x3e,
  0xa5, 0xd9, 0x01, 0xbd, 0x1e, 0x3a, 0x3b, 0x3e, 0x48, 0x19, 0x19, 0xbe,
  0xa1, 0xe8, 0xb3, 0xbe, 0x57, 0x2c, 0x8d, 0x3e, 0x2c, 0xd6, 0xc5, 0x3e,
  0x47, 0xe4, 0xd5, 0xbe, 0x2e, 0xe4, 0x11, 0x3e, 0x0f, 0xe6, 0x1f, 0x3c,
  0xd2, 0xf3, 0x1a, 0xbe, 0x11, 0x28, 0x96, 0x3e, 0xa9, 0x5f, 0xa7, 0x3e,
  0xb2, 0x8a, 0xcf, 0xbd, 0x85, 0x22, 0x22, 0x38, 0x68, 0x67, 0x29, 0xbc,
  0xd4, 0x07, 0x43, 0xbe, 0xb1, 0xa8, 0x87, 0x3e, 0xcb, 0x46, 0x1b, 0x3f,
  0xad, 0xae, 0x16, 0xbe, 0xe0, 0xc8, 0xae, 0x3d, 0x6a, 0x45, 0x71, 0xbd,
  0xdb, 0x3d, 0x9f, 0x3b, 0xc0, 0x7f, 0xac, 0x3e, 0x12, 0xe0, 0xf8, 0x3e,
  0x4f, 0x86, 0x7f, 0xbe, 0x9b, 0x43, 0x24, 0xbe, 0x3b, 0xc9, 0x4d, 0xbe,
  0x80, 0x1f, 0xc1, 0xbe, 0xa9, 0x3f, 0xee, 0x3d, 0x5e, 0xd5, 0x45, 0x3e,
  0x99, 0x9f, 0x4b, 0xbd, 0x5d, 0x34, 0x3a, 0xbe, 0x94, 0x5b, 0xac, 0x3d,
  0x7c, 0x67, 0x44, 0x3d, 0xd1, 0xf9, 0x25, 0xbe, 0x21, 0x11, 0x46, 0xbe,
  0x6f, 0x8d, 0x77, 0xbb, 0xae, 0xde, 0x80, 0xbd, 0xb1, 0x91, 0x4a, 0x3d,
  0xe5, 0xbb, 0xc4, 0x3d, 0x81, 0x45, 0x50, 0xbd, 0xee, 0x5f, 0x02, 0x3e,
  0xea, 0x9a, 0x28, 0xbc, 0xb8, 0x41, 0x22, 0xbe, 0xa1, 0x41, 0xf8, 0x3c,
  0x2e, 0xec, 0x4f, 0x3e, 0x59, 0x8c, 0x0c, 0x3d, 0x3e, 0x20, 0x2f, 0xbe,
  0xfd, 0x6a, 0x4e, 0x3e, 0x99, 0xd8, 0xa7, 0xbc, 0x5b, 0xcb, 0x41, 0xbe,
  0x85, 0xe4, 0x10, 0x3e, 0xa7, 0x40, 0xcb, 0x3a, 0x7a, 0x89, 0xc0, 0x3d,
  0xf8, 0x6d, 0x65, 0x3c, 0xda, 0xa7, 0x2f, 0xbe, 0x30, 0x78, 0x0f, 0x3d,
  0x6a, 0x9f, 0x4d, 0x3d, 0x4b, 0xe7, 0x2a, 0xbe, 0x20, 0xc4, 0x2d, 0x3e,
  0xb9, 0x7c, 0x03, 0xbe, 0xf3, 0x37, 0x1e, 0xbe, 0x14, 0xbb, 0x03, 0xbe,
  0xa4, 0xaf, 0x6a, 0xbd, 0x38, 0xee, 0x37, 0x3d, 0x6d, 0x78, 0x89, 0xbd,
  0x0e, 0xd0, 0xc9, 0x3d, 0xc2, 0xc6, 0x75, 0x3d, 0xeb, 0xf7, 0x98, 0x3d,
  0x65, 0x64, 0x1a, 0xbe, 0x00, 0x10, 0x7b, 0xbd, 0xcf, 0x89, 0x66, 0xbe,
  0x8b, 0xe1, 0x02, 0x3e, 0xde, 0x35, 0xe8, 0xbb, 0xbe, 0x39, 0x50, 0xbe,
  0xb1, 0x01, 0x3d, 0x3e, 0x68, 0xa2, 0x47, 0x3e, 0x22, 0xea, 0x2a, 0xbd,
  0xd3, 0x15, 0x13, 0x3e, 0x6c, 0x9a, 0xbc, 0xbd, 0xae, 0x0f, 0x51, 0xbe,
  0x5c, 0x9c, 0x17, 0xbe, 0x09, 0x2a, 0x10, 0xbd, 0x87, 0x74, 0xd2, 0x3d,
  0xd3, 0x02, 0xd3, 0x3a, 0x4b, 0x13, 0xae, 0x3c, 0xe7, 0xb0, 0x38, 0xbc,
  0x54, 0xdc, 0x63, 0xbe, 0x33, 0x40, 0x72, 0xbd, 0x9a, 0xc9, 0xf1, 0xbc,
  0x30, 0xc6, 0x5a, 0x3d, 0xaf, 0xd1, 0x9d, 0xbb, 0xd9, 0x51, 0x02, 0xbe,
  0xcf, 0xee, 0x9d, 0xbd, 0xfd, 0x50, 0x9b, 0xbd, 0xe1, 0x40, 0x07, 0xbe,
  0x37, 0xf9, 0x63, 0xbc, 0xe2, 0x38, 0x30, 0xbd, 0xab, 0x90, 0xe1, 0xbd,
  0xa7, 0x42, 0x35, 0xbe, 0x65, 0xc9, 0xee, 0xbd, 0x68, 0xc4, 0x96, 0x3d,
  0x8f, 0x9d, 0xc9, 0x3d, 0x60, 0xe9, 0x66, 0xbc, 0x52, 0xb9, 0x63, 0xbe,
  0xe7, 0xd6, 0x2f, 0xbe, 0x71, 0xfe, 0x42, 0x3e, 0x47, 0x33, 0xf5, 0xbd,
  0x8a, 0xa1, 0x33, 0x3e, 0x3c, 0x44, 0xfb, 0x3d, 0x7b, 0x40, 0x1e, 0x3d,
  0x07, 0x57, 0x5b, 0x3e, 0xf6, 0xbc, 0xf1, 0x3d, 0xff, 0x8c, 0x34, 0x3e,
  0x49, 0xee, 0x83, 0xbd, 0xc6, 0xa4, 0x34, 0xbe, 0xec, 0xae, 0x52, 0xbd,
  0x36, 0xb5, 0xa4, 0x3c, 0x90, 0x62, 0xe8, 0x3b, 0x2c, 0x6e, 0x90, 0x3d,
  0x9c, 0x79, 0xe2, 0x3d, 0xa0, 0x66, 0xce, 0xbc, 0x53, 0x12, 0xd4, 0xbd,
  0x5c, 0xda, 0x55, 0x3e, 0x67, 0x42, 0x26, 0xbe, 0x90, 0xf4, 0x13, 0xbe,
  0x68, 0x32, 0x7c, 0xbd, 0x56, 0x9d, 0x24, 0xbe, 0x47, 0x14, 0x43, 0xbe,
  0x40, 0x7d, 0x03, 0xbd, 0x80, 0xd2, 0x16, 0x3b, 0xee, 0xd1, 0x18, 0x3e,
  0x29, 0x30, 0x02, 0xbe, 0xce, 0xdc, 0xb6, 0xbd, 0x8e, 0x69, 0x2d, 0xbe,
  0x98, 0xd7, 0x15, 0x3d, 0xcc, 0xf8, 0xc6, 0x3d, 0xfa, 0xbd, 0x60, 0x3e,
  0x4c, 0xbf, 0x25, 0xbe, 0x30, 0x55, 0x0d, 0x3e, 0x52, 0x81, 0x11, 0xbe,
  0x92, 0x20, 0x4a, 0xbe, 0x09, 0xf1, 0x4d, 0xbe, 0x30, 0xcb, 0x57, 0x3e,
  0xe8, 0x6b, 0x29, 0x3e, 0xb4, 0x83, 0x2d, 0xbd, 0x0e, 0xfc, 0x21, 0x3e,
  0xbe, 0x78, 0x3c, 0x3e, 0x5a, 0x09, 0x1a, 0x3e, 0xc8, 0x74, 0xd1, 0x3c,
  0xb0, 0x3b, 0x90, 0xbd, 0x42, 0x1f, 0x56, 0xbe, 0xf8, 0xb6, 0xc9, 0x3c,
  0x66, 0xb9, 0x33, 0xbe, 0x76, 0xd1, 0x4c, 0xbe, 0xcc, 0xe0, 0xec, 0x3d,
  0x04, 0x1f, 0x5a, 0x3e, 0x7c, 0xa8, 0xcf, 0x3d, 0x78, 0x6c, 0x27, 0x3d,
  0x30, 0x02, 0x93, 0x3c, 0x18, 0x37, 0x2a, 0xbd, 0xbc, 0xf7, 0x3e, 0xbe,
  0xdc, 0xa5, 0xd8, 0xbd, 0x90, 0xb7, 0xc1, 0xbd, 0xa8, 0x46, 0xe1, 0x3d,
  0xc4, 0x36, 0x37, 0xbd, 0xbc, 0x4b, 0x06, 0x3e, 0x38, 0x9f, 0x87, 0xbd,
  0xa5, 0x2e, 0x4d, 0xbe, 0x30, 0xc5, 0x5f, 0x3d, 0x18, 0x87, 0xa8, 0xbd,
  0xba, 0x44, 0x10, 0xbe, 0x80, 0x54, 0xfb, 0x3a, 0x30, 0xf1, 0x73, 0x3d,
  0x50, 0x26, 0x32, 0xbe, 0x56, 0xe3, 0x8b, 0xbd, 0xc5, 0xb0, 0xd1, 0xbd,
  0xeb, 0x62, 0x14, 0xbe, 0x20, 0x1e, 0xfc, 0x3c, 0x96, 0x54, 0x81, 0xbd,
  0xfe, 0xd1, 0x00, 0x3e, 0xd0, 0xf4, 0x20, 0x3d, 0x1a, 0xeb, 0x60, 0x3e,
  0x50, 0xec, 0xe1, 0x3d, 0x1e, 0xaf, 0x3e, 0x3e, 0xd4, 0x29, 0x79, 0xbd,
  0x74, 0x61, 0xed, 0x3d, 0x00, 0xd4, 0x98, 0x3d, 0x7a, 0x68, 0x51, 0x3e,
  0xd1, 0x22, 0xe5, 0xbd, 0x54, 0x3e, 0xdc, 0xbd, 0x85, 0xcb, 0x23, 0xbe,
  0x18, 0x3a, 0x35, 0xbe, 0xc2, 0xb9, 0x4b, 0xbe, 0x2c, 0x25, 0x0e, 0x3e,
  0x6c, 0xcd, 0x7c, 0xbd, 0xa8, 0xcc, 0x50, 0x3e, 0xa7, 0x5c, 0x5b, 0xbe,
  0x48, 0xbb, 0x94, 0xbc, 0xc0, 0x8d, 0xe6, 0x3b, 0x42, 0xcf, 0x07, 0xbe,
  0x20, 0x16, 0x93, 0xbb, 0x1a, 0x8e, 0xfa, 0xbd, 0xb8, 0xe3, 0xb8, 0x3c,
  0x44, 0x98, 0xf5, 0x3d, 0x10, 0xc1, 0xfd, 0x3d, 0xb0, 0xde, 0x21, 0x3e,
  0x28, 0x0b, 0x2f, 0xbe, 0xc0, 0x18, 0xc0, 0xbd, 0xb8, 0x39, 0xe5, 0x3d,
  0xb4, 0xce, 0x1a, 0xbe, 0xd1, 0xbe, 0xcc, 0xbd, 0x46, 0xbe, 0xb0, 0xbd,
  0x44, 0x71, 0x1c, 0x3e, 0x6a, 0x49, 0x2d, 0xbe, 0x7a, 0x97, 0x5d, 0x3e,
  0xfe, 0x5e, 0x13, 0x3e, 0x70, 0xa2, 0x60, 0xbc, 0xe8, 0xe1, 0xb9, 0xbd,
  0x30, 0x61, 0x2a, 0x3d, 0x24, 0xd2, 0x51, 0xbd, 0xe8, 0x6d, 0x2c, 0xbe,
  0x48, 0xd7, 0x9d, 0xbc, 0x10, 0xa9, 0x5a, 0x3d, 0x0c, 0x5f, 0x3c, 0xbd,
  0x84, 0x1e, 0x51, 0xbe, 0xd0, 0x12, 0xdb, 0x3d, 0x32, 0xdc, 0x09, 0x3e,
  0xa0, 0xa7, 0xfa, 0x3b, 0xf8, 0xa8, 0xfe, 0x3d, 0x3c, 0x9e, 0x60, 0xbe,
  0xfe, 0x72, 0x23, 0xbe, 0xb0, 0x25, 0x39, 0x3e, 0xbc, 0x6d, 0xf4, 0x3d,
  0xb4, 0x31, 0x64, 0xbd, 0x9d, 0xcf, 0x54, 0xbe, 0xe8, 0xcb, 0x3e, 0x3e,
  0x16, 0xe3, 0x52, 0xbe, 0x3a, 0x5f, 0x00, 0x3e, 0x18, 0x83, 0xe3, 0x3d,
  0x5a, 0xac, 0x54, 0x3e, 0x44, 0x67, 0x2c, 0xbe, 0x33, 0xd2, 0xd0, 0xbd,
  0xc6, 0x92, 0xf3, 0xbd, 0x2a, 0xbf, 0x45, 0x3e, 0x80, 0xea, 0x4a, 0x3d,
  0xd0, 0xfb, 0x03, 0xbe, 0x28, 0x46, 0x26, 0x3e, 0x00, 0xed, 0x75, 0x3a,
  0x50, 0x75, 0x51, 0xbc, 0xd3, 0xd7, 0xce, 0xbd, 0x01, 0x15, 0x58, 0xbe,
  0xc0, 0xda, 0xb2, 0xbb, 0x3c, 0xf7, 0xcb, 0x3d, 0xb6, 0xad, 0x4a, 0xbe,
  0xe0, 0x64, 0x04, 0x3e, 0x69, 0x4e, 0x56, 0xbe, 0x3a, 0x19, 0x42, 0xbe,
  0x82, 0xcd, 0x49, 0x3e, 0x68, 0x31, 0x32, 0xbd, 0x78, 0x64, 0xa5, 0x3d,
  0x9c, 0xe7, 0xf5, 0x3d, 0xde, 0x7b, 0x04, 0x3e, 0x74, 0x37, 0x83, 0xbd,
  0x84, 0x0c, 0x17, 0xbe, 0xd8, 0xc6, 0x20, 0xbd, 0x38, 0x6c, 0xae, 0xbd,
  0x55, 0x11, 0x4f, 0xbe, 0x58, 0xa2, 0x90, 0xbc, 0xc0, 0x43, 0xc0, 0x3b,
  0xe0, 0x8a, 0x7f, 0xbc, 0x1e, 0xdb, 0xdc, 0xbd, 0xfc, 0x56, 0xc3, 0x3d,
  0xa4, 0x23, 0x3d, 0xbe, 0xb8, 0x04, 0xd2, 0xbc, 0xbc, 0x02, 0x2c, 0x3e,
  0x5b, 0xbf, 0x16, 0xbe, 0xf4, 0xf6, 0x1a, 0x3e, 0xaf, 0x33, 0x5d, 0xbe,
  0x80, 0x8a, 0x45, 0x3e, 0xc0, 0x60, 0x3d, 0xbb, 0xf8, 0x78, 0xe3, 0x3c,
  0x50, 0xaa, 0xad, 0xbd, 0x3a, 0x32, 0xb1, 0xbd, 0x50, 0x67, 0x2f, 0xbe,
  0x80, 0x6b, 0x14, 0xbe, 0x80, 0xe8, 0x4f, 0xbe, 0xe2, 0x0a, 0x85, 0xbd,
  0xb0, 0x7d, 0xa0, 0xbd, 0x18, 0xad, 0x67, 0x3d, 0x7a, 0x63, 0x21, 0x3e,
  0x96, 0xb9, 0x0c, 0x3e, 0x50, 0xde, 0xe3, 0x3c, 0x3f, 0xac, 0x60, 0xbe,
  0x80, 0xe2, 0x03, 0xbb, 0xb0, 0x46, 0xa3, 0x3d, 0xd2, 0x29, 0x17, 0x3e,
  0x8a, 0x1a, 0x0c, 0xbe, 0xc6, 0xac, 0x85, 0xbd, 0xbe, 0x09, 0x2f, 0xbe,
  0x4c, 0xf3, 0xa3, 0xbd, 0xb0, 0x08, 0x9c, 0xbe, 0x52, 0x07, 0x2b, 0x3e,
  0xc1, 0x0b, 0x85, 0x3e, 0x34, 0xe9, 0x41, 0x3e, 0x11, 0x40, 0xa4, 0xbe,
  0x75, 0xa5, 0xe8, 0xbc, 0x6f, 0xcd, 0x6b, 0xbe, 0x7d, 0x01, 0xb8, 0x3e,
  0x2f, 0xf3, 0xc9, 0x3e, 0x60, 0xb1, 0x52, 0x3e, 0x29, 0xf9, 0x69, 0xbe,
  0xf6, 0x8b, 0x0f, 0xbe, 0x6c, 0x93, 0x42, 0xbe, 0x79, 0x01, 0xdd, 0x3e,
  0x9a, 0xab, 0x77, 0x3e, 0x5b, 0x67, 0xfb, 0x3d, 0xfb, 0x4e, 0x9a, 0xbe,
  0x40, 0x88, 0x08, 0xbe, 0x45, 0xd3, 0x5c, 0xbe, 0x1d, 0xb4, 0xe4, 0x3e,
  0x56, 0xc3, 0x9e, 0x3e, 0x9a, 0x2d, 0x4c, 0x3d, 0xbc, 0x75, 0xc0, 0xbd,
  0x70, 0x7a, 0x6b, 0x3e, 0x30, 0x4a, 0x81, 0x3e, 0xef, 0x9c, 0xaf, 0x3e,
  0x06, 0xbc, 0x83, 0x3e, 0x44, 0xaa, 0x19, 0xbd, 0xdd, 0x1c, 0xa8, 0xbe,
  0x6e, 0xc1, 0xd9, 0x3c, 0xfb, 0x81, 0x29, 0x3e, 0x89, 0x14, 0x16, 0x3f,
  0xbe, 0xbf, 0x3e, 0x3e, 0x5a, 0x37, 0x4f, 0xbe, 0x85, 0xdf, 0x76, 0xbc,
  0x0b, 0xc2, 0xd5, 0x3c, 0xcd, 0x54, 0x82, 0x3d, 0x15, 0x0d, 0x12, 0x3f,
  0x2f, 0x66, 0xaf, 0x3e, 0x28, 0xdb, 0xd1, 0xbd, 0x37, 0x44, 0x73, 0xbe,
  0xa5, 0xca, 0x86, 0x3e, 0xb9, 0x88, 0x90, 0x3c, 0xa9, 0xfb, 0x03, 0x3f,
  0x5d, 0x8e, 0x22, 0x3e, 0x98, 0x69, 0x60, 0xbe, 0xd2, 0x89, 0xcf, 0xbe,
  0x6d, 0xa4, 0x3b, 0x3e, 0x25, 0x9d, 0xae, 0x3d, 0x1d, 0x2b, 0x22, 0x3f,
  0x2e, 0x1d, 0xff, 0x3e, 0x8b, 0xee, 0x8c, 0xbe, 0xe8, 0x99, 0x61, 0xbe,
  0x5a, 0x87, 0x5f, 0x3d, 0xea, 0xbe, 0x98, 0x3e, 0x82, 0x1b, 0xaf, 0x3e,
  0x58, 0xd8, 0x9b, 0x3e, 0x8a, 0x1f, 0x0a, 0x3e, 0x93, 0x9e, 0xea, 0xbe,
  0x54, 0x6e, 0x29, 0x3d, 0x73, 0x0a, 0x61, 0x3d, 0x14, 0xfc, 0x83, 0x3e,
  0x47, 0x57, 0x93, 0x3e, 0x10, 0x07, 0x35, 0x3d, 0x69, 0xcf, 0xa7, 0xbe,
  0x41, 0xbc, 0x97, 0xbe, 0xfb, 0xc5, 0xd9, 0x3e, 0x74, 0x05, 0xc9, 0x3e,
  0x22, 0xc4, 0x98, 0x3e, 0xe7, 0xb6, 0xd7, 0xbd, 0xf1, 0x91, 0x03, 0xbf,
  0x18, 0x1b, 0x03, 0xbe, 0x25, 0xea, 0x33, 0x3e, 0x54, 0x1c, 0xc8, 0x3e,
  0xd5, 0xb1, 0x9d, 0x3e, 0xf1, 0x4c, 0x7d, 0x3e, 0x98, 0x16, 0xdc, 0xbe,
  0x53, 0x6e, 0xed, 0xbe, 0x5d, 0x19, 0x89, 0x3e, 0x71, 0x87, 0xe2, 0x3e,
  0x89, 0x8f, 0x0f, 0x3e, 0xb0, 0x2e, 0x28, 0x3e, 0x5a, 0x39, 0x4c, 0xbf,
  0xec, 0x52, 0x1e, 0xbf, 0x9e, 0xcf, 0xb5, 0x3e, 0xe9, 0x8d, 0x82, 0x3e,
  0xe6, 0xc4, 0x06, 0xbb, 0x2f, 0x24, 0x66, 0x3e, 0x91, 0x2e, 0x16, 0xbe,
  0xe3, 0xf8, 0x55, 0xbd, 0xc5, 0x84, 0x17, 0xbe, 0x01, 0xee, 0xb0, 0xbd,
  0x27, 0xde, 0xb5, 0x3d, 0x87, 0x90, 0xd2, 0x3d, 0xc5, 0xbe, 0x9c, 0x3d,
  0x30, 0xb7, 0xe6, 0x3d, 0xe5, 0x91, 0x1b, 0x3e, 0x41, 0x23, 0x97, 0xbd,
  0x7b, 0x27, 0xd2, 0xbd, 0x1b, 0xcc, 0x0c, 0xbd, 0x03, 0xb9, 0x31, 0xbe,
  0x6a, 0x14, 0x3c, 0x3d, 0x28, 0xdc, 0xf7, 0x3d, 0x86, 0xbd, 0x59, 0xbe,
  0xf4, 0xab, 0x69, 0xbd, 0x92, 0x05, 0xbe, 0xbd, 0x8b, 0x6b, 0x3e, 0x3e,
  0x12, 0x51, 0xc6, 0x3d, 0x66, 0x39, 0x47, 0xbe, 0x02, 0x65, 0xae, 0xbc,
  0xd2, 0xed, 0xea, 0x3d, 0x1e, 0x6d, 0x2a, 0x3e, 0xcb, 0xba, 0x2e, 0xbe,
  0x70, 0xb0, 0x03, 0xbe, 0x35, 0x48, 0xb0, 0xbd, 0x92, 0x71, 0x1d, 0xbe,
  0x92, 0x6c, 0x4b, 0x3e, 0x32, 0xbf, 0x86, 0xbc, 0x4c, 0x44, 0x2c, 0xbe,
  0x3e, 0x80, 0x4f, 0x3e, 0x72, 0x5f, 0xc7, 0x3d, 0x66, 0xe2, 0x5b, 0xbe,
  0x16, 0x7a, 0x4e, 0xbe, 0x62, 0xc8, 0xbf, 0x3c, 0x32, 0x58, 0x8f, 0x3d,
  0xbc, 0x57, 0x60, 0xbe, 0x93, 0x70, 0x0a, 0x3e, 0x32, 0x1f, 0x07, 0x3c,
  0xb4, 0x83, 0x2e, 0x3e, 0xcf, 0x61, 0x8a, 0x3d, 0x52, 0x9c, 0x6a, 0xbe,
  0x25, 0xaf, 0xee, 0x3d, 0xe2, 0xb5, 0x02, 0x3e, 0xbd, 0xd6, 0x31, 0x3e,
  0x38, 0x09, 0x2e, 0xbe, 0xad, 0xd3, 0x38, 0xbd, 0xa3, 0x8e, 0xdf, 0xbd,
  0xd3, 0xef, 0x1e, 0x3e, 0x7c, 0x71, 0x35, 0xbe, 0x4c, 0x0e, 0xdf, 0x3d,
  0xf1, 0x44, 0xf0, 0xbd, 0xaf, 0xbf, 0xf6, 0xbc, 0x8a, 0x35, 0x51, 0x3e,
  0x96, 0x37, 0xb1, 0x3d, 0xda, 0x41, 0x1e, 0xbe, 0xbc, 0xc2, 0xe4, 0x3d,
  0x31, 0x33, 0x6f, 0xbe, 0xe2, 0xc6, 0x17, 0xbe, 0x8c, 0xf5, 0xf2, 0xbd,
  0xf6, 0xd2, 0x46, 0xbd, 0x00, 0x0f, 0x3e, 0xbe, 0x48, 0xa7, 0x62, 0x3d,
  0xac, 0x5b, 0x9d, 0xbc, 0x1a, 0x28, 0x3a, 0xbe, 0x4e, 0xcf, 0xf5, 0xbc,
  0x6b, 0x8f, 0x54, 0x3e, 0x72, 0x1d, 0x1f, 0xbe, 0xa0, 0x51, 0x47, 0x3e,
  0x63, 0x77, 0xe7, 0x3d, 0x1e, 0x02, 0x1d, 0x3e, 0x82, 0x69, 0x8a, 0x3c,
  0x62, 0x2c, 0x4e, 0x3e, 0xd5, 0xa6, 0xcb, 0xbd, 0x77, 0x2a, 0x37, 0xbe,
  0x71, 0xf5, 0x3a, 0x3e, 0xd7, 0xe6, 0x3e, 0xbe, 0x2f, 0x90, 0x84, 0x3d,
  0x53, 0x13, 0x2b, 0xbe, 0x06, 0x7a, 0x3c, 0x3e, 0x7d, 0xb5, 0xcb, 0x3c,
  0xa7, 0xaa, 0x01, 0xbe, 0x6d, 0x7a, 0x00, 0xbe, 0x08, 0xdf, 0x9b, 0xbd,
  0x55, 0xc0, 0x41, 0x3e, 0x0f, 0x89, 0xd5, 0xbd, 0x2f, 0x22, 0x2f, 0x3d,
  0x59, 0xbc, 0x22, 0xbd, 0x4d, 0x9f, 0x20, 0x3e, 0x44, 0xed, 0xab, 0xbe,
  0x1d, 0x4d, 0x83, 0xbe, 0x76, 0x77, 0x56, 0x3e, 0x07, 0x6c, 0x96, 0x3d,
  0x3d, 0x45, 0x40, 0x3e, 0x9e, 0xde, 0x70, 0xbd, 0x05, 0x35, 0x6c, 0x3d,
  0xdc, 0x81, 0x6f, 0x3d, 0xf8, 0xc6, 0x66, 0x3d, 0xc2, 0x0d, 0x95, 0xbd,
  0xee, 0x36, 0xfa, 0x3d, 0xa4, 0x61, 0xe6, 0x3d, 0xe4, 0x28, 0xc9, 0xbd,
  0x88, 0x84, 0x42, 0x3e, 0x27, 0x29, 0x62, 0x3e, 0x1a, 0x0b, 0x0e, 0xbe,
  0x58, 0x9b, 0x8e, 0xbc, 0x0e, 0xe4, 0xd3, 0xbc, 0x07, 0xe1, 0x4b, 0xbe,
  0xf1, 0xef, 0x38, 0xbe, 0x7e, 0x09, 0x6c, 0x3e, 0x69, 0xfd, 0x08, 0xbe,
  0x70, 0xad, 0x78, 0x3e, 0x92, 0x8a, 0x24, 0x3e, 0xd4, 0x76, 0x22, 0xbd,
  0x3e, 0x57, 0x3d, 0xbd, 0x2e, 0x68, 0xd7, 0xbc, 0x78, 0xf1, 0xa9, 0xbe,
  0x50, 0x0a, 0x90, 0x3e, 0xc4, 0x6c, 0x78, 0xbe, 0x72, 0xe2, 0x6a, 0xbc,
  0x2c, 0x75, 0x6c, 0xbd, 0xbf, 0xb2, 0x31, 0xbc, 0x1e, 0x9c, 0xa8, 0xbd,
  0x0a, 0x8a, 0x2f, 0x3e, 0xb7, 0x5c, 0x53, 0xbe, 0xbe, 0x35, 0x15, 0x3e,
  0xd8, 0x92, 0x64, 0x3e, 0x6e, 0x9c, 0x8f, 0xbe, 0xc4, 0x02, 0x92, 0xbe,
  0x76, 0x76, 0xad, 0x3e, 0x99, 0xb7, 0x53, 0xbd, 0x7b, 0xc9, 0xb5, 0x3d,
  0x8c, 0x9d, 0xd7, 0x3d, 0xcf, 0x87, 0x51, 0xbe, 0xe9, 0xd9, 0xb1, 0xbe,
  0x55, 0xbd, 0x80, 0x3b, 0x44, 0x73, 0x8c, 0xbd, 0x42, 0x14, 0xba, 0x3e,
  0xc6, 0x75, 0x8e, 0x3e, 0x47, 0xfc, 0x2c, 0xbe, 0xbe, 0x07, 0xad, 0xbe,
  0x30, 0xb6, 0xce, 0x3d, 0x56, 0xd3, 0x34, 0x3c, 0xb7, 0x0a, 0xe0, 0x3d,
  0xd8, 0x43, 0xd1, 0x3e, 0x68, 0xe1, 0xc4, 0xbb, 0x89, 0xbf, 0x0d, 0x3d,
  0x2b, 0xde, 0x4f, 0xbc, 0x43, 0x87, 0x82, 0xbe, 0x78, 0xa4, 0xb4, 0x3e,
  0xc5, 0xb8, 0x19, 0x3f, 0x0b, 0xe6, 0x55, 0xba, 0x35, 0x94, 0x38, 0xbe,
  0x6e, 0x11, 0xd6, 0x3c, 0x7c, 0x8b, 0x9a, 0xbe, 0xdb, 0x87, 0x34, 0x3e,
  0xa6, 0x86, 0x02, 0x3f, 0x58, 0xe4, 0x85, 0x3d, 0xa6, 0x3f, 0x0f, 0xbe,
  0x78, 0xdc, 0x1b, 0xbe, 0x47, 0x64, 0x7f, 0xbe, 0x2d, 0x7a, 0xb8, 0x3e,
  0x25, 0xba, 0x4d, 0x3f, 0xe3, 0x58, 0xf9, 0x3d, 0x27, 0x01, 0x3b, 0xbe,
  0xdb, 0x1e, 0x98, 0xbd, 0xca, 0x23, 0x7c, 0xbe, 0x31, 0xcc, 0x20, 0x3f,
  0xee, 0xcf, 0x31, 0x3f, 0xff, 0x31, 0xa9, 0x3d, 0xd7, 0xf2, 0x03, 0xbe,
  0x35, 0x47, 0x7b, 0xbd, 0xc9, 0x90, 0x13, 0x3e, 0x2a, 0x56, 0xd0, 0x3e,
  0x78, 0xc6, 0x37, 0x3f, 0xae, 0xb5, 0x26, 0x3d, 0xbd, 0x2c, 0xef, 0xbd,
  0xb7, 0x9a, 0xb8, 0xbd, 0xa7, 0xe8, 0x09, 0xbd, 0x71, 0x70, 0x97, 0x3c,
  0xb0, 0xac, 0x36, 0xbe, 0xdb, 0x66, 0x79, 0x3e, 0x1c, 0x78, 0x30, 0xbd,
  0xe6, 0x0b, 0x8f, 0xbe, 0x9e, 0x90, 0xc8, 0x3d, 0x43, 0x0a, 0x9c, 0x3d,
  0x2c, 0xbb, 0x34, 0xbd, 0x1d, 0xda, 0x42, 0x3e, 0x68, 0xc0, 0x99, 0xbe,
  0xca, 0x07, 0x3f, 0xbe, 0x8b, 0x18, 0xb6, 0x3d, 0xe0, 0x85, 0x31, 0x3e,
  0x64, 0xe2, 0x98, 0xbd, 0x23, 0x4e, 0x97, 0x3c, 0x93, 0xdd, 0x38, 0xbe,
  0xbb, 0x1b, 0xc6, 0xbe, 0x09, 0x4e, 0xbe, 0x3e, 0xb9, 0xf2, 0xd3, 0xbc,
  0x59, 0x27, 0xe7, 0xbc, 0x87, 0x7d, 0x00, 0xbe, 0x7d, 0x42, 0x2a, 0xbe,
  0x25, 0xff, 0x6b, 0xbe, 0x7c, 0xf6, 0x69, 0x3e, 0x1a, 0x1b, 0x24, 0x3e,
  0x29, 0x8c, 0xf6, 0xbd, 0x1a, 0xbd, 0xa6, 0xbe, 0x4d, 0xc2, 0xba, 0xbe,
  0xa1, 0x8a, 0xb9, 0x3c, 0x77, 0x14, 0x86, 0x3d, 0x1b, 0x17, 0xb2, 0x3e,
  0xd9, 0x30, 0xb1, 0xbd, 0x19, 0xbf, 0xb3, 0xbe, 0xd7, 0x03, 0xb0, 0xbe,
  0x7e, 0x45, 0x08, 0xbe, 0x97, 0xda, 0x83, 0x3e, 0xb3, 0xae, 0x0f, 0x3f,
  0xcf, 0x98, 0x4f, 0x3d, 0xb4, 0xdf, 0xaf, 0xbe, 0x18, 0x83, 0xd1, 0xbe,
  0xb2, 0xf1, 0x6f, 0x3d, 0x2a, 0x3a, 0x51, 0x3e, 0x76, 0xcc, 0xe6, 0x3e,
  0x58, 0x4f, 0x5d, 0x3e, 0x35, 0xb3, 0xab, 0xbd, 0x74, 0xe0, 0xe0, 0xbe,
  0xf6, 0xa3, 0x02, 0xbd, 0x36, 0xee, 0x0f, 0x3d, 0x12, 0xfc, 0xa4, 0x3e,
  0xfc, 0xf4, 0x95, 0xbc, 0x8d, 0x9b, 0x6e, 0xbe, 0x7e, 0xde, 0xd1, 0xbc,
  0x94, 0x78, 0x7a, 0xbd, 0x93, 0x3e, 0x60, 0x3d, 0x22, 0xcb, 0x29, 0x3f,
  0x74, 0x97, 0xcd, 0x3d, 0x72, 0xbb, 0x85, 0xbd, 0x96, 0xb7, 0xc3, 0xbe,
  0x0f, 0x60, 0xb1, 0xbe, 0x54, 0xef, 0xea, 0x3d, 0x33, 0x9d, 0xaa, 0x3e,
  0x86, 0xec, 0x0e, 0x3e, 0xab, 0x4a, 0xcd, 0x3d, 0x85, 0x87, 0x26, 0xbe,
  0x80, 0xd3, 0x99, 0xbe, 0xaa, 0xab, 0x92, 0x3e, 0x05, 0x07, 0x2e, 0x3f,
  0x14, 0x1d, 0x9b, 0x3e, 0x27, 0xf4, 0x37, 0xbd, 0x67, 0x05, 0xfb, 0x3c,
  0xad, 0x80, 0xb6, 0xbe, 0x76, 0xd1, 0xd2, 0x3d, 0x3a, 0xaa, 0x5a, 0x3f,
  0xc4, 0x87, 0xba, 0x3e, 0x2f, 0x43, 0xd7, 0xbd, 0xd5, 0x34, 0x0b, 0xbe,
  0x67, 0xd6, 0x84, 0xbe, 0x82, 0x65, 0x67, 0xbd, 0xb3, 0x75, 0x76, 0x3f,
  0x0c, 0xe1, 0xe8, 0x3e, 0xeb, 0x5f, 0xf8, 0xbd, 0x76, 0x75, 0xa6, 0x3d,
  0xcc, 0x8f, 0xa0, 0xbd, 0x88, 0x18, 0xc7, 0xbd, 0xd7, 0x33, 0x31, 0x3f,
  0x40, 0xc0, 0x8d, 0x3e, 0x43, 0x93, 0x6c, 0xbe, 0x87, 0x2f, 0x46, 0x3d,
  0x84, 0xe2, 0x65, 0xbe, 0xb8, 0xcd, 0x89, 0x3e, 0x40, 0xdc, 0x17, 0x3f,
  0xcb, 0x64, 0xc4, 0xbd, 0xb1, 0x2b, 0x87, 0x3e, 0x76, 0xc0, 0x83, 0xbd,
  0xab, 0xba, 0x75, 0x3e, 0x7d, 0x6d, 0xa0, 0xbe, 0x73, 0x41, 0xae, 0x3e,
  0xa5, 0x46, 0x44, 0xbc, 0x06, 0x5c, 0xdd, 0x3e, 0x20, 0xff, 0x79, 0x3e,
  0x0e, 0xf4, 0x44, 0x3e, 0x5a, 0x47, 0xf9, 0xbd, 0x2a, 0xeb, 0xd2, 0xbd,
  0xeb, 0xa3, 0x1c, 0x3e, 0x8c, 0x19, 0x2e, 0x3f, 0x0c, 0x65, 0xe6, 0x3d,
  0xfe, 0x84, 0x8e, 0x3c, 0x41, 0xa2, 0x43, 0xbe, 0xe0, 0x42, 0x36, 0x3d,
  0x6a, 0x9f, 0xb5, 0x3d, 0x83, 0x6c, 0x2b, 0x3f, 0xc3, 0x8a, 0x07, 0x3c,
  0xbd, 0x9a, 0xaf, 0x3c, 0x6a, 0x1f, 0x60, 0xbe, 0x31, 0x5f, 0x20, 0xbe,
  0x92, 0x8c, 0xe4, 0xbd, 0xbe, 0x75, 0x75, 0x3f, 0x14, 0xaf, 0xaa, 0xbd,
  0xf9, 0x6e, 0xc0, 0xbd, 0xc2, 0x0e, 0x6f, 0xbd, 0xe4, 0x92, 0xad, 0xbe,
  0x87, 0xe1, 0x01, 0xbc, 0x2e, 0x49, 0x04, 0x3f, 0xad, 0x07, 0x89, 0x3e,
  0xe3, 0xf6, 0x13, 0x3e, 0x07, 0x06, 0x7a, 0x3d, 0xa4, 0xc1, 0xc1, 0xbe,
  0x7a, 0x85, 0x9d, 0xbd, 0xb3, 0x39, 0xed, 0x3e, 0x0b, 0x69, 0x51, 0x3e,
  0x26, 0x5d, 0xc8, 0xbd, 0xb6, 0x8d, 0x03, 0xbe, 0x18, 0x0b, 0x81, 0xbe,
  0x62, 0x30, 0x67, 0xbc, 0x38, 0x90, 0x0b, 0x3f, 0xa5, 0x88, 0xea, 0xbd,
  0x38, 0x62, 0x49, 0x3e, 0x6e, 0xe1, 0xdf, 0x3d, 0xbe, 0xcc, 0xbf, 0xbe,
  0xf3, 0x47, 0x92, 0x3d, 0x5e, 0x6e, 0x53, 0x3e, 0x46, 0x5c, 0x3a, 0x3e,
  0xab, 0xe6, 0xde, 0xbd, 0x4a, 0x4b, 0xc0, 0x3d, 0x68, 0x90, 0xf7, 0xbe,
  0x50, 0x13, 0xb1, 0xbd, 0xa9, 0x1e, 0x1f, 0x3d, 0x00, 0x27, 0x69, 0xbd,
  0x63, 0x1e, 0x80, 0x3d, 0x31, 0xfc, 0xe1, 0xbd, 0xef, 0x35, 0xc2, 0xbe,
  0x75, 0x76, 0x86, 0x3e, 0xde, 0x36, 0x99, 0x3c, 0x7f, 0xf4, 0x51, 0x3d,
  0xbf, 0x41, 0xa5, 0xbd, 0x28, 0x22, 0x2f, 0xbe, 0x02, 0xda, 0xe9, 0xbe,
  0x43, 0xea, 0xd2, 0x3c, 0xee, 0xae, 0xe4, 0x3d, 0x2b, 0xe3, 0x06, 0xbe,
  0x8b, 0x5f, 0x8c, 0x3e, 0xc7, 0x77, 0x59, 0xbe, 0x05, 0xb5, 0x25, 0xbf,
  0xf9, 0xb9, 0xc4, 0x3e, 0x25, 0x6e, 0x2b, 0xbc, 0x67, 0x67, 0xee, 0x3d,
  0x31, 0x70, 0xb3, 0x3d, 0xc4, 0xbe, 0x8f, 0xbe, 0x92, 0x87, 0x10, 0xbf,
  0xd7, 0x4b, 0xa4, 0x3e, 0x97, 0x5d, 0x3d, 0x3d, 0xfb, 0x5f, 0x94, 0x3e,
  0x1f, 0x99, 0xe4, 0x3e, 0x59, 0x35, 0x9a, 0x3d, 0x36, 0xe1, 0x9d, 0xbe,
  0x4c, 0x93, 0xeb, 0x3d, 0xa5, 0xbb, 0x88, 0xbc, 0xcd, 0xbd, 0xea, 0x3d,
  0xfe, 0x45, 0xe5, 0x3e, 0xe2, 0xaf, 0x11, 0x3e, 0x40, 0x15, 0x28, 0xbe,
  0x1f, 0x97, 0x98, 0x3d, 0x22, 0xb4, 0x52, 0xbe, 0x87, 0xae, 0x2a, 0xbe,
  0xc2, 0x42, 0x43, 0xbe, 0x1a, 0xb2, 0xf4, 0xbd, 0x04, 0x9c, 0xcc, 0x3d,
  0xc1, 0x09, 0x08, 0xbd, 0x15, 0xfe, 0xbf, 0x3b, 0x75, 0xde, 0x01, 0xbe,
  0x0e, 0xe0, 0x02, 0xbe, 0x9c, 0xe8, 0x44, 0x3e, 0x13, 0x14, 0x02, 0xbd,
  0xdc, 0x43, 0x16, 0xbe, 0x76, 0x39, 0x09, 0xbc, 0xe2, 0xa2, 0xf9, 0xbc,
  0xdb, 0x80, 0xd3, 0x3d, 0xc7, 0x1d, 0xc4, 0x3c, 0x2a, 0xb0, 0x2d, 0x3e,
  0x94, 0xbc, 0x57, 0xbe, 0x30, 0xb4, 0x04, 0x3d, 0x20, 0x7d, 0x39, 0xbe,
  0xa5, 0x60, 0xba, 0xbc, 0xa8, 0x3f, 0xa2, 0x3d, 0xbf, 0xaf, 0x5e, 0xbd,
  0x6f, 0xee, 0xd7, 0xbb, 0x4a, 0xec, 0x60, 0xbe, 0x59, 0x1f, 0x0b, 0xbe,
  0x69, 0xca, 0xf4, 0xbd, 0x4d, 0xde, 0xc1, 0x3d, 0x05, 0xcf, 0x6f, 0xbd,
  0xdb, 0x10, 0x50, 0xbe, 0xc9, 0x37, 0x3d, 0xbe, 0x21, 0xed, 0x9a, 0x3d,
  0x18, 0x94, 0x9a, 0xbd, 0xa8, 0x82, 0x37, 0xbd, 0x40, 0x14, 0x1a, 0x3e,
  0x02, 0xff, 0x40, 0x3e, 0x99, 0xc2, 0x24, 0xbc, 0xeb, 0xb1, 0x3c, 0xbd,
  0xc6, 0x94, 0xd2, 0xbd, 0x29, 0x95, 0x98, 0x3d, 0xd0, 0x8b, 0x2b, 0x3e,
  0xb0, 0xea, 0x4b, 0x3e, 0xfc, 0x0c, 0x86, 0xba, 0x33, 0x30, 0xec, 0xbc,
  0xb0, 0xce, 0xfd, 0x3d, 0xcf, 0x0d, 0x67, 0x3d, 0xe8, 0x77, 0x3b, 0x3e,
  0xe7, 0xcd, 0x5b, 0xbb, 0x4e, 0xf4, 0xfb, 0xbc, 0xc2, 0xe0, 0x3c, 0x3d,
  0x7a, 0x12, 0xeb, 0xbd, 0x16, 0x1d, 0xb7, 0x3d, 0x36, 0x90, 0x13, 0x3d,
  0xc1, 0xc3, 0x36, 0xbe, 0xf7, 0xb4, 0x44, 0xbc, 0x9a, 0x75, 0x32, 0xbe,
  0xfe, 0x99, 0x2f, 0x3e, 0xac, 0x5f, 0xa6, 0xbd, 0x82, 0xe8, 0x5d, 0x3e,
  0x19, 0x1e, 0xe8, 0xbd, 0xa6, 0x11, 0x52, 0xbe, 0xb2, 0x92, 0xc3, 0x3d,
  0x50, 0x46, 0x96, 0x3d, 0x31, 0x76, 0x5c, 0x3e, 0x35, 0x1e, 0x19, 0x3c,
  0x9a, 0x04, 0xeb, 0xbc, 0x45, 0x20, 0x24, 0xbe, 0x66, 0x6e, 0x04, 0x3e,
  0x3e, 0x97, 0x5a, 0xbe, 0x32, 0x03, 0xe1, 0xbd, 0x7b, 0x0f, 0x4d, 0x3b,
  0x65, 0xb9, 0x87, 0x3c, 0xb5, 0x24, 0x97, 0xbc, 0xfa, 0x60, 0x11, 0x3e,
  0x5f, 0x56, 0xf5, 0x3c, 0x71, 0xd2, 0x96, 0x3d, 0xea, 0xdf, 0x40, 0xbe,
  0x24, 0x61, 0x0b, 0xba, 0xe1, 0xe5, 0x07, 0xbe, 0x14, 0x59, 0x28, 0xbe,
  0xfc, 0x0d, 0x27, 0xbe, 0x70, 0xff, 0x16, 0xbe, 0x6b, 0xa2, 0x2b, 0x3e,
  0x82, 0x8e, 0x05, 0x3b, 0xeb, 0xcd, 0x0b, 0x3e, 0xe5, 0xcb, 0x4b, 0xbd,
  0x11, 0xa7, 0x4a, 0x3e, 0x0c, 0x22, 0xf6, 0x3d, 0x8d, 0xf7, 0x88, 0xbd,
  0xb6, 0xe6, 0x75, 0xbd, 0x6b, 0x7b, 0xef, 0x3c, 0x40, 0x5d, 0x57, 0x3c,
  0x51, 0x59, 0x7b, 0x3c, 0xc0, 0xac, 0x9c, 0xbd, 0xde, 0x9a, 0xf0, 0xbd,
  0x13, 0xe8, 0x99, 0x3d, 0x76, 0x72, 0x3c, 0xbd, 0x2b, 0x5a, 0x41, 0xbe,
  0xff, 0x8f, 0x17, 0x3d, 0x59, 0x95, 0x3d, 0xbe, 0xfd, 0xc9, 0x9f, 0x3a,
  0x75, 0xdd, 0x4d, 0x3e, 0x0c, 0x34, 0x95, 0xbd, 0x1b, 0xda, 0x38, 0xbe,
  0xeb, 0x6b, 0xd5, 0x3d, 0x0b, 0x9a, 0x35, 0x3e, 0x61, 0xbd, 0xcd, 0xbd,
  0x2d, 0xfa, 0x60, 0xbd, 0x30, 0x3a, 0x2f, 0x3e, 0x1c, 0xe8, 0xfc, 0xbd,
  0xf1, 0x2a, 0x15, 0xbe, 0x30, 0xcb, 0xb8, 0xbc, 0x1a, 0x9a, 0x19, 0x3e,
  0xf8, 0xe1, 0x13, 0x3d, 0x9e, 0x45, 0x72, 0x3d, 0xc9, 0xd7, 0x8e, 0xbd,
  0x0b, 0x9a, 0x32, 0x3e, 0x2a, 0xb4, 0x55, 0x3e, 0x66, 0x29, 0x10, 0xbe,
  0xb2, 0x5f, 0xc0, 0x3d, 0xca, 0xdb, 0xd2, 0x3c, 0x3e, 0xfc, 0xf3, 0xbd,
  0xd7, 0xee, 0x44, 0xbe, 0xa3, 0x47, 0xf2, 0x3d, 0x3c, 0xba, 0x32, 0x3e,
  0x6b, 0xb9, 0xef, 0xbd, 0xb8, 0xdf, 0x00, 0x3e, 0x21, 0x4d, 0x42, 0xbe,
  0xb0, 0x70, 0xa3, 0x3c, 0x24, 0x67, 0x49, 0xbe, 0x12, 0x77, 0x96, 0xbb,
  0x36, 0x37, 0xd9, 0xbd, 0x20, 0xaa, 0x0c, 0x3e, 0x76, 0xd9, 0x0e, 0xbe,
  0xb3, 0x10, 0x02, 0x3e, 0xef, 0x3b, 0x7b, 0xbd, 0x93, 0x7d, 0xbc, 0xbd,
  0x13, 0xb9, 0x5b, 0xbe, 0x02, 0xe2, 0x82, 0x3c, 0x3a, 0xd7, 0x3f, 0x3e,
  0x0e, 0xea, 0x7d, 0x3c, 0xa4, 0x53, 0xeb, 0xbd, 0x0c, 0x42, 0xea, 0xbc,
  0x5e, 0x87, 0x10, 0x3e, 0x22, 0xd3, 0xf9, 0xbd, 0x26, 0x8b, 0xea, 0x3d,
  0x16, 0x3e, 0x65, 0xbe, 0x1a, 0x22, 0x79, 0x3d, 0x94, 0x96, 0x93, 0xbb,
  0x66, 0x68, 0x9b, 0x3d, 0x83, 0x9a, 0x3c, 0x3e, 0x4c, 0xbe, 0xad, 0x3d,
  0x70, 0x4d, 0x21, 0xbd, 0xdf, 0xb9, 0x44, 0xbe, 0x05, 0x2d, 0x10, 0xbe,
  0x30, 0x11, 0x22, 0xbe, 0x50, 0x5b, 0x38, 0x3c, 0xe1, 0x20, 0x01, 0xbd,
  0x3a, 0x66, 0x2d, 0xbe, 0xb8, 0x1a, 0x2a, 0x3e, 0x96, 0x76, 0x0c, 0xbe,
  0xa2, 0xbb, 0x71, 0x3d, 0x05, 0xe2, 0xa6, 0x3d, 0xff, 0x3e, 0x26, 0x3d,
  0x06, 0xc1, 0x0c, 0xbe, 0x90, 0x03, 0xb7, 0xbd, 0x84, 0x8b, 0x45, 0xbe,
  0x1d, 0xdb, 0x1d, 0x3e, 0xa3, 0xca, 0x28, 0x3d, 0xf6, 0x69, 0x27, 0x3e,
  0x7a, 0x9b, 0x01, 0xbe, 0x39, 0xd1, 0x91, 0xbd, 0xf7, 0x43, 0x78, 0xbd,
  0x8b, 0xf9, 0x90, 0xbc, 0x2d, 0x85, 0x16, 0x3e, 0x48, 0xa8, 0xdd, 0x3d,
  0x16, 0xc2, 0x4f, 0x3e, 0xee, 0x6e, 0x57, 0x3c, 0x61, 0xfe, 0xeb, 0x3d,
  0x1f, 0xe0, 0xb7, 0xbd, 0x16, 0x4c, 0x41, 0xbe, 0x97, 0xa6, 0x9e, 0x3d,
  0xaf, 0xb7, 0x25, 0x3c, 0x9e, 0xf3, 0xf0, 0x3d, 0xf5, 0x9e, 0xc2, 0x3d,
  0x32, 0x71, 0xdb, 0xbc, 0xf2, 0x59, 0x03, 0x3d, 0x3e, 0x48, 0x5a, 0xbe,
  0xca, 0x0a, 0x27, 0xbd, 0xbb, 0x4f, 0x61, 0xbd, 0x75, 0xbf, 0x9f, 0xbd,
  0x84, 0x28, 0x2b, 0x3c, 0x7d, 0x38, 0x59, 0x3d, 0xcc, 0x00, 0x1c, 0xbd,
  0xbb, 0x2d, 0x1c, 0xbe, 0x25, 0x8b, 0x59, 0xbe, 0x93, 0x8e, 0x30, 0xbe,
  0xf4, 0xb2, 0x15, 0x3e, 0xbd, 0x0f, 0x4b, 0x3e, 0x19, 0x4a, 0x0c, 0xbe,
  0xd9, 0x4d, 0x93, 0x3b, 0x16, 0x90, 0x3a, 0x3e, 0x54, 0xd1, 0x04, 0x3c,
  0xc0, 0xc7, 0xb6, 0x3c, 0x1a, 0x0b, 0x53, 0xbe, 0x3f, 0xc1, 0x43, 0x3e,
  0xb3, 0x40, 0xdf, 0x3c, 0x45, 0xbf, 0xa3, 0x3d, 0xc7, 0x15, 0xe3, 0x3c,
  0xc8, 0x81, 0xb0, 0xbd, 0xe7, 0x59, 0xcd, 0x3d, 0xb9, 0xde, 0x30, 0xbe,
  0x00, 0x52, 0x0a, 0x3e, 0x19, 0xf4, 0x25, 0x3d, 0x85, 0x76, 0x47, 0xbe,
  0xe5, 0x99, 0xcf, 0xbc, 0x7d, 0x34, 0x08, 0xbe, 0x76, 0xa4, 0x33, 0x3e,
  0xac, 0x09, 0x21, 0xbe, 0x12, 0xd2, 0x41, 0x3e, 0x02, 0xfc, 0x8a, 0x3b,
  0x2c, 0x23, 0x94, 0xbd, 0x5d, 0x05, 0x38, 0x3e, 0x2d, 0x2d, 0x29, 0x3d,
  0x91, 0x46, 0x3c, 0x3d, 0xf4, 0xdf, 0x91, 0xbd, 0xc3, 0xfb, 0xc6, 0xbc,
  0x61, 0x0f, 0xc6, 0xbd, 0x11, 0x19, 0x18, 0x3b, 0xba, 0x95, 0x64, 0xbe,
  0x00, 0xa6, 0x07, 0x3e, 0x61, 0x08, 0x1c, 0x3e, 0x58, 0xa5, 0xc5, 0xbd,
  0x24, 0xa3, 0x0a, 0xbe, 0x8f, 0x3e, 0xd2, 0x3c, 0x03, 0x16, 0x57, 0xbe,
  0x0a, 0x04, 0xb3, 0xbd, 0x27, 0xe3, 0xb2, 0x3b, 0x56, 0x8a, 0x91, 0x3c,
  0xac, 0x25, 0xb9, 0x3d, 0xb1, 0x9d, 0x61, 0xbe, 0xd4, 0x4e, 0x29, 0x3d,
  0x4b, 0xfe, 0xd6, 0xbd, 0x66, 0xbf, 0xf7, 0x3d, 0x54, 0x66, 0xbb, 0xbd,
  0x1e, 0x32, 0x56, 0x3e, 0x85, 0x25, 0x63, 0x3c, 0x07, 0x1b, 0x44, 0xbd,
  0x10, 0xe3, 0x45, 0xbe, 0x8f, 0xfc, 0x35, 0xbe, 0x93, 0xa8, 0x46, 0x3d,
  0x19, 0x32, 0x89, 0x3d, 0x31, 0x73, 0x9f, 0xbc, 0x47, 0xcc, 0x3f, 0x3e,
  0xe8, 0x88, 0x9a, 0x37, 0x52, 0x98, 0xe1, 0xbd, 0x55, 0xa7, 0xbd, 0xbc,
  0x04, 0x96, 0x5a, 0x3e, 0x52, 0x9c, 0xee, 0xbd, 0x9e, 0x79, 0x60, 0xbe,
  0xd0, 0xac, 0x2f, 0x3e, 0x62, 0x36, 0x3f, 0xbc, 0x9a, 0x30, 0xdf, 0x3d,
  0x95, 0xbb, 0x5c, 0xbd, 0xe7, 0x25, 0xa3, 0xbc, 0x29, 0x2b, 0x10, 0xbe,
  0x40, 0x10, 0x07, 0x3d, 0xb7, 0x40, 0xe7, 0xbd, 0xa0, 0xb8, 0xeb, 0x3c,
  0x00, 0xd5, 0xbd, 0xbb, 0x9a, 0x96, 0x50, 0xbe, 0x7d, 0xc1, 0x4a, 0xbe,
  0x9c, 0xf5, 0x1a, 0x3e, 0x2c, 0x16, 0x03, 0xbe, 0x44, 0xaf, 0x5e, 0xbd,
  0xf4, 0xb3, 0xaa, 0x3d, 0xac, 0xd6, 0xe3, 0x3d, 0x30, 0xb1, 0x0b, 0xbc,
  0x56, 0xda, 0xb7, 0xbd, 0xb0, 0xfc, 0x46, 0xbd, 0x10, 0x4e, 0x43, 0xbe,
  0xd0, 0x4c, 0x1d, 0xbe, 0x00, 0x9a, 0x4f, 0x3a, 0x3c, 0xde, 0x52, 0x3e,
  0x16, 0x84, 0xf6, 0xbd, 0x04, 0x5f, 0x8b, 0x3d, 0x78, 0x95, 0x1f, 0x3e,
  0x80, 0x55, 0x5c, 0x3e, 0x21, 0xce, 0xe5, 0xbd, 0x00, 0xef, 0x20, 0x3a,
  0x5c, 0x68, 0xcd, 0xbd, 0xe4, 0x2c, 0xb5, 0x3d, 0x00, 0x30, 0x54, 0xbe,
  0x84, 0x98, 0x42, 0x3e, 0xd8, 0x1b, 0x12, 0x3d, 0xb0, 0x7f, 0x06, 0x3c,
  0x22, 0x70, 0x0f, 0xbe, 0xfc, 0xca, 0xa3, 0x3d, 0x5a, 0x16, 0x0b, 0xbe,
  0xc3, 0xfe, 0x48, 0xbe, 0xa8, 0x2c, 0xd3, 0x3c, 0xc9, 0x27, 0x60, 0xbe,
  0xbc, 0xb1, 0x6c, 0xbd, 0xe7, 0x9c, 0xd7, 0xbd, 0x20, 0x43, 0xcc, 0xbd,
  0x82, 0x56, 0x4e, 0xbe, 0x40, 0x15, 0x65, 0xbc, 0xe6, 0xcf, 0x00, 0x3e,
  0xac, 0x46, 0x4c, 0x3e, 0x34, 0x9c, 0x00, 0x3e, 0x44, 0x68, 0x02, 0xbe,
  0x00, 0xcb, 0x0c, 0xba, 0xc0, 0x60, 0xb1, 0x3d, 0xbc, 0xe0, 0x4b, 0x3e,
  0xc8, 0xd7, 0x29, 0x3d, 0xc0, 0x20, 0x99, 0x3d, 0x94, 0x0d, 0xbd, 0x3d,
  0x08, 0x4b, 0x47, 0xbe, 0x4b, 0xa4, 0xf2, 0xbd, 0x98, 0xe5, 0x38, 0xbe,
  0x15, 0x98, 0xea, 0xbd, 0xe8, 0x7b, 0xf5, 0xbd, 0x5c, 0xa0, 0x36, 0xbe,
  0x82, 0x4f, 0x00, 0xbe, 0xe2, 0xbf, 0x0d, 0x3e, 0xa9, 0xc1, 0x4d, 0xbe,
  0xcc, 0x8b, 0x81, 0x3d, 0x88, 0x07, 0x22, 0x3d, 0x98, 0x22, 0xd1, 0x3d,
  0x08, 0xf1, 0x57, 0x3d, 0x3c, 0x67, 0x32, 0xbe, 0x0e, 0x4c, 0xa8, 0xbd,
  0xe2, 0x4d, 0x3b, 0xbe, 0xf8, 0x84, 0x2c, 0xbe, 0x70, 0x92, 0xba, 0x3d,
  0x60, 0xfb, 0x66, 0x3c, 0x87, 0x2b, 0xfa, 0xbd, 0x5a, 0xb1, 0x2b, 0x3e,
  0x70, 0xa0, 0x63, 0x3c, 0x8a, 0xdc, 0x00, 0x3e, 0x2b, 0xf6, 0x4f, 0xbe,
  0xf0, 0xd6, 0xf3, 0x3c, 0x90, 0x08, 0xd2, 0xbd, 0xd0, 0xce, 0x5d, 0xbc,
  0x24, 0xe7, 0x46, 0x3e, 0xb0, 0x4e, 0x68, 0x3d, 0x92, 0x14, 0x18, 0x3e,
  0x00, 0xc5, 0x53, 0xbb, 0x30, 0x07, 0x4c, 0x3d, 0x39, 0x3d, 0x20, 0xbe,
  0xaa, 0x2c, 0x0a, 0x3e, 0x96, 0x5c, 0xc2, 0xbd, 0x30, 0xca, 0x00, 0x3d,
  0xe5, 0xa2, 0xc7, 0xbd, 0xa6, 0x1a, 0x50, 0xbe, 0x88, 0xd4, 0x23, 0x3e,
  0x52, 0x07, 0x07, 0x3e, 0x31, 0xcf, 0x34, 0xbe, 0x9e, 0x1c, 0x2c, 0x3e,
  0x3c, 0xdf, 0x15, 0xbe, 0x78, 0x12, 0x09, 0x3e, 0x84, 0x98, 0x51, 0xbe,
  0xc4, 0xf2, 0x37, 0xbd, 0x6c, 0xfd, 0x52, 0xbe, 0xfc, 0xd0, 0x9e, 0xbd,
  0xa0, 0x35, 0x03, 0x3e, 0x0f, 0x64, 0x42, 0xbe, 0x90, 0xa7, 0x87, 0x3d,
  0xc0, 0x92, 0x49, 0x3d, 0x84, 0x40, 0x46, 0x3e, 0xae, 0xba, 0x3e, 0xbe,
  0x78, 0x63, 0xc9, 0xbc, 0xe0, 0x3b, 0x9f, 0x3d, 0xd8, 0x80, 0x5c, 0x3d,
  0x54, 0xa9, 0x36, 0x3e, 0xb7, 0x86, 0x60, 0xbe, 0x68, 0xf8, 0x57, 0x3d,
  0xec, 0x97, 0x23, 0xbd, 0x0c, 0x61, 0x49, 0x3e, 0xc3, 0xa0, 0xec, 0xbd,
  0xe2, 0x04, 0x3b, 0x3e, 0x22, 0x59, 0x83, 0xbd, 0x58, 0x66, 0x9b, 0xbc,
  0xc6, 0xe7, 0x5c, 0xbe, 0x98, 0x92, 0x2e, 0x3d, 0xa7, 0xf0, 0x1b, 0xbe,
  0xbc, 0x6e, 0x5f, 0x3e, 0x60, 0xd6, 0xca, 0xbc, 0x8a, 0x34, 0x92, 0xbd,
  0xd4, 0x50, 0x12, 0xbe, 0x70, 0xf4, 0x69, 0xbc, 0xbe, 0xbf, 0x5a, 0x3e,
  0x7c, 0x2f, 0x1d, 0x3e, 0xc9, 0xaf, 0x2c, 0xbe, 0x0a, 0xe4, 0x58, 0x3e,
  0x28, 0xd6, 0x95, 0x3c, 0x7c, 0x57, 0x9e, 0xbd, 0xb8, 0xfa, 0x07, 0x3d,
  0x40, 0x40, 0xba, 0x3d, 0xc0, 0x51, 0x19, 0x3c, 0xe4, 0x55, 0x88, 0x3d,
  0x83, 0x76, 0x58, 0xbe, 0xfe, 0x3c, 0x23, 0xbe, 0x42, 0x03, 0x0f, 0xbe,
  0x5a, 0xf1, 0x1e, 0xbe, 0xd8, 0x74, 0xee, 0xbc, 0x85, 0xb7, 0x62, 0xbe,
  0xd8, 0x79, 0x30, 0x3e, 0x5c, 0x3b, 0x90, 0x3d, 0x34, 0x14, 0x8a, 0x3d,
  0xf0, 0x21, 0x57, 0x3c, 0x4e, 0x48, 0x59, 0xbe, 0xd8, 0x6e, 0xe0, 0x3d,
  0xb8, 0x3e, 0x5a, 0xbd, 0xf8, 0xb4, 0x1c, 0xbe, 0x76, 0xf7, 0x8a, 0xbd,
  0x6b, 0x2c, 0xed, 0xbd, 0x18, 0x01, 0x26, 0x3e, 0x60, 0x83, 0xfd, 0xbc,
  0xc0, 0xe7, 0x9b, 0x3b, 0x00, 0xc8, 0x16, 0xbc, 0xe8, 0x59, 0x11, 0xbd,
  0xbc, 0xb5, 0xe5, 0x3d, 0x81, 0x02, 0x3f, 0xbe, 0xba, 0xd0, 0x0e, 0xbe,
  0x48, 0x3a, 0x49, 0xbe, 0x60, 0x03, 0xe1, 0xbd, 0x24, 0x3e, 0x19, 0xbe,
  0x3b, 0x51, 0x2e, 0xbe, 0x91, 0xb9, 0x5f, 0xbe, 0xb6, 0xc6, 0xa5, 0xbd,
  0x12, 0x26, 0x03, 0xbe, 0x68, 0xfe, 0xee, 0xbd, 0x60, 0x9c, 0xdd, 0x3c,
  0x80, 0x2d, 0x80, 0xbb, 0xc8, 0xf4, 0x6d, 0x3d, 0x30, 0x51, 0x2e, 0x3c,
  0x02, 0x73, 0x3f, 0xbe, 0x58, 0xc1, 0x9c, 0xbd, 0x5a, 0x8b, 0x0e, 0x3e,
  0xd0, 0x79, 0x9a, 0xbc, 0xc0, 0x86, 0xf6, 0x3c, 0x20, 0x97, 0x6e, 0xbd,
  0x50, 0x2a, 0x83, 0x3c, 0x58, 0x72, 0x2c, 0x3e, 0x82, 0x59, 0x3f, 0x3e,
  0x34, 0x01, 0x97, 0xbd, 0x26, 0x55, 0x56, 0x3e, 0x9e, 0x26, 0x25, 0x3f,
  0x7b, 0x6b, 0x68, 0x3d, 0x15, 0x91, 0x68, 0x3f, 0xf5, 0x15, 0x00, 0x3e,
  0x39, 0xe3, 0x1a, 0xbe, 0xf7, 0xff, 0xea, 0x3e, 0x6d, 0xc0, 0xb2, 0x3e,
  0xc3, 0xf7, 0x27, 0xbe, 0x8d, 0x11, 0x02, 0x3f, 0x34, 0xb1, 0x62, 0x3c,
  0xeb, 0x13, 0xf4, 0xbd, 0xea, 0x97, 0xe1, 0x3e, 0xbc, 0xde, 0xa9, 0x3e,
  0xe7, 0xa3, 0x87, 0xbe, 0x0b, 0x32, 0x16, 0x3f, 0xdf, 0x35, 0x9b, 0x3d,
  0x4b, 0x9e, 0x3a, 0xbe, 0x6e, 0x8e, 0xd9, 0x3e, 0x41, 0x46, 0xa9, 0xbd,
  0xea, 0xd1, 0x3d, 0x3c, 0xad, 0xd6, 0x3b, 0x3f, 0x7a, 0x9e, 0xf8, 0xbb,
  0x01, 0xf8, 0x3d, 0xbe, 0x20, 0xe6, 0x92, 0x3e, 0xc0, 0xbb, 0xd7, 0xbc,
  0xa5, 0x40, 0xd1, 0xbd, 0xf2, 0xb6, 0xac, 0x3e, 0x4c, 0x05, 0x00, 0xbe,
  0x32, 0x75, 0xae, 0xbe, 0x10, 0xaf, 0xf2, 0x3e, 0x44, 0x0b, 0x17, 0x3e,
  0x74, 0x72, 0x83, 0xbe, 0x15, 0x78, 0x03, 0x3f, 0xe8, 0x92, 0x3a, 0xbe,
  0x81, 0x54, 0xbf, 0xbc, 0x25, 0xbd, 0xdc, 0x3e, 0xdc, 0xc7, 0xdb, 0x3c,
  0xba, 0x96, 0xef, 0xbe, 0xc6, 0xf4, 0xa2, 0x3e, 0xc2, 0x96, 0xd1, 0xbc,
  0xa3, 0x59, 0xba, 0xbe, 0x04, 0x6c, 0xcd, 0x3e, 0xea, 0xd5, 0x5b, 0xbe,
  0xe3, 0xae, 0xb3, 0xbe, 0x41, 0xf5, 0x48, 0x3e, 0xa3, 0xd3, 0xce, 0x3c,
  0x6d, 0x5c, 0x54, 0xbe, 0xaa, 0xcf, 0xe6, 0x3e, 0x10, 0xb0, 0xae, 0xbd,
  0x72, 0xbc, 0xa0, 0xbe, 0x8f, 0xce, 0x9e, 0x3b, 0xf3, 0x58, 0xd3, 0xbe,
  0x60, 0x1f, 0xaf, 0xbe, 0xcb, 0x7a, 0x0b, 0x3f, 0x7c, 0x96, 0x5f, 0xbe,
  0x3e, 0x73, 0x62, 0xbe, 0xda, 0x43, 0x53, 0xbe, 0xf0, 0x25, 0x99, 0xbe,
  0x11, 0xf5, 0xcb, 0xbd, 0xbe, 0xda, 0xf5, 0x3e, 0x0e, 0xbf, 0xec, 0xbc,
  0xc0, 0xb9, 0x62, 0x3e, 0x1e, 0x82, 0x8d, 0xbc, 0xa8, 0xfb, 0xdf, 0xbd,
  0xa3, 0xdf, 0x47, 0xbe, 0x2f, 0x15, 0xa7, 0x3e, 0x50, 0x22, 0xd2, 0xbe,
  0xdc, 0xe6, 0x94, 0x3e, 0xd3, 0x82, 0x9d, 0xbe, 0xd5, 0x50, 0x2f, 0xbe,
  0xb9, 0x84, 0x10, 0x3d, 0x03, 0xa2, 0x90, 0x3e, 0xc6, 0x5d, 0x50, 0xbe,
  0xac, 0x9f, 0xc9, 0xbd, 0x14, 0xce, 0x75, 0xbe, 0xf1, 0xce, 0xf8, 0xbc,
  0x23, 0xfd, 0x52, 0xbc, 0x79, 0x96, 0x1f, 0x3e, 0x35, 0xef, 0x26, 0xbe,
  0x3d, 0xa2, 0x81, 0x3e, 0xd9, 0x20, 0x03, 0xbe, 0xee, 0xb8, 0x9d, 0xbd,
  0x2a, 0x55, 0xf8, 0x3d, 0x85, 0xae, 0xcf, 0x3e, 0x5c, 0xb5, 0x68, 0xbe,
  0xb7, 0x48, 0x9f, 0xbc, 0xca, 0x73, 0x6d, 0xbe, 0xa0, 0x84, 0x4b, 0x3e,
  0x71, 0x5b, 0xc6, 0x3e, 0x23, 0x4c, 0x96, 0x3e, 0x5e, 0x3e, 0x02, 0x3f,
  0xbd, 0xc6, 0xaf, 0xbd, 0x04, 0x94, 0xac, 0x3e, 0xaa, 0x94, 0xd5, 0x3e,
  0x4c, 0xfb, 0xb0, 0xbd, 0x6a, 0x3a, 0x9f, 0xbe, 0x67, 0x69, 0xd5, 0x3e,
  0x2f, 0x13, 0xc3, 0xbe, 0x34, 0x5d, 0xab, 0x3e, 0x74, 0x8f, 0xb0, 0x3e,
  0x9c, 0x1f, 0x6c, 0xbd, 0x55, 0xdb, 0x35, 0xbd, 0x7a, 0x0e, 0xb9, 0x3e,
  0x53, 0x08, 0x2d, 0x3d, 0x31, 0xad, 0xde, 0x3e, 0xd7, 0xdf, 0xde, 0x3e,
  0xbc, 0x26, 0x01, 0x3e, 0xea, 0xf5, 0xdf, 0xbe, 0xe6, 0x49, 0x00, 0xbe,
  0x9c, 0x34, 0x1a, 0x3d, 0xd4, 0xb5, 0xd9, 0x3e, 0x25, 0x16, 0x13, 0x3f,
  0x85, 0x1a, 0xf7, 0x3d, 0x2e, 0x6c, 0x91, 0xbe, 0xed, 0xf0, 0x66, 0x3e,
  0x56, 0x3e, 0x07, 0xbd, 0x59, 0x13, 0xe0, 0x3e, 0x41, 0xad, 0x38, 0x3f,
  0xea, 0xa6, 0x1a, 0x3e, 0xa8, 0x7d, 0xb6, 0xbe, 0xba, 0xa5, 0x49, 0x3d,
  0xee, 0xdd, 0xb8, 0x3e, 0xf0, 0x91, 0xbc, 0x3e, 0xe7, 0x74, 0x22, 0x3f,
  0xcd, 0xe6, 0x15, 0xbe, 0xad, 0x32, 0xb4, 0xbd, 0x72, 0x6c, 0xd5, 0x3d,
  0x3e, 0xb9, 0xcb, 0x3e, 0xe8, 0x16, 0x6c, 0x3e, 0x0e, 0xf4, 0x3c, 0x3f,
  0x51, 0xf4, 0x04, 0x3e, 0x1e, 0x20, 0xcb, 0xbe, 0x35, 0x87, 0x0b, 0xbd,
  0x67, 0x94, 0xa3, 0x3e, 0x1f, 0x0a, 0x23, 0x3d, 0x30, 0x86, 0x22, 0x3f,
  0x53, 0xbf, 0x92, 0xbd, 0x46, 0x4d, 0xfa, 0x3b, 0x16, 0x66, 0x87, 0x3e,
  0xcc, 0x47, 0x0a, 0x3f, 0xa5, 0x54, 0x10, 0x3e, 0x19, 0x25, 0x08, 0x3f,
  0x4a, 0x07, 0x31, 0x3e, 0xee, 0xa8, 0x8d, 0xbd, 0x30, 0x4a, 0x7a, 0x3d,
  0xd6, 0xb8, 0xc0, 0x3e, 0x69, 0x8c, 0x58, 0xbe, 0x84, 0x90, 0x2f, 0x3f,
  0x26, 0xef, 0xbd, 0xbd, 0xe3, 0x05, 0x72, 0xbe, 0xaa, 0xfb, 0x48, 0x3e,
  0xcb, 0xa8, 0xd0, 0x3e, 0x2c, 0x67, 0xd0, 0x3d, 0x86, 0x6c, 0xab, 0x3e,
  0xda, 0x95, 0xca, 0x3d, 0x61, 0x55, 0x14, 0x3d, 0xe9, 0x73, 0x3e, 0x3e,
  0xc0, 0x20, 0x5b, 0x3e, 0x09, 0x23, 0xd4, 0xbd, 0x4b, 0xaa, 0xf7, 0x3e,
  0xb0, 0x00, 0xa1, 0x3e, 0x46, 0x9d, 0x3b, 0xbe, 0xe8, 0xcd, 0x9a, 0xbc,
  0xab, 0x33, 0x13, 0x3e, 0xbb, 0xaf, 0x2f, 0xbe, 0xbf, 0xa9, 0xd0, 0x3e,
  0xcd, 0xc4, 0x6b, 0x3e, 0x3f, 0xc1, 0x84, 0xbc, 0xfd, 0x28, 0xc4, 0x3d,
  0xd4, 0xf2, 0xac, 0x3e, 0xb9, 0x6a, 0xe2, 0x3d, 0x54, 0x8d, 0xfe, 0x3e,
  0x84, 0xac, 0x99, 0x3e, 0x57, 0x15, 0x4d, 0x3e, 0x26, 0xa5, 0x70, 0x3e,
  0x41, 0x6e, 0x9a, 0xbd, 0x5f, 0xef, 0x02, 0xbd, 0x45, 0xb9, 0xf4, 0x3e,
  0xc9, 0xde, 0xdc, 0x3d, 0x9f, 0x79, 0x89, 0xbd, 0x8c, 0x71, 0x47, 0xbd,
  0xea, 0xc5, 0x21, 0x3e, 0xc3, 0xa2, 0xdc, 0xbd, 0x54, 0xf4, 0x0b, 0x3e,
  0x08, 0xd3, 0x2c, 0xbe, 0x16, 0xcf, 0xdc, 0xbd, 0x64, 0x9b, 0x30, 0x3e,
  0xfb, 0xb8, 0x16, 0xbe, 0x70, 0x42, 0x3c, 0x3d, 0x9e, 0x71, 0x3c, 0x3e,
  0x0c, 0x9e, 0x22, 0xbd, 0x00, 0x61, 0x60, 0x3e, 0x40, 0x1b, 0xc6, 0x3d,
  0xd3, 0x49, 0x3c, 0xbe, 0x10, 0x38, 0xed, 0xbd, 0xd0, 0x11, 0x3e, 0x3d,
  0x26, 0xc4, 0xf6, 0xbd, 0xf9, 0x2d, 0x53, 0xbe, 0x1e, 0xa9, 0x23, 0xbe,
  0x48, 0x02, 0x80, 0x3d, 0x71, 0xfe, 0xe0, 0xbd, 0x46, 0x4b, 0x2e, 0x3e,
  0x80, 0xc3, 0x5d, 0xbc, 0x00, 0x76, 0x94, 0x3c, 0xee, 0xb9, 0x5f, 0x3e,
  0x91, 0xb6, 0x40, 0xbe, 0x5a, 0x44, 0x23, 0xbe, 0x14, 0x76, 0x4e, 0xbd,
  0x2e, 0xfa, 0x14, 0x3e, 0x88, 0xcf, 0x96, 0xbd, 0x98, 0xcd, 0x61, 0x3e,
  0x74, 0x50, 0x24, 0x3e, 0xf0, 0x15, 0x59, 0x3e, 0x18, 0x0e, 0x03, 0xbe,
  0xd8, 0xb1, 0x84, 0x3c, 0x20, 0x9c, 0xd8, 0xbc, 0x32, 0x0c, 0x5c, 0xbe,
  0x5a, 0xc4, 0x24, 0x3e, 0xb8, 0xa7, 0xe9, 0xbc, 0xfe, 0xa6, 0xb3, 0xbd,
  0xac, 0x0c, 0x29, 0xbe, 0x70, 0x23, 0x34, 0x3d, 0x00, 0x78, 0x76, 0xbb,
  0xf0, 0xb6, 0xda, 0xbd, 0xeb, 0xc9, 0xf8, 0xbd, 0x30, 0x33, 0x9b, 0x3d,
  0x4c, 0x58, 0x5b, 0xbd, 0xe8, 0x8f, 0x61, 0x3e, 0x20, 0x61, 0xb0, 0x3d,
  0x34, 0x96, 0x80, 0x3d, 0x6e, 0xaa, 0x55, 0xbe, 0x5e, 0x90, 0x8e, 0xbd,
  0xde, 0xb1, 0x62, 0x3e, 0x8c, 0x32, 0x5d, 0x3e, 0xf4, 0xd3, 0x3b, 0xbe,
  0x30, 0x0f, 0x7a, 0x3d, 0x75, 0x54, 0x58, 0xbe, 0x23, 0x5e, 0xe3, 0xbd,
  0xe8, 0xca, 0x7d, 0x3d, 0xcc, 0xed, 0x43, 0xbd, 0x8f, 0xaa, 0x47, 0xbe,
  0xaa, 0x0a, 0x47, 0xbe, 0xbb, 0x34, 0xc6, 0xbd, 0x60, 0x99, 0x9c, 0x3c,
  0xd0, 0xf4, 0xca, 0xbd, 0x0c, 0x20, 0x21, 0xbe, 0x90, 0x15, 0x3f, 0xbe,
  0xac, 0xe2, 0x0d, 0x3e, 0xcf, 0x83, 0x51, 0xbe, 0xc8, 0x97, 0x35, 0xbd,
  0xcc, 0xd7, 0x55, 0x3e, 0xf8, 0xee, 0x4b, 0x3e, 0x64, 0x14, 0x05, 0xbe,
  0xdc, 0xfa, 0xdc, 0x3d, 0xe8, 0x37, 0x62, 0x3e, 0x12, 0x0d, 0x3b, 0xbe,
  0xee, 0x0f, 0x06, 0xbe, 0x46, 0x07, 0x5d, 0x3e, 0x04, 0x3c, 0x10, 0x3e,
  0xa1, 0x41, 0x54, 0xbe, 0x6c, 0x2c, 0xcb, 0x3d, 0x57, 0x27, 0xfa, 0xbd,
  0x40, 0x62, 0xa1, 0xbb, 0x5a, 0xdf, 0x19, 0x3e, 0x50, 0xe2, 0x2a, 0x3d,
  0xab, 0x02, 0xfc, 0xbd, 0x5a, 0x9d, 0x1c, 0x3e, 0x8e, 0x7e, 0x2f, 0xbe,
  0x60, 0xb9, 0x75, 0x3c, 0x15, 0x65, 0x0c, 0xbe, 0x72, 0xf6, 0x2d, 0x3e,
  0x9e, 0x17, 0xf5, 0xbd, 0xe0, 0x17, 0x3c, 0x3d, 0x17, 0x66, 0x94, 0xbe,
  0x2e, 0x25, 0x07, 0x3e, 0x60, 0xd7, 0xe2, 0xbe, 0x40, 0xe3, 0x9f, 0xbd,
  0x4a, 0x46, 0xd3, 0x3e, 0x70, 0xda, 0xbc, 0x3d, 0x00, 0x38, 0xc5, 0xbd,
  0xea, 0x49, 0x4a, 0x3e, 0x11, 0xf3, 0x2c, 0xbe, 0xb3, 0xc9, 0x3c, 0xbc,
  0x42, 0xd3, 0x0c, 0x3e, 0x44, 0xde, 0x8b, 0x3e, 0xff, 0xe5, 0xf3, 0x3a,
  0xe5, 0x88, 0x82, 0xbd, 0xca, 0xb8, 0xac, 0xbe, 0xa1, 0xfe, 0x96, 0x3e,
  0xd5, 0xe7, 0x52, 0x3d, 0xdb, 0x3d, 0x51, 0xbe, 0x38, 0x7e, 0x5b, 0xbe,
  0x48, 0x38, 0xb7, 0x3d, 0x0d, 0x6d, 0x95, 0xbd, 0xe6, 0xc3, 0xea, 0x3c,
  0x07, 0xfb, 0x81, 0x3e, 0x07, 0xc3, 0x30, 0xbd, 0x3b, 0x0e, 0x6c, 0xbe,
  0xbb, 0x1b, 0x63, 0x3d, 0xcd, 0xc0, 0x85, 0x3d, 0x15, 0x35, 0x05, 0x3e,
  0x5f, 0x69, 0xb5, 0x3e, 0x2e, 0x68, 0x80, 0xbd, 0xc6, 0xe4, 0xae, 0xbd,
  0x9b, 0x9e, 0x27, 0xbe, 0x66, 0xa7, 0x20, 0xbe, 0x66, 0x5f, 0x8d, 0x3e,
  0x7d, 0x78, 0xcb, 0x3e, 0x6e, 0x01, 0x33, 0x3d, 0x4d, 0xa9, 0xb9, 0xbe,
  0xb1, 0xa7, 0xd8, 0x3d, 0xa2, 0x2e, 0x89, 0xbd, 0xe5, 0x6d, 0xf8, 0x3e,
  0x7d, 0x31, 0xae, 0x3e, 0x53, 0xd7, 0x9f, 0xbe, 0xff, 0xdd, 0xd3, 0xbe,
  0x5e, 0x12, 0x1e, 0xbe, 0x6d, 0xd5, 0x44, 0x3c, 0x22, 0x55, 0xd5, 0x3e,
  0xbb, 0x5e, 0x5f, 0x3d, 0x67, 0x97, 0x47, 0xbd, 0x28, 0xc2, 0x7f, 0xbe,
  0xcd, 0xd5, 0x66, 0xbe, 0x7c, 0xd8, 0x8c, 0x3d, 0xac, 0xbe, 0x97, 0x3e,
  0x02, 0x02, 0x02, 0x3f, 0x74, 0x06, 0xf7, 0xbd, 0xa3, 0x82, 0xde, 0xbd,
  0x66, 0x27, 0xa4, 0xbe, 0x6e, 0xfb, 0xe7, 0x3d, 0x20, 0x4f, 0xbc, 0x3e,
  0xe2, 0x13, 0xe6, 0x3e, 0x96, 0xc7, 0x08, 0xbe, 0x78, 0x3b, 0x91, 0xbe,
  0x6d, 0xcb, 0x6e, 0xbe, 0x70, 0xc5, 0x8b, 0xbe, 0xad, 0xf2, 0x0c, 0x3f,
  0xe6, 0x2d, 0x0f, 0x3f, 0x6f, 0x22, 0x7a, 0xbe, 0xc0, 0x72, 0x6b, 0xbe,
  0xaa, 0x8f, 0x9a, 0x3d, 0x9b, 0xb3, 0xb4, 0x3c, 0xa2, 0xf0, 0x69, 0x3f,
  0x2a, 0xfc, 0xf1, 0x3e, 0x1a, 0x27, 0xef, 0xbd, 0x56, 0xb2, 0xbe, 0xbc,
  0x94, 0x7c, 0x17, 0xbe, 0x73, 0x10, 0x7b, 0x3d, 0x8c, 0xaa, 0x1a, 0x3f,
  0x4d, 0xf9, 0x1c, 0x3f, 0x85, 0x99, 0xa7, 0xbe, 0xcd, 0x64, 0x12, 0xbe,
  0xb4, 0xcf, 0x78, 0xbe, 0x6d, 0xac, 0x18, 0xbe, 0xf1, 0x23, 0x61, 0x3f,
  0xcd, 0x2a, 0x1c, 0x3f, 0x3d, 0x34, 0xaa, 0xbe, 0x26, 0x76, 0xb5, 0x3c,
  0x20, 0x21, 0xfb, 0x3d, 0xf9, 0xb5, 0x7c, 0x3a, 0xae, 0xf5, 0x32, 0xbe,
  0xf2, 0x01, 0xb2, 0xbd, 0xd8, 0x9d, 0xc4, 0xbd, 0x98, 0xcf, 0xeb, 0xbc,
  0x5c, 0x99, 0xd5, 0x3d, 0xc0, 0x49, 0x73, 0x3b, 0x40, 0x2a, 0xeb, 0xbc,
  0xdf, 0x7f, 0x48, 0xbe, 0xd8, 0xaf, 0x06, 0xbd, 0x24, 0xb1, 0x25, 0xbd,
  0x49, 0xe9, 0xf0, 0xbd, 0x1a, 0x9d, 0x0a, 0x3e, 0x6b, 0xae, 0x38, 0xbe,
  0x48, 0x9c, 0x45, 0x3e, 0xc5, 0xfd, 0x53, 0xbe, 0x72, 0x60, 0xd8, 0xbd,
  0xfc, 0x8c, 0x9e, 0x3d, 0x70, 0x48, 0x8f, 0x3d, 0x6e, 0x3a, 0x03, 0x3e,
  0xaa, 0x7c, 0x3d, 0x3e, 0x89, 0x38, 0x41, 0xbe, 0xd7, 0x6d, 0x02, 0xbe,
  0x10, 0x7f, 0x46, 0xbe, 0xba, 0x91, 0x38, 0xbe, 0x7b, 0xac, 0xe8, 0xbd,
  0x8b, 0xe8, 0x62, 0xbe, 0x4d, 0x17, 0xef, 0xbd, 0x08, 0xd7, 0x51, 0xbd,
  0xfc, 0x84, 0xc5, 0xbd, 0x88, 0x0f, 0xb3, 0x3d, 0x82, 0x96, 0x03, 0x3e,
  0x5d, 0x9f, 0x41, 0xbe, 0x9c, 0xd0, 0x53, 0xbe, 0xf0, 0x8d, 0x5c, 0x3c,
  0x68, 0x9d, 0xa5, 0xbd, 0x80, 0xc4, 0x95, 0x3a, 0xe0, 0xc7, 0xf1, 0xbb,
  0xce, 0x02, 0x58, 0x3e, 0x1c, 0x56, 0x38, 0xbd, 0x3a, 0xbc, 0xa1, 0xbd,
  0xdc, 0x7d, 0x40, 0x3e, 0x7e, 0x13, 0x92, 0xbd, 0x94, 0xb1, 0x0c, 0x3e,
  0x9c, 0x89, 0xd6, 0x3d, 0x22, 0xaa, 0x01, 0xbe, 0xb3, 0xec, 0x4f, 0xbe,
  0xb8, 0xff, 0x50, 0xbe, 0x54, 0x14, 0xd5, 0x3d, 0x4e, 0x6f, 0x34, 0x3e,
  0x54, 0x41, 0x4f, 0xbd, 0xf8, 0x37, 0x4d, 0xbe, 0x7e, 0x9e, 0x5d, 0xbe,
  0xb8, 0x76, 0x23, 0x3e, 0x38, 0x0e, 0x40, 0x3d, 0x17, 0xc0, 0x16, 0xbe,
  0xf6, 0x91, 0x39, 0xbe, 0x78, 0x74, 0x86, 0xbd, 0x9e, 0x84, 0x0e, 0x3e,
  0x06, 0x53, 0xd4, 0xbd, 0xdc, 0xd0, 0x4a, 0xbe, 0xb0, 0x7d, 0x1b, 0x3d,
  0x99, 0xfd, 0x59, 0xbe, 0x84, 0x8e, 0xb1, 0xbd, 0xa2, 0x21, 0x37, 0xbe,
  0xc8, 0xb2, 0xee, 0x3d, 0x80, 0x1c, 0x2b, 0x3d, 0x64, 0xc1, 0x41, 0x3e,
  0xea, 0x97, 0x34, 0xbe, 0x7c, 0xf3, 0x85, 0x3d, 0x16, 0xcc, 0xa3, 0xbd,
  0x6c, 0xd4, 0xe6, 0x3d, 0x70, 0xe4, 0xce, 0xbd, 0x28, 0x57, 0x17, 0x3d,
  0x58, 0xec, 0xfc, 0xbc, 0x04, 0x57, 0x4c, 0x3e, 0x23, 0xc4, 0x5c, 0xbe,
  0xb0, 0x42, 0x12, 0xbe, 0x60, 0x4a, 0x5e, 0xbc, 0x5e, 0xc4, 0x13, 0x3e,
  0xc8, 0x81, 0x47, 0xbe, 0x7e, 0xeb, 0xf9, 0xbd, 0x18, 0xae, 0x16, 0xbd,
  0x00, 0x59, 0x25, 0xbc, 0xc0, 0x51, 0x06, 0x3c, 0xb2, 0x8f, 0x55, 0x3e,
  0xb0, 0xb3, 0x05, 0x3d, 0x0c, 0x6a, 0x56, 0xbe, 0xe2, 0xec, 0xeb, 0xbd,
  0xd2, 0xba, 0xc9, 0xbd, 0x82, 0x17, 0xc4, 0xbd, 0x02, 0xdf, 0x1a, 0x3e,
  0x99, 0x60, 0x1d, 0x3e, 0x85, 0x5e, 0x58, 0x3d, 0xc9, 0x71, 0x73, 0xbd,
  0x66, 0x4d, 0xf7, 0x3c, 0x16, 0x0b, 0x57, 0xbe, 0x07, 0xd8, 0x43, 0x3d,
  0xb4, 0x10, 0x47, 0x3e, 0xa7, 0x42, 0xab, 0x3e, 0x7c, 0x7e, 0xc2, 0xbe,
  0xef, 0xb2, 0x79, 0x3b, 0x21, 0xb6, 0x93, 0xbe, 0xbb, 0x1b, 0x77, 0x3e,
  0x3b, 0x9f, 0xce, 0xbc, 0xcf, 0xed, 0x17, 0x3c, 0x6c, 0x9e, 0x5a, 0xbe,
  0x33, 0x22, 0x98, 0x3d, 0xa9, 0x51, 0xa0, 0xbd, 0xb0, 0x23, 0x85, 0x3e,
  0xd6, 0x6c, 0x8d, 0x3e, 0x84, 0x47, 0x7b, 0x3d, 0x56, 0x8c, 0xc6, 0xbe,
  0xb8, 0x45, 0xb6, 0xbd, 0xb6, 0xc9, 0x9d, 0xbe, 0x9f, 0x8c, 0x42, 0x3e,
  0x27, 0xa6, 0x33, 0x3d, 0x18, 0x91, 0x3e, 0x3e, 0xcc, 0x80, 0x8c, 0xbe,
  0x43, 0xa4, 0xa3, 0xbe, 0x80, 0xbd, 0x1f, 0x3e, 0x8e, 0x8e, 0x25, 0xbd,
  0x89, 0x42, 0x01, 0xbd, 0xee, 0xad, 0xa0, 0xbd, 0x5d, 0xcd, 0x96, 0xbd,
  0xf3, 0xcc, 0x99, 0x3d, 0xe3, 0x48, 0x13, 0xbe, 0x5e, 0x34, 0xa8, 0x3e,
  0xc9, 0xff, 0x8d, 0x3e, 0x3d, 0xd5, 0x34, 0xbd, 0x87, 0x45, 0xa1, 0xbd,
  0xfd, 0xd2, 0x5e, 0xbe, 0xe2, 0x7d, 0x51, 0xbd, 0x7c, 0x77, 0xcd, 0x3e,
  0x1d, 0x0c, 0x19, 0x3d, 0x08, 0xba, 0x8f, 0xbd, 0xa5, 0xd6, 0xeb, 0xbe,
  0x12, 0xfd, 0x1c, 0xbe, 0x48, 0xe6, 0x59, 0x3e, 0xba, 0xde, 0x00, 0x3e,
  0xcf, 0x3d, 0x05, 0x3f, 0xfc, 0x06, 0x07, 0xbe, 0x67, 0xea, 0x33, 0xbc,
  0xcb, 0x5f, 0x67, 0xbe, 0x70, 0xba, 0x3f, 0xbe, 0xc3, 0x27, 0x1c, 0x3e,
  0x48, 0x4b, 0x9b, 0x3e, 0xf6, 0xc2, 0x9b, 0x3d, 0xa8, 0x89, 0x5e, 0xbe,
  0xf7, 0x88, 0x8a, 0xbe, 0x69, 0xd8, 0x0e, 0x3e, 0x1f, 0x8c, 0xd6, 0x3e,
  0xfd, 0xed, 0xaf, 0x3e, 0x20, 0xca, 0xab, 0xbd, 0x1e, 0xb8, 0xa4, 0xbe,
  0x52, 0x7c, 0xe8, 0xbd, 0xc8, 0x27, 0x59, 0x3c, 0x96, 0xba, 0x05, 0x3f,
  0xfc, 0xd6, 0x00, 0x3f, 0xbf, 0x1c, 0xc9, 0xbc, 0x38, 0xbc, 0xaa, 0x3d,
  0xbd, 0x53, 0x9b, 0xbe, 0x61, 0xe9, 0x52, 0x3e, 0x69, 0x73, 0x34, 0x3f,
  0x94, 0xb9, 0x9a, 0x3e, 0x0b, 0x70, 0xc0, 0xbe, 0x8e, 0x94, 0x85, 0xbd,
  0x1a, 0xc6, 0x75, 0x3d, 0x6e, 0xe2, 0x0f, 0xbe, 0x91, 0x3d, 0x15, 0x3f,
  0xb3, 0x42, 0xd6, 0x3e, 0x1e, 0x98, 0xd9, 0xbe, 0x05, 0xfe, 0xc6, 0xbc,
  0x1f, 0xfb, 0xba, 0xbd, 0xf4, 0x6d, 0xfe, 0x3c, 0x94, 0x14, 0x3c, 0x3f,
  0x4c, 0x4d, 0xeb, 0x3e, 0x5e, 0x5d, 0x87, 0xbe, 0x1a, 0xfc, 0xdb, 0x3d,
  0x81, 0x0e, 0xde, 0xbb, 0x19, 0x52, 0xd5, 0xbd, 0x74, 0xe6, 0xf1, 0x3d,
  0x70, 0x75, 0x69, 0x3d, 0x4c, 0x25, 0x54, 0xbe, 0x17, 0xbb, 0xe8, 0xbd,
  0x80, 0xc6, 0x41, 0xbb, 0x1e, 0xc2, 0x3b, 0xbe, 0x60, 0xd9, 0xd6, 0x3c,
  0x10, 0x7f, 0xcd, 0x3d, 0x30, 0x75, 0xe3, 0x3c, 0x7c, 0xce, 0x1a, 0xbe,
  0x94, 0xc5, 0x5b, 0x3e, 0xff, 0x98, 0xd8, 0xbd, 0xf8, 0x36, 0x88, 0x3d,
  0xd1, 0x98, 0xf2, 0xbd, 0x9a, 0x48, 0x05, 0xbe, 0xce, 0x5d, 0x1e, 0xbe,
  0xb0, 0xea, 0x20, 0x3e, 0x30, 0x51, 0x8d, 0x3d, 0x60, 0x06, 0x21, 0xbc,
  0x56, 0x9d, 0x58, 0x3e, 0x58, 0xbd, 0x54, 0x3e, 0x48, 0xeb, 0x4a, 0x3e,
  0x50, 0x02, 0x45, 0x3c, 0x0f, 0x6a, 0x41, 0xbe, 0xa0, 0x3a, 0x8c, 0x3b,
  0x18, 0x97, 0xbe, 0x3d, 0x60, 0xa7, 0x2a, 0xbd, 0x24, 0x3b, 0x3a, 0x3e,
  0x63, 0xa7, 0xfe, 0xbd, 0x96, 0xc4, 0x29, 0xbe, 0x80, 0xca, 0xec, 0xbc,
  0x4c, 0x15, 0xd5, 0x3d, 0x47, 0xae, 0x49, 0xbe, 0x0c, 0xf1, 0x3a, 0xbe,
  0x7c, 0x09, 0x60, 0xbe, 0x80, 0x8d, 0xba, 0xbc, 0x5c, 0x1c, 0xb5, 0x3d,
  0x80, 0xef, 0x21, 0x3e, 0xe0, 0x38, 0xd3, 0xbb, 0x78, 0x52, 0x5c, 0x3d,
  0x00, 0xa6, 0xdc, 0xbc, 0xf6, 0x0d, 0x2c, 0x3e, 0xe4, 0x3a, 0x01, 0x3e,
  0xfe, 0x87, 0x47, 0xbe, 0x5c, 0xfe, 0x8d, 0x3d, 0xa2, 0xfe, 0x0e, 0x3e,
  0x01, 0x62, 0x38, 0xbe, 0x20, 0xad, 0x8a, 0x3c, 0xa6, 0xe5, 0xda, 0xbd,
  0x68, 0xd5, 0x77, 0x3d, 0x8a, 0x73, 0x4d, 0x3e, 0x44, 0x27, 0xfb, 0x3d,
  0xb4, 0x83, 0xf9, 0xbd, 0x50, 0x55, 0x79, 0x3d, 0x7f, 0x5a, 0xdf, 0xbd,
  0x3d, 0xc5, 0x4e, 0xbe, 0x68, 0xf7, 0xe0, 0x3c, 0xa4, 0xcf, 0x5a, 0x3e,
  0xf0, 0x2b, 0x4a, 0x3e, 0xb2, 0x30, 0x3d, 0xbe, 0x9b, 0x36, 0x5b, 0xbe,
  0x88, 0xbc, 0x81, 0x3d, 0x33, 0x75, 0x2e, 0xbe, 0x00, 0x9c, 0x4e, 0x3e,
  0x20, 0xdc, 0x50, 0x3c, 0xdd, 0x2b, 0x2e, 0xbe, 0x34, 0x40, 0x93, 0x3d,
  0x26, 0x7d, 0x98, 0xbd, 0xb8, 0x81, 0x1d, 0x3e, 0xd8, 0x20, 0x9b, 0xbd,
  0xe0, 0x69, 0x92, 0xbd, 0x00, 0xd3, 0x71, 0xbc, 0x38, 0x01, 0x30, 0xbd,
  0x94, 0x32, 0x86, 0x3d, 0xa0, 0x7b, 0x60, 0x3c, 0xb0, 0xec, 0x2d, 0x3d,
  0x20, 0xd6, 0x84, 0xbd, 0x94, 0x66, 0x38, 0xbe, 0xb4, 0xd7, 0xe6, 0x3d,
  0x89, 0xa2, 0xc7, 0xbd, 0x98, 0x6f, 0x4a, 0xbd, 0x13, 0xa3, 0xf3, 0xbd,
  0xee, 0x00, 0x29, 0x3e, 0x58, 0x5f, 0x39, 0xbe, 0x00, 0x34, 0x12, 0x39,
  0x77, 0xce, 0x16, 0xbe, 0x00, 0xe5, 0x7b, 0xbd, 0xa1, 0xcb, 0xe0, 0xbd,
  0x52, 0xb8, 0x1a, 0xbe, 0x4f, 0x31, 0x36, 0xbe, 0xe7, 0x80, 0x16, 0xbe,
  0x75, 0xc9, 0x10, 0x3f, 0xb7, 0x3a, 0xc1, 0xbd, 0xe9, 0x2b, 0x7e, 0xbc,
  0x86, 0x96, 0xc6, 0xbc, 0x3b, 0x96, 0x87, 0xbe, 0x0a, 0xbf, 0xa7, 0x3d,
  0xd4, 0x2f, 0x23, 0x3f, 0xa7, 0xf6, 0x85, 0xbe, 0x6a, 0x95, 0x37, 0x3e,
  0x38, 0x21, 0x9c, 0xbd, 0xaf, 0x00, 0x4a, 0xbd, 0xf9, 0x15, 0x61, 0x3d,
  0x22, 0xbe, 0x41, 0x3f, 0x10, 0xcf, 0x25, 0xbe, 0x7d, 0xda, 0x02, 0x3f,
  0x61, 0x12, 0x91, 0xbd, 0x2b, 0x63, 0x2e, 0xbe, 0x5f, 0x44, 0x4f, 0xbd,
  0x87, 0x02, 0x34, 0x3f, 0x77, 0x03, 0x99, 0xbe, 0x0c, 0x69, 0xf2, 0x3e,
  0xba, 0x0f, 0xfd, 0xbc, 0xd1, 0x8c, 0xd7, 0x3d, 0x84, 0x0b, 0x55, 0xbd,
  0x38, 0x92, 0xb6, 0x3e, 0xfc, 0x19, 0x01, 0xbe, 0xf0, 0xec, 0xc0, 0x3e,
  0xff, 0x75, 0xd0, 0xbd, 0xd1, 0xe5, 0x62, 0xbe, 0x5d, 0x27, 0x29, 0xbc,
  0xba, 0x89, 0x57, 0x3e, 0xa0, 0x76, 0x6d, 0x3d, 0x39, 0x94, 0x14, 0x3f,
  0x69, 0x8a, 0x65, 0xbc, 0x4b, 0x4f, 0xc6, 0x3d, 0x00, 0x61, 0x1b, 0x3d,
  0x97, 0x27, 0xc0, 0x3e, 0x30, 0x5f, 0x8c, 0xbe, 0x2d, 0x04, 0xf2, 0x3e,
  0x13, 0xc3, 0x4d, 0x3e, 0xaa, 0x3c, 0x68, 0x3e, 0xa6, 0x41, 0xa3, 0x3e,
  0x03, 0xb0, 0x74, 0xbd, 0x86, 0x18, 0x90, 0xbe, 0x0f, 0x28, 0x9a, 0x3e,
  0xa5, 0x4f, 0x4c, 0xbc, 0xe8, 0x29, 0x67, 0xbb, 0xd5, 0xed, 0x84, 0x3e,
  0x23, 0x42, 0x3a, 0xbe, 0xcf, 0x0a, 0x45, 0xbe, 0x5f, 0x73, 0x02, 0x3f,
  0x1d, 0x93, 0x05, 0x3d, 0xda, 0x5d, 0xad, 0x3e, 0xc7, 0x3a, 0xd5, 0x3d,
  0x3b, 0x6c, 0x53, 0xbe, 0x15, 0x62, 0x3d, 0xbd, 0xfc, 0xc7, 0x77, 0x3e,
  0x39, 0x94, 0x52, 0x3e, 0xfc, 0x18, 0xdc, 0x3d, 0x68, 0xad, 0x81, 0x3e,
  0xe4, 0x25, 0xb2, 0xbe, 0xba, 0xd8, 0x7c, 0x3c, 0x0f, 0xcf, 0x91, 0x3e,
  0x27, 0x6c, 0xc7, 0xbc, 0x9c, 0x62, 0x9a, 0x3e, 0x36, 0xc2, 0x43, 0x3e,
  0x30, 0x2a, 0x04, 0xbf, 0x8c, 0xd7, 0xbb, 0xbc, 0x39, 0xc5, 0xb0, 0x3e,
  0x17, 0xe5, 0x6d, 0xbd, 0xa2, 0x80, 0x93, 0x3e, 0x0e, 0x08, 0x68, 0x3e,
  0xd2, 0x5a, 0x4a, 0xbf, 0x6e, 0x0c, 0x25, 0xbd, 0xfc, 0x3d, 0x22, 0x3e,
  0xff, 0x66, 0x47, 0x3e, 0x2d, 0xd9, 0x88, 0x3e, 0x4a, 0xae, 0x90, 0x3c,
  0x4c, 0xab, 0x2b, 0xbf, 0xfb, 0x78, 0x44, 0xbe, 0x3c, 0x9d, 0x20, 0x3e,
  0xcb, 0x15, 0x2f, 0x3d, 0x97, 0x74, 0xbe, 0xbd, 0x5d, 0xbc, 0xb5, 0x3e,
  0xfa, 0xf7, 0x56, 0xbf, 0x3b, 0x60, 0x66, 0x3e, 0xca, 0x6b, 0xb4, 0x3d,
  0x31, 0xca, 0x8c, 0xbe, 0x2e, 0xcc, 0x09, 0xbe, 0xed, 0x48, 0xf0, 0xbd,
  0xc7, 0x7d, 0x10, 0x3c, 0xca, 0xce, 0x8f, 0xbd, 0x7c, 0xff, 0x39, 0xbd,
  0x95, 0x09, 0xa6, 0xbd, 0x7a, 0xc6, 0x3c, 0xbe, 0xb3, 0xd3, 0x27, 0xbd,
  0xd0, 0x00, 0x06, 0xbd, 0x3f, 0x12, 0x51, 0xbd, 0x30, 0xae, 0x07, 0xbe,
  0x6b, 0x16, 0x46, 0x3e, 0xd3, 0x07, 0x6f, 0x3c, 0xae, 0xef, 0x20, 0x3e,
  0x76, 0xfa, 0x40, 0x3e, 0x24, 0xf0, 0x10, 0x3c, 0x8a, 0x56, 0x52, 0x3e,
  0xc5, 0x4b, 0xd5, 0xbd, 0x45, 0x06, 0xc8, 0x3c, 0x45, 0xce, 0x37, 0xbe,
  0xdc, 0x5b, 0x0d, 0xbe, 0x11, 0xba, 0x28, 0xbe, 0x22, 0x00, 0x1a, 0x3e,
  0xf5, 0x78, 0x10, 0x3e, 0xbc, 0x36, 0xfc, 0x3d, 0x3c, 0xad, 0x39, 0xbe,
  0x2a, 0xba, 0xa0, 0x3d, 0xf4, 0x1d, 0x0a, 0xbe, 0xda, 0x37, 0x13, 0x3d,
  0x6c, 0x39, 0x0d, 0x3d, 0x2a, 0x86, 0xcf, 0xbd, 0x37, 0xe9, 0x61, 0xbe,
  0x78, 0x6d, 0x15, 0x3e, 0xf2, 0x61, 0xc8, 0xbd, 0xcf, 0x3d, 0x1e, 0x3e,
  0x1d, 0xef, 0x46, 0x3e, 0xbd, 0x85, 0x0d, 0xbe, 0xef, 0x55, 0x68, 0xbe,
  0xea, 0x0d, 0x3e, 0x3e, 0xc5, 0x38, 0x43, 0x3e, 0x4d, 0x14, 0x95, 0xbd,
  0x46, 0xc0, 0xc5, 0xbd, 0x87, 0x59, 0x5a, 0x3e, 0x90, 0x41, 0xf5, 0xbd,
  0x69, 0xce, 0x78, 0xbd, 0xe3, 0xbb, 0x13, 0x3e, 0xef, 0x01, 0xc8, 0xbb,
  0x26, 0x21, 0x16, 0xbe, 0x70, 0x5f, 0x54, 0x3e, 0xc1, 0xfe, 0xe0, 0xbd,
  0x4b, 0x59, 0x1b, 0x3e, 0xf4, 0x56, 0x33, 0xbe, 0xcb, 0x54, 0x39, 0xbe,
  0x78, 0xe8, 0x14, 0xbd, 0x5f, 0x2d, 0x29, 0xbe, 0xfa, 0x53, 0x01, 0xbe,
  0xfe, 0x54, 0xee, 0xbd, 0xf6, 0xa9, 0x00, 0x3d, 0x2d, 0xce, 0x72, 0x3d,
  0x6c, 0x19, 0xb5, 0xbd, 0x5c, 0x05, 0xf3, 0x3c, 0x57, 0x89, 0xd3, 0xbd,
  0x61, 0xc0, 0x22, 0xbe, 0xa3, 0xa5, 0xea, 0x3d, 0x71, 0x24, 0x07, 0xbd,
  0x12, 0xbd, 0x53, 0x3e, 0x02, 0x54, 0x3a, 0xbe, 0x9f, 0xe7, 0x3f, 0x3e,
  0xd1, 0x9c, 0x2f, 0x3d, 0x53, 0x17, 0x42, 0x3e, 0x41, 0x71, 0xdc, 0x3c,
  0x9f, 0xb0, 0x0f, 0xbe, 0x5c, 0xa1, 0xde, 0x3d, 0x93, 0xc7, 0xeb, 0xbd,
  0x73, 0x05, 0xf5, 0xbc, 0x65, 0x3d, 0xdd, 0xbd, 0xab, 0x16, 0x5d, 0x3d,
  0x13, 0xe1, 0xcf, 0x3d, 0x7e, 0xa5, 0x57, 0x3d, 0x85, 0x17, 0xd6, 0x3d,
  0xc1, 0x59, 0x27, 0x3e, 0xf4, 0xf8, 0x66, 0xbe, 0x00, 0x33, 0xdc, 0x3d,
  0x22, 0xb3, 0xad, 0xbd, 0x0a, 0xaa, 0x57, 0xbe, 0x95, 0x14, 0x88, 0x3d,
  0xd0, 0xc5, 0xb5, 0x3d, 0x8d, 0x1b, 0xf2, 0xbd, 0x6c, 0x0e, 0x42, 0x3e,
  0x6a, 0x1c, 0x55, 0xbe, 0x44, 0x7e, 0x06, 0xbe, 0x52, 0x33, 0x9e, 0xbe,
  0xd0, 0x8e, 0x0f, 0x3e, 0xe9, 0x7e, 0x32, 0xbe, 0x94, 0xac, 0xdf, 0xbd,
  0xe2, 0x7c, 0x2f, 0xbe, 0x92, 0xe9, 0x5d, 0x3f, 0x5c, 0x32, 0x97, 0xbe,
  0x3a, 0x4a, 0x03, 0xbd, 0x02, 0xfd, 0x6a, 0xbe, 0xa5, 0xa4, 0x92, 0x3c,
  0x57, 0x0a, 0x87, 0xbe, 0xa3, 0x23, 0x4d, 0x3f, 0xb1, 0x41, 0x36, 0x3e,
  0xe0, 0x19, 0x11, 0xbf, 0xbc, 0xf1, 0x06, 0xbe, 0x2d, 0x9a, 0x83, 0xbe,
  0xac, 0x16, 0x70, 0x3d, 0xeb, 0x15, 0x45, 0x3f, 0x31, 0x33, 0x03, 0x3e,
  0xe5, 0x24, 0xf0, 0xbd, 0x82, 0x7c, 0x1e, 0xbe, 0x0d, 0xe3, 0x0e, 0xbe,
  0xd2, 0x84, 0x11, 0xbe, 0x90, 0x5a, 0x12, 0x3f, 0x74, 0x6f, 0x9d, 0x3d,
  0x69, 0xe3, 0x19, 0xbe, 0x6f, 0x37, 0x86, 0xbe, 0x3d, 0x4a, 0x9e, 0xbe,
  0x4d, 0x68, 0x71, 0x3d, 0x2f, 0x46, 0x1c, 0x3f, 0x10, 0x60, 0x25, 0x3e,
  0xe8, 0x10, 0x69, 0xbe, 0x9c, 0x11, 0x06, 0xbe, 0xcd, 0x78, 0xb6, 0xbd,
  0x4b, 0x7f, 0x31, 0x3e, 0x66, 0x92, 0xaf, 0x3e, 0xf3, 0xe1, 0x93, 0x3e,
  0xfa, 0x43, 0xad, 0xbe, 0xe3, 0x15, 0x01, 0xbe, 0x5f, 0x5a, 0xe1, 0x3d,
  0xa3, 0x65, 0xb7, 0x3d, 0x9a, 0x62, 0xe0, 0x3e, 0x48, 0x52, 0xa0, 0x3e,
  0x54, 0x1d, 0x27, 0xbf, 0xdd, 0x4c, 0x54, 0xbe, 0xd0, 0x5f, 0xc0, 0x3d,
  0x2f, 0x2a, 0x20, 0xbe, 0xaa, 0xcf, 0xde, 0x3e, 0xfc, 0x50, 0xa8, 0x3e,
  0x3f, 0xc2, 0xef, 0xbe, 0x15, 0x64, 0x0f, 0xbe, 0x1f, 0xc8, 0xf5, 0x3d,
  0x11, 0x78, 0xc3, 0x3d, 0x6d, 0x33, 0xb0, 0x3e, 0xd4, 0x96, 0x63, 0x3e,
  0x21, 0x38, 0xda, 0xbe, 0xf2, 0x79, 0x1f, 0x3e, 0xa5, 0x40, 0x20, 0x3d,
  0xca, 0x36, 0x5b, 0x3e, 0xc8, 0x3e, 0xe3, 0x3e, 0x7c, 0x90, 0x28, 0x3e,
  0x5b, 0xf5, 0x2c, 0xbd, 0xa2, 0xa7, 0x45, 0x3e, 0xd9, 0xcb, 0x2c, 0xbe,
  0x10, 0xee, 0x06, 0x3d, 0x8a, 0x0d, 0x74, 0x3e, 0xfb, 0x74, 0x98, 0x3e,
  0x8f, 0x06, 0xd2, 0xbe, 0xac, 0xed, 0xad, 0x3e, 0x25, 0xdd, 0x8a, 0xbe,
  0x5c, 0xc1, 0x57, 0xbe, 0xb0, 0x6c, 0x35, 0x3e, 0xa9, 0x83, 0x5b, 0x3e,
  0xbe, 0x5e, 0xa5, 0xbe, 0xda, 0xde, 0x35, 0x3e, 0xde, 0x14, 0xc5, 0x3d,
  0x66, 0x4e, 0x54, 0x3e, 0xbb, 0xb0, 0xad, 0x3c, 0x63, 0x0b, 0x27, 0x3e,
  0x38, 0xf6, 0x9b, 0xbe, 0x38, 0x5f, 0x7a, 0x3e, 0xf9, 0xc8, 0x20, 0xbe,
  0x77, 0x92, 0x6e, 0xbd, 0xde, 0x21, 0xbf, 0x3e, 0xd2, 0xf8, 0x09, 0xbe,
  0x2b, 0xa8, 0xc3, 0x3c, 0xc7, 0x6c, 0x93, 0x3e, 0x2e, 0x62, 0xeb, 0xbd,
  0x26, 0x7b, 0x83, 0x3d, 0xfd, 0x1f, 0x98, 0x3e, 0x18, 0xbf, 0x77, 0x3d,
  0x74, 0xdf, 0xce, 0x3d, 0x94, 0xb9, 0x4f, 0xbd, 0xe5, 0xb7, 0x1c, 0xbe,
  0xe0, 0x73, 0xe8, 0xbb, 0x1a, 0x83, 0x5b, 0x3e, 0x42, 0xcb, 0x11, 0x3e,
  0x0c, 0xe8, 0x0f, 0xbd, 0x60, 0x78, 0x8e, 0x3c, 0x58, 0xec, 0x95, 0xbc,
  0xcc, 0x15, 0xa3, 0xbd, 0x5a, 0xf4, 0x14, 0x3e, 0x52, 0x55, 0x38, 0xbe,
  0x0e, 0xb5, 0x5b, 0x3e, 0xc0, 0x54, 0x95, 0xbc, 0x88, 0x54, 0x95, 0x3d,
  0x64, 0x7c, 0x59, 0xbe, 0x68, 0xce, 0x69, 0x3d, 0x08, 0xab, 0x2c, 0x3e,
  0x20, 0x9c, 0x1d, 0x3d, 0xa0, 0x06, 0x54, 0xbe, 0x90, 0xe7, 0x39, 0xbd,
  0xe8, 0x6e, 0x0d, 0xbd, 0x20, 0xcc, 0x3d, 0xbd, 0x43, 0x38, 0x0f, 0xbe,
  0x90, 0x9f, 0x5a, 0xbd, 0x18, 0x88, 0x64, 0x3d, 0x60, 0x77, 0x59, 0xbc,
  0x64, 0xc9, 0xc0, 0xbd, 0xc0, 0xfe, 0x1b, 0xbb, 0x00, 0xee, 0x43, 0x3d,
  0x02, 0xf3, 0x49, 0x3e, 0xea, 0x72, 0x1d, 0x3e, 0x10, 0x53, 0xa5, 0x3d,
  0xe0, 0xe5, 0x27, 0xbd, 0x60, 0xf2, 0x8c, 0x3c, 0x88, 0x72, 0xee, 0xbc,
  0xaa, 0x63, 0x3e, 0x3e, 0x78, 0xa7, 0x51, 0xbe, 0x59, 0x0b, 0x25, 0xbe,
  0xa0, 0xb3, 0x7d, 0x3d, 0xa0, 0xb8, 0x73, 0xbc, 0x12, 0xbc, 0x04, 0xbe,
  0xee, 0xf9, 0xc4, 0xbd, 0xcc, 0xed, 0x01, 0xbe, 0x10, 0xdf, 0xde, 0x3c,
  0x90, 0x95, 0x5b, 0xbc, 0x0c, 0x30, 0x24, 0xbe, 0xa0, 0x37, 0x9a, 0xbd,
  0xfe, 0xcd, 0x0e, 0x3e, 0x68, 0xb0, 0x37, 0x3d, 0x78, 0x1c, 0x32, 0xbe,
  0x63, 0x28, 0x26, 0xbe, 0x4b, 0xa9, 0xd5, 0xbd, 0xf7, 0xd5, 0x32, 0xbe,
  0x80, 0x3c, 0x3c, 0xbc, 0x04, 0x2d, 0x0d, 0x3e, 0x6c, 0x6b, 0x0f, 0xbd,
  0x0c, 0x39, 0x8a, 0xbd, 0xa1, 0x9c, 0xc6, 0xbd, 0xce, 0x45, 0x19, 0xbe,
  0xc4, 0x65, 0xb2, 0x3d, 0x0c, 0x81, 0xf9, 0x3d, 0xc0, 0x02, 0xf2, 0xbc,
  0xc2, 0x68, 0xb3, 0xbd, 0xd2, 0xf1, 0x85, 0xbd, 0x85, 0x05, 0x32, 0xbe,
  0x28, 0xcc, 0x3a, 0xbd, 0x80, 0xe6, 0x69, 0x3c, 0x33, 0x7b, 0x47, 0xbe,
  0xde, 0xa0, 0xa2, 0xbd, 0xaa, 0x57, 0xa7, 0xbd, 0xe8, 0x60, 0xcc, 0xbc,
  0xa6, 0x75, 0xd4, 0xbd, 0x10, 0x4f, 0xd4, 0xbc, 0x58, 0x90, 0xaa, 0x3c,
  0x00, 0xf6, 0x9a, 0x39, 0xfc, 0xd9, 0xbe, 0x3d, 0xa0, 0xdf, 0xaf, 0x3d,
  0x20, 0xe6, 0x0f, 0xbe, 0x40, 0xae, 0x47, 0xbc, 0xee, 0x9e, 0x90, 0xbd,
  0xc2, 0x0d, 0x5b, 0x3e, 0x84, 0x5c, 0x19, 0xbd, 0x6e, 0xbb, 0x58, 0x3e,
  0xc6, 0x9b, 0x0d, 0x3e, 0x69, 0x15, 0xdb, 0xbd, 0x9c, 0x80, 0x81, 0x3d,
  0xf8, 0x02, 0xc2, 0x3d, 0xb7, 0xb4, 0xd5, 0xbd, 0x6b, 0x0d, 0xdd, 0x3e,
  0x39, 0xca, 0xc7, 0xbe, 0xf4, 0x31, 0x27, 0x3e, 0x4c, 0x94, 0x15, 0xbe,
  0x6c, 0x84, 0xc0, 0x3d, 0xcd, 0x98, 0x38, 0x3f, 0xf8, 0x59, 0x0a, 0x3e,
  0x2a, 0x7a, 0xe2, 0xbe, 0x19, 0x5c, 0x43, 0x3e, 0xfb, 0x5a, 0x67, 0xbd,
  0x3f, 0xe0, 0xf5, 0xbd, 0x9b, 0xf7, 0x0a, 0x3f, 0x38, 0xdb, 0xd2, 0x3e,
  0xf4, 0xfa, 0x19, 0xbf, 0xcb, 0x4a, 0x0e, 0x3e, 0x8d, 0x59, 0x2e, 0xbc,
  0xd1, 0xe2, 0x8c, 0xbc, 0x21, 0x7a, 0xff, 0x3e, 0x95, 0xee, 0xc4, 0x3e,
  0x29, 0xd8, 0xa4, 0xbe, 0x49, 0x86, 0x80, 0xbe, 0x6e, 0xd3, 0xdb, 0xbd,
  0xcf, 0x56, 0x63, 0xbd, 0x04, 0x24, 0xef, 0x3e, 0x6f, 0xe9, 0x09, 0x3e,
  0xdf, 0xb6, 0x1b, 0xbe, 0x70, 0xc2, 0xdb, 0xbc, 0x21, 0xbf, 0x9c, 0xbd,
  0x86, 0xd6, 0x35, 0x3e, 0xa3, 0xee, 0xfa, 0x3e, 0xf5, 0x7b, 0xa6, 0x3e,
  0x5f, 0x5f, 0xad, 0xbe, 0x2a, 0x36, 0xa8, 0xbd, 0xca, 0x90, 0x32, 0xbe,
  0x3e, 0xaf, 0xc9, 0xbb, 0xef, 0xf5, 0x16, 0x3f, 0x96, 0x06, 0x92, 0x3e,
  0x3d, 0x37, 0x7d, 0xbe, 0x80, 0x68, 0x1e, 0x3c, 0x4a, 0xd2, 0x88, 0xbe,
  0x1d, 0xe6, 0x2c, 0x3e, 0x23, 0x47, 0x12, 0x3f, 0xb4, 0x9b, 0x96, 0x3e,
  0xde, 0x00, 0xca, 0xbe, 0x00, 0xce, 0x15, 0x3d, 0xc9, 0x6e, 0xb7, 0x3c,
  0x95, 0x0f, 0x29, 0x3e, 0x6e, 0x00, 0xfb, 0x3e, 0x00, 0x0b, 0x11, 0xbe,
  0x12, 0x45, 0x8f, 0xbe, 0xda, 0x9a, 0x3e, 0xbd, 0x20, 0x0d, 0x73, 0xbe,
  0xf5, 0x97, 0x54, 0xbe, 0x2f, 0x75, 0xbf, 0x3e, 0xbd, 0x45, 0x9c, 0x3c,
  0xdb, 0x59, 0xde, 0xbd, 0x90, 0x83, 0x01, 0xbe, 0x86, 0xc8, 0xab, 0xbe,
  0x67, 0x37, 0x06, 0x3e, 0x63, 0xdc, 0xb5, 0x3e, 0x74, 0xc1, 0x79, 0xbe,
  0x02, 0x55, 0x4c, 0x3d, 0x0c, 0xeb, 0x43, 0x3e, 0x38, 0xf5, 0xaf, 0xbe,
  0xe8, 0x36, 0x0a, 0x3d, 0x67, 0xfb, 0x43, 0x3e, 0x4d, 0x83, 0x0f, 0x3d,
  0x71, 0xe3, 0x59, 0xbd, 0xa5, 0xa6, 0x32, 0x3e, 0x1e, 0x1d, 0xe9, 0xbd,
  0xb8, 0xe9, 0x2d, 0x3d, 0xb4, 0x80, 0xf3, 0x3d, 0x07, 0x71, 0xc1, 0xbe,
  0x09, 0x27, 0x7e, 0xbe, 0x5a, 0xd7, 0xdb, 0xbc, 0x4e, 0xc6, 0x9d, 0xbd,
  0x1b, 0xde, 0xbc, 0x3d, 0xb0, 0xa2, 0x93, 0x3d, 0x1d, 0x60, 0x8c, 0xbe,
  0xf2, 0xd5, 0x44, 0xbd, 0xce, 0x44, 0x2d, 0xbe, 0x90, 0xc2, 0x9c, 0xbd,
  0x15, 0x12, 0xe3, 0xbc, 0x19, 0xaf, 0x9d, 0x3e, 0xf8, 0xb6, 0x99, 0xbd,
  0x28, 0xdb, 0xc2, 0x3c, 0x7c, 0x44, 0x40, 0xbd, 0x3a, 0x6e, 0xab, 0xbd,
  0xad, 0x24, 0x26, 0x3e, 0xd7, 0xa9, 0xc4, 0x3e, 0x66, 0xfe, 0xff, 0xff,
  0x04, 0x00, 0x00, 0x00, 0x80, 0x00, 0x00, 0x00, 0x3b, 0x79, 0xf2, 0x3c,
  0x4f, 0x73, 0x3a, 0x3e, 0x92, 0x83, 0x51, 0xbb, 0xce, 0x66, 0x20, 0xbc,
  0x2b, 0xc4, 0xfa, 0x3c, 0xdc, 0xd0, 0xb2, 0x3d, 0xfe, 0x9e, 0x69, 0xbd,
  0x3a, 0xb0, 0xc4, 0xbb, 0x00, 0x00, 0x00, 0x00, 0x00, 0x00, 0x00, 0x00,
  0x74, 0x2c, 0x08, 0x3e, 0x67, 0x4f, 0x51, 0xbc, 0x93, 0xf9, 0x6e, 0x3d,
  0x93, 0x1e, 0x6c, 0xbd, 0x6a, 0x96, 0xf3, 0x3d, 0xc2, 0xc2, 0xa8, 0xbb,
  0x68, 0x23, 0x20, 0xbc, 0x5f, 0x25, 0xb6, 0xbb, 0x00, 0x00, 0x00, 0x00,
  0x00, 0x00, 0x00, 0x00, 0xaf, 0x9c, 0x3e, 0x3e, 0x3f, 0xe4, 0xaa, 0x3d,
  0x00, 0x00, 0x00, 0x00, 0xd6, 0x65, 0x53, 0xbd, 0x00, 0x00, 0x00, 0x00,
  0x8c, 0xdc, 0x0f, 0xbd, 0x00, 0x00, 0x00, 0x00, 0xf2, 0x45, 0xae, 0xbd,
  0xa5, 0x34, 0xab, 0xbb, 0x72, 0x20, 0xce, 0x3d, 0x00, 0x00, 0x00, 0x00,
  0x57, 0x1f, 0x14, 0x3e, 0xf2, 0xfe, 0xff, 0xff, 0x04, 0x00, 0x00, 0x00,
  0x20, 0x00, 0x00, 0x00, 0xd4, 0x14, 0xc9, 0x3d, 0x39, 0x0f, 0x72, 0xbe,
  0xc5, 0x69, 0xa8, 0xbe, 0x0f, 0xa6, 0xd8, 0xbd, 0x69, 0x5a, 0xb4, 0xbd,
  0xd8, 0x33, 0x8c, 0x3d, 0xd4, 0xac, 0x47, 0xbe, 0x4b, 0x2d, 0x69, 0x3e,
  0x1e, 0xff, 0xff, 0xff, 0x04, 0x00, 0x00, 0x00, 0x40, 0x00, 0x00, 0x00,
  0x00, 0x00, 0x00, 0x00, 0xf4, 0x64, 0x52, 0x3c, 0x55, 0xa0, 0x31, 0x3d,
  0x2d, 0x6d, 0x66, 0x3d, 0x15, 0x4e, 0x6c, 0x3e, 0x87, 0xc1, 0x13, 0x3d,
  0x41, 0x6f, 0x51, 0xbd, 0xce, 0xef, 0xd8, 0x3d, 0xb4, 0x27, 0x45, 0x3d,
  0xd6, 0x96, 0xb1, 0xbd, 0xb0, 0xa4, 0x9f, 0xbc, 0x63, 0xec, 0x43, 0x3e,
  0x1c, 0x4b, 0x36, 0xbc, 0x0a, 0x43, 0x5b, 0x3e, 0x06, 0x27, 0x74, 0x3d,
  0xd7, 0xcf, 0xc3, 0xbc, 0x5c, 0xfa, 0xff, 0xff, 0x60, 0xfa, 0xff, 0xff,
  0x0f, 0x00, 0x00, 0x00, 0x4d, 0x4c, 0x49, 0x52, 0x20, 0x43, 0x6f, 0x6e,
  0x76, 0x65, 0x72, 0x74, 0x65, 0x64, 0x2e, 0x00, 0x01, 0x00, 0x00, 0x00,
  0x14, 0x00, 0x00, 0x00, 0x00, 0x00, 0x0e, 0x00, 0x18, 0x00, 0x14, 0x00,
  0x10, 0x00, 0x0c, 0x00, 0x08, 0x00, 0x04, 0x00, 0x0e, 0x00, 0x00, 0x00,
  0x14, 0x00, 0x00, 0x00, 0x1c, 0x00, 0x00, 0x00, 0x24, 0x01, 0x00, 0x00,
  0x28, 0x01, 0x00, 0x00, 0x2c, 0x01, 0x00, 0x00, 0x04, 0x00, 0x00, 0x00,
  0x6d, 0x61, 0x69, 0x6e, 0x00, 0x00, 0x00, 0x00, 0x04, 0x00, 0x00, 0x00,
  0xcc, 0x00, 0x00, 0x00, 0x84, 0x00, 0x00, 0x00, 0x50, 0x00, 0x00, 0x00,
  0x14, 0x00, 0x00, 0x00, 0x00, 0x00, 0x0e, 0x00, 0x1a, 0x00, 0x14, 0x00,
  0x10, 0x00, 0x0c, 0x00, 0x0b, 0x00, 0x04, 0x00, 0x0e, 0x00, 0x00, 0x00,
  0x1c, 0x00, 0x00, 0x00, 0x00, 0x00, 0x00, 0x09, 0x1c, 0x00, 0x00, 0x00,
  0x20, 0x00, 0x00, 0x00, 0x01, 0x00, 0x00, 0x00, 0x00, 0x00, 0x06, 0x00,
  0x08, 0x00, 0x04, 0x00, 0x06, 0x00, 0x00, 0x00, 0x00, 0x00, 0x80, 0x3f,
  0x01, 0x00, 0x00, 0x00, 0x0a, 0x00, 0x00, 0x00, 0x01, 0x00, 0x00, 0x00,
  0x09, 0x00, 0x00, 0x00, 0x9a, 0xff, 0xff, 0xff, 0x10, 0x00, 0x00, 0x00,
  0x00, 0x00, 0x00, 0x08, 0x0c, 0x00, 0x00, 0x00, 0x10, 0x00, 0x00, 0x00,
  0x24, 0xfb, 0xff, 0xff, 0x01, 0x00, 0x00, 0x00, 0x09, 0x00, 0x00, 0x00,
  0x03, 0x00, 0x00, 0x00, 0x08, 0x00, 0x00, 0x00, 0x06, 0x00, 0x00, 0x00,
  0x02, 0x00, 0x00, 0x00, 0xca, 0xff, 0xff, 0xff, 0x10, 0x00, 0x00, 0x00,
  0x00, 0x00, 0x00, 0x08, 0x10, 0x00, 0x00, 0x00, 0x14, 0x00, 0x00, 0x00,
  0xba, 0xff, 0xff, 0xff, 0x00, 0x00, 0x00, 0x01, 0x01, 0x00, 0x00, 0x00,
  0x08, 0x00, 0x00, 0x00, 0x03, 0x00, 0x00, 0x00, 0x07, 0x00, 0x00, 0x00,
  0x05, 0x00, 0x00, 0x00, 0x01, 0x00, 0x00, 0x00, 0x00, 0x00, 0x0e, 0x00,
  0x16, 0x00, 0x00, 0x00, 0x10, 0x00, 0x0c, 0x00, 0x0b, 0x00, 0x04, 0x00,
  0x0e, 0x00, 0x00, 0x00, 0x18, 0x00, 0x00, 0x00, 0x00, 0x00, 0x00, 0x08,
  0x18, 0x00, 0x00, 0x00, 0x1c, 0x00, 0x00, 0x00, 0x00, 0x00, 0x06, 0x00,
  0x08, 0x00, 0x07, 0x00, 0x06, 0x00, 0x00, 0x00, 0x00, 0x00, 0x00, 0x01,
  0x01, 0x00, 0x00, 0x00, 0x07, 0x00, 0x00, 0x00, 0x03, 0x00, 0x00, 0x00,
  0x00, 0x00, 0x00, 0x00, 0x04, 0x00, 0x00, 0x00, 0x03, 0x00, 0x00, 0x00,
  0x01, 0x00, 0x00, 0x00, 0x0a, 0x00, 0x00, 0x00, 0x01, 0x00, 0x00, 0x00,
  0x00, 0x00, 0x00, 0x00, 0x0b, 0x00, 0x00, 0x00, 0x04, 0x04, 0x00, 0x00,
  0x94, 0x03, 0x00, 0x00, 0x24, 0x03, 0x00, 0x00, 0xd0, 0x02, 0x00, 0x00,
  0x88, 0x02, 0x00, 0x00, 0x3c, 0x02, 0x00, 0x00, 0xf0, 0x01, 0x00, 0x00,
  0x68, 0x01, 0x00, 0x00, 0xd8, 0x00, 0x00, 0x00, 0x60, 0x00, 0x00, 0x00,
  0x04, 0x00, 0x00, 0x00, 0x3e, 0xfc, 0xff, 0xff, 0x00, 0x00, 0x00, 0x01,
  0x14, 0x00, 0x00, 0x00, 0x1c, 0x00, 0x00, 0x00, 0x1c, 0x00, 0x00, 0x00,
  0x0b, 0x00, 0x00, 0x00, 0x34, 0x00, 0x00, 0x00, 0x02, 0x00, 0x00, 0x00,
  0xff, 0xff, 0xff, 0xff, 0x08, 0x00, 0x00, 0x00, 0x28, 0xfc, 0xff, 0xff,
  0x19, 0x00, 0x00, 0x00, 0x53, 0x74, 0x61, 0x74, 0x65, 0x66, 0x75, 0x6c,
  0x50, 0x61, 0x72, 0x74, 0x69, 0x74, 0x69, 0x6f, 0x6e, 0x65, 0x64, 0x43,
  0x61, 0x6c, 0x6c, 0x3a, 0x30, 0x00, 0x00, 0x00, 0x02, 0x00, 0x00, 0x00,
  0x01, 0x00, 0x00, 0x00, 0x08, 0x00, 0x00, 0x00, 0x96, 0xfc, 0xff, 0xff,
  0x00, 0x00, 0x00, 0x01, 0x14, 0x00, 0x00, 0x00, 0x1c, 0x00, 0x00, 0x00,
  0x1c, 0x00, 0x00, 0x00, 0x0a, 0x00, 0x00, 0x00, 0x50, 0x00, 0x00, 0x00,
  0x02, 0x00, 0x00, 0x00, 0xff, 0xff, 0xff, 0xff, 0x08, 0x00, 0x00, 0x00,
  0x80, 0xfc, 0xff, 0xff, 0x34, 0x00, 0x00, 0x00, 0x73, 0x65, 0x71, 0x75,
  0x65, 0x6e, 0x74, 0x69, 0x61, 0x6c, 0x2f, 0x64, 0x65, 0x6e, 0x73, 0x65,
  0x5f, 0x32, 0x2f, 0x4d, 0x61, 0x74, 0x4d, 0x75, 0x6c, 0x3b, 0x73, 0x65,
  0x71, 0x75, 0x65, 0x6e, 0x74, 0x69, 0x61, 0x6c, 0x2f, 0x64, 0x65, 0x6e,
  0x73, 0x65, 0x5f, 0x32, 0x2f, 0x42, 0x69, 0x61, 0x73, 0x41, 0x64, 0x64,
  0x00, 0x00, 0x00, 0x00, 0x02, 0x00, 0x00, 0x00, 0x01, 0x00, 0x00, 0x00,
  0x08, 0x00, 0x00, 0x00, 0x0a, 0xfd, 0xff, 0xff, 0x00, 0x00, 0x00, 0x01,
  0x14, 0x00, 0x00, 0x00, 0x1c, 0x00, 0x00, 0x00, 0x1c, 0x00, 0x00, 0x00,
  0x09, 0x00, 0x00, 0x00, 0x68, 0x00, 0x00, 0x00, 0x02, 0x00, 0x00, 0x00,
  0xff, 0xff, 0xff, 0xff, 0x10, 0x00, 0x00, 0x00, 0xf4, 0xfc, 0xff, 0xff,
  0x4c, 0x00, 0x00, 0x00, 0x73, 0x65, 0x71, 0x75, 0x65, 0x6e, 0x74, 0x69,
  0x61, 0x6c, 0x2f, 0x64, 0x65, 0x6e, 0x73, 0x65, 0x5f, 0x31, 0x2f, 0x4d,
  0x61, 0x74, 0x4d, 0x75, 0x6c, 0x3b, 0x73, 0x65, 0x71, 0x75, 0x65, 0x6e,
  0x74, 0x69, 0x61, 0x6c, 0x2f, 0x64, 0x65, 0x6e, 0x73, 0x65, 0x5f, 0x31,
  0x2f, 0x52, 0x65, 0x6c, 0x75, 0x3b, 0x73, 0x65, 0x71, 0x75, 0x65, 0x6e,
  0x74, 0x69, 0x61, 0x6c, 0x2f, 0x64, 0x65, 0x6e, 0x73, 0x65, 0x5f, 0x31,
  0x2f, 0x42, 0x69, 0x61, 0x73, 0x41, 0x64, 0x64, 0x00, 0x00, 0x00, 0x00,
  0x02, 0x00, 0x00, 0x00, 0x01, 0x00, 0x00, 0x00, 0x10, 0x00, 0x00, 0x00,
  0x96, 0xfd, 0xff, 0xff, 0x00, 0x00, 0x00, 0x01, 0x14, 0x00, 0x00, 0x00,
  0x1c, 0x00, 0x00, 0x00, 0x1c, 0x00, 0x00, 0x00, 0x08, 0x00, 0x00, 0x00,
  0x60, 0x00, 0x00, 0x00, 0x02, 0x00, 0x00, 0x00, 0xff, 0xff, 0xff, 0xff,
  0x20, 0x00, 0x00, 0x00, 0x80, 0xfd, 0xff, 0xff, 0x46, 0x00, 0x00, 0x00,
  0x73, 0x65, 0x71, 0x75, 0x65, 0x6e, 0x74, 0x69, 0x61, 0x6c, 0x2f, 0x64,
  0x65, 0x6e, 0x73, 0x65, 0x2f, 0x4d, 0x61, 0x74, 0x4d, 0x75, 0x6c, 0x3b,
  0x73, 0x65, 0x71, 0x75, 0x65, 0x6e, 0x74, 0x69, 0x61, 0x6c, 0x2f, 0x64,
  0x65, 0x6e, 0x73, 0x65, 0x2f, 0x52, 0x65, 0x6c, 0x75, 0x3b, 0x73, 0x65,
  0x71, 0x75, 0x65, 0x6e, 0x74, 0x69, 0x61, 0x6c, 0x2f, 0x64, 0x65, 0x6e,
  0x73, 0x65, 0x2f, 0x42, 0x69, 0x61, 0x73, 0x41, 0x64, 0x64, 0x00, 0x00,
  0x02, 0x00, 0x00, 0x00, 0x01, 0x00, 0x00, 0x00, 0x20, 0x00, 0x00, 0x00,
  0x86, 0xfe, 0xff, 0xff, 0x00, 0x00, 0x00, 0x01, 0x10, 0x00, 0x00, 0x00,
  0x10, 0x00, 0x00, 0x00, 0x07, 0x00, 0x00, 0x00, 0x28, 0x00, 0x00, 0x00,
  0xf4, 0xfd, 0xff, 0xff, 0x19, 0x00, 0x00, 0x00, 0x73, 0x65, 0x71, 0x75,
  0x65, 0x6e, 0x74, 0x69, 0x61, 0x6c, 0x2f, 0x64, 0x65, 0x6e, 0x73, 0x65,
  0x5f, 0x32, 0x2f, 0x4d, 0x61, 0x74, 0x4d, 0x75, 0x6c, 0x00, 0x00, 0x00,
  0x02, 0x00, 0x00, 0x00, 0x08, 0x00, 0x00, 0x00, 0x10, 0x00, 0x00, 0x00,
  0xce, 0xfe, 0xff, 0xff, 0x00, 0x00, 0x00, 0x01, 0x10, 0x00, 0x00, 0x00,
  0x10, 0x00, 0x00, 0x00, 0x06, 0x00, 0x00, 0x00, 0x28, 0x00, 0x00, 0x00,
  0x3c, 0xfe, 0xff, 0xff, 0x19, 0x00, 0x00, 0x00, 0x73, 0x65, 0x71, 0x75,
  0x65, 0x6e, 0x74, 0x69, 0x61, 0x6c, 0x2f, 0x64, 0x65, 0x6e, 0x73, 0x65,
  0x5f, 0x31, 0x2f, 0x4d, 0x61, 0x74, 0x4d, 0x75, 0x6c, 0x00, 0x00, 0x00,
  0x02, 0x00, 0x00, 0x00, 0x10, 0x00, 0x00, 0x00, 0x20, 0x00, 0x00, 0x00,
  0x16, 0xff, 0xff, 0xff, 0x00, 0x00, 0x00, 0x01, 0x10, 0x00, 0x00, 0x00,
  0x10, 0x00, 0x00, 0x00, 0x05, 0x00, 0x00, 0x00, 0x24, 0x00, 0x00, 0x00,
  0x84, 0xfe, 0xff, 0xff, 0x17, 0x00, 0x00, 0x00, 0x73, 0x65, 0x71, 0x75,
  0x65, 0x6e, 0x74, 0x69, 0x61, 0x6c, 0x2f, 0x64, 0x65, 0x6e, 0x73, 0x65,
  0x2f, 0x4d, 0x61, 0x74, 0x4d, 0x75, 0x6c, 0x00, 0x02, 0x00, 0x00, 0x00,
  0x20, 0x00, 0x00, 0x00, 0x5a, 0x00, 0x00, 0x00, 0x5a, 0xff, 0xff, 0xff,
  0x00, 0x00, 0x00, 0x01, 0x10, 0x00, 0x00, 0x00, 0x10, 0x00, 0x00, 0x00,
  0x04, 0x00, 0x00, 0x00, 0x34, 0x00, 0x00, 0x00, 0xc8, 0xfe, 0xff, 0xff,
  0x27, 0x00, 0x00, 0x00, 0x73, 0x65, 0x71, 0x75, 0x65, 0x6e, 0x74, 0x69,
  0x61, 0x6c, 0x2f, 0x64, 0x65, 0x6e, 0x73, 0x65, 0x2f, 0x42, 0x69, 0x61,
  0x73, 0x41, 0x64, 0x64, 0x2f, 0x52, 0x65, 0x61, 0x64, 0x56, 0x61, 0x72,
  0x69, 0x61, 0x62, 0x6c, 0x65, 0x4f, 0x70, 0x00, 0x01, 0x00, 0x00, 0x00,
  0x20, 0x00, 0x00, 0x00, 0xaa, 0xff, 0xff, 0xff, 0x00, 0x00, 0x00, 0x01,
  0x10, 0x00, 0x00, 0x00, 0x10, 0x00, 0x00, 0x00, 0x03, 0x00, 0x00, 0x00,
  0x38, 0x00, 0x00, 0x00, 0x18, 0xff, 0xff, 0xff, 0x29, 0x00, 0x00, 0x00,
  0x73, 0x65, 0x71, 0x75, 0x65, 0x6e, 0x74, 0x69, 0x61, 0x6c, 0x2f, 0x64,
  0x65, 0x6e, 0x73, 0x65, 0x5f, 0x32, 0x2f, 0x42, 0x69, 0x61, 0x73, 0x41,
  0x64, 0x64, 0x2f, 0x52, 0x65, 0x61, 0x64, 0x56, 0x61, 0x72, 0x69, 0x61,
  0x62, 0x6c, 0x65, 0x4f, 0x70, 0x00, 0x00, 0x00, 0x01, 0x00, 0x00, 0x00,
  0x08, 0x00, 0x00, 0x00, 0x00, 0x00, 0x16, 0x00, 0x18, 0x00, 0x14, 0x00,
  0x00, 0x00, 0x10, 0x00, 0x0c, 0x00, 0x08, 0x00, 0x00, 0x00, 0x00, 0x00,
  0x00, 0x00, 0x07, 0x00, 0x16, 0x00, 0x00, 0x00, 0x00, 0x00, 0x00, 0x01,
  0x10, 0x00, 0x00, 0x00, 0x10, 0x00, 0x00, 0x00, 0x02, 0x00, 0x00, 0x00,
  0x38, 0x00, 0x00, 0x00, 0x84, 0xff, 0xff, 0xff, 0x29, 0x00, 0x00, 0x00,
  0x73, 0x65, 0x71, 0x75, 0x65, 0x6e, 0x74, 0x69, 0x61, 0x6c, 0x2f, 0x64,
  0x65, 0x6e, 0x73, 0x65, 0x5f, 0x31, 0x2f, 0x42, 0x69, 0x61, 0x73, 0x41,
