const unsigned char gesture_model_q [] = {  
  0x1c, 0x00, 0x00, 0x00, 0x54, 0x46, 0x4c, 0x33, 0x14, 0x00, 0x20, 0x00,
  0x1c, 0x00, 0x18, 0x00, 0x14, 0x00, 0x10, 0x00, 0x0c, 0x00, 0x00, 0x00,
  0x08, 0x00, 0x04, 0x00, 0x14, 0x00, 0x00, 0x00, 0x1c, 0x00, 0x00, 0x00,
  0x84, 0x00, 0x00, 0x00, 0xdc, 0x00, 0x00, 0x00, 0x64, 0x0e, 0x00, 0x00,
  0x74, 0x0e, 0x00, 0x00, 0xd4, 0x16, 0x00, 0x00, 0x03, 0x00, 0x00, 0x00,
  0x01, 0x00, 0x00, 0x00, 0x04, 0x00, 0x00, 0x00, 0x46, 0xf1, 0xff, 0xff,
  0x0c, 0x00, 0x00, 0x00, 0x1c, 0x00, 0x00, 0x00, 0x38, 0x00, 0x00, 0x00,
  0x0f, 0x00, 0x00, 0x00, 0x73, 0x65, 0x72, 0x76, 0x69, 0x6e, 0x67, 0x5f,
  0x64, 0x65, 0x66, 0x61, 0x75, 0x6c, 0x74, 0x00, 0x01, 0x00, 0x00, 0x00,
  0x04, 0x00, 0x00, 0x00, 0x98, 0xff, 0xff, 0xff, 0x0c, 0x00, 0x00, 0x00,
  0x04, 0x00, 0x00, 0x00, 0x07, 0x00, 0x00, 0x00, 0x64, 0x65, 0x6e, 0x73,
  0x65, 0x5f, 0x32, 0x00, 0x01, 0x00, 0x00, 0x00, 0x04, 0x00, 0x00, 0x00,
  0x4e, 0xf1, 0xff, 0xff, 0x04, 0x00, 0x00, 0x00, 0x0b, 0x00, 0x00, 0x00,
  0x64, 0x65, 0x6e, 0x73, 0x65, 0x5f, 0x69, 0x6e, 0x70, 0x75, 0x74, 0x00,
  0x02, 0x00, 0x00, 0x00, 0x34, 0x00, 0x00, 0x00, 0x04, 0x00, 0x00, 0x00,
  0xdc, 0xff, 0xff, 0xff, 0x0f, 0x00, 0x00, 0x00, 0x04, 0x00, 0x00, 0x00,
  0x13, 0x00, 0x00, 0x00, 0x43, 0x4f, 0x4e, 0x56, 0x45, 0x52, 0x53, 0x49,
  0x4f, 0x4e, 0x5f, 0x4d, 0x45, 0x54, 0x41, 0x44, 0x41, 0x54, 0x41, 0x00,
  0x08, 0x00, 0x0c, 0x00, 0x08, 0x00, 0x04, 0x00, 0x08, 0x00, 0x00, 0x00,
  0x0e, 0x00, 0x00, 0x00, 0x04, 0x00, 0x00, 0x00, 0x13, 0x00, 0x00, 0x00,
  0x6d, 0x69, 0x6e, 0x5f, 0x72, 0x75, 0x6e, 0x74, 0x69, 0x6d, 0x65, 0x5f,
  0x76, 0x65, 0x72, 0x73, 0x69, 0x6f, 0x6e, 0x00, 0x10, 0x00, 0x00, 0x00,
  0x84, 0x0d, 0x00, 0x00, 0x7c, 0x0d, 0x00, 0x00, 0x4c, 0x0d, 0x00, 0x00,
  0xbc, 0x0c, 0x00, 0x00, 0x6c, 0x0c, 0x00, 0x00, 0x5c, 0x0a, 0x00, 0x00,
  0xcc, 0x09, 0x00, 0x00, 0xbc, 0x00, 0x00, 0x00, 0xb4, 0x00, 0x00, 0x00,
  0xac, 0x00, 0x00, 0x00, 0xa4, 0x00, 0x00, 0x00, 0x9c, 0x00, 0x00, 0x00,
  0x94, 0x00, 0x00, 0x00, 0x8c, 0x00, 0x00, 0x00, 0x6c, 0x00, 0x00, 0x00,
  0x04, 0x00, 0x00, 0x00, 0x06, 0xf2, 0xff, 0xff, 0x04, 0x00, 0x00, 0x00,
  0x58, 0x00, 0x00, 0x00, 0x0c, 0x00, 0x00, 0x00, 0x08, 0x00, 0x0e, 0x00,
  0x08, 0x00, 0x04, 0x00, 0x08, 0x00, 0x00, 0x00, 0x10, 0x00, 0x00, 0x00,
  0x28, 0x00, 0x00, 0x00, 0x00, 0x00, 0x06, 0x00, 0x08, 0x00, 0x04, 0x00,
  0x06, 0x00, 0x00, 0x00, 0x04, 0x00, 0x00, 0x00, 0x01, 0x00, 0x00, 0x00,
  0xeb, 0x03, 0x00, 0x00, 0x00, 0x00, 0x0a, 0x00, 0x10, 0x00, 0x0c, 0x00,
  0x08, 0x00, 0x04, 0x00, 0x0a, 0x00, 0x00, 0x00, 0x02, 0x00, 0x00, 0x00,
  0x02, 0x00, 0x00, 0x00, 0x04, 0x00, 0x00, 0x00, 0x06, 0x00, 0x00, 0x00,
  0x32, 0x2e, 0x31, 0x30, 0x2e, 0x30, 0x00, 0x00, 0x6a, 0xf2, 0xff, 0xff,
  0x04, 0x00, 0x00, 0x00, 0x10, 0x00, 0x00, 0x00, 0x31, 0x2e, 0x31, 0x34,
  0x2e, 0x30, 0x00, 0x00, 0x00, 0x00, 0x00, 0x00, 0x00, 0x00, 0x00, 0x00,
  0xf8, 0xea, 0xff, 0xff, 0xfc, 0xea, 0xff, 0xff, 0x00, 0xeb, 0xff, 0xff,
  0x04, 0xeb, 0xff, 0xff, 0x08, 0xeb, 0xff, 0xff, 0x0c, 0xeb, 0xff, 0xff,
  0x9e, 0xf2, 0xff, 0xff, 0x04, 0x00, 0x00, 0x00, 0x00, 0x09, 0x00, 0x00,
  0x23, 0x21, 0x2d, 0x16, 0x01, 0xd7, 0x41, 0x1a, 0x29, 0xf4, 0x0b, 0xf0,
  0x2f, 0x38, 0x1b, 0xf6, 0xe8, 0xee, 0x37, 0x29, 0x2c, 0x0f, 0xef, 0x14,
  0x31, 0xfc, 0x06, 0xed, 0x11, 0xfb, 0x3b, 0x10, 0x00, 0x03, 0x05, 0xf0,
  0x05, 0x1a, 0xfe, 0xd7, 0x03, 0xfc, 0x02, 0x01, 0x23, 0xd9, 0xfd, 0x0a,
  0x1d, 0x2e, 0x1a, 0x00, 0x18, 0xf3, 0x17, 0x3a, 0xef, 0xe8, 0x03, 0xfc,
  0xf9, 0x4b, 0x13, 0xef, 0xed, 0xe6, 0x0b, 0x3e, 0x0f, 0xe3, 0x11, 0x0f,
  0x26, 0x0a, 0xe8, 0xe3, 0xea, 0xea, 0x28, 0x1c, 0xf6, 0x07, 0xf4, 0xe6,
  0x0e, 0x2a, 0xdc, 0x18, 0x0f, 0xc5, 0x2c, 0x22, 0x00, 0xea, 0x0d, 0xec,
  0x2e, 0x23, 0xe2, 0x0b, 0x06, 0xea, 0x2f, 0x01, 0xde, 0xf2, 0x14, 0xf8,
  0x24, 0x1f, 0xf1, 0xfe, 0xfe, 0x02, 0x2a, 0x03, 0x07, 0xfe, 0xe2, 0x0a,
  0x38, 0x12, 0xe8, 0xe6, 0x00, 0xf6, 0x26, 0xe5, 0xff, 0xde, 0xe7, 0xf0,
  0x41, 0xd1, 0x12, 0xf7, 0xe9, 0x15, 0x19, 0xcb, 0x05, 0xf6, 0xf0, 0xf0,
  0xd8, 0xff, 0xee, 0x1f, 0xff, 0x01, 0xf7, 0xf1, 0xe0, 0xf9, 0x15, 0xf5,
  0xd0, 0x02, 0x14, 0xff, 0x1f, 0x0e, 0xe0, 0xf9, 0x1f, 0x25, 0x04, 0x0c,
  0xe4, 0x00, 0x38, 0x09, 0x17, 0xf0, 0xee, 0x08, 0x34, 0xf7, 0xfe, 0x08,
  0xfc, 0x1a, 0x1a, 0x09, 0x11, 0xec, 0xf3, 0xfd, 0x26, 0x0c, 0x03, 0x0c,
  0xf2, 0x10, 0x3e, 0xf0, 0x22, 0x0a, 0xf6, 0xd3, 0x35, 0x18, 0x19, 0x18,
  0xcf, 0xcd, 0x14, 0x12, 0x09, 0x20, 0xe0, 0xaf, 0x32, 0xf9, 0x0f, 0x24,
  0x32, 0x27, 0x02, 0xf9, 0xfa, 0x1b, 0x2c, 0x0e, 0x04, 0xff, 0xe0, 0x45,
  0x0f, 0xde, 0x33, 0xdf, 0xf3, 0x40, 0xf2, 0xdb, 0x11, 0xf1, 0x07, 0x3b,
  0x04, 0xfa, 0x2a, 0xd8, 0x06, 0x18, 0x11, 0xe4, 0x18, 0xe6, 0xf7, 0x1b,
  0xfc, 0xfc, 0x0b, 0xfa, 0xe0, 0x41, 0xef, 0xcc, 0x16, 0xdb, 0xfa, 0x27,
  0xff, 0xec, 0x17, 0xf2, 0xe7, 0x26, 0x07, 0xe3, 0xf5, 0xf4, 0xf3, 0x2a,
  0x17, 0xda, 0x04, 0xf1, 0xf4, 0x3c, 0x00, 0xc6, 0x00, 0x12, 0xef, 0x35,
  0x0f, 0xe8, 0x02, 0x09, 0x08, 0x0a, 0xf5, 0x11, 0x0d, 0xee, 0x10, 0xf1,
  0x03, 0xf8, 0x00, 0x13, 0x1a, 0x0c, 0xf3, 0xea, 0xed, 0x0e, 0x06, 0xef,
  0x02, 0x11, 0x01, 0xec, 0x09, 0xf0, 0x0d, 0xf5, 0xfe, 0x11, 0xe9, 0xf3,
  0xe9, 0x07, 0x08, 0xe6, 0xe5, 0x05, 0xfa, 0xf3, 0x0c, 0x19, 0xe5, 0xf5,
  0x12, 0x1c, 0xed, 0xfd, 0xf0, 0x0b, 0xf9, 0xea, 0xeb, 0xe5, 0xe8, 0x07,
  0x18, 0x17, 0x06, 0xe6, 0x02, 0x10, 0x0a, 0xf7, 0xe8, 0x0e, 0x11, 0xe5,
  0xe8, 0xfc, 0xfe, 0x1b, 0x06, 0x07, 0xf8, 0xf2, 0x04, 0xf0, 0x04, 0xf4,
  0x1c, 0xe9, 0x1b, 0x04, 0xe5, 0x18, 0x14, 0x0f, 0x04, 0x03, 0x07, 0xef,
  0x17, 0xee, 0x00, 0xeb, 0x00, 0x00, 0xf4, 0x15, 0xf4, 0x0c, 0x1b, 0xee,
  0xf8, 0xf7, 0xee, 0x0c, 0xfe, 0xe6, 0x1b, 0x02, 0x07, 0x02, 0xef, 0x15,
  0x00, 0x08, 0x08, 0x09, 0xf4, 0xe7, 0x06, 0x08, 0xfd, 0xe6, 0xe9, 0x16,
  0x01, 0x02, 0xf2, 0x10, 0xe5, 0xeb, 0xfd, 0xe4, 0xed, 0x05, 0x05, 0xec,
  0x05, 0x0e, 0x10, 0x0a, 0xf5, 0xe5, 0xf1, 0xff, 0xf9, 0xe8, 0xfa, 0x0e,
  0x17, 0x00, 0x02, 0x0b, 0xf4, 0xfd, 0x15, 0x0c, 0x07, 0x18, 0xe4, 0x1b,
  0xf8, 0xee, 0xf3, 0xed, 0xf1, 0x16, 0x17, 0xee, 0xed, 0xfc, 0xf4, 0xfe,
  0xeb, 0xe8, 0xe5, 0xec, 0xe8, 0x1b, 0x13, 0xef, 0xe7, 0xe2, 0x18, 0x00,
  0x02, 0x15, 0x03, 0xff, 0xeb, 0xef, 0xee, 0x00, 0xfe, 0xf5, 0xfe, 0x0a,
  0xf7, 0x01, 0x0e, 0xed, 0xef, 0x11, 0x1b, 0x05, 0xf6, 0xf0, 0x1a, 0xfd,
  0x0d, 0xe6, 0xf3, 0xfc, 0xfa, 0x06, 0xfd, 0x0a, 0xf3, 0x17, 0xe5, 0x1b,
  0xfa, 0xe5, 0xf0, 0x08, 0xf6, 0xec, 0x0a, 0xed, 0xf1, 0x10, 0x03, 0x00,
  0xee, 0x06, 0xf2, 0xf4, 0x15, 0xe9, 0x07, 0x07, 0x03, 0x06, 0x00, 0x10,
  0x08, 0xe7, 0xed, 0xf6, 0xf1, 0xfb, 0x10, 0x08, 0x02, 0x19, 0x1a, 0x18,
  0xe4, 0x01, 0xfa, 0x10, 0x04, 0xf6, 0x18, 0xf2, 0xeb, 0x02, 0xe6, 0xea,
  0x0e, 0x1c, 0x0a, 0xf2, 0x03, 0x0d, 0xe8, 0xe6, 0x05, 0x00, 0xf1, 0x12,
  0x1a, 0x1b, 0xfd, 0x11, 0x0c, 0x00, 0xe7, 0x0b, 0xfb, 0xed, 0xe3, 0xf8,
  0xf8, 0x0b, 0x0e, 0x08, 0x0a, 0xf7, 0xfc, 0xee, 0x18, 0xf7, 0xfa, 0xfc,
  0x0e, 0x02, 0xe8, 0xe6, 0x0f, 0x0e, 0xf3, 0xf5, 0x16, 0x1a, 0x04, 0xf7,
  0xf2, 0x16, 0xe3, 0xeb, 0x00, 0x01, 0xea, 0xe7, 0xf3, 0xe4, 0xe2, 0x08,
  0xfa, 0xfa, 0xf1, 0xe3, 0xfc, 0xf9, 0x0e, 0xee, 0x0f, 0xf1, 0x0e, 0x16,
  0xed, 0x0a, 0xfc, 0x05, 0x0b, 0x0c, 0xe7, 0x0e, 0xf7, 0xea, 0x15, 0x19,
  0xd5, 0x02, 0x19, 0xee, 0xef, 0x4f, 0xe1, 0xfc, 0xfe, 0xe4, 0x19, 0x45,
  0xe6, 0xef, 0xea, 0x0d, 0x16, 0x37, 0xdb, 0xe7, 0xdb, 0xff, 0x12, 0x36,
  0xd7, 0xf7, 0xed, 0xfa, 0x14, 0x25, 0xea, 0xe5, 0xd0, 0x00, 0xf4, 0x19,
  0xd7, 0x0d, 0xd7, 0x18, 0x28, 0x1f, 0x02, 0x0b, 0xc3, 0x21, 0x06, 0x1a,
  0xe9, 0x1c, 0xcc, 0x1d, 0x17, 0x00, 0x08, 0x03, 0xdd, 0x2b, 0x20, 0xfe,
  0x09, 0x1c, 0xe2, 0x14, 0x05, 0x1f, 0xdb, 0x34, 0x00, 0x22, 0x27, 0x01,
  0xf1, 0xe8, 0xfc, 0x0b, 0x0b, 0xe4, 0xec, 0x18, 0xfd, 0x13, 0x2c, 0xcd,
  0xf9, 0xff, 0x13, 0x1a, 0x18, 0xc1, 0xe8, 0x12, 0x14, 0x20, 0x26, 0xd3,
  0x08, 0x10, 0x2e, 0x00, 0x1e, 0xc9, 0x00, 0xf1, 0x0e, 0x0f, 0xfe, 0xc2,
  0x09, 0xff, 0xfc, 0x02, 0x26, 0xde, 0x14, 0x04, 0x28, 0xec, 0x23, 0xd7,
  0x0b, 0x12, 0x13, 0x19, 0xee, 0xc5, 0x16, 0x3b, 0x20, 0x05, 0x19, 0xef,
  0xff, 0x30, 0x35, 0xef, 0xfd, 0xd0, 0x10, 0x35, 0x1f, 0x0f, 0xe2, 0xd4,
  0xea, 0x0d, 0xf3, 0x01, 0xfd, 0xe4, 0xe5, 0x0c, 0x0a, 0xfa, 0xf2, 0xf0,
  0xe7, 0x0d, 0x16, 0xfb, 0xe9, 0xf4, 0xfb, 0xeb, 0x05, 0x04, 0xf1, 0x10,
  0xe4, 0x09, 0x16, 0xf7, 0x00, 0xfd, 0xf7, 0xf1, 0x00, 0x14, 0x0a, 0x04,
  0xee, 0x0c, 0x16, 0x14, 0x12, 0xf9, 0xf3, 0xef, 0x18, 0xf4, 0xfd, 0xee,
  0xf4, 0xf7, 0x11, 0xe4, 0xf0, 0xf3, 0x11, 0xe7, 0x1a, 0xf9, 0xfa, 0x1c,
  0x14, 0xff, 0xe8, 0xf5, 0xf3, 0xee, 0xf4, 0x03, 0x06, 0x11, 0xf9, 0xf5,
  0x04, 0x1d, 0x0d, 0x13, 0x0c, 0x0b, 0x08, 0x2b, 0xf0, 0x16, 0x18, 0xd6,
  0x03, 0x0e, 0xf4, 0x18, 0xfa, 0xf2, 0xe4, 0x18, 0x0d, 0x3d, 0x0d, 0xea,
  0xf4, 0x1b, 0x14, 0x42, 0xe6, 0xe0, 0x0e, 0x24, 0x18, 0x2d, 0xff, 0xfb,
  0xd9, 0xf7, 0x1b, 0x20, 0xec, 0x15, 0xd8, 0x06, 0x10, 0x24, 0xe4, 0x2b,
  0x03, 0xef, 0x0d, 0x20, 0xf8, 0x04, 0xd9, 0xc4, 0xfb, 0x28, 0x0e, 0x25,
  0xf0, 0xb6, 0x09, 0x08, 0x17, 0x2c, 0xf3, 0x86, 0x1a, 0x15, 0x11, 0x12,
  0xe5, 0xfe, 0xce, 0x1e, 0x1b, 0x05, 0xee, 0xf6, 0xd7, 0x13, 0x09, 0x07,
  0xf9, 0xe3, 0xea, 0x1c, 0x08, 0x14, 0xd4, 0x04, 0xed, 0x29, 0x08, 0xf2,
  0xe1, 0xf7, 0x16, 0x26, 0x06, 0x15, 0x12, 0xd6, 0xfd, 0x03, 0xfa, 0x02,
  0x11, 0xe7, 0x28, 0x0a, 0x08, 0x02, 0xf9, 0xf4, 0x0f, 0x25, 0x28, 0xf4,
  0x14, 0xdf, 0x39, 0x19, 0x15, 0x01, 0x14, 0xd8, 0x2b, 0x21, 0x13, 0x0b,
  0x21, 0xac, 0x3c, 0x09, 0x0f, 0x08, 0xfe, 0x81, 0x4b, 0x1a, 0x18, 0x25,
  0x08, 0x1e, 0xf6, 0x07, 0xee, 0x1c, 0x14, 0xf9, 0xea, 0xe8, 0xfe, 0xff,
  0x0a, 0xf2, 0xfb, 0xd6, 0xe2, 0xf8, 0x3b, 0x05, 0xe7, 0xec, 0x0e, 0x0e,
  0x38, 0x0f, 0x09, 0xd0, 0x05, 0x1b, 0x3d, 0xdf, 0xea, 0xe0, 0x06, 0xfb,
  0x36, 0xe1, 0x05, 0xea, 0x15, 0x07, 0x41, 0x06, 0x14, 0xc8, 0xf2, 0x24,
  0x1d, 0xfb, 0x10, 0xe9, 0x17, 0x08, 0x53, 0xe3, 0xfd, 0xf2, 0xfe, 0xff,
  0x2d, 0xe1, 0x0e, 0xc9, 0x08, 0x1a, 0x24, 0xd5, 0x12, 0x02, 0xfe, 0x10,
  0xeb, 0xef, 0x03, 0x16, 0x05, 0xf4, 0xfc, 0x03, 0xe3, 0xf2, 0x00, 0x08,
  0x09, 0x1a, 0xf7, 0x02, 0xee, 0xee, 0xed, 0x14, 0xf2, 0xf4, 0x18, 0xe8,
  0xf7, 0x02, 0xfc, 0x12, 0xf8, 0x01, 0xee, 0xf1, 0xe3, 0xfd, 0xf5, 0xed,
  0x07, 0x19, 0xe9, 0x07, 0xf5, 0xf2, 0xe4, 0xf5, 0x16, 0x18, 0x15, 0x13,
  0xe5, 0x05, 0x15, 0x03, 0x05, 0xf0, 0x0b, 0xf9, 0x1a, 0xe9, 0xfd, 0x15,
  0x13, 0x11, 0x14, 0xef, 0xfc, 0xf2, 0x09, 0x00, 0xe5, 0xfe, 0xef, 0x19,
  0xfa, 0x05, 0x24, 0x01, 0xf0, 0x24, 0xe1, 0xe6, 0x28, 0xf9, 0xf9, 0x43,
  0xfc, 0xf1, 0x34, 0xf3, 0x01, 0x15, 0x02, 0xdf, 0x35, 0x1c, 0xff, 0x30,
  0xf4, 0x04, 0x0a, 0x21, 0x03, 0x1b, 0xed, 0xe6, 0x27, 0x19, 0xea, 0x15,
  0x07, 0xd9, 0xf5, 0x1f, 0xdf, 0x24, 0x00, 0x07, 0xf7, 0x19, 0xfd, 0x12,
  0xca, 0x0b, 0xe8, 0x28, 0x0b, 0x0a, 0xcb, 0x22, 0xe7, 0x16, 0x03, 0x0c,
  0xec, 0xfa, 0xf8, 0x08, 0xf8, 0x1b, 0xc3, 0x23, 0x03, 0x21, 0xe4, 0xf5,
  0x10, 0x07, 0x26, 0x15, 0x29, 0x0a, 0x1c, 0x29, 0x17, 0x04, 0xf3, 0xe6,
  0x1f, 0x09, 0x36, 0x21, 0x0c, 0x02, 0x12, 0x30, 0x1e, 0x22, 0xfe, 0xdf,
  0xf1, 0x24, 0x2f, 0x26, 0x11, 0x0f, 0x00, 0x11, 0x0a, 0x1b, 0xf6, 0x10,
  0x03, 0x10, 0x25, 0x07, 0xf6, 0xfc, 0xf3, 0x06, 0x19, 0xf7, 0x0f, 0x09,
  0xd9, 0x1a, 0x18, 0xfa, 0x09, 0xfb, 0xe8, 0x20, 0x21, 0x09, 0x1d, 0x09,
  0xc0, 0x1c, 0xf6, 0xf3, 0x24, 0x05, 0xbd, 0x23, 0x16, 0xfc, 0x11, 0xe7,
  0x00, 0xfa, 0x04, 0x0b, 0xe8, 0xfd, 0x11, 0xfe, 0xe7, 0x17, 0x0a, 0x18,
  0x12, 0xec, 0x0b, 0xfc, 0xe8, 0x1c, 0xea, 0xd8, 0x14, 0xfb, 0xf2, 0xf4,
  0x16, 0xcc, 0x14, 0x14, 0xed, 0x1a, 0x25, 0xdb, 0x31, 0xf7, 0x01, 0xfa,
  0x1a, 0xf2, 0x2c, 0xfe, 0x08, 0x07, 0x31, 0xc3, 0x48, 0x0a, 0xf7, 0x1f,
  0x28, 0xca, 0x45, 0xf9, 0x0d, 0x14, 0x0e, 0xc7, 0x20, 0xdd, 0x10, 0x00,
  0x23, 0xca, 0x47, 0x06, 0xf1, 0x13, 0x01, 0xbf, 0x2a, 0xff, 0x09, 0x16,
  0x02, 0xed, 0xed, 0x0d, 0xe5, 0xee, 0x12, 0xfd, 0xfc, 0xe4, 0xfe, 0xef,
  0x0a, 0xf5, 0x0c, 0xfc, 0x13, 0x02, 0x0b, 0xeb, 0x02, 0xf7, 0xf9, 0x00,
  0x14, 0x0b, 0x18, 0x0a, 0xed, 0x01, 0x04, 0x14, 0x01, 0xed, 0xe6, 0xf0,
  0x0e, 0xe5, 0x15, 0xf6, 0xf6, 0x07, 0x06, 0x16, 0xfd, 0xf3, 0xf2, 0x0e,
  0x0d, 0xf1, 0xf8, 0xe7, 0xf9, 0x1a, 0x07, 0x12, 0xfa, 0x10, 0x0e, 0x11,
  0x0b, 0xf0, 0xe7, 0xf3, 0xea, 0xe4, 0x0b, 0xfa, 0x04, 0xef, 0x17, 0xef,
  0x06, 0xd6, 0x06, 0x11, 0x2c, 0x17, 0xe5, 0x09, 0xe9, 0xe4, 0x11, 0x16,
  0x03, 0xe7, 0x19, 0xd9, 0xf8, 0x12, 0x0c, 0xfa, 0x06, 0xe8, 0x1e, 0x1e,
  0x28, 0xcb, 0xfa, 0xe1, 0x1d, 0x04, 0x28, 0xd9, 0x25, 0xd5, 0x21, 0x03,
  0x22, 0xc9, 0x1f, 0xdb, 0x1a, 0x04, 0x31, 0xaf, 0x15, 0xd7, 0x09, 0x27,
  0x40, 0xdd, 0x15, 0xd9, 0xf9, 0x19, 0x4b, 0xdb, 0x0f, 0xd6, 0xe8, 0x0a,
  0x28, 0xeb, 0x22, 0xd3, 0x0e, 0x09, 0x4c, 0xd8, 0x13, 0xe7, 0x17, 0xff,
  0xeb, 0x23, 0xd5, 0xed, 0xfc, 0xba, 0xf2, 0x0f, 0xbe, 0x10, 0x0e, 0xb8,
  0x1e, 0x2d, 0xc2, 0x2e, 0xf0, 0xc8, 0xfa, 0x26, 0xe1, 0x07, 0x07, 0xcd,
  0x03, 0x03, 0xdb, 0x1c, 0x1a, 0x02, 0x1a, 0x23, 0xdd, 0x16, 0x14, 0x06,
  0x02, 0x26, 0xf3, 0x14, 0x0b, 0xde, 0x1f, 0xe4, 0x02, 0x06, 0x16, 0xfc,
  0x2b, 0xed, 0xe9, 0x27, 0x19, 0x13, 0x3a, 0xf4, 0xff, 0x18, 0x04, 0x04,
  0x43, 0xb3, 0x25, 0x0a, 0xf7, 0x0b, 0x26, 0xcd, 0x07, 0x13, 0xea, 0x02,
  0xc5, 0xd3, 0xf4, 0x19, 0x2c, 0x1d, 0xc5, 0xd6, 0xd7, 0x25, 0x04, 0x20,
  0xbb, 0x04, 0xd4, 0xf1, 0x36, 0xfc, 0xd7, 0xfc, 0xdc, 0x1b, 0x20, 0x19,
  0xe3, 0x1a, 0xec, 0xf6, 0x3b, 0x03, 0xca, 0xf3, 0x12, 0x1f, 0x20, 0xe2,
  0xf2, 0x06, 0xe3, 0x1a, 0x29, 0xfc, 0xf5, 0xfe, 0xef, 0x24, 0x18, 0xdf,
  0x05, 0x1c, 0xf3, 0x35, 0x13, 0xe0, 0xfa, 0x16, 0x0b, 0x04, 0x2c, 0x05,
  0xfb, 0xfc, 0x1c, 0x03, 0x22, 0xf3, 0xfd, 0x15, 0x13, 0x32, 0x24, 0xfa,
  0x18, 0x15, 0x13, 0x20, 0x00, 0x14, 0x1d, 0x25, 0x12, 0x1e, 0x07, 0x1a,
  0x0e, 0x04, 0x03, 0x01, 0xf8, 0x17, 0x33, 0xf9, 0x06, 0x11, 0x11, 0x1b,
  0x20, 0x2f, 0xcb, 0xf9, 0x00, 0x10, 0xf5, 0x0d, 0xbd, 0x13, 0xfd, 0x24,
  0x24, 0x1e, 0xdd, 0xfc, 0x0e, 0x28, 0xfc, 0x09, 0xdc, 0x0c, 0xf9, 0x33,
  0xfd, 0x26, 0xc4, 0x2f, 0x16, 0x27, 0x14, 0x1a, 0xc2, 0x28, 0xf9, 0x0b,
  0x09, 0x42, 0xce, 0x2e, 0x26, 0x1e, 0x1c, 0x33, 0xca, 0x12, 0x30, 0x25,
  0xf2, 0x0e, 0xe7, 0xe1, 0x0d, 0x22, 0x21, 0x05, 0xfc, 0xdc, 0xf9, 0x20,
  0xf4, 0xf1, 0xc7, 0xdc, 0xf5, 0x35, 0x27, 0x03, 0xd6, 0xea, 0x11, 0x35,
  0x08, 0xee, 0xca, 0xf1, 0xeb, 0x32, 0xfa, 0x21, 0xc6, 0xce, 0xe8, 0x2c,
  0x0e, 0x0d, 0xd9, 0x03, 0x11, 0x15, 0x2d, 0xf1, 0xeb, 0xe4, 0x03, 0x0f,
  0x39, 0x01, 0xd6, 0xde, 0xfb, 0x33, 0x26, 0x13, 0x0b, 0xdd, 0x1d, 0x1e,
  0x3b, 0xfd, 0xdc, 0x03, 0x26, 0x2f, 0x39, 0xd7, 0xe5, 0x19, 0x0d, 0x34,
  0x12, 0x14, 0x36, 0x00, 0xf6, 0xf6, 0x0c, 0x0e, 0x0d, 0x00, 0x13, 0xc6,
  0x0b, 0x0e, 0x3c, 0x25, 0xe8, 0xd2, 0x29, 0x06, 0x37, 0x25, 0xed, 0xd4,
  0x2d, 0x25, 0x2d, 0x13, 0xe0, 0xd1, 0x1e, 0x24, 0xfd, 0x0d, 0xe7, 0xd4,
  0x18, 0x1f, 0x0f, 0xff, 0x12, 0x05, 0x02, 0x16, 0xf0, 0x0f, 0xf3, 0x02,
  0xea, 0x00, 0x0e, 0x19, 0xfa, 0x04, 0xef, 0x12, 0xf6, 0x25, 0x09, 0xf9,
  0x01, 0x42, 0xdf, 0xf6, 0xe3, 0xfd, 0xf2, 0x39, 0x0c, 0x11, 0xfa, 0xdd,
  0x02, 0x14, 0x07, 0x1b, 0xe8, 0xeb, 0xf3, 0xe4, 0xfb, 0xee, 0x0d, 0x11,
  0x03, 0xe5, 0xe7, 0x01, 0xfb, 0xea, 0xeb, 0xfa, 0x0d, 0xf4, 0x14, 0xed,
  0x10, 0xf6, 0xf8, 0xe4, 0xee, 0x07, 0xfe, 0x0b, 0xf5, 0xe5, 0xf5, 0x14,
  0x0f, 0xfe, 0xe6, 0x19, 0xfd, 0x00, 0x07, 0xf8, 0xe8, 0xfe, 0xf2, 0x01,
  0x00, 0x05, 0xe6, 0x0e, 0x14, 0x05, 0x04, 0xfa, 0xee, 0x06, 0x18, 0xeb,
  0x0a, 0x03, 0x08, 0x14, 0xe7, 0xeb, 0xee, 0x0c, 0xea, 0x11, 0xf6, 0x17,
  0x0b, 0xfb, 0x19, 0xfd, 0x07, 0xf7, 0xe5, 0x07, 0xf5, 0x18, 0xfe, 0xec,
  0x15, 0xea, 0x0b, 0xeb, 0x0a, 0xf8, 0x1c, 0x05, 0xfd, 0x09, 0xef, 0x09,
  0xe4, 0xf2, 0x0b, 0xf4, 0x03, 0xfa, 0xf8, 0xfd, 0xf4, 0xf3, 0xeb, 0x07,
  0xf5, 0xeb, 0xf4, 0xf5, 0x07, 0xf3, 0x05, 0x0b, 0xf7, 0xf3, 0x08, 0x03,
  0x0c, 0x19, 0xeb, 0xe5, 0x0b, 0xf3, 0xf3, 0xe7, 0xed, 0xf7, 0x13, 0x0a,
  0xfe, 0x13, 0x11, 0xeb, 0x10, 0xe4, 0xf3, 0x09, 0xf8, 0xec, 0xff, 0xe5,
  0xdb, 0x08, 0xc9, 0xfa, 0xe1, 0x0c, 0xfb, 0x26, 0xb4, 0x09, 0x06, 0x11,
  0xee, 0x1c, 0xbd, 0xfb, 0xf6, 0xfa, 0x22, 0x0b, 0xab, 0xf2, 0xf4, 0x0f,
  0xfb, 0x35, 0xcb, 0xfa, 0x11, 0x17, 0x09, 0x1d, 0xbd, 0x1e, 0x1f, 0xfe,
  0x1d, 0x2d, 0xd9, 0xef, 0xf3, 0x07, 0x02, 0x19, 0xea, 0x25, 0x06, 0x03,
  0x34, 0x0d, 0xe3, 0x21, 0x27, 0x1f, 0x28, 0xfc, 0xe6, 0x01, 0x1b, 0x15,
  0x0c, 0xff, 0xd2, 0x19, 0x1e, 0xf2, 0x1b, 0xdd, 0xf9, 0x18, 0x15, 0xf3,
  0xc9, 0xe8, 0xec, 0x07, 0x08, 0xf5, 0xba, 0x0b, 0xe6, 0x11, 0x28, 0xe8,
  0xed, 0xf7, 0xf4, 0x06, 0x25, 0xe4, 0xe7, 0x18, 0x01, 0x30, 0x15, 0xef,
  0xeb, 0x05, 0x0d, 0x2e, 0x38, 0xf7, 0xf0, 0xeb, 0x22, 0x2c, 0x28, 0xf0,
  0xf3, 0x0e, 0x31, 0x1b, 0x26, 0xe1, 0xe1, 0xf8, 0x15, 0x06, 0x19, 0xd2,
  0xd5, 0x25, 0x1f, 0x1c, 0x00, 0xe9, 0xfc, 0x21, 0x25, 0x18, 0x1a, 0xff,
  0xee, 0x1c, 0x34, 0x1c, 0x0b, 0x0a, 0xdb, 0x0b, 0x3e, 0x24, 0xfd, 0x13,
  0xed, 0xfb, 0xe7, 0x05, 0xe9, 0xf5, 0x02, 0xf4, 0xe5, 0xff, 0xf6, 0x06,
  0xe5, 0x0b, 0xf2, 0xea, 0xfe, 0x15, 0x06, 0xe4, 0x12, 0xe6, 0xf6, 0xf3,
  0x04, 0x16, 0xe6, 0xeb, 0x00, 0x03, 0x1c, 0xf8, 0x04, 0xe9, 0x00, 0x07,
  0x04, 0x15, 0x12, 0x01, 0xf8, 0x0d, 0x0b, 0x03, 0x07, 0xec, 0xf5, 0x0f,
  0x1b, 0xfb, 0x06, 0xf3, 0xfb, 0xfe, 0x12, 0x14, 0x16, 0xf6, 0xe7, 0x10,
  0xf8, 0xe7, 0xf0, 0xf3, 0x00, 0xea, 0x06, 0x1c, 0x03, 0xe4, 0xfa, 0xe7,
  0xe8, 0xf5, 0x02, 0x18, 0x03, 0x3d, 0xdb, 0xde, 0xd4, 0xea, 0x0a, 0x46,
  0xdd, 0xe8, 0xe6, 0xe4, 0xf2, 0x27, 0xf6, 0xf0, 0xdf, 0xe1, 0x2a, 0x27,
  0xfe, 0x14, 0xbf, 0x11, 0x17, 0x16, 0x06, 0xf3, 0xc4, 0x08, 0x11, 0x06,
  0xf0, 0xee, 0xd5, 0x0a, 0x2f, 0x32, 0x1b, 0x13, 0xd7, 0x00, 0x29, 0x24,
  0x08, 0xfb, 0xeb, 0x1c, 0x0a, 0x2c, 0x12, 0xf6, 0xf2, 0x07, 0x2a, 0x21,
  0xfd, 0xf4, 0x17, 0x11, 0x15, 0x30, 0xf7, 0xea, 0x24, 0x21, 0x21, 0x27,
  0xaa, 0xfb, 0xff, 0xff, 0x04, 0x00, 0x00, 0x00, 0x80, 0x00, 0x00, 0x00,
  0x88, 0x11, 0x00, 0x00, 0xa7, 0xeb, 0xff, 0xff, 0xf7, 0xf9, 0xff, 0xff,
  0x55, 0x0d, 0x00, 0x00, 0x00, 0x00, 0x00, 0x00, 0x9d, 0xfe, 0xff, 0xff,
  0xe2, 0xfe, 0xff, 0xff, 0x00, 0x00, 0x00, 0x00, 0xf0, 0xfd, 0xff, 0xff,
  0x1b, 0x1a, 0x00, 0x00, 0xfd, 0xf0, 0xff, 0xff, 0x00, 0x00, 0x00, 0x00,
  0x1a, 0xf9, 0xff, 0xff, 0x40, 0xf0, 0xff, 0xff, 0x51, 0xf9, 0xff, 0xff,
  0xfb, 0xfe, 0xff, 0xff, 0xea, 0x14, 0x00, 0x00, 0xc9, 0x0d, 0x00, 0x00,
  0xf4, 0xf0, 0xff, 0xff, 0x64, 0xff, 0xff, 0xff, 0x3e, 0xfe, 0xff, 0xff,
  0x88, 0xe5, 0xff, 0xff, 0x67, 0x00, 0x00, 0x00, 0xd0, 0x27, 0x00, 0x00,
  0x2b, 0x0f, 0x00, 0x00, 0x0a, 0x06, 0x00, 0x00, 0xfe, 0xfd, 0xff, 0xff,
  0x00, 0x00, 0x00, 0x00, 0xea, 0xfd, 0xff, 0xff, 0x89, 0xfd, 0xff, 0xff,
  0x00, 0x00, 0x00, 0x00, 0x8b, 0x0d, 0x00, 0x00, 0x36, 0xfc, 0xff, 0xff,
  0x04, 0x00, 0x00, 0x00, 0x00, 0x02, 0x00, 0x00, 0xf3, 0x2a, 0xdf, 0xd4,
  0x1f, 0xdb, 0x22, 0x00, 0x19, 0x1e, 0x26, 0x23, 0xd3, 0x4c, 0x44, 0xfb,
  0xb0, 0xdd, 0x2f, 0x16, 0x6c, 0x47, 0x30, 0x0f, 0x56, 0xd4, 0xfc, 0xeb,
  0x61, 0x24, 0x24, 0x40, 0x1e, 0x22, 0xeb, 0xda, 0xdc, 0xff, 0xf0, 0x23,
  0x18, 0x1c, 0xfb, 0x19, 0x16, 0xf0, 0xf7, 0x1e, 0xda, 0x19, 0xe6, 0xff,
  0xba, 0xfe, 0x11, 0x29, 0xf9, 0x2b, 0x1f, 0x23, 0x0e, 0x1d, 0x0a, 0xf8,
  0x12, 0x57, 0xd4, 0xe7, 0xee, 0x0b, 0xdd, 0xf5, 0xe4, 0xe4, 0xf4, 0xdf,
  0x29, 0xd4, 0x1b, 0xf0, 0xe6, 0xe2, 0xea, 0x10, 0x14, 0x50, 0xce, 0x20,
  0x3d, 0x1a, 0x13, 0xe5, 0x5c, 0x0a, 0x07, 0xf6, 0xcf, 0x05, 0x38, 0xe9,
  0x06, 0xfc, 0xe8, 0x24, 0x02, 0x3f, 0xcb, 0xf2, 0x3f, 0x59, 0xd2, 0x17,
  0xfd, 0xff, 0xda, 0x20, 0xd9, 0x3f, 0x44, 0x13, 0x1c, 0xc1, 0xef, 0x0d,
  0x5d, 0x25, 0x01, 0x33, 0x28, 0x46, 0xd8, 0x00, 0x17, 0xef, 0xf6, 0xe3,
  0x02, 0xa7, 0x13, 0x03, 0x10, 0xdf, 0x2f, 0x1c, 0xeb, 0x09, 0x11, 0xed,
  0x39, 0x03, 0xe2, 0x08, 0xda, 0x1e, 0x1f, 0x22, 0xd0, 0xd5, 0xe4, 0xb3,
  0xda, 0x1d, 0x1b, 0xe8, 0x06, 0xf3, 0x0a, 0x22, 0xdc, 0xe5, 0x1b, 0x04,
  0xf7, 0xf1, 0x10, 0xe2, 0x22, 0xe7, 0xe3, 0xff, 0xe2, 0xf4, 0xe1, 0xfb,
  0xef, 0x08, 0x1f, 0x03, 0x09, 0x02, 0x0a, 0x21, 0x24, 0xd9, 0x33, 0x4e,
  0xe7, 0xe4, 0xf7, 0x08, 0xdc, 0xf4, 0xdc, 0x1b, 0x17, 0x49, 0x32, 0x0c,
  0x1c, 0x1a, 0x4f, 0xed, 0x37, 0xd9, 0xe3, 0xf0, 0xf2, 0xe1, 0x06, 0xe8,
  0xc4, 0x1e, 0x04, 0xf3, 0x1a, 0x02, 0xb3, 0x0e, 0x1c, 0x08, 0xea, 0xfe,
  0x1f, 0x31, 0xdc, 0x14, 0xdd, 0xac, 0xff, 0x14, 0x35, 0x1f, 0xf1, 0x25,
  0xcf, 0xbf, 0xde, 0x0b, 0x22, 0x0e, 0x0f, 0xfd, 0x0f, 0xc6, 0x1a, 0xff,
  0x1b, 0x22, 0x08, 0xe7, 0x18, 0x20, 0x07, 0x23, 0x1d, 0x1f, 0xf8, 0x04,
  0x1e, 0x20, 0xe6, 0xf9, 0xea, 0xea, 0xd6, 0x10, 0x17, 0x05, 0xf2, 0xe1,
  0x1a, 0x12, 0x0d, 0xef, 0xdb, 0xe0, 0x04, 0x00, 0x37, 0x57, 0x29, 0xff,
  0x13, 0x10, 0x0e, 0x24, 0x0f, 0xb5, 0x14, 0x05, 0x01, 0xf2, 0x33, 0xfe,
  0xb0, 0x24, 0x0c, 0xf4, 0x93, 0x31, 0xda, 0xe2, 0x17, 0xf3, 0x06, 0xe6,
  0x0a, 0xf5, 0x11, 0xef, 0x18, 0x07, 0xfa, 0x57, 0xf7, 0xfb, 0xee, 0x07,
  0xdb, 0x31, 0xb3, 0x0b, 0x06, 0xdc, 0x2f, 0x23, 0x00, 0xfe, 0x01, 0xdb,
  0x14, 0xb4, 0xe5, 0x3a, 0x75, 0xd9, 0xfc, 0xe0, 0x1e, 0xb1, 0xeb, 0x30,
  0xe7, 0x65, 0x36, 0x2b, 0xf1, 0x14, 0x14, 0x09, 0x07, 0xd7, 0xec, 0xef,
  0x6f, 0x63, 0xf9, 0x05, 0x10, 0x0c, 0x28, 0xfb, 0xe2, 0x7f, 0xeb, 0x1f,
  0xc2, 0x26, 0xe5, 0x1e, 0x1a, 0xff, 0xe5, 0xf8, 0x39, 0xa4, 0xf7, 0xe1,
  0xe9, 0x0a, 0x1b, 0x1c, 0x0b, 0x30, 0x4d, 0xe6, 0xf0, 0xaa, 0xea, 0xef,
  0x05, 0x39, 0xc7, 0xef, 0xf9, 0xb6, 0x33, 0x29, 0xd5, 0x29, 0x0d, 0xed,
  0xdb, 0x49, 0x0b, 0x05, 0x34, 0xc4, 0x2a, 0xda, 0x0b, 0x23, 0xf2, 0x0e,
  0x01, 0x01, 0x28, 0x1c, 0x49, 0xf1, 0xb2, 0xde, 0x21, 0x42, 0xf7, 0xe3,
  0x8f, 0xcb, 0x18, 0x2a, 0x99, 0x41, 0x0c, 0x18, 0xd1, 0x3c, 0xf4, 0xe7,
  0xf2, 0x18, 0xf9, 0xe8, 0xf7, 0x0b, 0xeb, 0x20, 0x18, 0x02, 0xf9, 0x0e,
  0xfa, 0xf9, 0xf0, 0x11, 0xe2, 0xe6, 0xf9, 0x11, 0xf2, 0xdf, 0x14, 0x13,
  0xf2, 0x01, 0x1b, 0x20, 0x1a, 0xe2, 0x24, 0xe8, 0xd9, 0xfb, 0xf3, 0xdd,
  0x19, 0x0b, 0xef, 0x10, 0xe1, 0xdc, 0xeb, 0x16, 0x06, 0x1c, 0x04, 0x0e,
  0xf8, 0x18, 0xef, 0xe5, 0xde, 0x11, 0xf9, 0xeb, 0x17, 0x07, 0x04, 0x20,
  0x05, 0x15, 0x09, 0xed, 0x42, 0xfe, 0xff, 0xff, 0x04, 0x00, 0x00, 0x00,
  0x40, 0x00, 0x00, 0x00, 0x32, 0xff, 0xff, 0xff, 0xd1, 0x00, 0x00, 0x00,
  0xad, 0x00, 0x00, 0x00, 0x6c, 0xff, 0xff, 0xff, 0x3b, 0xff, 0xff, 0xff,
  0xcf, 0xff, 0xff, 0xff, 0x82, 0x00, 0x00, 0x00, 0x74, 0x02, 0x00, 0x00,
  0x57, 0xff, 0xff, 0xff, 0x2b, 0xfd, 0xff, 0xff, 0xda, 0x04, 0x00, 0x00,
  0xfe, 0xfd, 0xff, 0xff, 0xf7, 0x04, 0x00, 0x00, 0x0e, 0x03, 0x00, 0x00,
  0x07, 0x00, 0x00, 0x00, 0x87, 0xff, 0xff, 0xff, 0x8e, 0xfe, 0xff, 0xff,
  0x04, 0x00, 0x00, 0x00, 0x80, 0x00, 0x00, 0x00, 0xde, 0xf7, 0xb8, 0xce,
  0xbc, 0xe6, 0x0b, 0xe4, 0xf7, 0xf7, 0xcd, 0xf9, 0x31, 0x29, 0x18, 0xe4,
  0x0f, 0xf3, 0x19, 0x35, 0xb7, 0x19, 0xb4, 0xc7, 0xe3, 0xaa, 0x98, 0x1c,
  0x08, 0x0b, 0xe9, 0x01, 0x34, 0x16, 0x12, 0x19, 0x14, 0xf6, 0xd2, 0xb3,
  0xea, 0x27, 0xfe, 0xee, 0xd4, 0xbf, 0x11, 0x1a, 0xa7, 0x16, 0x17, 0xa3,
  0x2b, 0xe9, 0xf2, 0xdc, 0xe2, 0x40, 0xca, 0x21, 0x05, 0x0a, 0xe6, 0xea,
  0x16, 0xc6, 0x0b, 0x15, 0xea, 0xe9, 0xec, 0xff, 0xfb, 0xe1, 0x34, 0x81,
  0x2c, 0xb6, 0xff, 0xe7, 0xd9, 0xef, 0x06, 0x1d, 0xc4, 0xeb, 0x0f, 0xe3,
  0x13, 0x23, 0x00, 0x1f, 0xe4, 0x0d, 0x06, 0xf7, 0x0c, 0x9f, 0x04, 0xe4,
  0xbe, 0x05, 0x38, 0xed, 0xf6, 0xf4, 0x14, 0x13, 0xb9, 0xd6, 0xec, 0xe0,
  0xd6, 0x0a, 0x06, 0xe7, 0x0b, 0x14, 0xea, 0x33, 0x10, 0xd8, 0x24, 0xfb,
  0x08, 0x10, 0xe6, 0xe3, 0x1a, 0xff, 0xff, 0xff, 0x04, 0x00, 0x00, 0x00,
  0x20, 0x00, 0x00, 0x00, 0x36, 0x00, 0x00, 0x00, 0xa7, 0xff, 0xff, 0xff,
  0x97, 0xff, 0xff, 0xff, 0x85, 0xff, 0xff, 0xff, 0x3f, 0x00, 0x00, 0x00,
  0x56, 0xff, 0xff, 0xff, 0xe0, 0xff, 0xff, 0xff, 0xc7, 0x00, 0x00, 0x00,
  0xb8, 0xf7, 0xff, 0xff, 0xbc, 0xf7, 0xff, 0xff, 0x0f, 0x00, 0x00, 0x00,
  0x4d, 0x4c, 0x49, 0x52, 0x20, 0x43, 0x6f, 0x6e, 0x76, 0x65, 0x72, 0x74,
  0x65, 0x64, 0x2e, 0x00, 0x01, 0x00, 0x00, 0x00, 0x14, 0x00, 0x00, 0x00,
  0x00, 0x00, 0x0e, 0x00, 0x18, 0x00, 0x14, 0x00, 0x10, 0x00, 0x0c, 0x00,
  0x08, 0x00, 0x04, 0x00, 0x0e, 0x00, 0x00, 0x00, 0x14, 0x00, 0x00, 0x00,
  0x1c, 0x00, 0x00, 0x00, 0x7c, 0x01, 0x00, 0x00, 0x80, 0x01, 0x00, 0x00,
  0x84, 0x01, 0x00, 0x00, 0x04, 0x00, 0x00, 0x00, 0x6d, 0x61, 0x69, 0x6e,
  0x00, 0x00, 0x00, 0x00, 0x06, 0x00, 0x00, 0x00, 0x44, 0x01, 0x00, 0x00,
  0xf4, 0x00, 0x00, 0x00, 0xa8, 0x00, 0x00, 0x00, 0x70, 0x00, 0x00, 0x00,
  0x34, 0x00, 0x00, 0x00, 0x10, 0x00, 0x00, 0x00, 0x00, 0x00, 0x0a, 0x00,
  0x10, 0x00, 0x0c, 0x00, 0x08, 0x00, 0x04, 0x00, 0x0a, 0x00, 0x00, 0x00,
  0x0c, 0x00, 0x00, 0x00, 0x10, 0x00, 0x00, 0x00, 0x03, 0x00, 0x00, 0x00,
  0x01, 0x00, 0x00, 0x00, 0x0c, 0x00, 0x00, 0x00, 0x01, 0x00, 0x00, 0x00,
  0x0b, 0x00, 0x00, 0x00, 0x5a, 0xff, 0xff, 0xff, 0x1c, 0x00, 0x00, 0x00,
  0x00, 0x00, 0x00, 0x09, 0x1c, 0x00, 0x00, 0x00, 0x20, 0x00, 0x00, 0x00,
  0x02, 0x00, 0x00, 0x00, 0x00, 0x00, 0x06, 0x00, 0x08, 0x00, 0x04, 0x00,
  0x06, 0x00, 0x00, 0x00, 0x00, 0x00, 0x80, 0x3f, 0x01, 0x00, 0x00, 0x00,
  0x0b, 0x00, 0x00, 0x00, 0x01, 0x00, 0x00, 0x00, 0x0a, 0x00, 0x00, 0x00,
  0x92, 0xff, 0xff, 0xff, 0x14, 0x00, 0x00, 0x00, 0x00, 0x00, 0x00, 0x08,
  0x10, 0x00, 0x00, 0x00, 0x14, 0x00, 0x00, 0x00, 0x01, 0x00, 0x00, 0x00,
  0xa8, 0xf8, 0xff, 0xff, 0x01, 0x00, 0x00, 0x00, 0x0a, 0x00, 0x00, 0x00,
  0x03, 0x00, 0x00, 0x00, 0x09, 0x00, 0x00, 0x00, 0x02, 0x00, 0x00, 0x00,
  0x01, 0x00, 0x00, 0x00, 0xc6, 0xff, 0xff, 0xff, 0x14, 0x00, 0x00, 0x00,
  0x00, 0x00, 0x00, 0x08, 0x14, 0x00, 0x00, 0x00, 0x18, 0x00, 0x00, 0x00,
  0x01, 0x00, 0x00, 0x00, 0xb6, 0xff, 0xff, 0xff, 0x00, 0x00, 0x00, 0x01,
  0x01, 0x00, 0x00, 0x00, 0x09, 0x00, 0x00, 0x00, 0x03, 0x00, 0x00, 0x00,
  0x08, 0x00, 0x00, 0x00, 0x04, 0x00, 0x00, 0x00, 0x03, 0x00, 0x00, 0x00,
  0x00, 0x00, 0x0e, 0x00, 0x1a, 0x00, 0x14, 0x00, 0x10, 0x00, 0x0c, 0x00,
  0x0b, 0x00, 0x04, 0x00, 0x0e, 0x00, 0x00, 0x00, 0x1c, 0x00, 0x00, 0x00,
  0x00, 0x00, 0x00, 0x08, 0x1c, 0x00, 0x00, 0x00, 0x20, 0x00, 0x00, 0x00,
  0x01, 0x00, 0x00, 0x00, 0x00, 0x00, 0x06, 0x00, 0x08, 0x00, 0x07, 0x00,
  0x06, 0x00, 0x00, 0x00, 0x00, 0x00, 0x00, 0x01, 0x01, 0x00, 0x00, 0x00,
  0x08, 0x00, 0x00, 0x00, 0x03, 0x00, 0x00, 0x00, 0x07, 0x00, 0x00, 0x00,
  0x06, 0x00, 0x00, 0x00, 0x05, 0x00, 0x00, 0x00, 0x00, 0x00, 0x0a, 0x00,
  0x0c, 0x00, 0x00, 0x00, 0x08, 0x00, 0x04, 0x00, 0x0a, 0x00, 0x00, 0x00,
  0x08, 0x00, 0x00, 0x00, 0x0c, 0x00, 0x00, 0x00, 0x01, 0x00, 0x00, 0x00,
  0x07, 0x00, 0x00, 0x00, 0x01, 0x00, 0x00, 0x00, 0x00, 0x00, 0x00, 0x00,
  0x01, 0x00, 0x00, 0x00, 0x0c, 0x00, 0x00, 0x00, 0x01, 0x00, 0x00, 0x00,
  0x00, 0x00, 0x00, 0x00, 0x0d, 0x00, 0x00, 0x00, 0x50, 0x06, 0x00, 0x00,
  0xb4, 0x05, 0x00, 0x00, 0x2c, 0x05, 0x00, 0x00, 0xb0, 0x04, 0x00, 0x00,
  0x44, 0x04, 0x00, 0x00, 0xd0, 0x03, 0x00, 0x00, 0x64, 0x03, 0x00, 0x00,
  0xf0, 0x02, 0x00, 0x00, 0x2c, 0x02, 0x00, 0x00, 0x78, 0x01, 0x00, 0x00,
  0xdc, 0x00, 0x00, 0x00, 0x60, 0x00, 0x00, 0x00, 0x04, 0x00, 0x00, 0x00,
  0xfa, 0xf9, 0xff, 0xff, 0x00, 0x00, 0x00, 0x01, 0x14, 0x00, 0x00, 0x00,
  0x1c, 0x00, 0x00, 0x00, 0x1c, 0x00, 0x00, 0x00, 0x0d, 0x00, 0x00, 0x00,
  0x34, 0x00, 0x00, 0x00, 0x02, 0x00, 0x00, 0x00, 0xff, 0xff, 0xff, 0xff,
  0x08, 0x00, 0x00, 0x00, 0xe4, 0xf9, 0xff, 0xff, 0x19, 0x00, 0x00, 0x00,
  0x53, 0x74, 0x61, 0x74, 0x65, 0x66, 0x75, 0x6c, 0x50, 0x61, 0x72, 0x74,
  0x69, 0x74, 0x69, 0x6f, 0x6e, 0x65, 0x64, 0x43, 0x61, 0x6c, 0x6c, 0x3a,
  0x30, 0x00, 0x00, 0x00, 0x02, 0x00, 0x00, 0x00, 0x01, 0x00, 0x00, 0x00,
  0x08, 0x00, 0x00, 0x00, 0x96, 0xfd, 0xff, 0xff, 0x00, 0x00, 0x00, 0x01,
  0x18, 0x00, 0x00, 0x00, 0x20, 0x00, 0x00, 0x00, 0x3c, 0x00, 0x00, 0x00,
  0x0c, 0x00, 0x00, 0x00, 0x00, 0x00, 0x00, 0x09, 0x50, 0x00, 0x00, 0x00,
  0x02, 0x00, 0x00, 0x00, 0xff, 0xff, 0xff, 0xff, 0x08, 0x00, 0x00, 0x00,
  0xe4, 0xfa, 0xff, 0xff, 0x08, 0x00, 0x00, 0x00, 0x10, 0x00, 0x00, 0x00,
  0x01, 0x00, 0x00, 0x00, 0x80, 0xff, 0xff, 0xff, 0xff, 0xff, 0xff, 0xff,
  0x01, 0x00, 0x00, 0x00, 0x00, 0x00, 0x80, 0x3b, 0x1a, 0x00, 0x00, 0x00,
  0x53, 0x74, 0x61, 0x74, 0x65, 0x66, 0x75, 0x6c, 0x50, 0x61, 0x72, 0x74,
  0x69, 0x74, 0x69, 0x6f, 0x6e, 0x65, 0x64, 0x43, 0x61, 0x6c, 0x6c, 0x3a,
  0x30, 0x31, 0x00, 0x00, 0x02, 0x00, 0x00, 0x00, 0x01, 0x00, 0x00, 0x00,
  0x08, 0x00, 0x00, 0x00, 0x0e, 0xfe, 0xff, 0xff, 0x00, 0x00, 0x00, 0x01,
  0x18, 0x00, 0x00, 0x00, 0x20, 0x00, 0x00, 0x00, 0x40, 0x00, 0x00, 0x00,
  0x0b, 0x00, 0x00, 0x00, 0x00, 0x00, 0x00, 0x09, 0x70, 0x00, 0x00, 0x00,
  0x02, 0x00, 0x00, 0x00, 0xff, 0xff, 0xff, 0xff, 0x08, 0x00, 0x00, 0x00,
  0x5c, 0xfb, 0xff, 0xff, 0x08, 0x00, 0x00, 0x00, 0x14, 0x00, 0x00, 0x00,
  0x01, 0x00, 0x00, 0x00, 0x2d, 0x00, 0x00, 0x00, 0x00, 0x00, 0x00, 0x00,
  0x00, 0x00, 0x00, 0x00, 0x01, 0x00, 0x00, 0x00, 0x8a, 0xe9, 0x63, 0x3e,
  0x34, 0x00, 0x00, 0x00, 0x73, 0x65, 0x71, 0x75, 0x65, 0x6e, 0x74, 0x69,
  0x61, 0x6c, 0x2f, 0x64, 0x65, 0x6e, 0x73, 0x65, 0x5f, 0x32, 0x2f, 0x4d,
  0x61, 0x74, 0x4d, 0x75, 0x6c, 0x3b, 0x73, 0x65, 0x71, 0x75, 0x65, 0x6e,
  0x74, 0x69, 0x61, 0x6c, 0x2f, 0x64, 0x65, 0x6e, 0x73, 0x65, 0x5f, 0x32,
  0x2f, 0x42, 0x69, 0x61, 0x73, 0x41, 0x64, 0x64, 0x00, 0x00, 0x00, 0x00,
  0x02, 0x00, 0x00, 0x00, 0x01, 0x00, 0x00, 0x00, 0x08, 0x00, 0x00, 0x00,
  0xa6, 0xfe, 0xff, 0xff, 0x00, 0x00, 0x00, 0x01, 0x18, 0x00, 0x00, 0x00,
  0x20, 0x00, 0x00, 0x00, 0x40, 0x00, 0x00, 0x00, 0x0a, 0x00, 0x00, 0x00,
  0x00, 0x00, 0x00, 0x09, 0x88, 0x00, 0x00, 0x00, 0x02, 0x00, 0x00, 0x00,
  0xff, 0xff, 0xff, 0xff, 0x10, 0x00, 0x00, 0x00, 0xf4, 0xfb, 0xff, 0xff,
  0x08, 0x00, 0x00, 0x00, 0x14, 0x00, 0x00, 0x00, 0x01, 0x00, 0x00, 0x00,
  0x80, 0xff, 0xff, 0xff, 0xff, 0xff, 0xff, 0xff, 0x00, 0x00, 0x00, 0x00,
  0x01, 0x00, 0x00, 0x00, 0xb6, 0xea, 0x87, 0x3d, 0x4c, 0x00, 0x00, 0x00,
  0x73, 0x65, 0x71, 0x75, 0x65, 0x6e, 0x74, 0x69, 0x61, 0x6c, 0x2f, 0x64,
  0x65, 0x6e, 0x73, 0x65, 0x5f, 0x31, 0x2f, 0x4d, 0x61, 0x74, 0x4d, 0x75,
  0x6c, 0x3b, 0x73, 0x65, 0x71, 0x75, 0x65, 0x6e, 0x74, 0x69, 0x61, 0x6c,
  0x2f, 0x64, 0x65, 0x6e, 0x73, 0x65, 0x5f, 0x31, 0x2f, 0x52, 0x65, 0x6c,
  0x75, 0x3b, 0x73, 0x65, 0x71, 0x75, 0x65, 0x6e, 0x74, 0x69, 0x61, 0x6c,
  0x2f, 0x64, 0x65, 0x6e, 0x73, 0x65, 0x5f, 0x31, 0x2f, 0x42, 0x69, 0x61,
  0x73, 0x41, 0x64, 0x64, 0x00, 0x00, 0x00, 0x00, 0x02, 0x00, 0x00, 0x00,
  0x01, 0x00, 0x00, 0x00, 0x10, 0x00, 0x00, 0x00, 0x56, 0xff, 0xff, 0xff,
  0x00, 0x00, 0x00, 0x01, 0x18, 0x00, 0x00, 0x00, 0x20, 0x00, 0x00, 0x00,
  0x40, 0x00, 0x00, 0x00, 0x09, 0x00, 0x00, 0x00, 0x00, 0x00, 0x00, 0x09,
  0x80, 0x00, 0x00, 0x00, 0x02, 0x00, 0x00, 0x00, 0xff, 0xff, 0xff, 0xff,
  0x20, 0x00, 0x00, 0x00, 0xa4, 0xfc, 0xff, 0xff, 0x08, 0x00, 0x00, 0x00,
  0x14, 0x00, 0x00, 0x00, 0x01, 0x00, 0x00, 0x00, 0x80, 0xff, 0xff, 0xff,
  0xff, 0xff, 0xff, 0xff, 0x00, 0x00, 0x00, 0x00, 0x01, 0x00, 0x00, 0x00,
  0x64, 0x28, 0xcf, 0x3c, 0x46, 0x00, 0x00, 0x00, 0x73, 0x65, 0x71, 0x75,
  0x65, 0x6e, 0x74, 0x69, 0x61, 0x6c, 0x2f, 0x64, 0x65, 0x6e, 0x73, 0x65,
  0x2f, 0x4d, 0x61, 0x74, 0x4d, 0x75, 0x6c, 0x3b, 0x73, 0x65, 0x71, 0x75,
  0x65, 0x6e, 0x74, 0x69, 0x61, 0x6c, 0x2f, 0x64, 0x65, 0x6e, 0x73, 0x65,
  0x2f, 0x52, 0x65, 0x6c, 0x75, 0x3b, 0x73, 0x65, 0x71, 0x75, 0x65, 0x6e,
  0x74, 0x69, 0x61, 0x6c, 0x2f, 0x64, 0x65, 0x6e, 0x73, 0x65, 0x2f, 0x42,
  0x69, 0x61, 0x73, 0x41, 0x64, 0x64, 0x00, 0x00, 0x02, 0x00, 0x00, 0x00,
  0x01, 0x00, 0x00, 0x00, 0x20, 0x00, 0x00, 0x00, 0x00, 0x00, 0x16, 0x00,
  0x20, 0x00, 0x1c, 0x00, 0x1b, 0x00, 0x14, 0x00, 0x10, 0x00, 0x0c, 0x00,
  0x00, 0x00, 0x00, 0x00, 0x08, 0x00, 0x07, 0x00, 0x16, 0x00, 0x00, 0x00,
  0x00, 0x00, 0x00, 0x01, 0x18, 0x00, 0x00, 0x00, 0x20, 0x00, 0x00, 0x00,
  0x40, 0x00, 0x00, 0x00, 0x08, 0x00, 0x00, 0x00, 0x00, 0x00, 0x00, 0x09,
  0x48, 0x00, 0x00, 0x00, 0x02, 0x00, 0x00, 0x00, 0xff, 0xff, 0xff, 0xff,
  0x48, 0x00, 0x00, 0x00, 0x64, 0xfd, 0xff, 0xff, 0x08, 0x00, 0x00, 0x00,
  0x14, 0x00, 0x00, 0x00, 0x01, 0x00, 0x00, 0x00, 0x80, 0xff, 0xff, 0xff,
  0xff, 0xff, 0xff, 0xff, 0x00, 0x00, 0x00, 0x00, 0x01, 0x00, 0x00, 0x00,
  0x81, 0x80, 0x80, 0x3b, 0x0c, 0x00, 0x00, 0x00, 0x74, 0x66, 0x6c, 0x2e,
  0x71, 0x75, 0x61, 0x6e, 0x74, 0x69, 0x7a, 0x65, 0x00, 0x00, 0x00, 0x00,
  0x02, 0x00, 0x00, 0x00, 0x01, 0x00, 0x00, 0x00, 0x48, 0x00, 0x00, 0x00,
  0xda, 0xfd, 0xff, 0xff, 0x00, 0x00, 0x00, 0x01, 0x14, 0x00, 0x00, 0x00,
  0x34, 0x00, 0x00, 0x00, 0x07, 0x00, 0x00, 0x00, 0x00, 0x00, 0x00, 0x09,
  0x44, 0x00, 0x00, 0x00, 0xc4, 0xfd, 0xff, 0xff, 0x08, 0x00, 0x00, 0x00,
  0x14, 0x00, 0x00, 0x00, 0x01, 0x00, 0x00, 0x00, 0x00, 0x00, 0x00, 0x00,
  0x00, 0x00, 0x00, 0x00, 0x00, 0x00, 0x00, 0x00, 0x01, 0x00, 0x00, 0x00,
  0x27, 0x28, 0x0a, 0x3c, 0x17, 0x00, 0x00, 0x00, 0x73, 0x65, 0x71, 0x75,
  0x65, 0x6e, 0x74, 0x69, 0x61, 0x6c, 0x2f, 0x64, 0x65, 0x6e, 0x73, 0x65,
  0x2f, 0x4d, 0x61, 0x74, 0x4d, 0x75, 0x6c, 0x00, 0x02, 0x00, 0x00, 0x00,
  0x20, 0x00, 0x00, 0x00, 0x48, 0x00, 0x00, 0x00, 0x42, 0xfe, 0xff, 0xff,
  0x00, 0x00, 0x00, 0x01, 0x14, 0x00, 0x00, 0x00, 0x30, 0x00, 0x00, 0x00,
  0x06, 0x00, 0x00, 0x00, 0x00, 0x00, 0x00, 0x02, 0x50, 0x00, 0x00, 0x00,
  0x2c, 0xfe, 0xff, 0xff, 0x08, 0x00, 0x00, 0x00, 0x10, 0x00, 0x00, 0x00,
  0x01, 0x00, 0x00, 0x00, 0x00, 0x00, 0x00, 0x00, 0x00, 0x00, 0x00, 0x00,
  0x01, 0x00, 0x00, 0x00, 0xda, 0xb2, 0x0a, 0x38, 0x27, 0x00, 0x00, 0x00,
  0x73, 0x65, 0x71, 0x75, 0x65, 0x6e, 0x74, 0x69, 0x61, 0x6c, 0x2f, 0x64,
  0x65, 0x6e, 0x73, 0x65, 0x2f, 0x42, 0x69, 0x61, 0x73, 0x41, 0x64, 0x64,
  0x2f, 0x52, 0x65, 0x61, 0x64, 0x56, 0x61, 0x72, 0x69, 0x61, 0x62, 0x6c,
  0x65, 0x4f, 0x70, 0x00, 0x01, 0x00, 0x00, 0x00, 0x20, 0x00, 0x00, 0x00,
  0xb2, 0xfe, 0xff, 0xff, 0x00, 0x00, 0x00, 0x01, 0x14, 0x00, 0x00, 0x00,
  0x30, 0x00, 0x00, 0x00, 0x05, 0x00, 0x00, 0x00, 0x00, 0x00, 0x00, 0x09,
  0x44, 0x00, 0x00, 0x00, 0x9c, 0xfe, 0xff, 0xff, 0x08, 0x00, 0x00, 0x00,
  0x10, 0x00, 0x00, 0x00, 0x01, 0x00, 0x00, 0x00, 0x00, 0x00, 0x00, 0x00,
  0x00, 0x00, 0x00, 0x00, 0x01, 0x00, 0x00, 0x00, 0x28, 0x3e, 0x1c, 0x3c,
  0x19, 0x00, 0x00, 0x00, 0x73, 0x65, 0x71, 0x75, 0x65, 0x6e, 0x74, 0x69,
  0x61, 0x6c, 0x2f, 0x64, 0x65, 0x6e, 0x73, 0x65, 0x5f, 0x31, 0x2f, 0x4d,
  0x61, 0x74, 0x4d, 0x75, 0x6c, 0x00, 0x00, 0x00, 0x02, 0x00, 0x00, 0x00,
  0x10, 0x00, 0x00, 0x00, 0x20, 0x00, 0x00, 0x00, 0x1a, 0xff, 0xff, 0xff,
  0x00, 0x00, 0x00, 0x01, 0x14, 0x00, 0x00, 0x00, 0x34, 0x00, 0x00, 0x00,
  0x04, 0x00, 0x00, 0x00, 0x00, 0x00, 0x00, 0x02, 0x58, 0x00, 0x00, 0x00,
  0x04, 0xff, 0xff, 0xff, 0x08, 0x00, 0x00, 0x00, 0x14, 0x00, 0x00, 0x00,
  0x01, 0x00, 0x00, 0x00, 0x00, 0x00, 0x00, 0x00, 0x00, 0x00, 0x00, 0x00,
  0x00, 0x00, 0x00, 0x00, 0x01, 0x00, 0x00, 0x00, 0xd2, 0xdd, 0x7c, 0x39,
  0x29, 0x00, 0x00, 0x00, 0x73, 0x65, 0x71, 0x75, 0x65, 0x6e, 0x74, 0x69,
  0x61, 0x6c, 0x2f, 0x64, 0x65, 0x6e, 0x73, 0x65, 0x5f, 0x31, 0x2f, 0x42,
  0x69, 0x61, 0x73, 0x41, 0x64, 0x64, 0x2f, 0x52, 0x65, 0x61, 0x64, 0x56,
  0x61, 0x72, 0x69, 0x61, 0x62, 0x6c, 0x65, 0x4f, 0x70, 0x00, 0x00, 0x00,
  0x01, 0x00, 0x00, 0x00, 0x10, 0x00, 0x00, 0x00, 0x92, 0xff, 0xff, 0xff,
  0x00, 0x00, 0x00, 0x01, 0x14, 0x00, 0x00, 0x00, 0x34, 0x00, 0x00, 0x00,
  0x03, 0x00, 0x00, 0x00, 0x00, 0x00, 0x00, 0x09, 0x48, 0x00, 0x00, 0x00,
  0x7c, 0xff, 0xff, 0xff, 0x08, 0x00, 0x00, 0x00, 0x14, 0x00, 0x00, 0x00,
  0x01, 0x00, 0x00, 0x00, 0x00, 0x00, 0x00, 0x00, 0x00, 0x00, 0x00, 0x00,
  0x00, 0x00, 0x00, 0x00, 0x01, 0x00, 0x00, 0x00, 0x30, 0xd4, 0x81, 0x3c,
  0x19, 0x00, 0x00, 0x00, 0x73, 0x65, 0x71, 0x75, 0x65, 0x6e, 0x74, 0x69,
  0x61, 0x6c, 0x2f, 0x64, 0x65, 0x6e, 0x73, 0x65, 0x5f, 0x32, 0x2f, 0x4d,
  0x61, 0x74, 0x4d, 0x75, 0x6c, 0x00, 0x00, 0x00, 0x02, 0x00, 0x00, 0x00,
  0x08, 0x00, 0x00, 0x00, 0x10, 0x00, 0x00, 0x00, 0x00, 0x00, 0x16, 0x00,
  0x1c, 0x00, 0x18, 0x00, 0x17, 0x00, 0x10, 0x00, 0x0c, 0x00, 0x08, 0x00,
  0x00, 0x00, 0x00, 0x00, 0x00, 0x00, 0x07, 0x00, 0x16, 0x00, 0x00, 0x00,
  0x00, 0x00, 0x00, 0x01, 0x20, 0x00, 0x00, 0x00, 0x3c, 0x00, 0x00, 0x00,
  0x02, 0x00, 0x00, 0x00, 0x00, 0x00, 0x00, 0x02, 0x60, 0x00, 0x00, 0x00,
  0x0c, 0x00, 0x0c, 0x00, 0x00, 0x00, 0x00, 0x00, 0x08, 0x00, 0x04, 0x00,
  0x0c, 0x00, 0x00, 0x00, 0x08, 0x00, 0x00, 0x00, 0x10, 0x00, 0x00, 0x00,
  0x01, 0x00, 0x00, 0x00, 0x00, 0x00, 0x00, 0x00, 0x00, 0x00, 0x00, 0x00,
  0x01, 0x00, 0x00, 0x00, 0xdb, 0xdb, 0x89, 0x3a, 0x29, 0x00, 0x00, 0x00,
  0x73, 0x65, 0x71, 0x75, 0x65, 0x6e, 0x74, 0x69, 0x61, 0x6c, 0x2f, 0x64,
  0x65, 0x6e, 0x73, 0x65, 0x5f, 0x32, 0x2f, 0x42, 0x69, 0x61, 0x73, 0x41,
  0x64, 0x64, 0x2f, 0x52, 0x65, 0x61, 0x64, 0x56, 0x61, 0x72, 0x69, 0x61,
  0x62, 0x6c, 0x65, 0x4f, 0x70, 0x00, 0x00, 0x00, 0x01, 0x00, 0x00, 0x00,
  0x08, 0x00, 0x00, 0x00, 0x00, 0x00, 0x16, 0x00, 0x1c, 0x00, 0x18, 0x00,
  0x00, 0x00, 0x14, 0x00, 0x10, 0x00, 0x0c, 0x00, 0x00, 0x00, 0x00, 0x00,
  0x08, 0x00, 0x07, 0x00, 0x16, 0x00, 0x00, 0x00, 0x00, 0x00, 0x00, 0x01,
  0x14, 0x00, 0x00, 0x00, 0x20, 0x00, 0x00, 0x00, 0x20, 0x00, 0x00, 0x00,
  0x01, 0x00, 0x00, 0x00, 0x3c, 0x00, 0x00, 0x00, 0x02, 0x00, 0x00, 0x00,
  0xff, 0xff, 0xff, 0xff, 0x48, 0x00, 0x00, 0x00, 0x04, 0x00, 0x04, 0x00,
  0x04, 0x00, 0x00, 0x00, 0x1d, 0x00, 0x00, 0x00, 0x73, 0x65, 0x72, 0x76,
  0x69, 0x6e, 0x67, 0x5f, 0x64, 0x65, 0x66, 0x61, 0x75, 0x6c, 0x74, 0x5f,
  0x64, 0x65, 0x6e, 0x73, 0x65, 0x5f, 0x69, 0x6e, 0x70, 0x75, 0x74, 0x3a,
  0x30, 0x00, 0x00, 0x00, 0x02, 0x00, 0x00, 0x00, 0x01, 0x00, 0x00, 0x00,
  0x48, 0x00, 0x00, 0x00, 0x04, 0x00, 0x00, 0x00, 0x58, 0x00, 0x00, 0x00,
  0x38, 0x00, 0x00, 0x00, 0x18, 0x00, 0x00, 0x00, 0x04, 0x00, 0x00, 0x00,
  0xe0, 0xff, 0xff, 0xff, 0x06, 0x00, 0x00, 0x00, 0x02, 0x00, 0x00, 0x00,
  0x00, 0x00, 0x00, 0x06, 0xf0, 0xff, 0xff, 0xff, 0x19, 0x00, 0x00, 0x00,
  0x02, 0x00, 0x00, 0x00, 0x00, 0x00, 0x00, 0x19, 0x0c, 0x00, 0x10, 0x00,
  0x0f, 0x00, 0x00, 0x00, 0x08, 0x00, 0x04, 0x00, 0x0c, 0x00, 0x00, 0x00,
  0x09, 0x00, 0x00, 0x00, 0x04, 0x00, 0x00, 0x00, 0x00, 0x00, 0x00, 0x09,
  0x0c, 0x00, 0x0c, 0x00, 0x0b, 0x00, 0x00, 0x00, 0x00, 0x00, 0x04, 0x00,
  0x0c, 0x00, 0x00, 0x00, 0x72, 0x00, 0x00, 0x00, 0x00, 0x00, 0x00, 0x72
}; 
