const unsigned char gesture_model_q [] = {  
  0x1c, 0x00, 0x00, 0x00, 0x54, 0x46, 0x4c, 0x33, 0x14, 0x00, 0x20, 0x00,
  0x1c, 0x00, 0x18, 0x00, 0x14, 0x00, 0x10, 0x00, 0x0c, 0x00, 0x00, 0x00,
  0x08, 0x00, 0x04, 0x00, 0x14, 0x00, 0x00, 0x00, 0x1c, 0x00, 0x00, 0x00,
  0x84, 0x00, 0x00, 0x00, 0xdc, 0x00, 0x00, 0x00, 0x14, 0x0f, 0x00, 0x00,
  0x24, 0x0f, 0x00, 0x00, 0x84, 0x17, 0x00, 0x00, 0x03, 0x00, 0x00, 0x00,
  0x01, 0x00, 0x00, 0x00, 0x04, 0x00, 0x00, 0x00, 0x96, 0xf0, 0xff, 0xff,
  0x0c, 0x00, 0x00, 0x00, 0x1c, 0x00, 0x00, 0x00, 0x38, 0x00, 0x00, 0x00,
  0x0f, 0x00, 0x00, 0x00, 0x73, 0x65, 0x72, 0x76, 0x69, 0x6e, 0x67, 0x5f,
  0x64, 0x65, 0x66, 0x61, 0x75, 0x6c, 0x74, 0x00, 0x01, 0x00, 0x00, 0x00,
  0x04, 0x00, 0x00, 0x00, 0x98, 0xff, 0xff, 0xff, 0x0c, 0x00, 0x00, 0x00,
  0x04, 0x00, 0x00, 0x00, 0x07, 0x00, 0x00, 0x00, 0x64, 0x65, 0x6e, 0x73,
  0x65, 0x5f, 0x32, 0x00, 0x01, 0x00, 0x00, 0x00, 0x04, 0x00, 0x00, 0x00,
  0x9e, 0xf0, 0xff, 0xff, 0x04, 0x00, 0x00, 0x00, 0x0b, 0x00, 0x00, 0x00,
  0x64, 0x65, 0x6e, 0x73, 0x65, 0x5f, 0x69, 0x6e, 0x70, 0x75, 0x74, 0x00,
  0x02, 0x00, 0x00, 0x00, 0x34, 0x00, 0x00, 0x00, 0x04, 0x00, 0x00, 0x00,
  0xdc, 0xff, 0xff, 0xff, 0x0f, 0x00, 0x00, 0x00, 0x04, 0x00, 0x00, 0x00,
  0x13, 0x00, 0x00, 0x00, 0x43, 0x4f, 0x4e, 0x56, 0x45, 0x52, 0x53, 0x49,
  0x4f, 0x4e, 0x5f, 0x4d, 0x45, 0x54, 0x41, 0x44, 0x41, 0x54, 0x41, 0x00,
  0x08, 0x00, 0x0c, 0x00, 0x08, 0x00, 0x04, 0x00, 0x08, 0x00, 0x00, 0x00,
  0x0e, 0x00, 0x00, 0x00, 0x04, 0x00, 0x00, 0x00, 0x13, 0x00, 0x00, 0x00,
  0x6d, 0x69, 0x6e, 0x5f, 0x72, 0x75, 0x6e, 0x74, 0x69, 0x6d, 0x65, 0x5f,
  0x76, 0x65, 0x72, 0x73, 0x69, 0x6f, 0x6e, 0x00, 0x10, 0x00, 0x00, 0x00,
  0x34, 0x0e, 0x00, 0x00, 0x2c, 0x0e, 0x00, 0x00, 0x0c, 0x0e, 0x00, 0x00,
  0xdc, 0x0d, 0x00, 0x00, 0xac, 0x0d, 0x00, 0x00, 0x9c, 0x0c, 0x00, 0x00,
  0x0c, 0x0c, 0x00, 0x00, 0xbc, 0x00, 0x00, 0x00, 0xb4, 0x00, 0x00, 0x00,
  0xac, 0x00, 0x00, 0x00, 0xa4, 0x00, 0x00, 0x00, 0x9c, 0x00, 0x00, 0x00,
  0x94, 0x00, 0x00, 0x00, 0x8c, 0x00, 0x00, 0x00, 0x6c, 0x00, 0x00, 0x00,
  0x04, 0x00, 0x00, 0x00, 0x56, 0xf1, 0xff, 0xff, 0x04, 0x00, 0x00, 0x00,
  0x58, 0x00, 0x00, 0x00, 0x0c, 0x00, 0x00, 0x00, 0x08, 0x00, 0x0e, 0x00,
  0x08, 0x00, 0x04, 0x00, 0x08, 0x00, 0x00, 0x00, 0x10, 0x00, 0x00, 0x00,
  0x28, 0x00, 0x00, 0x00, 0x00, 0x00, 0x06, 0x00, 0x08, 0x00, 0x04, 0x00,
  0x06, 0x00, 0x00, 0x00, 0x04, 0x00, 0x00, 0x00, 0x01, 0x00, 0x00, 0x00,
  0xeb, 0x03, 0x00, 0x00, 0x00, 0x00, 0x0a, 0x00, 0x10, 0x00, 0x0c, 0x00,
  0x08, 0x00, 0x04, 0x00, 0x0a, 0x00, 0x00, 0x00, 0x02, 0x00, 0x00, 0x00,
  0x02, 0x00, 0x00, 0x00, 0x04, 0x00, 0x00, 0x00, 0x06, 0x00, 0x00, 0x00,
  0x32, 0x2e, 0x31, 0x30, 0x2e, 0x30, 0x00, 0x00, 0xba, 0xf1, 0xff, 0xff,
  0x04, 0x00, 0x00, 0x00, 0x10, 0x00, 0x00, 0x00, 0x31, 0x2e, 0x31, 0x34,
  0x2e, 0x30, 0x00, 0x00, 0x00, 0x00, 0x00, 0x00, 0x00, 0x00, 0x00, 0x00,
  0x48, 0xea, 0xff, 0xff, 0x4c, 0xea, 0xff, 0xff, 0x50, 0xea, 0xff, 0xff,
  0x54, 0xea, 0xff, 0xff, 0x58, 0xea, 0xff, 0xff, 0x5c, 0xea, 0xff, 0xff,
  0xee, 0xf1, 0xff, 0xff, 0x04, 0x00, 0x00, 0x00, 0x40, 0x0b, 0x00, 0x00,
  0xca, 0xca, 0x29, 0x16, 0xdb, 0x2b, 0x20, 0x0c, 0x22, 0x09, 0x19, 0xee,
  0xcf, 0xd2, 0xd3, 0xce, 0x30, 0xf3, 0xf4, 0xec, 0x1f, 0xfd, 0x17, 0x1e,
  0xe1, 0xef, 0x2a, 0x0b, 0x33, 0xf9, 0x18, 0x03, 0xf7, 0x36, 0x32, 0xd5,
  0xd5, 0xf8, 0xfc, 0xe8, 0x1a, 0xdf, 0xd0, 0x0b, 0xd2, 0xe6, 0x10, 0x28,
  0xea, 0xd8, 0xe0, 0xd4, 0x05, 0xea, 0x30, 0x29, 0xf4, 0xf3, 0xe9, 0xe0,
  0xf8, 0xdd, 0xef, 0x26, 0x36, 0x11, 0x34, 0xed, 0x02, 0xcc, 0xda, 0x22,
  0x1b, 0x32, 0xcc, 0xf7, 0xdd, 0xdc, 0xfe, 0x19, 0x24, 0x13, 0x15, 0xf2,
  0x13, 0xd1, 0xca, 0xe7, 0x30, 0xf6, 0xcd, 0xeb, 0x20, 0x04, 0x33, 0xc7,
  0xd7, 0xb6, 0xfa, 0x0f, 0x33, 0xe6, 0xb7, 0xcf, 0xeb, 0xe5, 0x3d, 0xc0,
  0xca, 0x00, 0x01, 0x05, 0x40, 0xe6, 0xf4, 0xf6, 0xed, 0x15, 0x2f, 0x24,
  0xc3, 0x0c, 0x0f, 0xdf, 0x02, 0x33, 0xd4, 0x3d, 0x00, 0x0b, 0x41, 0xfd,
  0xc8, 0x36, 0x0a, 0x11, 0x1c, 0xf6, 0xf9, 0x25, 0x13, 0x33, 0x15, 0x56,
  0x10, 0xe6, 0x2c, 0x4d, 0xe8, 0x07, 0xf8, 0x2c, 0xf3, 0x0e, 0x4f, 0x3e,
  0xd7, 0x20, 0x09, 0x0e, 0x45, 0xf6, 0xe1, 0x05, 0x12, 0xfd, 0x34, 0x24,
  0xff, 0xcb, 0x3b, 0x13, 0xe6, 0xec, 0x08, 0xe8, 0x40, 0x14, 0xfb, 0x3e,
  0x2d, 0x20, 0xae, 0xd1, 0x01, 0x48, 0x0b, 0x31, 0xb0, 0x11, 0x13, 0x48,
  0xf6, 0x2a, 0xd0, 0x20, 0xc0, 0x0e, 0xcd, 0x2e, 0xe6, 0xcc, 0xb9, 0x33,
  0xb6, 0x1c, 0xc3, 0xe9, 0xad, 0xea, 0xf5, 0x1f, 0xfd, 0x01, 0xd4, 0xeb,
  0xbe, 0x50, 0xc6, 0xe8, 0xb6, 0x35, 0xd7, 0x56, 0x12, 0xde, 0xd5, 0xfb,
  0xe5, 0x01, 0x39, 0x1e, 0xfe, 0x1b, 0xcc, 0x03, 0x3c, 0x1f, 0xe7, 0x1b,
  0xf8, 0x42, 0x3c, 0xe9, 0xd8, 0x35, 0xf7, 0x43, 0x40, 0x28, 0x0a, 0x1d,
  0x06, 0x53, 0x00, 0x22, 0x26, 0x3d, 0xdd, 0x43, 0x44, 0x25, 0xde, 0xec,
  0xd0, 0x46, 0x38, 0x0e, 0xd2, 0xd2, 0x04, 0x2d, 0xdf, 0xe2, 0x34, 0xe1,
  0x07, 0xd1, 0xe3, 0x01, 0x0a, 0xf7, 0xcf, 0xf1, 0xe5, 0x00, 0xe7, 0x01,
  0xde, 0x17, 0xf8, 0xd5, 0xe6, 0x36, 0x02, 0x12, 0x05, 0xf5, 0x04, 0x1f,
  0x33, 0x00, 0xf8, 0x13, 0x34, 0xfe, 0x2a, 0xde, 0xf7, 0xda, 0x26, 0xef,
  0xd1, 0xcf, 0xfd, 0xd3, 0xce, 0x1e, 0x10, 0xec, 0xe5, 0xdc, 0xd3, 0xee,
  0xe4, 0xd7, 0x1a, 0xea, 0x1f, 0xe4, 0x01, 0xf8, 0xd5, 0x24, 0x2f, 0xd2,
  0xd1, 0xfb, 0x1c, 0x15, 0xd7, 0x10, 0x09, 0x1c, 0x10, 0x17, 0x19, 0xea,
  0xdc, 0xe1, 0xfe, 0xd7, 0xef, 0xf1, 0x36, 0x21, 0x22, 0x32, 0x2c, 0xf4,
  0xc8, 0xf5, 0x19, 0xf4, 0x2b, 0xe5, 0x25, 0x0c, 0xfb, 0x0a, 0xdd, 0xd8,
  0xfa, 0x2b, 0xd4, 0x03, 0xd0, 0xf8, 0xea, 0x12, 0xe9, 0xde, 0x26, 0x0c,
  0xf1, 0xcf, 0x0d, 0xe9, 0xd8, 0x2f, 0xd7, 0xf3, 0xd6, 0xf9, 0x19, 0x2a,
  0x2b, 0x29, 0xd9, 0xd0, 0xd3, 0xf3, 0x28, 0x34, 0xdb, 0x2f, 0xee, 0xe4,
  0x0c, 0xcc, 0xdb, 0x2d, 0x18, 0xcf, 0x02, 0x32, 0x0b, 0xd1, 0xcf, 0x20,
  0x0e, 0xca, 0xd5, 0x0c, 0x07, 0x1e, 0xc7, 0x1d, 0x14, 0x02, 0xd0, 0xfb,
  0x33, 0xe6, 0x04, 0xe0, 0x27, 0xdf, 0xd0, 0x2e, 0x24, 0xea, 0xe9, 0xf8,
  0x29, 0x26, 0x2e, 0x28, 0xf5, 0xe6, 0xe9, 0x2f, 0xfc, 0xec, 0x11, 0x21,
  0x16, 0xed, 0x37, 0x35, 0xd9, 0x26, 0xf0, 0x10, 0x34, 0x49, 0xef, 0x06,
  0x58, 0xf7, 0xf3, 0xfa, 0x0e, 0xe4, 0x38, 0x2b, 0x0a, 0x35, 0x10, 0xf3,
  0x51, 0xc9, 0x42, 0xfa, 0x1c, 0x21, 0x04, 0xf0, 0x2b, 0x1b, 0xec, 0x27,
  0x45, 0xcb, 0xec, 0x2d, 0x04, 0x05, 0xf1, 0x2f, 0x03, 0xd7, 0xcb, 0xea,
  0x0a, 0x2a, 0xe7, 0x20, 0x25, 0xb9, 0x1e, 0x05, 0x02, 0xf7, 0xcb, 0xd4,
  0x0d, 0xc8, 0x25, 0x33, 0xd3, 0xfa, 0xf6, 0xdd, 0xcb, 0xd1, 0x0f, 0x1e,
  0x25, 0xf4, 0xe4, 0x05, 0x0f, 0xc5, 0x36, 0xfb, 0xee, 0x16, 0xee, 0xda,
  0x13, 0x23, 0xc0, 0x39, 0xfc, 0x08, 0x4f, 0x50, 0x15, 0x2f, 0xf4, 0x32,
  0xf6, 0x33, 0x24, 0x4a, 0xc1, 0x41, 0x43, 0x13, 0xe7, 0x38, 0xda, 0x2f,
  0x51, 0xdd, 0x3d, 0x15, 0xee, 0x14, 0x41, 0xc6, 0x39, 0xfb, 0x14, 0xee,
  0xff, 0x17, 0xee, 0x1d, 0x12, 0x1a, 0x2f, 0x29, 0xf6, 0x18, 0xe3, 0xcd,
  0x3a, 0x01, 0xfb, 0xea, 0xeb, 0xea, 0x51, 0xf1, 0xec, 0x25, 0xe1, 0xf0,
  0x33, 0xf0, 0x0f, 0xdf, 0x15, 0xfb, 0x1b, 0x0a, 0xd0, 0xe9, 0x00, 0xcb,
  0x26, 0xf9, 0xdf, 0x06, 0xfd, 0xf2, 0xf6, 0x15, 0x0b, 0xdd, 0xdc, 0x10,
  0x00, 0xe5, 0x06, 0xe9, 0x0d, 0xc3, 0x1c, 0x17, 0xa7, 0xe9, 0xc7, 0x31,
  0x11, 0x1b, 0xe6, 0xe8, 0xb5, 0x1b, 0x02, 0x04, 0xea, 0x53, 0xe0, 0x26,
  0xd6, 0x32, 0xaf, 0x3b, 0xc8, 0x3f, 0xe6, 0x0d, 0xc6, 0x09, 0xc5, 0x4d,
  0xad, 0x12, 0xd8, 0x48, 0xb4, 0xf0, 0xe8, 0xfe, 0xe9, 0x03, 0xb7, 0xee,
  0xd0, 0x3c, 0x23, 0xfa, 0xca, 0x1d, 0xc4, 0x4e, 0x24, 0x17, 0xf4, 0xcd,
  0xba, 0x2b, 0x20, 0x3d, 0x1c, 0x14, 0xf2, 0x07, 0x40, 0x27, 0xc3, 0x25,
  0xfe, 0x2f, 0x2b, 0xe2, 0xca, 0x20, 0x06, 0xe7, 0x39, 0xf0, 0x24, 0x2a,
  0x1f, 0xf2, 0x19, 0x2b, 0x27, 0x09, 0x04, 0xda, 0x29, 0x13, 0xf9, 0xdb,
  0x3d, 0x07, 0xb4, 0xcc, 0x13, 0xf8, 0x53, 0x11, 0xa8, 0xde, 0xfc, 0x2a,
  0x31, 0x1b, 0xe6, 0xf8, 0x28, 0x2c, 0xec, 0x06, 0xdd, 0xcd, 0xdb, 0x32,
  0x13, 0x07, 0xc0, 0xd4, 0x01, 0x22, 0x48, 0x17, 0xf8, 0xaa, 0x14, 0x18,
  0x4a, 0x1e, 0x06, 0x9c, 0x35, 0x24, 0x36, 0x0e, 0xf1, 0xc2, 0xe2, 0x35,
  0x3c, 0x3b, 0xbb, 0xc4, 0xe8, 0x1c, 0xf7, 0x1a, 0x0b, 0xcb, 0x0b, 0xdd,
  0x21, 0x68, 0xfd, 0xe8, 0x2a, 0x35, 0xf0, 0x66, 0x03, 0xcc, 0x27, 0xee,
  0xdb, 0x28, 0xf2, 0xd4, 0xd0, 0x1d, 0xee, 0x3a, 0x23, 0xd1, 0x22, 0x0a,
  0x14, 0x51, 0xdb, 0x29, 0xfc, 0x2b, 0x2a, 0x03, 0xfc, 0x01, 0x28, 0x2a,
  0x06, 0x0d, 0x24, 0xd9, 0x15, 0xd1, 0xdf, 0xf4, 0xde, 0x02, 0xfa, 0x16,
  0x03, 0x2c, 0x2a, 0xe9, 0xd5, 0xe3, 0x0c, 0x30, 0xdc, 0x35, 0xe9, 0xf2,
  0x1d, 0xf9, 0x34, 0x35, 0xe6, 0xf7, 0x27, 0x2f, 0x35, 0xde, 0xd8, 0xf6,
  0xe2, 0xfb, 0xdd, 0x0d, 0xdb, 0x1f, 0x2e, 0xed, 0xd0, 0x18, 0x15, 0x29,
  0x0b, 0xdd, 0x19, 0xf7, 0xd0, 0xed, 0x21, 0xe9, 0xd3, 0xf4, 0xf6, 0x0f,
  0xd9, 0x1b, 0x0a, 0x31, 0xca, 0xd0, 0xe0, 0xe2, 0xde, 0xf8, 0x22, 0xd8,
  0xd0, 0x32, 0xfe, 0xd6, 0xc9, 0x0e, 0x2c, 0x29, 0xff, 0x11, 0xcf, 0xcd,
  0x32, 0x19, 0xd0, 0xcc, 0x0d, 0xff, 0x03, 0x32, 0xcf, 0x12, 0xd8, 0xda,
  0x0c, 0x05, 0xe4, 0x2e, 0xd3, 0x14, 0x33, 0xd8, 0xf8, 0x29, 0xe6, 0xd9,
  0xf9, 0x0c, 0x2a, 0xe0, 0xde, 0xcc, 0x2d, 0x03, 0x2e, 0x29, 0xe7, 0x08,
  0xf6, 0x12, 0x0b, 0xc9, 0xd7, 0xf9, 0x0d, 0x1d, 0xf8, 0x09, 0xe3, 0x0b,
  0xe3, 0x28, 0xda, 0xd8, 0xce, 0xe6, 0xf4, 0xd4, 0xec, 0x1b, 0xff, 0xe0,
  0xeb, 0x16, 0xd0, 0x26, 0x35, 0x23, 0xdf, 0xdb, 0x12, 0xd4, 0xf9, 0x0e,
  0xfd, 0x0f, 0xe8, 0xe3, 0x0c, 0x16, 0x03, 0x0c, 0xef, 0x0b, 0x14, 0xd8,
  0x31, 0x34, 0x22, 0x0f, 0xf0, 0xee, 0x37, 0xf1, 0xee, 0x33, 0xf6, 0xfc,
  0x50, 0x4b, 0xd3, 0x00, 0xff, 0xf7, 0x31, 0x4b, 0xeb, 0x2d, 0x0c, 0xe4,
  0x3f, 0x41, 0x00, 0x05, 0xbf, 0xe2, 0x0d, 0xf9, 0x3a, 0xe4, 0xca, 0x33,
  0x2c, 0x0c, 0x2d, 0xfb, 0xd2, 0x10, 0x23, 0x27, 0x24, 0xe2, 0xcd, 0xc3,
  0x2d, 0x22, 0x2a, 0xd8, 0xe9, 0xfa, 0x4f, 0x36, 0x22, 0x0b, 0xd7, 0x0a,
  0x0e, 0x2d, 0xe2, 0x07, 0xf2, 0xf8, 0xf0, 0xf9, 0x2a, 0xeb, 0x12, 0xd0,
  0x3f, 0xd4, 0x0d, 0x15, 0x17, 0x10, 0x4c, 0x2b, 0x04, 0x10, 0x00, 0xf4,
  0x02, 0x11, 0xfa, 0xfe, 0x2a, 0xe7, 0xe3, 0x24, 0x39, 0xf6, 0x22, 0xed,
  0x16, 0xf3, 0x4f, 0x40, 0x06, 0x21, 0x06, 0xf1, 0x47, 0x62, 0xfb, 0x11,
  0x26, 0xcf, 0xf6, 0x40, 0x3e, 0x35, 0xec, 0x1f, 0x17, 0x76, 0xe8, 0xf4,
  0xe4, 0xc2, 0xd9, 0x51, 0xdf, 0x42, 0xa9, 0x2f, 0x16, 0x41, 0xdd, 0xf2,
  0xbe, 0xce, 0x63, 0x6e, 0xc9, 0x30, 0xf5, 0xd8, 0x62, 0x6d, 0x1c, 0x26,
  0xe2, 0x03, 0x1a, 0x5d, 0x2b, 0xfc, 0xb3, 0xfb, 0x2c, 0x1d, 0x07, 0x1f,
  0x25, 0xe9, 0x35, 0x38, 0x0a, 0x0a, 0xcd, 0xdf, 0x32, 0x55, 0xe0, 0xdd,
  0xf2, 0xdc, 0x44, 0x24, 0xef, 0x0e, 0x2c, 0xcb, 0x31, 0x28, 0x1e, 0xe7,
  0xde, 0xfc, 0x43, 0x0b, 0x1a, 0x2c, 0x19, 0xcb, 0xd8, 0xbd, 0x3b, 0x13,
  0xde, 0xbf, 0x0a, 0xfc, 0x08, 0x1d, 0x1e, 0xbf, 0xf8, 0xd6, 0x42, 0x1b,
  0xe2, 0xe6, 0xd7, 0xc3, 0x15, 0xe8, 0xfd, 0x3b, 0xcd, 0xb4, 0x0d, 0x25,
  0x0a, 0x3e, 0x1d, 0xcd, 0x3a, 0xf5, 0x2f, 0x29, 0x2a, 0xe1, 0xf1, 0x27,
  0x13, 0x3a, 0x2d, 0x14, 0x11, 0x41, 0x0a, 0xed, 0x14, 0xe1, 0x4c, 0x39,
  0x11, 0x00, 0x29, 0xe6, 0x20, 0x11, 0xc5, 0x4e, 0x04, 0xfc, 0x3a, 0x23,
  0xd2, 0x18, 0xeb, 0xe9, 0x31, 0x1b, 0xf6, 0x41, 0xe1, 0x34, 0x06, 0xed,
  0xf9, 0x24, 0x16, 0x37, 0x23, 0x01, 0x0a, 0xe0, 0x39, 0x27, 0xfa, 0x18,
  0xbc, 0xd1, 0x4e, 0x31, 0x46, 0x00, 0xef, 0xe3, 0x6e, 0x0d, 0x3b, 0xdd,
  0x1b, 0xc1, 0x52, 0x58, 0xf5, 0xe6, 0x14, 0x0b, 0x52, 0x60, 0xf5, 0xd6,
  0xc6, 0xdd, 0x4c, 0x71, 0x00, 0xf3, 0xaf, 0xf3, 0x06, 0x22, 0x01, 0xe1,
  0xfc, 0xc2, 0x22, 0x30, 0x2d, 0xe5, 0x0b, 0xb2, 0x62, 0x40, 0x2a, 0x38,
  0xea, 0x07, 0x08, 0x0d, 0x07, 0x2c, 0x0f, 0x09, 0x41, 0x5d, 0xfc, 0x1b,
  0xd4, 0xdb, 0x4b, 0x4e, 0xdb, 0x20, 0x20, 0xac, 0x10, 0x33, 0xe3, 0x3a,
  0xfc, 0xc7, 0x2d, 0x29, 0xe8, 0xfc, 0xfb, 0xeb, 0xe0, 0xf1, 0xfd, 0xd6,
  0xe5, 0x05, 0xde, 0x1f, 0xe9, 0x3c, 0xec, 0x00, 0x17, 0x09, 0xd8, 0x36,
  0x07, 0x1e, 0xf7, 0x39, 0xcc, 0x0c, 0xf6, 0x22, 0x3e, 0x0d, 0xe6, 0x3d,
  0x5b, 0x2b, 0x32, 0x0c, 0x2a, 0x19, 0x3f, 0x11, 0x29, 0x2e, 0x2d, 0x0a,
  0x50, 0x11, 0xde, 0x17, 0xca, 0xe2, 0xec, 0x0b, 0xf4, 0xec, 0x01, 0x0d,
  0x23, 0xcc, 0x19, 0xde, 0xd8, 0x05, 0x3a, 0x12, 0x1a, 0xce, 0xd8, 0xd2,
  0x37, 0xee, 0x18, 0x02, 0xe1, 0x16, 0x3c, 0xca, 0xc2, 0xfe, 0x23, 0xe0,
  0x0b, 0xc9, 0x2a, 0x03, 0x0a, 0xc0, 0x0c, 0x16, 0xfd, 0x2f, 0xc1, 0xfd,
  0x47, 0x12, 0x13, 0x0b, 0xe7, 0x1d, 0xe7, 0xeb, 0x24, 0xcc, 0xde, 0xfc,
  0x2d, 0xf5, 0xca, 0x24, 0x31, 0x25, 0xdb, 0xe5, 0x16, 0xcb, 0xfa, 0xcc,
  0xfd, 0x01, 0xdc, 0x1e, 0x22, 0x30, 0xe7, 0x31, 0x04, 0x13, 0x1b, 0xe2,
  0xec, 0x29, 0xe5, 0xda, 0x10, 0x1c, 0xfb, 0xda, 0x26, 0x2e, 0xdb, 0x1d,
  0xfc, 0xf8, 0xe0, 0xf2, 0xdd, 0xe7, 0x05, 0xe4, 0x0a, 0xdf, 0xe2, 0x21,
  0x02, 0x20, 0x23, 0x26, 0x06, 0x13, 0xdc, 0xf5, 0xd1, 0xed, 0xce, 0xee,
  0x2a, 0x02, 0x1c, 0xcd, 0x27, 0xef, 0xd3, 0x02, 0xf5, 0x1a, 0xeb, 0xfb,
  0xd3, 0x0e, 0xc9, 0xe9, 0x36, 0x28, 0x07, 0xd4, 0xf0, 0x00, 0x14, 0xda,
  0xe4, 0xe6, 0xfd, 0x0b, 0xef, 0x20, 0x23, 0xff, 0x00, 0x14, 0x24, 0x17,
  0x19, 0x11, 0xd9, 0x0d, 0x1c, 0x3b, 0x5c, 0x5b, 0x1a, 0xbd, 0xd4, 0x0b,
  0x7b, 0x2a, 0xe4, 0xcd, 0xed, 0xdc, 0x6c, 0xf6, 0x0c, 0x00, 0x16, 0xe4,
  0x7f, 0xfb, 0x13, 0xf0, 0xf4, 0xd6, 0x6d, 0x32, 0xe1, 0xd9, 0x3f, 0x12,
  0x62, 0x5e, 0xf3, 0xd4, 0xf3, 0xd9, 0x6d, 0x2f, 0x03, 0x11, 0x29, 0xd7,
  0x41, 0x6b, 0xb9, 0xf7, 0xef, 0xd6, 0x16, 0x65, 0xd6, 0xea, 0x08, 0x10,
  0x1a, 0x57, 0x05, 0x0a, 0x1b, 0xea, 0x2e, 0x71, 0x14, 0xf3, 0xf6, 0x1f,
  0x13, 0x5e, 0xf5, 0xee, 0x2e, 0xfc, 0xf5, 0x1d, 0x10, 0xff, 0x27, 0x1c,
  0x35, 0x02, 0xc9, 0x00, 0x15, 0x23, 0xce, 0x1f, 0xe0, 0xff, 0xdb, 0xe9,
  0xf3, 0x35, 0x18, 0x35, 0xf3, 0xdb, 0xe5, 0x23, 0xd2, 0x1c, 0x04, 0xd8,
  0xce, 0xe3, 0x29, 0x00, 0xf4, 0x2b, 0xe3, 0xf7, 0xdc, 0xd4, 0xf9, 0xd3,
  0x05, 0xe3, 0x12, 0xdc, 0x17, 0x26, 0xd7, 0xef, 0xf4, 0x00, 0x35, 0x0b,
  0xde, 0x32, 0xed, 0xe9, 0xf4, 0x1e, 0xf5, 0xd3, 0xf0, 0xea, 0x11, 0x1e,
  0x0e, 0xe1, 0xe0, 0x04, 0xf5, 0xe1, 0x2f, 0x01, 0xeb, 0x13, 0x0b, 0xd9,
  0xe5, 0xef, 0x00, 0x26, 0xe3, 0xd8, 0x2e, 0xd6, 0xd5, 0xee, 0x1b, 0xd0,
  0xe5, 0xd3, 0x36, 0x35, 0xf6, 0x10, 0x1f, 0x06, 0xe6, 0xe7, 0x1d, 0xf3,
  0x03, 0xfa, 0x25, 0x17, 0x08, 0x18, 0xe1, 0x02, 0xe7, 0xcd, 0x1e, 0x12,
  0xeb, 0x17, 0xdc, 0x13, 0xe9, 0xe0, 0xde, 0x21, 0xcf, 0x0c, 0xdd, 0x07,
  0xeb, 0xdb, 0xd0, 0xd5, 0xf7, 0x12, 0xec, 0xee, 0xf5, 0xe5, 0x09, 0xf7,
  0x09, 0x2e, 0xfc, 0xd9, 0x19, 0x19, 0xca, 0xe9, 0x2e, 0x28, 0xdc, 0x00,
  0x1e, 0xfe, 0xee, 0xe8, 0xf0, 0x0b, 0x00, 0x1b, 0xd6, 0x1e, 0x2a, 0xe9,
  0xee, 0xee, 0x1c, 0xd9, 0x04, 0xec, 0x0b, 0x15, 0xcb, 0x2c, 0xe9, 0x31,
  0x10, 0x33, 0xe4, 0xd4, 0xf8, 0xcb, 0xd4, 0x22, 0xfa, 0x11, 0xf0, 0x14,
  0xfd, 0xe9, 0xe2, 0x23, 0xdb, 0x0d, 0x1d, 0x00, 0xf6, 0x1f, 0x0d, 0x1f,
  0x0d, 0x21, 0xd8, 0xf5, 0x29, 0xe0, 0xf2, 0x27, 0x11, 0xed, 0xed, 0x1f,
  0xd0, 0xe9, 0xea, 0xd2, 0x16, 0xe2, 0x15, 0x0a, 0xf6, 0x2e, 0x25, 0xf3,
  0x02, 0xf4, 0xd7, 0xcf, 0xed, 0x02, 0x02, 0xec, 0xf1, 0x28, 0x0d, 0x25,
  0x10, 0xcc, 0xfe, 0xe0, 0x27, 0xde, 0xf4, 0x0e, 0x30, 0xeb, 0xfa, 0xcf,
  0xfb, 0x24, 0x31, 0x21, 0xcf, 0xed, 0xde, 0xd6, 0xdb, 0x1e, 0x0e, 0xdd,
  0xf3, 0xd4, 0xdd, 0xfe, 0x1c, 0xea, 0x05, 0xf3, 0x13, 0xff, 0x33, 0xdc,
  0x0c, 0xd4, 0xd4, 0xe9, 0x0f, 0x1c, 0xee, 0xca, 0x6b, 0x2b, 0xfe, 0xce,
  0x08, 0xf6, 0x30, 0xda, 0x5a, 0xf5, 0x0a, 0x03, 0xf5, 0x34, 0x01, 0x32,
  0xf6, 0xdf, 0x18, 0x06, 0x2d, 0x2f, 0xd4, 0xfe, 0x36, 0xe0, 0x03, 0x32,
  0xd2, 0x3a, 0x1b, 0x3e, 0x50, 0x0d, 0xe0, 0x41, 0x0f, 0x2e, 0x07, 0x1f,
  0xe6, 0x0c, 0xfd, 0x04, 0xfe, 0x4f, 0x17, 0xef, 0x35, 0x30, 0x54, 0x51,
  0x22, 0xe7, 0x00, 0x34, 0x23, 0x34, 0xd5, 0x00, 0x1c, 0x33, 0x40, 0xf1,
  0x3c, 0x32, 0x36, 0x3e, 0x4a, 0x27, 0x1c, 0x40, 0xf5, 0x2e, 0x13, 0x4b,
  0x3c, 0xe3, 0x31, 0x0c, 0xf1, 0xf8, 0xd8, 0x3d, 0x02, 0x1e, 0x27, 0x2c,
  0x56, 0xf0, 0xb9, 0xea, 0xfd, 0x2c, 0x55, 0x34, 0xc0, 0x35, 0xc8, 0x05,
  0xf4, 0x35, 0xcb, 0x52, 0xe7, 0x06, 0xcf, 0xfb, 0xbb, 0x40, 0xd5, 0x05,
  0x92, 0xcd, 0xbb, 0x30, 0xc0, 0x25, 0xb4, 0x0b, 0xc6, 0xec, 0x04, 0xf8,
  0x95, 0x24, 0xdb, 0x51, 0xb0, 0x3b, 0xc0, 0x39, 0x11, 0xf2, 0xef, 0x24,
  0xda, 0x03, 0x3f, 0x05, 0xc1, 0x37, 0xea, 0x49, 0x3c, 0x3b, 0xe4, 0x34,
  0xad, 0x11, 0x57, 0xed, 0xca, 0xdb, 0xe4, 0x1d, 0x12, 0x2b, 0xe2, 0x05,
  0xe1, 0x08, 0x4f, 0xee, 0x23, 0x24, 0xcc, 0x13, 0x3f, 0x16, 0xfd, 0x11,
  0x19, 0x0f, 0x35, 0x27, 0xef, 0x1a, 0x13, 0xf1, 0x17, 0x13, 0xf2, 0xdc,
  0xff, 0x32, 0x13, 0x28, 0xd9, 0x16, 0xf0, 0x05, 0xee, 0x1f, 0xef, 0xde,
  0xe5, 0xf1, 0x15, 0x0b, 0xe9, 0x19, 0x05, 0xf8, 0x2e, 0xd6, 0x23, 0xeb,
  0x32, 0xeb, 0xdc, 0xd9, 0x15, 0xce, 0xf0, 0x2c, 0xf1, 0xee, 0xd6, 0x24,
  0xe5, 0x1d, 0xcb, 0x2d, 0x2e, 0xe3, 0xf5, 0x01, 0xe7, 0x08, 0x1d, 0xca,
  0x00, 0xe5, 0x2c, 0xd4, 0x32, 0xd8, 0x07, 0xf6, 0xd2, 0xee, 0xe4, 0x1b,
  0x22, 0xf3, 0xe0, 0xeb, 0x30, 0xd4, 0x27, 0x00, 0x06, 0xd1, 0xf5, 0xd2,
  0x05, 0xe1, 0xde, 0x24, 0xfb, 0xd7, 0xe8, 0xd8, 0xf3, 0xf1, 0x32, 0xd4,
  0x09, 0x4b, 0x13, 0x1d, 0x18, 0x35, 0x2e, 0x54, 0xe4, 0x36, 0xe0, 0xe9,
  0x2a, 0x55, 0xfb, 0xf5, 0xc3, 0x31, 0x55, 0x00, 0x38, 0xfd, 0x05, 0x1f,
  0x2e, 0xd6, 0xf2, 0xd6, 0x10, 0xca, 0x13, 0x02, 0x29, 0x16, 0x23, 0x12,
  0x5a, 0x19, 0x23, 0xd1, 0x06, 0xec, 0xfa, 0xe6, 0xf9, 0xe8, 0x13, 0xba,
  0x53, 0xe5, 0x02, 0x23, 0xdd, 0xf6, 0x45, 0x11, 0xe8, 0xcf, 0xd3, 0xbf,
  0xfe, 0xdb, 0xf6, 0xf4, 0x11, 0xb9, 0x4c, 0x12, 0xd4, 0xc0, 0xee, 0x24,
  0x05, 0xd7, 0xfb, 0xee, 0x23, 0xc1, 0x38, 0x2d, 0xf7, 0xe0, 0xe6, 0xf0,
  0xfc, 0x27, 0x25, 0xf4, 0xbd, 0xd4, 0x27, 0x3a, 0x17, 0xf2, 0x0f, 0x35,
  0x0b, 0xfb, 0xdd, 0x18, 0xe7, 0xf0, 0x48, 0x40, 0x1a, 0x45, 0xfe, 0x10,
  0x02, 0x28, 0x07, 0xf4, 0x1c, 0xee, 0x51, 0x00, 0xd3, 0x03, 0xf9, 0xe3,
  0x35, 0xf2, 0x38, 0x24, 0x21, 0xed, 0x34, 0xb9, 0xd1, 0xec, 0x01, 0xc9,
  0x33, 0xf2, 0xf9, 0xf2, 0xec, 0xd6, 0x25, 0x50, 0x00, 0x1b, 0xd6, 0xf9,
  0x61, 0x30, 0xbb, 0xce, 0xe4, 0xb1, 0x32, 0x34, 0xf7, 0x22, 0x03, 0xdf,
  0x3c, 0xe5, 0xbf, 0xf9, 0x0a, 0xc1, 0x03, 0xe8, 0xf0, 0x02, 0x0e, 0xcc,
  0x04, 0x18, 0xd1, 0xed, 0xf4, 0xef, 0x47, 0x31, 0xdb, 0xe8, 0xe7, 0x02,
  0x31, 0xd7, 0xe6, 0x0d, 0x44, 0xd8, 0xfe, 0xde, 0x12, 0xc5, 0x03, 0x30,
  0xec, 0x2f, 0xe5, 0xae, 0x2f, 0xe7, 0x03, 0x15, 0xc1, 0xe0, 0x2b, 0xed,
  0xc9, 0xe0, 0xc1, 0x0e, 0xff, 0x04, 0xce, 0x3a, 0xd4, 0x09, 0x37, 0xe9,
  0x14, 0x02, 0xbe, 0xd6, 0xeb, 0x22, 0x2e, 0x4f, 0xcc, 0xee, 0x2b, 0xee,
  0xe0, 0x0d, 0x20, 0x0e, 0x3c, 0x1e, 0xd8, 0x2e, 0xe9, 0x2c, 0x2f, 0x35,
  0xce, 0x61, 0xe6, 0x18, 0x00, 0x4c, 0xde, 0x2d, 0xf0, 0x17, 0x44, 0x49,
  0xd2, 0x65, 0x22, 0x34, 0xf9, 0x2d, 0xd2, 0x40, 0xf8, 0x0a, 0xf6, 0x05,
  0xca, 0x49, 0x00, 0xe1, 0x2d, 0x06, 0x37, 0x14, 0xfd, 0xb8, 0xec, 0xf1,
  0x01, 0x03, 0xd8, 0xdf, 0xd6, 0x08, 0x41, 0x47, 0x05, 0xa8, 0xd7, 0xc8,
  0xd9, 0x48, 0xe9, 0xc9, 0x28, 0x20, 0x26, 0x2d, 0x0e, 0xc5, 0xd9, 0x20,
  0x1d, 0x5a, 0x2d, 0xd7, 0x48, 0xed, 0xdc, 0x13, 0x26, 0xd2, 0x06, 0xf6,
  0x27, 0xff, 0x0a, 0xfa, 0xe7, 0x3f, 0x05, 0x29, 0xfa, 0xde, 0xe1, 0x18,
  0x22, 0x24, 0x0e, 0xef, 0xf4, 0x26, 0x06, 0xfd, 0xd8, 0xcb, 0x25, 0xd7,
  0xe5, 0x27, 0x12, 0xfe, 0xe2, 0xdf, 0xca, 0x60, 0x0a, 0xd7, 0x27, 0x08,
  0xf3, 0x38, 0x2c, 0xdd, 0x0f, 0xd6, 0xe7, 0x13, 0xf2, 0xde, 0x14, 0x1b,
  0xfb, 0xcb, 0x28, 0x13, 0x34, 0xea, 0xef, 0xe6, 0x29, 0x0a, 0xec, 0x0d,
  0xfe, 0xea, 0xf3, 0x10, 0x4a, 0x0d, 0xb0, 0xc3, 0xfb, 0x01, 0x32, 0x14,
  0xab, 0xda, 0xe4, 0xc3, 0xf2, 0xd8, 0xce, 0xfa, 0x1e, 0xe2, 0x08, 0xfb,
  0xea, 0x0f, 0xeb, 0x2f, 0xed, 0x40, 0xc0, 0x11, 0x0f, 0x2c, 0xef, 0x42,
  0xdb, 0x0b, 0x3b, 0xf0, 0x2f, 0x4f, 0xfe, 0xb8, 0x1f, 0x2c, 0x38, 0x41,
  0x0a, 0xd1, 0x39, 0x06, 0xfd, 0x19, 0xed, 0xdb, 0x44, 0xf6, 0xdc, 0x3f,
  0xc7, 0xdc, 0xe2, 0x02, 0x28, 0xff, 0xbe, 0x13, 0x0a, 0x35, 0x42, 0x10,
  0xd3, 0xe1, 0x21, 0x23, 0xe4, 0xec, 0x04, 0x1a, 0xcc, 0x0e, 0x1b, 0x2b,
  0x15, 0xf4, 0xfc, 0xf8, 0xcf, 0xd6, 0x34, 0xce, 0xd8, 0x07, 0x0e, 0xca,
  0xd8, 0xf4, 0x18, 0x24, 0x0c, 0xf0, 0xd2, 0xf5, 0x14, 0xf8, 0xf3, 0xe9,
  0xe1, 0xcd, 0xee, 0xe4, 0x05, 0xea, 0x28, 0x36, 0x10, 0x2c, 0xdc, 0x22,
  0x24, 0x15, 0x27, 0x00, 0xf9, 0xee, 0xcb, 0xe2, 0xd1, 0x36, 0x13, 0x35,
  0xd4, 0x02, 0xf2, 0xe6, 0x00, 0x27, 0x12, 0xd7, 0xf0, 0xf1, 0xfa, 0xf8,
  0xc9, 0x32, 0xe1, 0x22, 0xdb, 0x2a, 0x35, 0x1d, 0xce, 0xd9, 0x14, 0xf3,
  0x1f, 0xd0, 0x28, 0xf1, 0xea, 0xdd, 0x25, 0x22, 0xdc, 0xd1, 0x07, 0xee,
  0xf3, 0xee, 0xd9, 0xfb, 0x12, 0xd5, 0xe0, 0xf8, 0xd4, 0xcf, 0xdf, 0xce,
  0xd9, 0xe7, 0xd9, 0x0b, 0x17, 0xe9, 0x22, 0x0b, 0x2b, 0xef, 0x0e, 0x30,
  0xe0, 0xf5, 0xfe, 0xdb, 0x06, 0xde, 0x04, 0x0b, 0x1c, 0xe3, 0x03, 0x18,
  0xda, 0xed, 0x1e, 0xfe, 0xe0, 0xe3, 0xcc, 0x29, 0x12, 0xcb, 0x2a, 0x35,
  0xf2, 0xcc, 0x2f, 0xf6, 0x27, 0xd2, 0xf5, 0xeb, 0x2c, 0x2e, 0x00, 0x2d,
  0xf3, 0xe4, 0xdb, 0x27, 0xfe, 0x0d, 0x0e, 0xfd, 0xf2, 0xf6, 0xfa, 0x11,
  0x05, 0xca, 0x13, 0x07, 0xf3, 0xf2, 0x34, 0xca, 0xd6, 0x1c, 0x2a, 0xe2,
  0x1d, 0xde, 0xd5, 0x2f, 0xe2, 0xc9, 0x1f, 0xe8, 0xf5, 0xce, 0xf8, 0x09,
  0x19, 0xe9, 0xe4, 0xf3, 0x02, 0xd0, 0x1e, 0xe8, 0x17, 0xf5, 0xd2, 0xfe,
  0x16, 0xe4, 0xfe, 0xfb, 0xd2, 0xdb, 0xec, 0xf6, 0xfd, 0x17, 0xe5, 0xe8,
  0xcd, 0xf0, 0x23, 0xcf, 0xd6, 0xd2, 0xe6, 0x1f, 0x2e, 0xff, 0xd3, 0xee,
  0xe8, 0xd1, 0x33, 0x21, 0xd4, 0x18, 0x05, 0xe0, 0x12, 0xe7, 0xcb, 0x16,
  0x25, 0xcf, 0xf2, 0xfd, 0xd8, 0x19, 0x2c, 0x18, 0x07, 0x11, 0xd9, 0xf5,
  0xda, 0x35, 0x26, 0x22, 0x0c, 0xd5, 0x36, 0xd7, 0x00, 0x04, 0x28, 0x0e,
  0x32, 0x14, 0xd4, 0x05, 0x10, 0xf0, 0x15, 0xf2, 0x1a, 0x1f, 0x06, 0xfd,
  0x3a, 0xfd, 0xff, 0xff, 0x04, 0x00, 0x00, 0x00, 0x80, 0x00, 0x00, 0x00,
  0x00, 0x00, 0x00, 0x00, 0x97, 0x16, 0x00, 0x00, 0xe2, 0x04, 0x00, 0x00,
  0x00, 0x00, 0x00, 0x00, 0x14, 0xfd, 0xff, 0xff, 0xe8, 0xf5, 0xff, 0xff,
  0xde, 0xf3, 0xff, 0xff, 0xf2, 0x04, 0x00, 0x00, 0xad, 0x02, 0x00, 0x00,
  0x87, 0xfe, 0xff, 0xff, 0x00, 0x00, 0x00, 0x00, 0x24, 0xf9, 0xff, 0xff,
  0x4d, 0x1b, 0x00, 0x00, 0x9e, 0x0f, 0x00, 0x00, 0x34, 0x0e, 0x00, 0x00,
  0x76, 0xf6, 0xff, 0xff, 0x00, 0x00, 0x00, 0x00, 0xd0, 0x03, 0x00, 0x00,
  0x00, 0x00, 0x00, 0x00, 0x00, 0x00, 0x00, 0x00, 0x3e, 0xfe, 0xff, 0xff,
  0x74, 0x1f, 0x00, 0x00, 0x67, 0x10, 0x00, 0x00, 0x0f, 0xfe, 0xff, 0xff,
  0xaf, 0xef, 0xff, 0xff, 0xe0, 0xf0, 0xff, 0xff, 0xe2, 0x16, 0x00, 0x00,
  0xed, 0x05, 0x00, 0x00, 0x69, 0x0d, 0x00, 0x00, 0x00, 0x00, 0x00, 0x00,
  0x00, 0x00, 0x00, 0x00, 0x00, 0x00, 0x00, 0x00, 0xc6, 0xfd, 0xff, 0xff,
  0x04, 0x00, 0x00, 0x00, 0x00, 0x01, 0x00, 0x00, 0xfd, 0x32, 0x5b, 0x1f,
  0xe9, 0xfc, 0xcd, 0x51, 0xe0, 0x04, 0xe7, 0x0f, 0x43, 0xd4, 0x2e, 0xef,
  0x39, 0xb0, 0xc7, 0x1a, 0xd2, 0x1a, 0x7f, 0xfe, 0x8e, 0xb2, 0x21, 0xd6,
  0x3e, 0x1b, 0x15, 0xc9, 0x3a, 0x19, 0x8a, 0xe2, 0x30, 0x6b, 0x5a, 0xb8,
  0xbd, 0x1a, 0xc8, 0x25, 0x66, 0xea, 0x61, 0x64, 0xc6, 0x16, 0xcf, 0x06,
  0xd1, 0x39, 0xd0, 0xdb, 0x2c, 0x5c, 0xd4, 0xe5, 0xf0, 0x29, 0xcd, 0x00,
  0xfd, 0xdf, 0x63, 0x35, 0x17, 0xdf, 0x4e, 0x63, 0x04, 0xf4, 0x2e, 0x24,
  0x0d, 0xf1, 0xc0, 0x28, 0xec, 0x18, 0xfb, 0xd1, 0x2b, 0x10, 0x30, 0xf0,
  0x11, 0x43, 0xfc, 0xd9, 0xc2, 0x03, 0x25, 0x2b, 0xcf, 0xd8, 0x49, 0xc6,
  0xf1, 0xe4, 0xe8, 0x76, 0x2a, 0x37, 0x2f, 0xf9, 0xe3, 0x39, 0xdb, 0xc8,
  0x2a, 0x4f, 0xdc, 0xd9, 0xdf, 0x0f, 0x6a, 0xd4, 0x3c, 0x49, 0x3e, 0x29,
  0xb9, 0x2c, 0xdf, 0xf2, 0xdc, 0x4a, 0x04, 0x1c, 0x36, 0xe6, 0xdd, 0xc7,
  0x3b, 0x11, 0xcc, 0x10, 0x27, 0x55, 0xcf, 0xed, 0x15, 0x23, 0x24, 0x03,
  0x22, 0x12, 0x02, 0x39, 0xec, 0xcb, 0x39, 0x46, 0x41, 0x01, 0x38, 0xd4,
  0x2f, 0x22, 0x17, 0xd4, 0x21, 0xc5, 0xea, 0x46, 0xd2, 0x05, 0x0c, 0xde,
  0x4c, 0x21, 0x1a, 0xc8, 0xc8, 0xf1, 0xd1, 0xcd, 0xc5, 0xfa, 0x6a, 0xdc,
  0xe7, 0xb9, 0xf8, 0xaf, 0x2c, 0x0e, 0x2e, 0xf1, 0xe8, 0xe6, 0x20, 0xc8,
  0xff, 0x1a, 0xd3, 0x0a, 0x06, 0xce, 0xee, 0xe7, 0x0c, 0x06, 0xd2, 0xe4,
  0x1c, 0x33, 0x39, 0xdc, 0xe4, 0xc9, 0xe3, 0x14, 0x01, 0x05, 0xfa, 0xd2,
  0xd4, 0x39, 0xfa, 0x11, 0xea, 0xcb, 0x02, 0xe3, 0x08, 0x25, 0x3b, 0x2a,
  0x2d, 0xf9, 0xf8, 0x22, 0x34, 0xf6, 0xfb, 0x29, 0x02, 0x0d, 0xf9, 0x23,
  0xd3, 0xc4, 0x27, 0xee, 0x38, 0x4d, 0xe7, 0xaf, 0x13, 0x27, 0x21, 0xe1,
  0xd2, 0xfe, 0xff, 0xff, 0x04, 0x00, 0x00, 0x00, 0x20, 0x00, 0x00, 0x00,
  0xcb, 0x01, 0x00, 0x00, 0xeb, 0x01, 0x00, 0x00, 0x4a, 0xff, 0xff, 0xff,
  0x43, 0x00, 0x00, 0x00, 0x35, 0x03, 0x00, 0x00, 0x30, 0x01, 0x00, 0x00,
  0x51, 0xff, 0xff, 0xff, 0x16, 0xfe, 0xff, 0xff, 0xfe, 0xfe, 0xff, 0xff,
  0x04, 0x00, 0x00, 0x00, 0x20, 0x00, 0x00, 0x00, 0xa4, 0x1c, 0x45, 0xf0,
  0xd1, 0x9d, 0xf3, 0x45, 0xd4, 0xa1, 0x16, 0x1a, 0x58, 0xcd, 0xf1, 0xb7,
  0x2d, 0xc0, 0x2b, 0xf0, 0xe4, 0x22, 0x18, 0x1a, 0x19, 0xff, 0x97, 0x81,
  0x35, 0x32, 0x42, 0xa9, 0x2a, 0xff, 0xff, 0xff, 0x04, 0x00, 0x00, 0x00,
  0x10, 0x00, 0x00, 0x00, 0xca, 0xff, 0xff, 0xff, 0xaf, 0x00, 0x00, 0x00,
  0x7d, 0xfe, 0xff, 0xff, 0xc8, 0x00, 0x00, 0x00, 0xb8, 0xf7, 0xff, 0xff,
  0xbc, 0xf7, 0xff, 0xff, 0x0f, 0x00, 0x00, 0x00, 0x4d, 0x4c, 0x49, 0x52,
  0x20, 0x43, 0x6f, 0x6e, 0x76, 0x65, 0x72, 0x74, 0x65, 0x64, 0x2e, 0x00,
  0x01, 0x00, 0x00, 0x00, 0x14, 0x00, 0x00, 0x00, 0x00, 0x00, 0x0e, 0x00,
  0x18, 0x00, 0x14, 0x00, 0x10, 0x00, 0x0c, 0x00, 0x08, 0x00, 0x04, 0x00,
  0x0e, 0x00, 0x00, 0x00, 0x14, 0x00, 0x00, 0x00, 0x1c, 0x00, 0x00, 0x00,
  0x7c, 0x01, 0x00, 0x00, 0x80, 0x01, 0x00, 0x00, 0x84, 0x01, 0x00, 0x00,
  0x04, 0x00, 0x00, 0x00, 0x6d, 0x61, 0x69, 0x6e, 0x00, 0x00, 0x00, 0x00,
  0x06, 0x00, 0x00, 0x00, 0x44, 0x01, 0x00, 0x00, 0xf4, 0x00, 0x00, 0x00,
  0xa8, 0x00, 0x00, 0x00, 0x70, 0x00, 0x00, 0x00, 0x34, 0x00, 0x00, 0x00,
  0x10, 0x00, 0x00, 0x00, 0x00, 0x00, 0x0a, 0x00, 0x10, 0x00, 0x0c, 0x00,
  0x08, 0x00, 0x04, 0x00, 0x0a, 0x00, 0x00, 0x00, 0x0c, 0x00, 0x00, 0x00,
  0x10, 0x00, 0x00, 0x00, 0x03, 0x00, 0x00, 0x00, 0x01, 0x00, 0x00, 0x00,
  0x0c, 0x00, 0x00, 0x00, 0x01, 0x00, 0x00, 0x00, 0x0b, 0x00, 0x00, 0x00,
  0x5a, 0xff, 0xff, 0xff, 0x1c, 0x00, 0x00, 0x00, 0x00, 0x00, 0x00, 0x09,
  0x1c, 0x00, 0x00, 0x00, 0x20, 0x00, 0x00, 0x00, 0x02, 0x00, 0x00, 0x00,
  0x00, 0x00, 0x06, 0x00, 0x08, 0x00, 0x04, 0x00, 0x06, 0x00, 0x00, 0x00,
  0x00, 0x00, 0x80, 0x3f, 0x01, 0x00, 0x00, 0x00, 0x0b, 0x00, 0x00, 0x00,
  0x01, 0x00, 0x00, 0x00, 0x0a, 0x00, 0x00, 0x00, 0x92, 0xff, 0xff, 0xff,
  0x14, 0x00, 0x00, 0x00, 0x00, 0x00, 0x00, 0x08, 0x10, 0x00, 0x00, 0x00,
  0x14, 0x00, 0x00, 0x00, 0x01, 0x00, 0x00, 0x00, 0xa8, 0xf8, 0xff, 0xff,
  0x01, 0x00, 0x00, 0x00, 0x0a, 0x00, 0x00, 0x00, 0x03, 0x00, 0x00, 0x00,
  0x09, 0x00, 0x00, 0x00, 0x02, 0x00, 0x00, 0x00, 0x01, 0x00, 0x00, 0x00,
  0xc6, 0xff, 0xff, 0xff, 0x14, 0x00, 0x00, 0x00, 0x00, 0x00, 0x00, 0x08,
  0x14, 0x00, 0x00, 0x00, 0x18, 0x00, 0x00, 0x00, 0x01, 0x00, 0x00, 0x00,
  0xb6, 0xff, 0xff, 0xff, 0x00, 0x00, 0x00, 0x01, 0x01, 0x00, 0x00, 0x00,
  0x09, 0x00, 0x00, 0x00, 0x03, 0x00, 0x00, 0x00, 0x08, 0x00, 0x00, 0x00,
  0x04, 0x00, 0x00, 0x00, 0x03, 0x00, 0x00, 0x00, 0x00, 0x00, 0x0e, 0x00,
  0x1a, 0x00, 0x14, 0x00, 0x10, 0x00, 0x0c, 0x00, 0x0b, 0x00, 0x04, 0x00,
  0x0e, 0x00, 0x00, 0x00, 0x1c, 0x00, 0x00, 0x00, 0x00, 0x00, 0x00, 0x08,
  0x1c, 0x00, 0x00, 0x00, 0x20, 0x00, 0x00, 0x00, 0x01, 0x00, 0x00, 0x00,
  0x00, 0x00, 0x06, 0x00, 0x08, 0x00, 0x07, 0x00, 0x06, 0x00, 0x00, 0x00,
  0x00, 0x00, 0x00, 0x01, 0x01, 0x00, 0x00, 0x00, 0x08, 0x00, 0x00, 0x00,
  0x03, 0x00, 0x00, 0x00, 0x07, 0x00, 0x00, 0x00, 0x06, 0x00, 0x00, 0x00,
  0x05, 0x00, 0x00, 0x00, 0x00, 0x00, 0x0a, 0x00, 0x0c, 0x00, 0x00, 0x00,
  0x08, 0x00, 0x04, 0x00, 0x0a, 0x00, 0x00, 0x00, 0x08, 0x00, 0x00, 0x00,
  0x0c, 0x00, 0x00, 0x00, 0x01, 0x00, 0x00, 0x00, 0x07, 0x00, 0x00, 0x00,
  0x01, 0x00, 0x00, 0x00, 0x00, 0x00, 0x00, 0x00, 0x01, 0x00, 0x00, 0x00,
  0x0c, 0x00, 0x00, 0x00, 0x01, 0x00, 0x00, 0x00, 0x00, 0x00, 0x00, 0x00,
  0x0d, 0x00, 0x00, 0x00, 0x50, 0x06, 0x00, 0x00, 0xb4, 0x05, 0x00, 0x00,
  0x2c, 0x05, 0x00, 0x00, 0xb0, 0x04, 0x00, 0x00, 0x44, 0x04, 0x00, 0x00,
  0xd0, 0x03, 0x00, 0x00, 0x64, 0x03, 0x00, 0x00, 0xf0, 0x02, 0x00, 0x00,
  0x2c, 0x02, 0x00, 0x00, 0x78, 0x01, 0x00, 0x00, 0xdc, 0x00, 0x00, 0x00,
  0x60, 0x00, 0x00, 0x00, 0x04, 0x00, 0x00, 0x00, 0xfa, 0xf9, 0xff, 0xff,
  0x00, 0x00, 0x00, 0x01, 0x14, 0x00, 0x00, 0x00, 0x1c, 0x00, 0x00, 0x00,
  0x1c, 0x00, 0x00, 0x00, 0x0d, 0x00, 0x00, 0x00, 0x34, 0x00, 0x00, 0x00,
  0x02, 0x00, 0x00, 0x00, 0xff, 0xff, 0xff, 0xff, 0x04, 0x00, 0x00, 0x00,
  0xe4, 0xf9, 0xff, 0xff, 0x19, 0x00, 0x00, 0x00, 0x53, 0x74, 0x61, 0x74,
  0x65, 0x66, 0x75, 0x6c, 0x50, 0x61, 0x72, 0x74, 0x69, 0x74, 0x69, 0x6f,
  0x6e, 0x65, 0x64, 0x43, 0x61, 0x6c, 0x6c, 0x3a, 0x30, 0x00, 0x00, 0x00,
  0x02, 0x00, 0x00, 0x00, 0x01, 0x00, 0x00, 0x00, 0x04, 0x00, 0x00, 0x00,
  0x96, 0xfd, 0xff, 0xff, 0x00, 0x00, 0x00, 0x01, 0x18, 0x00, 0x00, 0x00,
  0x20, 0x00, 0x00, 0x00, 0x3c, 0x00, 0x00, 0x00, 0x0c, 0x00, 0x00, 0x00,
  0x00, 0x00, 0x00, 0x09, 0x50, 0x00, 0x00, 0x00, 0x02, 0x00, 0x00, 0x00,
  0xff, 0xff, 0xff, 0xff, 0x04, 0x00, 0x00, 0x00, 0xe4, 0xfa, 0xff, 0xff,
  0x08, 0x00, 0x00, 0x00, 0x10, 0x00, 0x00, 0x00, 0x01, 0x00, 0x00, 0x00,
  0x80, 0xff, 0xff, 0xff, 0xff, 0xff, 0xff, 0xff, 0x01, 0x00, 0x00, 0x00,
  0x00, 0x00, 0x80, 0x3b, 0x1a, 0x00, 0x00, 0x00, 0x53, 0x74, 0x61, 0x74,
  0x65, 0x66, 0x75, 0x6c, 0x50, 0x61, 0x72, 0x74, 0x69, 0x74, 0x69, 0x6f,
  0x6e, 0x65, 0x64, 0x43, 0x61, 0x6c, 0x6c, 0x3a, 0x30, 0x31, 0x00, 0x00,
  0x02, 0x00, 0x00, 0x00, 0x01, 0x00, 0x00, 0x00, 0x04, 0x00, 0x00, 0x00,
  0x0e, 0xfe, 0xff, 0xff, 0x00, 0x00, 0x00, 0x01, 0x18, 0x00, 0x00, 0x00,
  0x20, 0x00, 0x00, 0x00, 0x40, 0x00, 0x00, 0x00, 0x0b, 0x00, 0x00, 0x00,
  0x00, 0x00, 0x00, 0x09, 0x70, 0x00, 0x00, 0x00, 0x02, 0x00, 0x00, 0x00,
  0xff, 0xff, 0xff, 0xff, 0x04, 0x00, 0x00, 0x00, 0x5c, 0xfb, 0xff, 0xff,
  0x08, 0x00, 0x00, 0x00, 0x14, 0x00, 0x00, 0x00, 0x01, 0x00, 0x00, 0x00,
  0x15, 0x00, 0x00, 0x00, 0x00, 0x00, 0x00, 0x00, 0x00, 0x00, 0x00, 0x00,
  0x01, 0x00, 0x00, 0x00, 0xe6, 0xad, 0xa4, 0x3d, 0x34, 0x00, 0x00, 0x00,
  0x73, 0x65, 0x71, 0x75, 0x65, 0x6e, 0x74, 0x69, 0x61, 0x6c, 0x2f, 0x64,
  0x65, 0x6e, 0x73, 0x65, 0x5f, 0x32, 0x2f, 0x4d, 0x61, 0x74, 0x4d, 0x75,
  0x6c, 0x3b, 0x73, 0x65, 0x71, 0x75, 0x65, 0x6e, 0x74, 0x69, 0x61, 0x6c,
  0x2f, 0x64, 0x65, 0x6e, 0x73, 0x65, 0x5f, 0x32, 0x2f, 0x42, 0x69, 0x61,
  0x73, 0x41, 0x64, 0x64, 0x00, 0x00, 0x00, 0x00, 0x02, 0x00, 0x00, 0x00,
  0x01, 0x00, 0x00, 0x00, 0x04, 0x00, 0x00, 0x00, 0xa6, 0xfe, 0xff, 0xff,
  0x00, 0x00, 0x00, 0x01, 0x18, 0x00, 0x00, 0x00, 0x20, 0x00, 0x00, 0x00,
  0x40, 0x00, 0x00, 0x00, 0x0a, 0x00, 0x00, 0x00, 0x00, 0x00, 0x00, 0x09,
  0x88, 0x00, 0x00, 0x00, 0x02, 0x00, 0x00, 0x00, 0xff, 0xff, 0xff, 0xff,
  0x08, 0x00, 0x00, 0x00, 0xf4, 0xfb, 0xff, 0xff, 0x08, 0x00, 0x00, 0x00,
  0x14, 0x00, 0x00, 0x00, 0x01, 0x00, 0x00, 0x00, 0x80, 0xff, 0xff, 0xff,
  0xff, 0xff, 0xff, 0xff, 0x00, 0x00, 0x00, 0x00, 0x01, 0x00, 0x00, 0x00,
  0x14, 0x7c, 0x16, 0x3d, 0x4c, 0x00, 0x00, 0x00, 0x73, 0x65, 0x71, 0x75,
  0x65, 0x6e, 0x74, 0x69, 0x61, 0x6c, 0x2f, 0x64, 0x65, 0x6e, 0x73, 0x65,
  0x5f, 0x31, 0x2f, 0x4d, 0x61, 0x74, 0x4d, 0x75, 0x6c, 0x3b, 0x73, 0x65,
  0x71, 0x75, 0x65, 0x6e, 0x74, 0x69, 0x61, 0x6c, 0x2f, 0x64, 0x65, 0x6e,
  0x73, 0x65, 0x5f, 0x31, 0x2f, 0x52, 0x65, 0x6c, 0x75, 0x3b, 0x73, 0x65,
  0x71, 0x75, 0x65, 0x6e, 0x74, 0x69, 0x61, 0x6c, 0x2f, 0x64, 0x65, 0x6e,
  0x73, 0x65, 0x5f, 0x31, 0x2f, 0x42, 0x69, 0x61, 0x73, 0x41, 0x64, 0x64,
  0x00, 0x00, 0x00, 0x00, 0x02, 0x00, 0x00, 0x00, 0x01, 0x00, 0x00, 0x00,
  0x08, 0x00, 0x00, 0x00, 0x56, 0xff, 0xff, 0xff, 0x00, 0x00, 0x00, 0x01,
  0x18, 0x00, 0x00, 0x00, 0x20, 0x00, 0x00, 0x00, 0x40, 0x00, 0x00, 0x00,
  0x09, 0x00, 0x00, 0x00, 0x00, 0x00, 0x00, 0x09, 0x80, 0x00, 0x00, 0x00,
  0x02, 0x00, 0x00, 0x00, 0xff, 0xff, 0xff, 0xff, 0x20, 0x00, 0x00, 0x00,
  0xa4, 0xfc, 0xff, 0xff, 0x08, 0x00, 0x00, 0x00, 0x14, 0x00, 0x00, 0x00,
  0x01, 0x00, 0x00, 0x00, 0x80, 0xff, 0xff, 0xff, 0xff, 0xff, 0xff, 0xff,
  0x00, 0x00, 0x00, 0x00, 0x01, 0x00, 0x00, 0x00, 0x97, 0x43, 0x9a, 0x3c,
  0x46, 0x00, 0x00, 0x00, 0x73, 0x65, 0x71, 0x75, 0x65, 0x6e, 0x74, 0x69,
  0x61, 0x6c, 0x2f, 0x64, 0x65, 0x6e, 0x73, 0x65, 0x2f, 0x4d, 0x61, 0x74,
  0x4d, 0x75, 0x6c, 0x3b, 0x73, 0x65, 0x71, 0x75, 0x65, 0x6e, 0x74, 0x69,
  0x61, 0x6c, 0x2f, 0x64, 0x65, 0x6e, 0x73, 0x65, 0x2f, 0x52, 0x65, 0x6c,
  0x75, 0x3b, 0x73, 0x65, 0x71, 0x75, 0x65, 0x6e, 0x74, 0x69, 0x61, 0x6c,
  0x2f, 0x64, 0x65, 0x6e, 0x73, 0x65, 0x2f, 0x42, 0x69, 0x61, 0x73, 0x41,
  0x64, 0x64, 0x00, 0x00, 0x02, 0x00, 0x00, 0x00, 0x01, 0x00, 0x00, 0x00,
  0x20, 0x00, 0x00, 0x00, 0x00, 0x00, 0x16, 0x00, 0x20, 0x00, 0x1c, 0x00,
  0x1b, 0x00, 0x14, 0x00, 0x10, 0x00, 0x0c, 0x00, 0x00, 0x00, 0x00, 0x00,
  0x08, 0x00, 0x07, 0x00, 0x16, 0x00, 0x00, 0x00, 0x00, 0x00, 0x00, 0x01,
  0x18, 0x00, 0x00, 0x00, 0x20, 0x00, 0x00, 0x00, 0x40, 0x00, 0x00, 0x00,
  0x08, 0x00, 0x00, 0x00, 0x00, 0x00, 0x00, 0x09, 0x48, 0x00, 0x00, 0x00,
  0x02, 0x00, 0x00, 0x00, 0xff, 0xff, 0xff, 0xff, 0x5a, 0x00, 0x00, 0x00,
  0x64, 0xfd, 0xff, 0xff, 0x08, 0x00, 0x00, 0x00, 0x14, 0x00, 0x00, 0x00,
  0x01, 0x00, 0x00, 0x00, 0x80, 0xff, 0xff, 0xff, 0xff, 0xff, 0xff, 0xff,
  0x00, 0x00, 0x00, 0x00, 0x01, 0x00, 0x00, 0x00, 0x81, 0x80, 0x80, 0x3b,
  0x0c, 0x00, 0x00, 0x00, 0x74, 0x66, 0x6c, 0x2e, 0x71, 0x75, 0x61, 0x6e,
  0x74, 0x69, 0x7a, 0x65, 0x00, 0x00, 0x00, 0x00, 0x02, 0x00, 0x00, 0x00,
  0x01, 0x00, 0x00, 0x00, 0x5a, 0x00, 0x00, 0x00, 0xda, 0xfd, 0xff, 0xff,
  0x00, 0x00, 0x00, 0x01, 0x14, 0x00, 0x00, 0x00, 0x34, 0x00, 0x00, 0x00,
  0x07, 0x00, 0x00, 0x00, 0x00, 0x00, 0x00, 0x09, 0x44, 0x00, 0x00, 0x00,
  0xc4, 0xfd, 0xff, 0xff, 0x08, 0x00, 0x00, 0x00, 0x14, 0x00, 0x00, 0x00,
  0x01, 0x00, 0x00, 0x00, 0x00, 0x00, 0x00, 0x00, 0x00, 0x00, 0x00, 0x00,
  0x00, 0x00, 0x00, 0x00, 0x01, 0x00, 0x00, 0x00, 0x59, 0x03, 0x85, 0x3b,
  0x17, 0x00, 0x00, 0x00, 0x73, 0x65, 0x71, 0x75, 0x65, 0x6e, 0x74, 0x69,
  0x61, 0x6c, 0x2f, 0x64, 0x65, 0x6e, 0x73, 0x65, 0x2f, 0x4d, 0x61, 0x74,
  0x4d, 0x75, 0x6c, 0x00, 0x02, 0x00, 0x00, 0x00, 0x20, 0x00, 0x00, 0x00,
  0x5a, 0x00, 0x00, 0x00, 0x42, 0xfe, 0xff, 0xff, 0x00, 0x00, 0x00, 0x01,
  0x14, 0x00, 0x00, 0x00, 0x30, 0x00, 0x00, 0x00, 0x06, 0x00, 0x00, 0x00,
  0x00, 0x00, 0x00, 0x02, 0x50, 0x00, 0x00, 0x00, 0x2c, 0xfe, 0xff, 0xff,
  0x08, 0x00, 0x00, 0x00, 0x10, 0x00, 0x00, 0x00, 0x01, 0x00, 0x00, 0x00,
  0x00, 0x00, 0x00, 0x00, 0x00, 0x00, 0x00, 0x00, 0x01, 0x00, 0x00, 0x00,
  0xe2, 0x88, 0x85, 0x37, 0x27, 0x00, 0x00, 0x00, 0x73, 0x65, 0x71, 0x75,
  0x65, 0x6e, 0x74, 0x69, 0x61, 0x6c, 0x2f, 0x64, 0x65, 0x6e, 0x73, 0x65,
  0x2f, 0x42, 0x69, 0x61, 0x73, 0x41, 0x64, 0x64, 0x2f, 0x52, 0x65, 0x61,
  0x64, 0x56, 0x61, 0x72, 0x69, 0x61, 0x62, 0x6c, 0x65, 0x4f, 0x70, 0x00,
  0x01, 0x00, 0x00, 0x00, 0x20, 0x00, 0x00, 0x00, 0xb2, 0xfe, 0xff, 0xff,
  0x00, 0x00, 0x00, 0x01, 0x14, 0x00, 0x00, 0x00, 0x30, 0x00, 0x00, 0x00,
  0x05, 0x00, 0x00, 0x00, 0x00, 0x00, 0x00, 0x09, 0x44, 0x00, 0x00, 0x00,
  0x9c, 0xfe, 0xff, 0xff, 0x08, 0x00, 0x00, 0x00, 0x10, 0x00, 0x00, 0x00,
  0x01, 0x00, 0x00, 0x00, 0x00, 0x00, 0x00, 0x00, 0x00, 0x00, 0x00, 0x00,
  0x01, 0x00, 0x00, 0x00, 0x93, 0x6e, 0xd7, 0x3b, 0x19, 0x00, 0x00, 0x00,
  0x73, 0x65, 0x71, 0x75, 0x65, 0x6e, 0x74, 0x69, 0x61, 0x6c, 0x2f, 0x64,
  0x65, 0x6e, 0x73, 0x65, 0x5f, 0x31, 0x2f, 0x4d, 0x61, 0x74, 0x4d, 0x75,
  0x6c, 0x00, 0x00, 0x00, 0x02, 0x00, 0x00, 0x00, 0x08, 0x00, 0x00, 0x00,
  0x20, 0x00, 0x00, 0x00, 0x1a, 0xff, 0xff, 0xff, 0x00, 0x00, 0x00, 0x01,
  0x14, 0x00, 0x00, 0x00, 0x34, 0x00, 0x00, 0x00, 0x04, 0x00, 0x00, 0x00,
  0x00, 0x00, 0x00, 0x02, 0x58, 0x00, 0x00, 0x00, 0x04, 0xff, 0xff, 0xff,
  0x08, 0x00, 0x00, 0x00, 0x14, 0x00, 0x00, 0x00, 0x01, 0x00, 0x00, 0x00,
  0x00, 0x00, 0x00, 0x00, 0x00, 0x00, 0x00, 0x00, 0x00, 0x00, 0x00, 0x00,
  0x01, 0x00, 0x00, 0x00, 0x65, 0xd1, 0x01, 0x39, 0x29, 0x00, 0x00, 0x00,
  0x73, 0x65, 0x71, 0x75, 0x65, 0x6e, 0x74, 0x69, 0x61, 0x6c, 0x2f, 0x64,
  0x65, 0x6e, 0x73, 0x65, 0x5f, 0x31, 0x2f, 0x42, 0x69, 0x61, 0x73, 0x41,
  0x64, 0x64, 0x2f, 0x52, 0x65, 0x61, 0x64, 0x56, 0x61, 0x72, 0x69, 0x61,
  0x62, 0x6c, 0x65, 0x4f, 0x70, 0x00, 0x00, 0x00, 0x01, 0x00, 0x00, 0x00,
  0x08, 0x00, 0x00, 0x00, 0x92, 0xff, 0xff, 0xff, 0x00, 0x00, 0x00, 0x01,
  0x14, 0x00, 0x00, 0x00, 0x34, 0x00, 0x00, 0x00, 0x03, 0x00, 0x00, 0x00,
  0x00, 0x00, 0x00, 0x09, 0x48, 0x00, 0x00, 0x00, 0x7c, 0xff, 0xff, 0xff,
  0x08, 0x00, 0x00, 0x00, 0x14, 0x00, 0x00, 0x00, 0x01, 0x00, 0x00, 0x00,
  0x00, 0x00, 0x00, 0x00, 0x00, 0x00, 0x00, 0x00, 0x00, 0x00, 0x00, 0x00,
  0x01, 0x00, 0x00, 0x00, 0x8e, 0x9e, 0x2a, 0x3c, 0x19, 0x00, 0x00, 0x00,
  0x73, 0x65, 0x71, 0x75, 0x65, 0x6e, 0x74, 0x69, 0x61, 0x6c, 0x2f, 0x64,
  0x65, 0x6e, 0x73, 0x65, 0x5f, 0x32, 0x2f, 0x4d, 0x61, 0x74, 0x4d, 0x75,
  0x6c, 0x00, 0x00, 0x00, 0x02, 0x00, 0x00, 0x00, 0x04, 0x00, 0x00, 0x00,
  0x08, 0x00, 0x00, 0x00, 0x00, 0x00, 0x16, 0x00, 0x1c, 0x00, 0x18, 0x00,
  0x17, 0x00, 0x10, 0x00, 0x0c, 0x00, 0x08, 0x00, 0x00, 0x00, 0x00, 0x00,
  0x00, 0x00, 0x07, 0x00, 0x16, 0x00, 0x00, 0x00, 0x00, 0x00, 0x00, 0x01,
  0x20, 0x00, 0x00, 0x00, 0x3c, 0x00, 0x00, 0x00, 0x02, 0x00, 0x00, 0x00,
  0x00, 0x00, 0x00, 0x02, 0x60, 0x00, 0x00, 0x00, 0x0c, 0x00, 0x0c, 0x00,
  0x00, 0x00, 0x00, 0x00, 0x08, 0x00, 0x04, 0x00, 0x0c, 0x00, 0x00, 0x00,
  0x08, 0x00, 0x00, 0x00, 0x10, 0x00, 0x00, 0x00, 0x01, 0x00, 0x00, 0x00,
  0x00, 0x00, 0x00, 0x00, 0x00, 0x00, 0x00, 0x00, 0x01, 0x00, 0x00, 0x00,
  0x33, 0x97, 0xc8, 0x39, 0x29, 0x00, 0x00, 0x00, 0x73, 0x65, 0x71, 0x75,
  0x65, 0x6e, 0x74, 0x69, 0x61, 0x6c, 0x2f, 0x64, 0x65, 0x6e, 0x73, 0x65,
  0x5f, 0x32, 0x2f, 0x42, 0x69, 0x61, 0x73, 0x41, 0x64, 0x64, 0x2f, 0x52,
  0x65, 0x61, 0x64, 0x56, 0x61, 0x72, 0x69, 0x61, 0x62, 0x6c, 0x65, 0x4f,
  0x70, 0x00, 0x00, 0x00, 0x01, 0x00, 0x00, 0x00, 0x04, 0x00, 0x00, 0x00,
  0x00, 0x00, 0x16, 0x00, 0x1c, 0x00, 0x18, 0x00, 0x00, 0x00, 0x14, 0x00,
  0x10, 0x00, 0x0c, 0x00, 0x00, 0x00, 0x00, 0x00, 0x08, 0x00, 0x07, 0x00,
  0x16, 0x00, 0x00, 0x00, 0x00, 0x00, 0x00, 0x01, 0x14, 0x00, 0x00, 0x00,
  0x20, 0x00, 0x00, 0x00, 0x20, 0x00, 0x00, 0x00, 0x01, 0x00, 0x00, 0x00,
  0x3c, 0x00, 0x00, 0x00, 0x02, 0x00, 0x00, 0x00, 0xff, 0xff, 0xff, 0xff,
  0x5a, 0x00, 0x00, 0x00, 0x04, 0x00, 0x04, 0x00, 0x04, 0x00, 0x00, 0x00,
  0x1d, 0x00, 0x00, 0x00, 0x73, 0x65, 0x72, 0x76, 0x69, 0x6e, 0x67, 0x5f,
  0x64, 0x65, 0x66, 0x61, 0x75, 0x6c, 0x74, 0x5f, 0x64, 0x65, 0x6e, 0x73,
  0x65, 0x5f, 0x69, 0x6e, 0x70, 0x75, 0x74, 0x3a, 0x30, 0x00, 0x00, 0x00,
  0x02, 0x00, 0x00, 0x00, 0x01, 0x00, 0x00, 0x00, 0x5a, 0x00, 0x00, 0x00,
  0x04, 0x00, 0x00, 0x00, 0x58, 0x00, 0x00, 0x00, 0x38, 0x00, 0x00, 0x00,
  0x18, 0x00, 0x00, 0x00, 0x04, 0x00, 0x00, 0x00, 0xe0, 0xff, 0xff, 0xff,
  0x06, 0x00, 0x00, 0x00, 0x02, 0x00, 0x00, 0x00, 0x00, 0x00, 0x00, 0x06,
  0xf0, 0xff, 0xff, 0xff, 0x19, 0x00, 0x00, 0x00, 0x02, 0x00, 0x00, 0x00,
  0x00, 0x00, 0x00, 0x19, 0x0c, 0x00, 0x10, 0x00, 0x0f, 0x00, 0x00, 0x00,
  0x08, 0x00, 0x04, 0x00, 0x0c, 0x00, 0x00, 0x00, 0x09, 0x00, 0x00, 0x00,
  0x04, 0x00, 0x00, 0x00, 0x00, 0x00, 0x00, 0x09, 0x0c, 0x00, 0x0c, 0x00,
  0x0b, 0x00, 0x00, 0x00, 0x00, 0x00, 0x04, 0x00, 0x0c, 0x00, 0x00, 0x00,
  0x72, 0x00, 0x00, 0x00, 0x00, 0x00, 0x00, 0x72
}; 
