const unsigned char gesture_model [] = {  
  0x1c, 0x00, 0x00, 0x00, 0x54, 0x46, 0x4c, 0x33, 0x14, 0x00, 0x20, 0x00,
  0x1c, 0x00, 0x18, 0x00, 0x14, 0x00, 0x10, 0x00, 0x0c, 0x00, 0x00, 0x00,
  0x08, 0x00, 0x04, 0x00, 0x14, 0x00, 0x00, 0x00, 0x1c, 0x00, 0x00, 0x00,
  0x94, 0x00, 0x00, 0x00, 0xec, 0x00, 0x00, 0x00, 0x00, 0x1c, 0x00, 0x00,
  0x10, 0x1c, 0x00, 0x00, 0xe8, 0x21, 0x00, 0x00, 0x03, 0x00, 0x00, 0x00,
  0x01, 0x00, 0x00, 0x00, 0x10, 0x00, 0x00, 0x00, 0x00, 0x00, 0x0a, 0x00,
  0x10, 0x00, 0x0c, 0x00, 0x08, 0x00, 0x04, 0x00, 0x0a, 0x00, 0x00, 0x00,
  0x0c, 0x00, 0x00, 0x00, 0x1c, 0x00, 0x00, 0x00, 0x38, 0x00, 0x00, 0x00,
  0x0f, 0x00, 0x00, 0x00, 0x73, 0x65, 0x72, 0x76, 0x69, 0x6e, 0x67, 0x5f,
  0x64, 0x65, 0x66, 0x61, 0x75, 0x6c, 0x74, 0x00, 0x01, 0x00, 0x00, 0x00,
  0x04, 0x00, 0x00, 0x00, 0x94, 0xff, 0xff, 0xff, 0x0a, 0x00, 0x00, 0x00,
  0x04, 0x00, 0x00, 0x00, 0x07, 0x00, 0x00, 0x00, 0x64, 0x65, 0x6e, 0x73,
  0x65, 0x5f, 0x38, 0x00, 0x01, 0x00, 0x00, 0x00, 0x04, 0x00, 0x00, 0x00,
  0xe2, 0xe3, 0xff, 0xff, 0x04, 0x00, 0x00, 0x00, 0x0d, 0x00, 0x00, 0x00,
  0x64, 0x65, 0x6e, 0x73, 0x65, 0x5f, 0x36, 0x5f, 0x69, 0x6e, 0x70, 0x75,
  0x74, 0x00, 0x00, 0x00, 0x02, 0x00, 0x00, 0x00, 0x34, 0x00, 0x00, 0x00,
  0x04, 0x00, 0x00, 0x00, 0xdc, 0xff, 0xff, 0xff, 0x0d, 0x00, 0x00, 0x00,
  0x04, 0x00, 0x00, 0x00, 0x13, 0x00, 0x00, 0x00, 0x43, 0x4f, 0x4e, 0x56,
  0x45, 0x52, 0x53, 0x49, 0x4f, 0x4e, 0x5f, 0x4d, 0x45, 0x54, 0x41, 0x44,
  0x41, 0x54, 0x41, 0x00, 0x08, 0x00, 0x0c, 0x00, 0x08, 0x00, 0x04, 0x00,
  0x08, 0x00, 0x00, 0x00, 0x0c, 0x00, 0x00, 0x00, 0x04, 0x00, 0x00, 0x00,
  0x13, 0x00, 0x00, 0x00, 0x6d, 0x69, 0x6e, 0x5f, 0x72, 0x75, 0x6e, 0x74,
  0x69, 0x6d, 0x65, 0x5f, 0x76, 0x65, 0x72, 0x73, 0x69, 0x6f, 0x6e, 0x00,
  0x0e, 0x00, 0x00, 0x00, 0x10, 0x1b, 0x00, 0x00, 0x08, 0x1b, 0x00, 0x00,
  0xd8, 0x1a, 0x00, 0x00, 0xa8, 0x1a, 0x00, 0x00, 0x58, 0x1a, 0x00, 0x00,
  0xc8, 0x03, 0x00, 0x00, 0xb8, 0x01, 0x00, 0x00, 0xa8, 0x00, 0x00, 0x00,
  0xa0, 0x00, 0x00, 0x00, 0x98, 0x00, 0x00, 0x00, 0x90, 0x00, 0x00, 0x00,
  0x88, 0x00, 0x00, 0x00, 0x68, 0x00, 0x00, 0x00, 0x04, 0x00, 0x00, 0x00,
  0x96, 0xe4, 0xff, 0xff, 0x04, 0x00, 0x00, 0x00, 0x54, 0x00, 0x00, 0x00,
  0x0c, 0x00, 0x00, 0x00, 0x08, 0x00, 0x0e, 0x00, 0x08, 0x00, 0x04, 0x00,
  0x08, 0x00, 0x00, 0x00, 0x10, 0x00, 0x00, 0x00, 0x24, 0x00, 0x00, 0x00,
  0x00, 0x00, 0x06, 0x00, 0x08, 0x00, 0x04, 0x00, 0x06, 0x00, 0x00, 0x00,
  0x04, 0x00, 0x00, 0x00, 0x00, 0x00, 0x00, 0x00, 0x00, 0x00, 0x0a, 0x00,
  0x10, 0x00, 0x0c, 0x00, 0x08, 0x00, 0x04, 0x00, 0x0a, 0x00, 0x00, 0x00,
  0x02, 0x00, 0x00, 0x00, 0x02, 0x00, 0x00, 0x00, 0x04, 0x00, 0x00, 0x00,
  0x06, 0x00, 0x00, 0x00, 0x32, 0x2e, 0x31, 0x30, 0x2e, 0x30, 0x00, 0x00,
  0xf6, 0xe4, 0xff, 0xff, 0x04, 0x00, 0x00, 0x00, 0x10, 0x00, 0x00, 0x00,
  0x31, 0x2e, 0x35, 0x2e, 0x30, 0x00, 0x00, 0x00, 0x00, 0x00, 0x00, 0x00,
  0x00, 0x00, 0x00, 0x00, 0xe8, 0xdf, 0xff, 0xff, 0xec, 0xdf, 0xff, 0xff,
  0xf0, 0xdf, 0xff, 0xff, 0xf4, 0xdf, 0xff, 0xff, 0x22, 0xe5, 0xff, 0xff,
  0x04, 0x00, 0x00, 0x00, 0x00, 0x01, 0x00, 0x00, 0x0b, 0x60, 0x4d, 0xc0,
  0x17, 0xd3, 0xed, 0xbe, 0x47, 0x22, 0x12, 0x3f, 0x4f, 0x1c, 0xc0, 0x3e,
  0xcc, 0x41, 0x29, 0x3e, 0xda, 0x92, 0xe1, 0x3e, 0x44, 0x0f, 0xfd, 0xbe,
  0x16, 0x2b, 0x2d, 0x3f, 0x9c, 0x42, 0x5b, 0x3f, 0x3f, 0xb1, 0xee, 0xbf,
  0xe0, 0x24, 0x91, 0x3e, 0x0c, 0xdb, 0x2c, 0xbd, 0x16, 0x2b, 0xd0, 0x3e,
  0x36, 0xc0, 0x22, 0xbe, 0x02, 0xe8, 0x0f, 0x3e, 0x8d, 0xa2, 0x8e, 0xbf,
  0xa1, 0x52, 0x37, 0x3f, 0xf5, 0xb8, 0x33, 0x3f, 0x50, 0x32, 0xdb, 0x3d,
  0xd6, 0x55, 0x12, 0x3f, 0x4c, 0x3e, 0x4a, 0x3e, 0x58, 0x9f, 0x9b, 0xbd,
  0x20, 0x36, 0xe7, 0xbf, 0xb8, 0xbe, 0xab, 0xbf, 0x5f, 0x38, 0xd1, 0x3f,
  0xf7, 0x83, 0x84, 0xc0, 0xba, 0xd8, 0xf4, 0xbe, 0xf7, 0x1b, 0xc5, 0xbe,
  0xc4, 0x7e, 0x7a, 0x3e, 0x50, 0x9d, 0x6a, 0xbd, 0x52, 0x67, 0x3b, 0xc0,
  0xa1, 0x42, 0x04, 0xbf, 0xff, 0xc0, 0x28, 0xc0, 0x3b, 0x1e, 0xd1, 0x3f,
  0xf0, 0xf4, 0xe0, 0xbe, 0xc3, 0xf9, 0x88, 0xbe, 0x4e, 0x5c, 0xf5, 0x3e,
  0xba, 0x2a, 0xb0, 0xbe, 0x42, 0x53, 0x4b, 0xc0, 0x7d, 0xe8, 0xcb, 0xbe,
  0x8e, 0xd1, 0xbe, 0xbf, 0x6f, 0xac, 0x3c, 0xc0, 0x29, 0x8a, 0xac, 0x3e,
  0x16, 0x42, 0x85, 0xbe, 0x98, 0x03, 0x34, 0x3e, 0x28, 0x8b, 0x79, 0xbe,
  0x9a, 0x4d, 0xb1, 0x3f, 0x11, 0x3b, 0xca, 0xbd, 0xd3, 0xc8, 0x1c, 0xc0,
  0x21, 0xcf, 0x88, 0x3e, 0xf5, 0x5d, 0x87, 0xbe, 0x73, 0x19, 0xba, 0xbe,
  0x20, 0xb1, 0xfd, 0x3c, 0x3c, 0x3f, 0x58, 0xbe, 0xd3, 0x5a, 0xb9, 0x3e,
  0x4c, 0xda, 0x0c, 0xbf, 0x79, 0xe4, 0x3e, 0x3e, 0x2f, 0xd4, 0x13, 0xbe,
  0x9d, 0xf4, 0x62, 0x3d, 0x8d, 0xd1, 0xf2, 0xbe, 0xfc, 0x00, 0x79, 0x3e,
  0x42, 0xc5, 0xec, 0xbe, 0x47, 0x93, 0x36, 0xbf, 0x33, 0x70, 0x5e, 0x3d,
  0x2e, 0xe6, 0xff, 0xff, 0x04, 0x00, 0x00, 0x00, 0x00, 0x02, 0x00, 0x00,
  0x80, 0xe4, 0x52, 0x3d, 0xcf, 0x69, 0x26, 0x3f, 0x42, 0xd5, 0x91, 0xbf,
  0x00, 0xbf, 0x04, 0x3e, 0xfc, 0x89, 0x01, 0xc0, 0xb9, 0xc5, 0x95, 0xbc,
  0x24, 0x78, 0x82, 0x3e, 0x38, 0x03, 0xae, 0x3e, 0x20, 0x7b, 0x9f, 0xbe,
  0x18, 0x90, 0x58, 0x3e, 0x90, 0x12, 0xd9, 0xbd, 0xb8, 0xd2, 0x29, 0xbe,
  0x04, 0x7b, 0x76, 0xbd, 0x34, 0xad, 0x9c, 0x3e, 0xd2, 0x94, 0x0b, 0x3f,
  0x3c, 0xb7, 0x91, 0x3e, 0xec, 0xd2, 0xa4, 0x3e, 0x45, 0xc9, 0x92, 0x3f,
  0xc0, 0xca, 0x83, 0x3d, 0x84, 0xb6, 0x05, 0xbe, 0x09, 0x8b, 0x02, 0xbf,
  0xc1, 0xe2, 0xca, 0xbf, 0xa8, 0xc0, 0xcb, 0x3e, 0x3c, 0xe8, 0xff, 0x3e,
  0x00, 0x32, 0xec, 0x3e, 0x40, 0xc5, 0x38, 0xbd, 0xb3, 0x2b, 0xed, 0xbe,
  0xb0, 0xf9, 0xbd, 0x3d, 0xe8, 0x50, 0x5b, 0x3f, 0xd4, 0x5c, 0x85, 0x3e,
  0x58, 0x75, 0x0e, 0x3d, 0xff, 0xd3, 0xe9, 0x3d, 0xa8, 0x75, 0x12, 0x3e,
  0xf6, 0xa8, 0x2d, 0x3e, 0x6f, 0xc6, 0x48, 0x3e, 0x98, 0x08, 0x58, 0x3e,
  0x52, 0x07, 0x78, 0xbe, 0x2b, 0x3b, 0x8a, 0xbb, 0x89, 0x8e, 0xad, 0x3e,
  0x60, 0x2c, 0x40, 0xbd, 0x90, 0xd1, 0x8a, 0x3d, 0x40, 0xf8, 0x39, 0x3e,
  0x0e, 0x17, 0xf7, 0xbc, 0xe0, 0x95, 0x6a, 0x3e, 0x25, 0x37, 0x2f, 0xbd,
  0xcc, 0xae, 0xc8, 0xbe, 0x85, 0x89, 0xfe, 0xbe, 0x50, 0x5b, 0xcb, 0x3e,
  0x38, 0x5d, 0x38, 0xbe, 0x75, 0xfb, 0xe6, 0xbe, 0x5f, 0xaf, 0x6a, 0xbe,
  0x2e, 0xe9, 0xc6, 0xbe, 0x2f, 0x6b, 0x91, 0x3d, 0x77, 0x46, 0x84, 0xbe,
  0x41, 0xb3, 0x4c, 0xbd, 0x28, 0x75, 0x03, 0xbe, 0xb0, 0x1f, 0xcd, 0xbd,
  0xf4, 0x68, 0xe2, 0x3e, 0xda, 0x53, 0xb0, 0x3e, 0x70, 0x7a, 0x54, 0xbe,
  0x14, 0x3c, 0xc8, 0x3e, 0xd8, 0xad, 0x10, 0x3e, 0xb9, 0x59, 0xa0, 0xbd,
  0x0e, 0xbd, 0xea, 0x3d, 0xc0, 0xfe, 0x36, 0x3d, 0xd8, 0x4b, 0xe7, 0xbe,
  0x00, 0xe9, 0xc1, 0xbb, 0xf4, 0xa0, 0xd1, 0xbe, 0x54, 0x2b, 0x80, 0xbe,
  0xf8, 0xe1, 0x98, 0xbe, 0xa8, 0x0c, 0xb5, 0x3e, 0x28, 0xdf, 0xd5, 0xbe,
  0x94, 0x0a, 0xbe, 0x3e, 0x80, 0xd9, 0xbd, 0x3e, 0xc8, 0xd0, 0xdf, 0x3e,
  0xb4, 0xc6, 0x84, 0xbe, 0xf8, 0x87, 0xc0, 0xbe, 0xe0, 0x7d, 0x7a, 0x3e,
  0xa0, 0xb0, 0x7e, 0x3d, 0x88, 0x4b, 0x67, 0xbe, 0x98, 0x6c, 0xb1, 0x3e,
  0x50, 0x38, 0x8e, 0xbd, 0x98, 0x54, 0x72, 0xbe, 0x64, 0x63, 0xab, 0x3e,
  0x40, 0x63, 0xab, 0xbe, 0xb8, 0xc6, 0x3f, 0x3e, 0x50, 0xa7, 0xb8, 0xbe,
  0x70, 0x82, 0x3d, 0x3e, 0x3c, 0xa5, 0xfe, 0x3e, 0x80, 0xe0, 0xba, 0x3e,
  0xb4, 0xa1, 0xc5, 0x3e, 0x30, 0x1e, 0xe8, 0x3e, 0xac, 0xd6, 0xff, 0xbe,
  0xec, 0x4a, 0xad, 0xbe, 0xa8, 0x4c, 0xc9, 0xbe, 0x48, 0xf4, 0x10, 0xbe,
  0x48, 0x40, 0x2e, 0xbe, 0x81, 0x72, 0xc8, 0xbb, 0x95, 0x3a, 0x03, 0xbf,
  0x70, 0x9d, 0x8c, 0x3d, 0xcd, 0x08, 0xb7, 0x3f, 0xae, 0x99, 0x28, 0xbf,
  0xa0, 0x01, 0x66, 0x3d, 0x6c, 0xe6, 0xfb, 0x3e, 0x90, 0x61, 0xf1, 0xbd,
  0x60, 0xd9, 0xf2, 0x3e, 0x87, 0x92, 0x66, 0xbe, 0xd4, 0x84, 0xa4, 0x3e,
  0xdd, 0x0e, 0xdd, 0xbf, 0xd0, 0x47, 0x83, 0xbd, 0xdd, 0xed, 0x64, 0x3f,
  0xd8, 0x28, 0x2b, 0xbe, 0xf0, 0xa7, 0x99, 0xbd, 0x8b, 0x40, 0x82, 0xbd,
  0x21, 0x62, 0x33, 0x3f, 0x7c, 0xaf, 0xf5, 0xbe, 0xa6, 0xb2, 0x3b, 0x3e,
  0x23, 0xd3, 0x30, 0x3f, 0x54, 0x1b, 0xc5, 0x3e, 0x48, 0xa9, 0xb7, 0x3e,
  0xd4, 0x11, 0xc7, 0x3e, 0x00, 0x60, 0x5f, 0x3e, 0x20, 0x1b, 0x1e, 0xbd,
  0x20, 0xb3, 0xd5, 0xbd, 0x71, 0x8a, 0x3d, 0xbe, 0x08, 0x34, 0x7f, 0xbe,
  0x19, 0x11, 0x55, 0xbe, 0x40, 0x9d, 0x04, 0xbd, 0x3a, 0xe8, 0xff, 0xff,
  0x04, 0x00, 0x00, 0x00, 0x80, 0x16, 0x00, 0x00, 0xae, 0xbc, 0xf0, 0x3d,
  0xdc, 0x9b, 0x7a, 0x3d, 0x5a, 0xda, 0xdd, 0x3d, 0x94, 0x12, 0x56, 0xbe,
  0xd6, 0x1a, 0xda, 0xbd, 0x2c, 0x96, 0x2a, 0xbe, 0x56, 0x1c, 0x98, 0x3d,
  0xb5, 0xcd, 0x44, 0x3e, 0x10, 0xc0, 0x63, 0xbc, 0x45, 0x8d, 0x47, 0x3e,
  0xc6, 0x25, 0xe6, 0xbd, 0x34, 0xb7, 0xe5, 0xbd, 0xe1, 0x18, 0x3a, 0x3e,
  0x40, 0x61, 0x82, 0xbd, 0xde, 0xcd, 0xd9, 0xbd, 0x3f, 0xba, 0x16, 0xbe,
  0x88, 0x42, 0x98, 0xbc, 0x98, 0x88, 0xbf, 0xbd, 0x37, 0xf2, 0x07, 0x3e,
  0x08, 0xcd, 0x56, 0xbe, 0xae, 0xe5, 0x53, 0xbe, 0xc0, 0x7a, 0xf9, 0xbc,
  0x80, 0x8b, 0x95, 0x3a, 0x57, 0x92, 0x4c, 0xbe, 0x20, 0xc4, 0x6b, 0xbd,
  0xeb, 0x20, 0xe9, 0xbd, 0x53, 0x23, 0x4c, 0xbe, 0x24, 0xa1, 0x8a, 0xbd,
  0xe1, 0xdb, 0x3f, 0xbe, 0xa4, 0x8b, 0x3b, 0x3d, 0x31, 0xb8, 0x25, 0x3e,
  0xd2, 0xef, 0xa0, 0x3d, 0xe2, 0xe0, 0x2e, 0xbe, 0x2b, 0x5d, 0x73, 0xbe,
  0xa2, 0x6d, 0xce, 0xbd, 0x08, 0x27, 0xc7, 0xbc, 0xaf, 0x9e, 0x0b, 0x3e,
  0x3e, 0xa1, 0xf6, 0x3d, 0x2c, 0x55, 0x24, 0x3d, 0x47, 0x0b, 0x47, 0xbe,
  0xa8, 0x50, 0x9b, 0x3c, 0xf0, 0x34, 0x42, 0xbc, 0x7a, 0xad, 0x1f, 0xbe,
  0x63, 0xb0, 0x5e, 0x3e, 0x36, 0x8e, 0x64, 0xbe, 0xc0, 0x5d, 0x15, 0x3b,
  0x20, 0xab, 0x10, 0xbe, 0x27, 0x50, 0x70, 0x3e, 0xd2, 0x56, 0x95, 0x3d,
  0x00, 0x0d, 0x72, 0xba, 0x94, 0xd2, 0x6a, 0x3d, 0xf0, 0xbc, 0x6e, 0xbc,
  0xea, 0x58, 0xcb, 0x3d, 0x61, 0x4b, 0x43, 0xbe, 0x50, 0xc3, 0x6b, 0x3c,
  0x10, 0x4f, 0xaf, 0xbd, 0xa2, 0x47, 0xcc, 0x3d, 0xf9, 0xa2, 0x3e, 0x3e,
  0xc4, 0x76, 0x26, 0xbd, 0xce, 0x96, 0xb6, 0xbd, 0x26, 0x29, 0xc1, 0x3d,
  0xc2, 0xe7, 0x40, 0xbe, 0xbf, 0x94, 0x53, 0x3e, 0xfb, 0x16, 0x57, 0x3e,
  0x85, 0x7c, 0x02, 0x3e, 0xd0, 0x3f, 0xbb, 0xbc, 0x7b, 0x4b, 0x4f, 0x3e,
  0xd7, 0xfb, 0x23, 0x3e, 0xed, 0xbd, 0x1e, 0xbe, 0xd8, 0x98, 0xed, 0xbd,
  0x5c, 0x90, 0x6e, 0x3d, 0x18, 0xb4, 0x86, 0xbd, 0x40, 0xeb, 0x7c, 0xbc,
  0xc0, 0xfb, 0x99, 0xbc, 0x1e, 0xdd, 0x57, 0xbe, 0xa3, 0xc2, 0x34, 0x3e,
  0x62, 0x88, 0xcb, 0xbd, 0xd8, 0x93, 0xf1, 0x3c, 0x12, 0xa7, 0xb8, 0x3d,
  0xa0, 0xc6, 0xf1, 0x3b, 0xb0, 0x37, 0x26, 0xbe, 0xd0, 0x7e, 0x77, 0xbc,
  0xa4, 0xc4, 0x5e, 0xbd, 0x6b, 0x93, 0x71, 0x3e, 0x90, 0x58, 0x5f, 0x3c,
  0xbc, 0x9f, 0x24, 0xbe, 0xd2, 0x77, 0xb6, 0xbd, 0xe8, 0x11, 0xb5, 0xbc,
  0xc0, 0xa4, 0x0a, 0xbe, 0x3e, 0x9f, 0x87, 0x3d, 0xe2, 0x14, 0x8c, 0xbd,
  0x08, 0x6c, 0x91, 0x3c, 0xc3, 0xd6, 0x9f, 0xbd, 0xc3, 0x2a, 0x05, 0xbe,
  0xf7, 0x79, 0x4b, 0xbd, 0x6e, 0xbd, 0x68, 0xbe, 0x52, 0xec, 0xb1, 0xbd,
  0x40, 0x91, 0x82, 0x3e, 0x3f, 0x41, 0x24, 0xbc, 0x9b, 0xb0, 0x3b, 0xbd,
  0x5e, 0x1b, 0x03, 0xbd, 0xf3, 0x5b, 0x56, 0x3e, 0xca, 0x1c, 0xa0, 0x3e,
  0x7b, 0xe2, 0xdd, 0x3e, 0x15, 0x0b, 0x35, 0xbe, 0x1d, 0x23, 0x6f, 0xbe,
  0x2b, 0xda, 0xba, 0x3c, 0xad, 0x6b, 0x48, 0x3d, 0x68, 0x00, 0xcc, 0x3e,
  0x43, 0x0e, 0xc0, 0x3e, 0x89, 0xab, 0xa3, 0xbe, 0xaa, 0x7e, 0x43, 0xbe,
  0x22, 0xd8, 0x17, 0x3e, 0x59, 0xfb, 0x01, 0x3e, 0x50, 0x99, 0x71, 0x3e,
  0xbc, 0xcd, 0x40, 0xbe, 0x34, 0x31, 0xbc, 0xbe, 0x2f, 0x97, 0xc7, 0x3d,
  0xbf, 0xf4, 0x97, 0x3d, 0xe7, 0x34, 0x20, 0x3b, 0x99, 0xf5, 0xc2, 0x3e,
  0xef, 0xe4, 0x26, 0xbe, 0xc3, 0x94, 0x22, 0xbf, 0x55, 0xe1, 0x82, 0xbe,
  0x23, 0x1e, 0x9d, 0x3e, 0x02, 0x3c, 0x5c, 0x3d, 0x39, 0x97, 0x70, 0x3e,
  0xbd, 0xd2, 0xa2, 0xbe, 0xd4, 0x84, 0x0b, 0xbf, 0x27, 0xf1, 0xb9, 0xbc,
  0xc9, 0xc1, 0x16, 0x3e, 0xe9, 0x6f, 0xcd, 0x3d, 0xd5, 0xdd, 0x32, 0x3f,
  0x14, 0xd0, 0x53, 0xbe, 0x75, 0xc6, 0x45, 0xbe, 0x53, 0x10, 0xa1, 0xbe,
  0x3d, 0x54, 0xa5, 0x3e, 0xa5, 0xbc, 0xc5, 0x3e, 0xda, 0xcd, 0x2a, 0x3f,
  0x99, 0xf9, 0xc8, 0xbe, 0xfe, 0x3a, 0xb5, 0xbe, 0x9b, 0xd6, 0x86, 0xbe,
  0x56, 0x30, 0x5b, 0x3e, 0xa4, 0x2d, 0xcb, 0x3d, 0x2f, 0x74, 0x80, 0x3f,
  0xef, 0x14, 0x27, 0x3b, 0xc7, 0x81, 0x0f, 0x3d, 0xbc, 0x72, 0x51, 0xbc,
  0x66, 0xe8, 0x04, 0x3e, 0x6b, 0xde, 0x55, 0x3e, 0x35, 0x35, 0x65, 0x3f,
  0x2e, 0x9e, 0x9f, 0xbe, 0xcd, 0xd6, 0xc0, 0x3d, 0x89, 0xf2, 0xea, 0x3d,
  0x53, 0x84, 0xce, 0x3d, 0x02, 0x7b, 0xa4, 0x3e, 0x36, 0x90, 0x7f, 0x3f,
  0x14, 0x64, 0x0e, 0xbf, 0xa4, 0x37, 0x12, 0x3d, 0x34, 0x89, 0x41, 0x3e,
  0x05, 0xa6, 0xa5, 0x3d, 0x78, 0xaf, 0x7b, 0x3e, 0xfe, 0xfb, 0x90, 0x3f,
  0xa5, 0x46, 0xfa, 0xbd, 0x92, 0x62, 0x1e, 0x3b, 0x0b, 0xb6, 0x99, 0x3d,
  0x50, 0x36, 0x84, 0x3e, 0x95, 0x19, 0xf8, 0x3d, 0x91, 0x2a, 0x88, 0x3f,
  0x0a, 0x4a, 0xc6, 0xbd, 0x60, 0xaa, 0xa4, 0x3d, 0x0a, 0x28, 0x65, 0x3e,
  0x28, 0xbb, 0x37, 0xbe, 0x9e, 0xa2, 0x07, 0x3e, 0x99, 0xc0, 0x99, 0x3f,
  0xc6, 0x9b, 0xd9, 0xbe, 0x72, 0x59, 0x4d, 0x3e, 0x18, 0xe6, 0xe7, 0xbc,
  0xd0, 0xa2, 0x27, 0x3d, 0x41, 0x58, 0x77, 0x3e, 0xad, 0xc8, 0x7d, 0x3e,
  0x89, 0xe7, 0x48, 0xbe, 0x2b, 0x20, 0xbf, 0x3e, 0x05, 0xb9, 0xaf, 0x3d,
  0xf5, 0x3b, 0x0b, 0x3e, 0xc9, 0x14, 0xcf, 0x3e, 0xc6, 0xbd, 0xb4, 0x3d,
  0xcf, 0x04, 0x2f, 0xbe, 0xd4, 0x1f, 0x8e, 0x3d, 0xec, 0x0f, 0x56, 0xbe,
  0x98, 0x30, 0x79, 0xbc, 0xfd, 0x32, 0xd1, 0x3e, 0x4f, 0x1e, 0xec, 0xbd,
  0x1b, 0x87, 0x4f, 0xbe, 0x8e, 0x5e, 0x2f, 0x3d, 0x81, 0x80, 0x84, 0xbd,
  0x40, 0x1b, 0xe8, 0x3d, 0xa6, 0xaa, 0x92, 0x3e, 0xdb, 0xd7, 0xd5, 0xbc,
  0x2c, 0x1c, 0xa7, 0xbe, 0xd7, 0x7c, 0x8a, 0x3e, 0x92, 0x99, 0x09, 0xbf,
  0xe3, 0x72, 0xa5, 0x3e, 0xc8, 0x0f, 0xec, 0x3e, 0x77, 0xb7, 0x48, 0xbe,
  0x1a, 0x1b, 0xbb, 0xbd, 0xa3, 0x64, 0x19, 0x3e, 0xc8, 0x45, 0xee, 0xbe,
  0x15, 0x21, 0x1a, 0x3d, 0x25, 0x64, 0xf9, 0x3e, 0x8b, 0xa1, 0x41, 0x3c,
  0x6d, 0x25, 0x9e, 0xbd, 0x4f, 0x3e, 0x08, 0x3e, 0xa7, 0x29, 0x8e, 0xbe,
  0x22, 0xdc, 0x9a, 0x3e, 0x2c, 0x47, 0xce, 0x3e, 0xd2, 0xd4, 0x90, 0xbc,
  0xec, 0xb4, 0xa5, 0xbd, 0x4e, 0xb6, 0xd2, 0x3d, 0xcc, 0x99, 0x9d, 0xbe,
  0x1d, 0xb3, 0x9b, 0x3e, 0xaa, 0x45, 0x15, 0x3e, 0xed, 0xe9, 0x75, 0xbe,
  0x1b, 0x0d, 0xa2, 0xbc, 0xd3, 0xf3, 0xc3, 0x3d, 0xcf, 0x34, 0xa6, 0xbe,
  0xf9, 0x18, 0x89, 0x3e, 0xef, 0x99, 0x16, 0x3e, 0xce, 0xff, 0x3d, 0xbe,
  0xc1, 0x38, 0x93, 0x3e, 0x2a, 0x43, 0xae, 0x3e, 0x66, 0xf9, 0xbc, 0xbe,
  0x54, 0xfa, 0x3c, 0x3d, 0x85, 0xb9, 0x9f, 0x3e, 0xed, 0xb3, 0x3d, 0xbe,
  0x86, 0xfa, 0x91, 0x3e, 0x30, 0x0f, 0x48, 0x3e, 0x48, 0x72, 0x8a, 0xbe,
  0x84, 0xf2, 0xba, 0x3d, 0xcc, 0x19, 0xa9, 0xbd, 0x3b, 0x70, 0xac, 0xbe,
  0xf0, 0x86, 0xfc, 0x3e, 0xbf, 0x7c, 0x8f, 0x3e, 0x3d, 0xfc, 0x0f, 0xbe,
  0x94, 0xe1, 0x76, 0x3e, 0x0b, 0x1a, 0x55, 0x3e, 0xdf, 0xaf, 0x69, 0xbe,
  0x50, 0x81, 0xee, 0x3e, 0xda, 0xe2, 0x2f, 0x3e, 0x1d, 0xe9, 0x14, 0xbe,
  0xe1, 0xe9, 0x42, 0xbd, 0xb9, 0x7a, 0xbb, 0x3e, 0x46, 0x34, 0x1e, 0xbf,
  0xc1, 0xc4, 0x16, 0x3f, 0xef, 0x01, 0xd0, 0x3d, 0x01, 0x89, 0xa8, 0xbe,
  0xa3, 0xf0, 0xc1, 0x3e, 0xc2, 0x8b, 0xa4, 0x3e, 0x2e, 0x11, 0xa8, 0xbe,
  0x87, 0xe6, 0x55, 0x3f, 0x68, 0x13, 0x9b, 0x3e, 0xae, 0x79, 0x53, 0xbe,
  0x65, 0x70, 0x8d, 0x3c, 0xd0, 0xff, 0xd9, 0xbc, 0xbb, 0x82, 0x0d, 0xbf,
  0x7d, 0x45, 0x33, 0x3f, 0xc0, 0x08, 0x96, 0x3e, 0x52, 0x9c, 0x05, 0x3e,
  0x5c, 0x1e, 0xc3, 0x3e, 0xfb, 0x14, 0x44, 0x3e, 0xc3, 0x25, 0xdd, 0x3d,
  0x0d, 0xb8, 0xfa, 0xbd, 0xb2, 0xb9, 0x40, 0xbe, 0x19, 0x56, 0x91, 0x3d,
  0x1e, 0x0c, 0xd0, 0xbc, 0xc2, 0xdd, 0x9c, 0xbd, 0x50, 0xae, 0xcf, 0x3d,
  0xe5, 0x28, 0x29, 0xbe, 0x5a, 0x0d, 0x39, 0xbe, 0xf1, 0xec, 0x48, 0x3e,
  0x4c, 0x23, 0x07, 0xbe, 0x3a, 0x93, 0x34, 0x3a, 0x16, 0xbb, 0x11, 0x3e,
  0x0c, 0x12, 0x23, 0x3e, 0x11, 0x37, 0x52, 0xbe, 0x34, 0xf4, 0xf1, 0x3d,
  0x60, 0x16, 0x41, 0x3c, 0x93, 0xf5, 0xa7, 0x3d, 0x06, 0x65, 0x35, 0xbe,
  0xf6, 0x7b, 0x60, 0x3e, 0x12, 0x15, 0x60, 0x3e, 0xcf, 0x47, 0x2d, 0x3e,
  0x9a, 0xf7, 0x3b, 0xbe, 0xe6, 0x3c, 0x73, 0xbe, 0xdd, 0x38, 0xfe, 0xbb,
  0xcf, 0x27, 0x10, 0x3e, 0x7d, 0xf6, 0xaf, 0xbd, 0xc1, 0x68, 0x52, 0xbd,
  0x1e, 0x6c, 0x3d, 0x3e, 0xc4, 0xe9, 0x08, 0x3d, 0xe2, 0x15, 0x2e, 0xbd,
  0xd5, 0x42, 0xcd, 0xbc, 0x7d, 0x56, 0x04, 0xbe, 0x76, 0x7a, 0xfe, 0x3d,
  0x39, 0xf1, 0x25, 0x3e, 0xae, 0xb0, 0xdb, 0x3d, 0x95, 0x4a, 0xe8, 0xbc,
  0x7d, 0x8a, 0x13, 0xbc, 0x28, 0x47, 0x52, 0x3d, 0x92, 0x94, 0x50, 0xbe,
  0xdb, 0x6d, 0xb1, 0xbd, 0x78, 0xdd, 0xcb, 0xbd, 0xe8, 0x75, 0x51, 0x3e,
  0x67, 0x79, 0x47, 0xbe, 0x7a, 0x4d, 0x0c, 0xbe, 0xb8, 0x04, 0x78, 0xbe,
  0xf3, 0xd6, 0x41, 0xbe, 0x96, 0x1d, 0xa4, 0xbd, 0x1f, 0x88, 0x8a, 0xbd,
  0x32, 0x49, 0x6b, 0xbe, 0x3f, 0xe2, 0x64, 0xbe, 0x83, 0x07, 0xa5, 0xbc,
  0x4e, 0x02, 0x10, 0xbe, 0x96, 0x64, 0x77, 0xbd, 0xe8, 0x80, 0x9d, 0x3c,
  0xd7, 0x56, 0x10, 0xbe, 0x38, 0x04, 0x15, 0x3e, 0xfb, 0x65, 0xf6, 0xbc,
  0x0e, 0x7a, 0xe0, 0x3d, 0x05, 0x33, 0x09, 0x3e, 0x2d, 0x00, 0x84, 0x3d,
  0x2b, 0xa4, 0x67, 0xbe, 0x9d, 0xf6, 0xab, 0xbd, 0xde, 0xf9, 0x01, 0x3d,
  0x56, 0x9c, 0xbf, 0xba, 0xf1, 0xad, 0x25, 0x3e, 0x5b, 0xc3, 0x33, 0x3e,
  0x67, 0xb3, 0x29, 0xbd, 0x83, 0x71, 0x75, 0xbe, 0xca, 0x97, 0x54, 0xbd,
  0xdf, 0x57, 0x02, 0x3e, 0xd3, 0xd3, 0xcf, 0xbd, 0x2a, 0x53, 0xd0, 0x3c,
  0x08, 0xd0, 0x15, 0x3e, 0x3f, 0x31, 0x9c, 0x3d, 0xb6, 0xe3, 0x71, 0x3d,
  0x79, 0x4b, 0x3d, 0x3e, 0xda, 0xf0, 0x59, 0xbe, 0x1b, 0x3c, 0x0d, 0x3e,
  0xf7, 0x6f, 0x42, 0xbe, 0x65, 0xa0, 0x93, 0xbd, 0xd9, 0x2d, 0x6e, 0x3e,
  0xb5, 0x81, 0x6f, 0xbe, 0x7b, 0xf5, 0xfd, 0xbd, 0x6e, 0xc9, 0xd4, 0xbc,
  0xf9, 0x3e, 0x07, 0x3e, 0x32, 0xb6, 0x60, 0x3e, 0xfc, 0xf2, 0x5d, 0xbe,
  0x05, 0x3a, 0xb3, 0xbd, 0x40, 0x89, 0x01, 0xbe, 0x79, 0x8d, 0x62, 0x3e,
  0xb0, 0xe2, 0xb7, 0x3e, 0xcf, 0xf5, 0x0c, 0x3e, 0x07, 0xbb, 0xba, 0x3e,
  0xab, 0x95, 0xa4, 0x3e, 0x32, 0x92, 0x95, 0x3e, 0x2d, 0x62, 0xb9, 0x3d,
  0xd8, 0xb0, 0xbe, 0x3c, 0x57, 0x87, 0x05, 0xbe, 0xe7, 0xf6, 0x43, 0x3e,
  0xd6, 0x2b, 0x84, 0x3e, 0xe0, 0x08, 0xf8, 0x3e, 0xd4, 0x4d, 0x2d, 0x3c,
  0x7e, 0xec, 0xba, 0x3d, 0x8c, 0x5c, 0x5d, 0x3e, 0x1d, 0x8e, 0xc7, 0x3b,
  0x77, 0x5d, 0xf3, 0xbc, 0x5c, 0xa4, 0x33, 0x3d, 0x3e, 0x41, 0x5c, 0xbd,
  0x48, 0xb0, 0x51, 0x3d, 0x76, 0x11, 0x6b, 0x3e, 0x50, 0x8c, 0x22, 0x3d,
  0x81, 0xeb, 0x91, 0x3e, 0x31, 0xe2, 0xd6, 0x3e, 0xb5, 0x36, 0xa2, 0xbe,
  0x73, 0x9f, 0x7b, 0xbe, 0xba, 0x82, 0xf1, 0x3e, 0x57, 0x6a, 0x79, 0x3e,
  0x85, 0xd9, 0xac, 0xbd, 0xa6, 0x09, 0x81, 0x3e, 0x25, 0xa6, 0xdf, 0x3d,
  0xcc, 0x11, 0xd8, 0xbc, 0x9f, 0x65, 0x50, 0x3e, 0xf9, 0x23, 0x45, 0x3e,
  0xd0, 0x70, 0x9f, 0x3d, 0xb5, 0x6d, 0x02, 0x3f, 0x6c, 0xfd, 0xb6, 0xbe,
  0x8b, 0x78, 0x27, 0xbe, 0xbe, 0x5b, 0x1b, 0x3f, 0x7d, 0x66, 0x06, 0x3d,
  0x61, 0x3f, 0x86, 0x3d, 0x83, 0xf9, 0x9a, 0x3e, 0x9e, 0x19, 0xd7, 0xbe,
  0xf9, 0x6e, 0xe1, 0xbe, 0xe3, 0x41, 0xb6, 0x3e, 0x5a, 0x14, 0x32, 0x3e,
  0xce, 0x11, 0xc1, 0x3d, 0x7e, 0x5a, 0x98, 0x3e, 0xb1, 0x22, 0xba, 0xbe,
  0x9c, 0x0e, 0x01, 0xbf, 0x09, 0x99, 0x4b, 0x3e, 0xa0, 0x80, 0xff, 0xbd,
  0x1b, 0xcb, 0x10, 0x3d, 0x31, 0xdc, 0xf0, 0x3e, 0x7f, 0xab, 0xe0, 0xbe,
  0xf2, 0x87, 0x22, 0xbf, 0xdb, 0x35, 0x49, 0x3e, 0x0a, 0x20, 0xdb, 0x3d,
  0xf9, 0xd7, 0x39, 0x3e, 0x1d, 0x03, 0xba, 0x3e, 0x5f, 0x7f, 0x26, 0xbf,
  0x56, 0xb4, 0x3d, 0xbf, 0xfe, 0xd8, 0x87, 0x3e, 0x85, 0xbc, 0xfa, 0x3d,
  0x5b, 0x02, 0x94, 0x3e, 0xe2, 0x13, 0xd8, 0x3e, 0x09, 0x5d, 0x0e, 0xbf,
  0x18, 0x27, 0x61, 0xbf, 0x9a, 0x00, 0xbd, 0x3d, 0x92, 0xfd, 0x1d, 0xbe,
  0xe8, 0x9f, 0xc2, 0x3e, 0xe2, 0x02, 0xd2, 0x3e, 0xd1, 0xf3, 0x5e, 0xbf,
  0xab, 0x5d, 0x87, 0xbf, 0x58, 0x19, 0x9b, 0xbc, 0xb6, 0xab, 0x27, 0xbe,
  0xab, 0x86, 0xde, 0x3d, 0xdf, 0xf3, 0x97, 0x3e, 0xa7, 0xf4, 0x23, 0xbf,
  0x5e, 0xa4, 0x6c, 0xbf, 0xa1, 0xc2, 0xe3, 0x3d, 0x4d, 0xe5, 0x60, 0x3e,
  0xa6, 0xd2, 0x10, 0x3e, 0x5d, 0x0f, 0xa0, 0x3e, 0xb7, 0x2b, 0x57, 0xbf,
  0xaf, 0xd1, 0x5f, 0xbf, 0x74, 0xaf, 0x95, 0xbd, 0x5c, 0x50, 0x11, 0xbe,
  0x11, 0x2a, 0x0d, 0x3d, 0xe5, 0xe4, 0x84, 0x3d, 0xf3, 0xb6, 0xe0, 0xbc,
  0xe6, 0x69, 0x29, 0x3f, 0x7a, 0x63, 0xcc, 0x3d, 0xdc, 0xf7, 0x38, 0xbe,
  0x68, 0x6c, 0x9e, 0xbd, 0x41, 0x76, 0x89, 0xbe, 0xba, 0x62, 0x8b, 0x3b,
  0xd9, 0x47, 0x20, 0x3f, 0x2f, 0x19, 0x60, 0x3e, 0x25, 0xe7, 0xf4, 0x3d,
  0x72, 0xf9, 0x4c, 0xbd, 0xfe, 0x21, 0x1d, 0xbf, 0xbc, 0x95, 0xd2, 0xbd,
  0x92, 0x1b, 0x30, 0x3f, 0xbd, 0x15, 0xb1, 0x3e, 0x78, 0x84, 0x0f, 0x3e,
  0xb4, 0x5a, 0x1d, 0x3e, 0x02, 0x9c, 0xba, 0xbe, 0x2b, 0x2f, 0x05, 0x3c,
  0x97, 0x44, 0x27, 0x3f, 0xa8, 0xea, 0xd3, 0x3e, 0xad, 0x14, 0x4b, 0x3e,
  0xd1, 0xe4, 0x1d, 0xbe, 0x77, 0xef, 0x9a, 0xbe, 0x03, 0x39, 0x9b, 0xbe,
  0x7e, 0xbe, 0x52, 0x3f, 0x46, 0x01, 0xb3, 0x3e, 0xcc, 0x55, 0x14, 0x3f,
  0xf2, 0x6d, 0x19, 0x3e, 0xf3, 0x53, 0xa4, 0xbe, 0x6f, 0x02, 0x85, 0xbe,
  0x40, 0xcc, 0x2c, 0x3f, 0x11, 0x4f, 0x07, 0x3f, 0xe2, 0x3d, 0x2c, 0x3e,
  0xdc, 0xd5, 0x06, 0x3e, 0x18, 0xf0, 0xa9, 0xbe, 0x9f, 0xe2, 0x25, 0xbf,
  0x23, 0xc1, 0x1c, 0x3f, 0xcd, 0x6e, 0xef, 0x3e, 0x38, 0xca, 0x32, 0x3e,
  0x09, 0x77, 0x73, 0xbe, 0x59, 0xcd, 0xbf, 0xbe, 0x1e, 0x6e, 0x19, 0xbf,
  0x0b, 0x49, 0x2c, 0x3f, 0x41, 0x1d, 0x90, 0x3d, 0xf2, 0x53, 0x12, 0x3f,
  0xbe, 0x5c, 0x14, 0x3d, 0x50, 0x6d, 0x01, 0xbf, 0x3e, 0x9e, 0x00, 0xbf,
  0x2c, 0xf6, 0xef, 0x3e, 0xdf, 0x16, 0x73, 0x3e, 0xc3, 0xed, 0x5b, 0x3e,
  0xf3, 0xf7, 0x3b, 0xbe, 0x4d, 0x74, 0x84, 0xbb, 0xc4, 0x26, 0xe4, 0xbe,
  0xb7, 0x6b, 0xf3, 0x3e, 0xa1, 0xad, 0xf4, 0x3d, 0x81, 0xbe, 0x97, 0x3e,
  0x95, 0xad, 0xc0, 0x3c, 0x17, 0x61, 0x46, 0xbe, 0xa3, 0x0e, 0x62, 0xbe,
  0xc8, 0x6b, 0xad, 0x3e, 0x3b, 0x58, 0x1c, 0x3e, 0x40, 0xda, 0xc3, 0x3e,
  0xc7, 0x00, 0x0a, 0xbc, 0xf7, 0x51, 0xa8, 0xbe, 0xd0, 0x61, 0xe0, 0xbe,
  0x49, 0x23, 0x08, 0x3f, 0xcb, 0x73, 0x0f, 0xbe, 0x0b, 0x6a, 0x01, 0xbd,
  0x82, 0x8e, 0xb3, 0x3e, 0x91, 0xb4, 0xca, 0xbd, 0xf5, 0xde, 0x38, 0xbf,
  0xb9, 0x7f, 0xb7, 0x3e, 0xf7, 0xb2, 0x45, 0xbe, 0x97, 0xf3, 0xcb, 0xbd,
  0xb1, 0x71, 0x97, 0xbd, 0xb9, 0x42, 0x01, 0xbd, 0x60, 0xb1, 0x21, 0xbf,
  0xba, 0x2c, 0x0d, 0x3f, 0x60, 0x13, 0x9a, 0x3e, 0x5a, 0x44, 0x76, 0x3d,
  0x13, 0xdb, 0x73, 0x3e, 0x59, 0x6a, 0xcd, 0x3c, 0xd9, 0xaa, 0x63, 0xbf,
  0x39, 0x7e, 0x1c, 0x3f, 0xac, 0xcc, 0x92, 0x3e, 0xc8, 0x87, 0xe9, 0xbc,
  0x42, 0x73, 0xc1, 0x3d, 0x54, 0x78, 0xa9, 0xbd, 0x40, 0x1b, 0x59, 0xbe,
  0x56, 0x0e, 0x3e, 0x3e, 0xd0, 0x78, 0x6e, 0x3d, 0xf4, 0x8b, 0x49, 0x3e,
  0xa0, 0x9e, 0xcb, 0x3d, 0xd3, 0x22, 0x13, 0xbd, 0x75, 0x0b, 0x8a, 0xbd,
  0xb4, 0xdb, 0x31, 0xbe, 0xca, 0x3a, 0x37, 0x3e, 0xae, 0xe9, 0x74, 0xbd,
  0x27, 0xdb, 0x0b, 0x3d, 0xbc, 0xfe, 0x3f, 0xbe, 0xff, 0x0e, 0x6f, 0xbe,
  0x3e, 0x46, 0x14, 0xbe, 0xcb, 0xf4, 0x9a, 0xbd, 0xe8, 0x87, 0x23, 0xbe,
  0x2e, 0xa8, 0x4b, 0xbe, 0xb4, 0x4d, 0x71, 0x3d, 0x8f, 0x8e, 0xa1, 0xbd,
  0x0d, 0x23, 0x13, 0xbb, 0xaf, 0x6f, 0xdd, 0x3d, 0x8c, 0x94, 0x38, 0x3e,
  0x41, 0x07, 0x02, 0xbe, 0x6b, 0x8c, 0x04, 0xbc, 0x5c, 0x42, 0xea, 0x3d,
  0x68, 0x75, 0x96, 0xbd, 0x23, 0x83, 0x44, 0xbe, 0x56, 0xda, 0x0a, 0x3e,
  0x65, 0x71, 0x76, 0xbe, 0x42, 0xf9, 0x3a, 0x3e, 0x7f, 0x26, 0x67, 0xbe,
  0x5b, 0x4b, 0x11, 0x3e, 0x8e, 0xc6, 0x20, 0x3e, 0x40, 0xa7, 0x4d, 0xbe,
  0x3d, 0xea, 0x92, 0xbd, 0x8a, 0xe6, 0x4c, 0xbe, 0x35, 0x50, 0x36, 0x3e,
  0x9a, 0x75, 0x69, 0xbe, 0xbf, 0xde, 0x47, 0xbe, 0x82, 0xe2, 0x7a, 0xbe,
  0x14, 0xdc, 0x60, 0xbd, 0x2a, 0xa5, 0x17, 0xbe, 0x81, 0x40, 0x1e, 0xbe,
  0xb2, 0x5e, 0x2c, 0xbe, 0xdc, 0x14, 0xe9, 0x3b, 0x08, 0xa8, 0x68, 0xbc,
  0xab, 0xf3, 0x6e, 0xbe, 0xd8, 0x9f, 0x88, 0x3d, 0x3e, 0x1e, 0x3b, 0x3e,
  0x1d, 0x1c, 0x56, 0xbd, 0x44, 0x0b, 0x3b, 0xbe, 0xfc, 0x27, 0x36, 0x3e,
  0x6f, 0x60, 0x65, 0xbe, 0x16, 0xad, 0x48, 0xbe, 0x3c, 0x06, 0x04, 0xbe,
  0xbc, 0x3c, 0x28, 0x3e, 0x3d, 0x0e, 0x4d, 0x3d, 0x6d, 0x82, 0xb0, 0xbd,
  0xf3, 0x86, 0xce, 0xbd, 0x37, 0x7c, 0x1d, 0x3e, 0x0c, 0x7c, 0x12, 0xbe,
  0x8a, 0x03, 0x0b, 0x3e, 0x1b, 0x23, 0x41, 0x3e, 0x8c, 0xd7, 0x5f, 0x3d,
  0x9d, 0xde, 0xef, 0xbd, 0xc8, 0x2f, 0xab, 0x3d, 0x77, 0xc0, 0x63, 0xbe,
  0x59, 0x35, 0xc2, 0x3d, 0xcd, 0x8e, 0x25, 0xbd, 0x52, 0x92, 0x5a, 0x3e,
  0x1a, 0x3e, 0x43, 0x3e, 0xf5, 0x3e, 0x7e, 0xbe, 0x80, 0x1d, 0xbd, 0x3d,
  0xc6, 0xff, 0x03, 0x3e, 0x76, 0x1c, 0x2d, 0x3e, 0x5b, 0x78, 0x5f, 0x3e,
  0x36, 0x11, 0xac, 0xbd, 0xf7, 0x0c, 0xcc, 0xbd, 0xc4, 0x24, 0x7e, 0xbe,
  0x6b, 0x18, 0x06, 0x3e, 0xc7, 0x39, 0xd8, 0x3d, 0x34, 0x2f, 0xcb, 0x3d,
  0xd4, 0xe4, 0x5b, 0x3e, 0xf7, 0xeb, 0x20, 0xbe, 0x80, 0x15, 0x19, 0x3e,
  0x65, 0x33, 0xc3, 0xbc, 0xc0, 0xc2, 0x2e, 0x3e, 0xbc, 0x1e, 0x54, 0xbc,
  0x6c, 0x8e, 0x4a, 0x3e, 0x5d, 0xb0, 0x40, 0x3d, 0x36, 0x34, 0xd6, 0x3d,
  0xa6, 0xc1, 0x86, 0x3d, 0xa0, 0x8b, 0x34, 0x3c, 0x1d, 0xeb, 0x47, 0xbe,
  0x36, 0x90, 0x8c, 0xbd, 0x3c, 0xb2, 0xd1, 0xbd, 0xe0, 0xab, 0x2a, 0xbd,
  0xd0, 0x2c, 0x5a, 0x3c, 0xeb, 0xdb, 0x64, 0xbe, 0x38, 0xd4, 0x54, 0xbe,
  0xad, 0x96, 0x2c, 0x3e, 0x00, 0x68, 0x82, 0x39, 0xab, 0xbb, 0x45, 0xbe,
  0x57, 0x00, 0x6d, 0xbe, 0xc3, 0x73, 0x4a, 0x3e, 0xc0, 0xdd, 0x46, 0xbd,
  0x99, 0x1d, 0x2f, 0x3e, 0x30, 0xe5, 0x6e, 0xbd, 0xc8, 0x50, 0xa8, 0x3c,
  0xdf, 0x61, 0x4b, 0x3e, 0x12, 0x75, 0x9b, 0xbd, 0x0e, 0xc4, 0x9b, 0x3d,
  0xef, 0xe4, 0x6e, 0x3e, 0xcc, 0xce, 0x9a, 0xbd, 0xec, 0x59, 0x75, 0x3d,
  0x22, 0x80, 0x9d, 0x3d, 0x73, 0xa4, 0x52, 0x3e, 0xa4, 0x9a, 0x35, 0x3d,
  0x88, 0x26, 0xae, 0xbd, 0x54, 0x50, 0x27, 0x3d, 0x26, 0xad, 0x94, 0xbd,
  0x0c, 0xe0, 0x4d, 0x3d, 0x9b, 0x58, 0x40, 0x3e, 0xaa, 0x07, 0x9b, 0x3d,
  0xc8, 0xe7, 0x8c, 0xbc, 0xce, 0x23, 0x83, 0xbd, 0x71, 0x92, 0x49, 0x3e,
  0x84, 0x33, 0xe6, 0xbd, 0x30, 0x82, 0x07, 0x3c, 0x1e, 0xde, 0xa6, 0x3d,
  0x15, 0x95, 0x2b, 0x3e, 0x85, 0xb5, 0x51, 0x3e, 0x40, 0xff, 0x7d, 0xbc,
  0x6e, 0xa6, 0xd1, 0x3d, 0xcc, 0x55, 0x2b, 0x3d, 0xd6, 0xb4, 0xc0, 0x3d,
  0x89, 0x93, 0x59, 0xbe, 0xf0, 0x56, 0x16, 0xbd, 0x6a, 0x32, 0x57, 0xbe,
  0x7c, 0xcf, 0x69, 0x3d, 0x79, 0xc8, 0x03, 0xbe, 0x12, 0x7c, 0x64, 0xbe,
  0xb4, 0xfd, 0x0f, 0xbe, 0xbf, 0x2c, 0x03, 0x3e, 0xf0, 0x81, 0x76, 0x3c,
  0x63, 0xb6, 0x0a, 0xbe, 0xd2, 0x5b, 0x0e, 0xbe, 0x3e, 0x31, 0x01, 0xbe,
  0x08, 0x04, 0xc5, 0x3c, 0x74, 0xf4, 0x32, 0x3d, 0x00, 0xe2, 0x2d, 0x3b,
  0x88, 0x95, 0xbe, 0xbd, 0x6f, 0x0c, 0x16, 0xbe, 0xe7, 0x9b, 0x65, 0x3e,
  0x86, 0xe9, 0x8c, 0x3d, 0xba, 0x5a, 0xcc, 0x3d, 0x94, 0xa9, 0x23, 0x3d,
  0x73, 0x3e, 0xe9, 0xbd, 0xfc, 0x3c, 0xf6, 0xbd, 0xe9, 0xdd, 0x3c, 0xbe,
  0x7c, 0x6b, 0x2e, 0xbe, 0x8e, 0x48, 0xb9, 0x3d, 0x88, 0xa8, 0xfc, 0xbd,
  0x1a, 0x84, 0xc1, 0x3d, 0x43, 0x37, 0x0b, 0x3e, 0x01, 0xb0, 0x24, 0xbe,
  0x8f, 0x6c, 0x41, 0xbe, 0xd8, 0xf3, 0x89, 0xbd, 0x20, 0xfa, 0xdf, 0xbb,
  0x5c, 0x86, 0x5e, 0x3d, 0x9a, 0x0e, 0x31, 0xbe, 0x64, 0x97, 0xc5, 0xbd,
  0x58, 0x1b, 0x75, 0xbd, 0x38, 0x6f, 0x26, 0xbd, 0x88, 0xf2, 0xd3, 0xbc,
  0x39, 0xee, 0x28, 0xbe, 0x00, 0xf3, 0x6e, 0xbb, 0x86, 0xd3, 0xf7, 0x3d,
  0x22, 0x3c, 0xdc, 0x3d, 0x02, 0x92, 0xb0, 0xbd, 0x2a, 0x95, 0x1a, 0xbe,
  0x16, 0xa3, 0xd6, 0x3d, 0xe4, 0x43, 0x09, 0x3d, 0x78, 0x57, 0x6b, 0xbe,
  0x8e, 0xcd, 0x99, 0x3d, 0x17, 0x5b, 0x4a, 0x3e, 0xba, 0x76, 0xda, 0x3d,
  0xba, 0x51, 0x08, 0xbe, 0x22, 0xf5, 0x56, 0xbe, 0x2b, 0xa8, 0x33, 0xbe,
  0xae, 0x47, 0xb5, 0x3d, 0xe3, 0x5a, 0x2a, 0x3e, 0x64, 0x7b, 0x6c, 0xbe,
  0x8c, 0x9b, 0x07, 0x3d, 0xc4, 0xbb, 0x20, 0xbe, 0xc4, 0x3c, 0x4f, 0xbd,
  0x4f, 0x8a, 0x67, 0x3e, 0x4a, 0x94, 0x2d, 0xbe, 0xa4, 0xbf, 0x38, 0xbd,
  0xdc, 0xad, 0x31, 0x3d, 0xec, 0x5b, 0xa2, 0xbd, 0xa0, 0xd3, 0x41, 0x3c,
  0x23, 0xbe, 0x13, 0x3e, 0x48, 0x22, 0x1e, 0xbe, 0xa0, 0x91, 0xec, 0xbc,
  0x4f, 0x84, 0x37, 0x3e, 0x19, 0x64, 0x22, 0x3e, 0xbc, 0x11, 0x6b, 0x3d,
  0xd4, 0x07, 0x65, 0x3d, 0x74, 0x06, 0x1b, 0x3d, 0x09, 0x31, 0x3b, 0x3e,
  0x5c, 0xad, 0x3d, 0xbe, 0x28, 0xae, 0x35, 0xbe, 0x5a, 0xff, 0xbf, 0x3d,
  0x7c, 0xf4, 0xe0, 0xbd, 0xe8, 0xdd, 0xdb, 0x3c, 0xf6, 0x67, 0x87, 0x3d,
  0x42, 0xc9, 0x50, 0xbe, 0xc5, 0xf9, 0x1b, 0xbe, 0x40, 0xdd, 0x91, 0x3b,
  0xa3, 0xe8, 0x6c, 0x3e, 0x4b, 0x81, 0x1c, 0x3e, 0xcd, 0x91, 0x4d, 0xbe,
  0x38, 0x7d, 0x82, 0x3c, 0xec, 0x86, 0xfe, 0xbd, 0x9c, 0x27, 0x32, 0x3d,
  0xb3, 0x0b, 0x1c, 0x3e, 0xdd, 0x58, 0x48, 0x3e, 0xa0, 0xbe, 0xd7, 0x3b,
  0x84, 0x28, 0x36, 0x3d, 0x65, 0x4b, 0x01, 0x3e, 0x58, 0x67, 0x81, 0x3c,
  0x08, 0x19, 0x85, 0xbd, 0xb9, 0x8c, 0x0f, 0x3e, 0x38, 0xd0, 0xe3, 0xbd,
  0x47, 0xad, 0xec, 0xbd, 0xb4, 0xec, 0x4e, 0x3d, 0x0b, 0x67, 0x09, 0x3e,
  0xc8, 0xd4, 0xae, 0x3c, 0x16, 0xfd, 0xca, 0x3d, 0x4e, 0x01, 0x8e, 0xbd,
  0x27, 0xea, 0x68, 0xbe, 0x79, 0x25, 0x13, 0x3e, 0xf2, 0xaa, 0x16, 0xbe,
  0x8b, 0xad, 0x27, 0xbe, 0xe0, 0x81, 0x06, 0xbe, 0x16, 0xca, 0xb2, 0x3d,
  0x63, 0xa2, 0x6f, 0x3e, 0x58, 0xdc, 0xc2, 0xbc, 0xf5, 0x09, 0x46, 0xbe,
  0xde, 0xdd, 0x3b, 0xbe, 0x70, 0xb5, 0x3f, 0x3c, 0x3d, 0xb0, 0x07, 0xbe,
  0x06, 0x23, 0x8f, 0xbd, 0x50, 0xdd, 0x70, 0x3c, 0x48, 0x1e, 0x70, 0xbe,
  0xee, 0x52, 0x07, 0xbe, 0x7e, 0x64, 0xe6, 0xbd, 0xf4, 0xfe, 0x04, 0xbe,
  0x28, 0x70, 0xac, 0xbc, 0x88, 0xe4, 0x6d, 0xbd, 0x34, 0x1b, 0x08, 0x3d,
  0x16, 0xc1, 0xc4, 0x3d, 0x40, 0xef, 0xc3, 0xbb, 0x90, 0x60, 0x3a, 0xbe,
  0x20, 0xb8, 0x05, 0xbe, 0x1f, 0x90, 0xe7, 0xbd, 0x38, 0x96, 0xc7, 0xbd,
  0xd6, 0x2c, 0x1a, 0xbe, 0x3b, 0x31, 0x6e, 0x3e, 0x53, 0xdd, 0x3e, 0x3e,
  0x7c, 0x53, 0x15, 0xbe, 0x8a, 0xcf, 0x02, 0xbe, 0xb4, 0x1b, 0x3a, 0x3d,
  0xc4, 0x6a, 0xc9, 0xbd, 0xb5, 0x36, 0x03, 0x3e, 0x57, 0x7f, 0x42, 0x3e,
  0xa4, 0x45, 0x0d, 0x3d, 0x90, 0x93, 0x0e, 0xbd, 0x90, 0x87, 0x35, 0x3c,
  0x55, 0x25, 0x5f, 0xbe, 0x9f, 0x8d, 0x30, 0x3e, 0x9c, 0x1b, 0x5d, 0x3d,
  0xf4, 0x2c, 0x3b, 0x3d, 0x00, 0x3f, 0x29, 0xbc, 0x59, 0xac, 0x6f, 0xbe,
  0x83, 0xaf, 0x52, 0x3e, 0x20, 0x86, 0xdb, 0xbc, 0x84, 0x75, 0x77, 0x3d,
  0xf6, 0xd1, 0xf2, 0xbd, 0xfa, 0xa7, 0xaa, 0x3d, 0xe8, 0x9d, 0x20, 0xbe,
  0x59, 0x53, 0x62, 0x3e, 0x0c, 0x75, 0x77, 0x3d, 0x90, 0xa6, 0x70, 0x3c,
  0xc2, 0x03, 0x41, 0xbe, 0xba, 0xb3, 0xaa, 0x3d, 0x63, 0xcc, 0x16, 0x3e,
  0xdc, 0x58, 0x21, 0x3d, 0x27, 0xeb, 0x53, 0xbe, 0x7f, 0x0a, 0xfd, 0xbd,
  0xc8, 0xfc, 0xa1, 0xbc, 0x96, 0x43, 0xd6, 0x3d, 0xf5, 0x77, 0x20, 0x3e,
  0x72, 0x4e, 0x0b, 0xbe, 0x0c, 0xb6, 0x61, 0x3d, 0xe0, 0x92, 0xa9, 0xbc,
  0x4c, 0x1f, 0x4a, 0xbe, 0x8b, 0xff, 0x60, 0xbe, 0xcc, 0x3a, 0x02, 0xbe,
  0x2c, 0x9e, 0x03, 0xbe, 0xbd, 0xb3, 0x0b, 0x3e, 0x98, 0xd0, 0x3f, 0xbe,
  0x55, 0xc5, 0x13, 0x3e, 0xd5, 0x5a, 0x37, 0x3e, 0xdc, 0x31, 0xc5, 0xbd,
  0xc7, 0x9b, 0x4e, 0x3e, 0x76, 0xb3, 0xe4, 0x3d, 0x84, 0xcc, 0x16, 0xbd,
  0x7b, 0x95, 0xee, 0xbd, 0xf2, 0xf4, 0xd0, 0x3d, 0xe1, 0x74, 0xe7, 0xbd,
  0x2f, 0x8b, 0x71, 0x3e, 0x7f, 0xd2, 0xe7, 0xbd, 0x6a, 0xec, 0x92, 0xbd,
  0x3a, 0x09, 0x4c, 0xbe, 0x4b, 0x51, 0x63, 0xbe, 0x2e, 0x37, 0xd9, 0xbd,
  0x78, 0xa0, 0x9f, 0x3c, 0x1e, 0x46, 0x8e, 0x3d, 0x9d, 0xf9, 0x5a, 0xbe,
  0x6d, 0x5b, 0x1a, 0x3e, 0x8b, 0x49, 0x08, 0x3e, 0x10, 0xfe, 0x2a, 0xbc,
  0x7b, 0x52, 0x64, 0x3e, 0x9b, 0x41, 0x2c, 0x3e, 0xc2, 0x54, 0x5e, 0xbe,
  0x44, 0xcb, 0x43, 0xbd, 0xac, 0xf2, 0xdf, 0xbd, 0xa6, 0xd8, 0xff, 0x3d,
  0x37, 0x61, 0x72, 0x3e, 0x5a, 0xac, 0xcf, 0xbd, 0x50, 0x55, 0x52, 0xbe,
  0x90, 0xc0, 0x08, 0xbe, 0x38, 0xaf, 0xfb, 0x3c, 0xef, 0x06, 0x3e, 0xbe,
  0x7f, 0xde, 0x62, 0xbe, 0x44, 0xbc, 0x6c, 0xbd, 0x64, 0x17, 0x68, 0xbe,
  0x50, 0xfd, 0x10, 0xbe, 0xac, 0xda, 0x31, 0xbe, 0x24, 0xae, 0xe3, 0xbd,
  0x2c, 0x22, 0x3f, 0xbd, 0xb2, 0x45, 0xce, 0xbd, 0xe8, 0xed, 0xc9, 0x3c,
  0x39, 0xeb, 0x32, 0x3e, 0xbc, 0x71, 0x34, 0x3d, 0xe3, 0x59, 0x55, 0x3e,
  0x1f, 0x5d, 0x6a, 0xbe, 0x26, 0xba, 0x69, 0xbe, 0xb3, 0x9f, 0x40, 0x3d,
  0xf1, 0x43, 0x21, 0x3d, 0x86, 0xea, 0x46, 0xbe, 0xd6, 0x7d, 0xba, 0xbd,
  0x67, 0xdf, 0x4b, 0xbe, 0x27, 0x1d, 0x4d, 0xbe, 0x15, 0xb8, 0x0d, 0x3e,
  0x8b, 0x73, 0x26, 0xbe, 0xc3, 0x88, 0x26, 0x3d, 0x1e, 0xe2, 0x04, 0x3e,
  0xef, 0xd7, 0xe0, 0x3d, 0x69, 0xe8, 0x53, 0xbe, 0x8a, 0xb4, 0xc5, 0x3c,
  0x35, 0xbc, 0x29, 0xbe, 0xd4, 0xcb, 0xac, 0x3d, 0x8b, 0x7b, 0x31, 0x3e,
  0x50, 0x17, 0xd1, 0x3d, 0xf5, 0x19, 0x1e, 0x3e, 0xda, 0xdd, 0x61, 0x3d,
  0xed, 0x28, 0x41, 0x3e, 0x1f, 0x39, 0x38, 0x3e, 0x1b, 0x84, 0x23, 0xbe,
  0xc7, 0xde, 0xe3, 0xbd, 0x2f, 0xa7, 0x8b, 0x3c, 0x44, 0x46, 0xe2, 0xbd,
  0x90, 0x76, 0x39, 0x3e, 0x64, 0x98, 0x2b, 0xbe, 0x42, 0x0a, 0x45, 0x3e,
  0xe5, 0xec, 0xd9, 0x3d, 0xf1, 0x83, 0x91, 0x3d, 0x5d, 0x08, 0x23, 0x3e,
  0xae, 0x4c, 0x35, 0xbe, 0x73, 0x42, 0x4f, 0xbe, 0x02, 0xbb, 0x86, 0xbd,
  0x98, 0x9b, 0x1e, 0xbe, 0x75, 0x0e, 0x43, 0x3e, 0x47, 0xca, 0xe0, 0xbc,
  0xb6, 0xc5, 0x32, 0xbd, 0xe5, 0x2d, 0x6d, 0xbe, 0x2d, 0xba, 0x04, 0x3e,
  0x4d, 0xff, 0x26, 0xbe, 0x99, 0x8f, 0xf3, 0xbd, 0x89, 0xc6, 0x9f, 0xb9,
  0x71, 0xa0, 0xcf, 0x3d, 0x78, 0x33, 0xd3, 0xbd, 0xea, 0x38, 0x13, 0x3e,
  0x42, 0x06, 0x9c, 0xbc, 0x07, 0x69, 0xf5, 0xbd, 0x5b, 0x90, 0x7c, 0xbd,
  0xa8, 0x68, 0xa0, 0x3c, 0x5f, 0x73, 0x3f, 0x3e, 0x5c, 0xcd, 0x64, 0xbe,
  0xa7, 0x97, 0x70, 0xbe, 0x15, 0x6b, 0xf4, 0x3c, 0x11, 0xb1, 0x2b, 0xbd,
  0x1d, 0xe7, 0x30, 0xbe, 0xa0, 0xdf, 0x5c, 0xbe, 0x55, 0xd5, 0xf0, 0xbd,
  0xf4, 0xf0, 0x56, 0x3e, 0x9a, 0xa4, 0x67, 0x3c, 0xa0, 0x07, 0x51, 0x3e,
  0x5a, 0x79, 0xd5, 0xbd, 0x51, 0x4f, 0x39, 0x3e, 0x92, 0x06, 0x09, 0xbd,
  0x46, 0x7b, 0x2f, 0x3e, 0xc8, 0xeb, 0x47, 0x3e, 0xf1, 0x10, 0x63, 0x3d,
  0x73, 0xfc, 0xaa, 0x3d, 0x1f, 0xc6, 0x36, 0xbd, 0xd0, 0x39, 0xe3, 0xbd,
  0xd2, 0x4f, 0x75, 0xbd, 0x4b, 0x7d, 0x48, 0x3e, 0x5c, 0x41, 0x42, 0x3e,
  0xce, 0xe0, 0xd5, 0xbd, 0xdb, 0x9b, 0x2d, 0xbe, 0xae, 0xeb, 0x20, 0x3e,
  0xa9, 0xd1, 0xf5, 0xbd, 0x06, 0x62, 0xa3, 0x3c, 0x5a, 0xc9, 0x48, 0xbd,
  0x2d, 0x14, 0x56, 0x3d, 0x68, 0xba, 0x96, 0x3c, 0x95, 0xa5, 0x7f, 0x3d,
  0xbf, 0xaa, 0x29, 0xbe, 0xdf, 0xda, 0x36, 0x3e, 0x99, 0x5f, 0x89, 0x3d,
  0xd0, 0x24, 0x54, 0xbe, 0x86, 0x89, 0x15, 0x3e, 0x50, 0xcd, 0x71, 0xbd,
  0x19, 0x55, 0x64, 0xbe, 0x3a, 0x33, 0x7b, 0xbe, 0x59, 0x0e, 0x59, 0xbe,
  0x80, 0x4a, 0x79, 0xbb, 0xf3, 0x86, 0xf4, 0xbd, 0xa6, 0xba, 0xbf, 0xbd,
  0x13, 0xa6, 0x6f, 0x3e, 0x1c, 0xd3, 0x02, 0xbe, 0x2e, 0xfb, 0xdd, 0x3d,
  0xf5, 0x33, 0x34, 0x3e, 0xf7, 0x64, 0x22, 0x3e, 0x33, 0x4d, 0x73, 0x3e,
  0x80, 0x9c, 0x34, 0xbb, 0xb4, 0x92, 0x08, 0x3d, 0x40, 0x5a, 0x8a, 0xbc,
  0xda, 0x98, 0x98, 0x3d, 0x56, 0xbe, 0x82, 0x3d, 0x69, 0x2e, 0x6c, 0x3e,
  0xe0, 0x44, 0x40, 0xbe, 0xef, 0xc8, 0x04, 0x3e, 0x05, 0xd8, 0x4b, 0x3e,
  0x80, 0xb2, 0xa0, 0xbd, 0x97, 0xc7, 0x04, 0x3e, 0xe6, 0x8e, 0xfd, 0x3d,
  0x83, 0x3f, 0x66, 0xbe, 0xa7, 0x56, 0x10, 0xbe, 0x20, 0x6c, 0xcf, 0xbc,
  0xde, 0x0a, 0x1c, 0xbe, 0xa0, 0x40, 0xab, 0x3b, 0xa2, 0x19, 0x17, 0xbe,
  0x8a, 0x83, 0x44, 0xbe, 0xce, 0x01, 0xe3, 0x3d, 0xc7, 0x3a, 0x22, 0x3e,
  0x6f, 0x3d, 0x70, 0xbe, 0xc4, 0x32, 0x2b, 0x3d, 0xa5, 0x51, 0x5f, 0xbe,
  0x66, 0x7c, 0x9a, 0x3d, 0x6c, 0x04, 0x1b, 0xbd, 0xf0, 0x57, 0x97, 0xbc,
  0x97, 0x41, 0x30, 0x3e, 0x12, 0x75, 0xf8, 0x3d, 0x02, 0xb2, 0x25, 0xbe,
  0x17, 0xe7, 0x0e, 0x3e, 0xa4, 0x06, 0x7e, 0x3d, 0x20, 0xf5, 0x93, 0x3b,
  0x67, 0xa0, 0x58, 0xbe, 0x68, 0xf3, 0xef, 0xbc, 0x3c, 0x3e, 0x87, 0xbd,
  0x42, 0x99, 0xc6, 0x3d, 0x14, 0x23, 0x28, 0x3d, 0x8a, 0x83, 0xbe, 0x3d,
  0x24, 0x91, 0x45, 0xbd, 0x12, 0xb2, 0xd7, 0x3d, 0xf0, 0xed, 0x60, 0xbe,
  0x0f, 0xa3, 0x18, 0xbe, 0x4b, 0xaf, 0x29, 0x3e, 0x89, 0xb2, 0x6f, 0xbe,
  0xed, 0xc4, 0x2a, 0x3e, 0x70, 0x0b, 0x71, 0xbc, 0x31, 0x75, 0x2f, 0xbe,
  0xe8, 0x22, 0x9b, 0xbd, 0x9c, 0x75, 0x43, 0xbe, 0x5c, 0xbd, 0x27, 0x3d,
  0x0a, 0x81, 0x83, 0x3d, 0x80, 0x1b, 0x18, 0xbd, 0x58, 0x1e, 0x64, 0xbe,
  0xc3, 0xf8, 0x10, 0x3e, 0x1d, 0x1c, 0x6f, 0xbe, 0x69, 0x64, 0x5f, 0xbe,
  0x7a, 0xd6, 0xd5, 0xbd, 0xd6, 0x53, 0xaa, 0xbd, 0x1e, 0x45, 0x61, 0xbe,
  0xc5, 0xae, 0x07, 0x3e, 0x58, 0x7c, 0x15, 0xbe, 0x09, 0x7b, 0x48, 0xbe,
  0x76, 0xca, 0x91, 0x3d, 0x45, 0xb1, 0x4b, 0x3e, 0xda, 0x4a, 0xfd, 0x3d,
  0x76, 0x14, 0xca, 0xbd, 0xf9, 0x65, 0x46, 0xbe, 0x7a, 0xd4, 0xeb, 0x3d,
  0x18, 0xa5, 0xce, 0xbc, 0x9c, 0x1f, 0xde, 0xbd, 0x3d, 0xee, 0x63, 0x3e,
  0xe1, 0x15, 0x2a, 0x3e, 0xec, 0xad, 0x47, 0xbd, 0x97, 0x38, 0x56, 0x3e,
  0x95, 0x07, 0x4f, 0x3e, 0xe4, 0x05, 0x49, 0xbd, 0xd8, 0x8e, 0x07, 0xbe,
  0x7e, 0x66, 0xc5, 0x3d, 0x2e, 0xae, 0x55, 0xbe, 0x98, 0xf7, 0xd7, 0xbe,
  0x1b, 0xd8, 0xcb, 0x3e, 0xc1, 0x54, 0x8b, 0xbd, 0xbe, 0x34, 0x30, 0xbe,
  0x40, 0x6c, 0x8b, 0x3e, 0xf9, 0x88, 0xa0, 0xbe, 0xa4, 0xdf, 0xea, 0xbe,
  0x50, 0xe7, 0xdb, 0x3e, 0x98, 0x20, 0x91, 0xbd, 0x1c, 0x89, 0x01, 0xbf,
  0x89, 0x80, 0x99, 0x3e, 0xe3, 0xd7, 0x01, 0xbf, 0x65, 0x6d, 0xc0, 0xbe,
  0xf2, 0xd3, 0x03, 0x3f, 0x8c, 0xcb, 0xfe, 0xbb, 0x08, 0xab, 0x03, 0xbf,
  0x98, 0xfd, 0x6c, 0x3e, 0xb3, 0xa8, 0x82, 0xbe, 0xf6, 0x00, 0x00, 0x3e,
  0xfc, 0xf5, 0x84, 0x3e, 0x58, 0x2e, 0x82, 0xbe, 0x7c, 0x12, 0xc0, 0xbe,
  0x89, 0xf7, 0x3b, 0x3e, 0x92, 0x16, 0x25, 0x3c, 0x6d, 0x11, 0x8d, 0x3d,
  0x95, 0xf6, 0xbf, 0x3c, 0x53, 0x91, 0x29, 0xbd, 0x2d, 0xa4, 0xaf, 0xbe,
  0x21, 0x4c, 0xab, 0x3e, 0xab, 0xe0, 0x91, 0x3c, 0x31, 0x89, 0x21, 0x3e,
  0xb6, 0x81, 0xb2, 0x3e, 0xec, 0xce, 0x16, 0xbe, 0xee, 0x49, 0x55, 0xbf,
  0x80, 0xb7, 0x65, 0x3e, 0x78, 0x24, 0xa4, 0xbd, 0x03, 0x07, 0x80, 0x3e,
  0x70, 0x56, 0xa4, 0xbd, 0x81, 0x8a, 0x98, 0xbe, 0x93, 0x87, 0x09, 0xbf,
  0x60, 0xe5, 0xa8, 0x3e, 0xfa, 0x03, 0x4f, 0x3e, 0xc6, 0x3c, 0x1e, 0x3e,
  0x5f, 0x31, 0xae, 0x3d, 0x07, 0xc9, 0x90, 0xbd, 0x67, 0xd8, 0x42, 0xbf,
  0x1e, 0x78, 0x29, 0x3e, 0xc0, 0x6b, 0x7d, 0xbc, 0x4d, 0x41, 0xef, 0x3e,
  0xe1, 0xe3, 0x16, 0x3e, 0xcb, 0x12, 0x86, 0x3d, 0x56, 0xf3, 0xf2, 0xbe,
  0x58, 0xc3, 0xf7, 0x3d, 0x93, 0x34, 0x33, 0xbe, 0x1a, 0x7d, 0xa5, 0x3e,
  0xfd, 0xb7, 0xea, 0x3c, 0x5d, 0xf8, 0x43, 0x3e, 0x19, 0xe7, 0x35, 0xbf,
  0xf5, 0x7d, 0xc3, 0x3c, 0xe9, 0xc1, 0x44, 0x3e, 0xf4, 0xa6, 0x2e, 0x3f,
  0x2a, 0xd5, 0x9a, 0x3e, 0x76, 0x0f, 0x77, 0x3e, 0xf9, 0x36, 0x75, 0xbe,
  0x88, 0x2b, 0x9e, 0x3e, 0x28, 0x40, 0x52, 0xbe, 0xc7, 0xc4, 0x05, 0x3f,
  0x16, 0x32, 0xf7, 0x3d, 0xa9, 0x37, 0xbf, 0xbd, 0x1e, 0xe1, 0xe2, 0xbe,
  0x85, 0x41, 0x5f, 0x3e, 0x58, 0x0a, 0x11, 0x3e, 0x99, 0x9f, 0xbd, 0x3e,
  0x0f, 0x22, 0x07, 0x3e, 0xcb, 0xb2, 0xe9, 0x3d, 0xfc, 0xc8, 0xa8, 0xbe,
  0xf0, 0x1d, 0x50, 0x3b, 0xad, 0xfc, 0xab, 0xbd, 0x4b, 0x9b, 0x27, 0x3f,
  0x25, 0x51, 0x19, 0x3f, 0xf9, 0xa1, 0x31, 0x3e, 0x40, 0xb9, 0xc8, 0xbe,
  0x69, 0x61, 0x89, 0x3e, 0x50, 0x5d, 0x2e, 0x3e, 0xb7, 0x9a, 0x3d, 0x3f,
  0x36, 0x8b, 0x39, 0x3f, 0x25, 0x36, 0xba, 0x3d, 0x45, 0xdc, 0x31, 0xbe,
  0x11, 0xb8, 0x55, 0x3e, 0xec, 0xe9, 0x68, 0x3c, 0xd5, 0x04, 0x5e, 0xbe,
  0x37, 0x03, 0x5c, 0x3e, 0x6a, 0xc0, 0xca, 0x3d, 0xf6, 0xf2, 0x48, 0xbe,
  0x79, 0x05, 0x31, 0x3e, 0x7b, 0x4e, 0x68, 0x3e, 0xd5, 0x55, 0x21, 0x3e,
  0x82, 0xbf, 0x90, 0x3d, 0x8c, 0xd7, 0x0e, 0xbe, 0x2c, 0x1c, 0x69, 0x3d,
  0x1d, 0x08, 0x2e, 0x3e, 0x99, 0x8e, 0x3b, 0xbe, 0x00, 0xc0, 0xa0, 0xba,
  0xf0, 0xe3, 0x23, 0xbc, 0x9c, 0x4f, 0x02, 0x3d, 0x6c, 0x6c, 0xaf, 0xbd,
  0x8c, 0x99, 0x55, 0xbd, 0x60, 0xbf, 0xaa, 0xbd, 0x40, 0x0f, 0x0f, 0xbc,
  0x47, 0x08, 0x40, 0x3e, 0x7a, 0x9c, 0x87, 0xbd, 0xc2, 0x7f, 0x6d, 0xbe,
  0xc8, 0xce, 0x03, 0xbd, 0x70, 0x18, 0xea, 0xbd, 0x21, 0x20, 0x5a, 0x3e,
  0xf2, 0xc9, 0xb9, 0x3d, 0x40, 0x2b, 0x58, 0xbd, 0x69, 0x1e, 0x3e, 0x3e,
  0xb4, 0xb5, 0xb6, 0xbd, 0xc4, 0xdb, 0x85, 0xbd, 0xc0, 0xa1, 0x03, 0xbe,
  0x10, 0x43, 0x6c, 0x3c, 0xf0, 0x2d, 0x6b, 0x3c, 0x18, 0xc3, 0xf4, 0x3c,
  0xd3, 0x15, 0x4b, 0xbe, 0x58, 0x7c, 0xbe, 0x3c, 0xa4, 0x0e, 0x34, 0xbd,
  0x12, 0x87, 0x99, 0xbd, 0x2e, 0xc7, 0x45, 0xbe, 0xcf, 0x76, 0xfc, 0xbd,
  0x04, 0x5f, 0x78, 0x3d, 0x95, 0xa7, 0xf1, 0xbd, 0x57, 0x0c, 0x4a, 0x3e,
  0x58, 0xfe, 0xc9, 0xbc, 0xb4, 0x52, 0x08, 0xbe, 0x40, 0x07, 0x15, 0x3b,
  0x63, 0x5f, 0x59, 0xbe, 0x40, 0xd3, 0x9a, 0xbb, 0x08, 0xee, 0xeb, 0x3c,
  0x4a, 0x57, 0x2a, 0xbe, 0x60, 0x98, 0x4d, 0xbc, 0x30, 0x83, 0x66, 0x3c,
  0x2c, 0x30, 0x1f, 0xbe, 0xd8, 0x59, 0xb5, 0x3c, 0xe0, 0xf7, 0xd5, 0xbd,
  0x6a, 0xf5, 0x94, 0x3d, 0x6d, 0x34, 0x2d, 0xbe, 0xd6, 0xb1, 0xc9, 0x3d,
  0xd6, 0x84, 0xb1, 0x3d, 0xa4, 0xc6, 0x14, 0xbd, 0x80, 0x4d, 0xb5, 0xbc,
  0xdf, 0x8f, 0x01, 0x3e, 0xf2, 0xa0, 0x2c, 0xbe, 0xf2, 0x6e, 0x9c, 0x3d,
  0x99, 0x88, 0x4d, 0x3e, 0x51, 0x60, 0x34, 0x3e, 0xcc, 0x4b, 0xa5, 0xbd,
  0xd6, 0x55, 0x47, 0xbe, 0x87, 0xa9, 0x3c, 0x3e, 0xa5, 0x63, 0x39, 0x3e,
  0x3c, 0x1f, 0x43, 0x3d, 0x5f, 0xa5, 0xf5, 0xbd, 0xe2, 0x7a, 0xdf, 0xbd,
  0x06, 0x38, 0xbf, 0x3d, 0xb6, 0xad, 0xbf, 0xbd, 0x2a, 0xf2, 0x09, 0xbe,
  0x70, 0xed, 0x23, 0xbc, 0x44, 0x55, 0x8c, 0xbd, 0x04, 0x1f, 0x1c, 0xbe,
  0x1e, 0x48, 0xcb, 0x3d, 0xed, 0x69, 0x55, 0xbe, 0xcc, 0xf3, 0x28, 0x3d,
  0x30, 0xae, 0xfa, 0xbd, 0x2e, 0xb0, 0x3f, 0xbe, 0xd0, 0x4c, 0x2f, 0xbd,
  0x60, 0x6a, 0xd8, 0xbb, 0xe3, 0x8f, 0x47, 0xbe, 0x28, 0xd5, 0xd0, 0x3c,
  0xf1, 0xce, 0x63, 0xbe, 0x52, 0x8e, 0x11, 0xbe, 0xd2, 0x22, 0x5e, 0x3e,
  0x2d, 0x02, 0xe7, 0x3d, 0xed, 0x1a, 0xb9, 0xbd, 0x59, 0x78, 0x00, 0x3f,
  0x35, 0x36, 0x71, 0xbd, 0x84, 0xe1, 0x84, 0x3e, 0xb9, 0xe4, 0x22, 0x3f,
  0xb6, 0xe4, 0x8d, 0xbd, 0x90, 0x5e, 0x59, 0x3e, 0x5d, 0x46, 0xc3, 0x3e,
  0xf8, 0x32, 0x11, 0x3e, 0x8d, 0x0e, 0xc3, 0x3e, 0x9e, 0x6f, 0xe2, 0x3e,
  0xce, 0x5e, 0x00, 0x3e, 0x83, 0x3c, 0x65, 0x3e, 0x3a, 0xba, 0x3a, 0x3f,
  0x53, 0x92, 0x09, 0xbe, 0x2c, 0x7a, 0xbe, 0x3e, 0x3a, 0xdf, 0x96, 0x3e,
  0xc2, 0x2d, 0xa7, 0x3e, 0xcf, 0x3b, 0x15, 0xbe, 0x7a, 0xf8, 0x43, 0x3f,
  0x83, 0x88, 0x3d, 0x3e, 0xb0, 0xda, 0xba, 0x3e, 0xe0, 0xde, 0xc4, 0x3e,
  0xb0, 0xf4, 0x58, 0xbd, 0x03, 0x4a, 0x4f, 0x3e, 0x50, 0x11, 0x2a, 0x3f,
  0xc3, 0x16, 0x7f, 0x3e, 0x53, 0x0d, 0x1c, 0x3e, 0x03, 0x85, 0xdd, 0x3d,
  0x5e, 0x3e, 0x63, 0x3e, 0x05, 0xed, 0x08, 0xbe, 0x8b, 0xd9, 0x71, 0x3f,
  0x03, 0xc3, 0x1f, 0xbe, 0x77, 0x39, 0x0f, 0x3e, 0xf8, 0x2a, 0xc1, 0x3d,
  0x8d, 0x6f, 0x1d, 0x3e, 0x99, 0xeb, 0x07, 0x3e, 0xc7, 0x26, 0x67, 0x3f,
  0xaf, 0xa0, 0x41, 0x3e, 0xdb, 0xef, 0xa7, 0x3d, 0xb5, 0x61, 0xa7, 0x3e,
  0xdc, 0x6a, 0x33, 0x3e, 0xd7, 0x39, 0x2b, 0xbe, 0xb6, 0xc9, 0x6e, 0x3f,
  0x00, 0x36, 0xe8, 0x3d, 0x21, 0x39, 0xcd, 0x3e, 0x27, 0x71, 0xea, 0x3e,
  0xca, 0xeb, 0x7a, 0xbe, 0xcc, 0xc9, 0x13, 0x3d, 0x3f, 0x50, 0x39, 0x3f,
  0x2a, 0x8c, 0x86, 0x3d, 0x29, 0x9a, 0x86, 0x3e, 0x0f, 0x29, 0xc3, 0x3e,
  0x01, 0x6b, 0x0e, 0x3e, 0x8c, 0x79, 0x1e, 0xbe, 0x22, 0x7d, 0x43, 0x3f,
  0x00, 0x81, 0x21, 0x3d, 0x9b, 0x8a, 0x43, 0x3e, 0x50, 0xf0, 0x10, 0x3e,
  0x91, 0x48, 0x46, 0xbe, 0xe8, 0xda, 0x82, 0xbe, 0x3b, 0x5a, 0xd7, 0x3e,
  0x71, 0xee, 0x9b, 0xbd, 0x2b, 0xc5, 0xb3, 0x3d, 0x51, 0xa9, 0x0b, 0x3f,
  0x54, 0x69, 0x02, 0xbf, 0x8a, 0xd5, 0x90, 0xbe, 0xad, 0x2f, 0xb6, 0x3e,
  0x1d, 0x39, 0x06, 0x3e, 0x22, 0x2a, 0x19, 0x3e, 0x99, 0x0a, 0x2b, 0x3f,
  0xc5, 0x1f, 0xd5, 0xbe, 0x35, 0x20, 0x59, 0xbe, 0x4c, 0x78, 0xc5, 0x3e,
  0x1b, 0x56, 0xd7, 0x3b, 0xb1, 0xac, 0x18, 0x3e, 0xcc, 0x52, 0xbc, 0x3e,
  0x2b, 0xfb, 0x31, 0xbf, 0xf9, 0xa4, 0xe6, 0x3d, 0xf8, 0x77, 0xfb, 0x3d,
  0x90, 0x78, 0x0d, 0xbe, 0x9f, 0x00, 0x5a, 0x3e, 0xba, 0x26, 0xd9, 0x3e,
  0xba, 0x9e, 0x21, 0xbf, 0x76, 0xd2, 0x0d, 0x3d, 0x69, 0x71, 0xff, 0x3d,
  0xb8, 0xe2, 0x12, 0xbd, 0xbf, 0xa2, 0x86, 0x3e, 0x25, 0x19, 0xb9, 0x3d,
  0x5d, 0xaf, 0xbf, 0xbd, 0xd9, 0xb5, 0x70, 0xbe, 0x09, 0xc5, 0x8c, 0x3d,
  0x38, 0x57, 0xe4, 0x3d, 0x0c, 0x4f, 0xd8, 0x3d, 0xad, 0x80, 0x1c, 0xbe,
  0xeb, 0x00, 0x17, 0x3e, 0x7e, 0xb1, 0xda, 0xbd, 0x06, 0x6e, 0x6b, 0xbe,
  0x1d, 0xc8, 0xc6, 0x3d, 0x13, 0x03, 0x2e, 0xbe, 0x2d, 0x41, 0x68, 0xbb,
  0xc0, 0x5d, 0x67, 0x3e, 0x52, 0xed, 0x2f, 0xbe, 0x9d, 0x58, 0xcd, 0x3c,
  0x03, 0x3d, 0x49, 0xbe, 0xe5, 0xc5, 0x06, 0x3e, 0x6d, 0xd2, 0x2d, 0x3e,
  0x85, 0x0e, 0x60, 0xbe, 0xc6, 0xc4, 0x3e, 0xbd, 0xf1, 0x8a, 0xcb, 0xbd,
  0x54, 0x13, 0x51, 0x3e, 0x2f, 0x92, 0x64, 0x3d, 0x7e, 0xee, 0xa5, 0xbb,
  0xe9, 0x7f, 0x65, 0x3c, 0x13, 0x8d, 0xfa, 0x3d, 0x2d, 0xfc, 0x4e, 0x3d,
  0x3e, 0xcb, 0xc0, 0x38, 0x19, 0xd3, 0x29, 0x3e, 0x55, 0xe5, 0xdb, 0xbd,
  0x36, 0x81, 0x40, 0x3e, 0x2c, 0x91, 0x30, 0xbe, 0x77, 0x26, 0xab, 0xbd,
  0x34, 0x0f, 0x84, 0x3d, 0x6f, 0xa1, 0x9b, 0x3d, 0xd5, 0x61, 0xa7, 0xbd,
  0x29, 0x64, 0xb6, 0x3d, 0x69, 0x66, 0x4d, 0x3e, 0x65, 0x6c, 0x25, 0xbe,
  0x6d, 0x44, 0x37, 0x3e, 0x0c, 0x3f, 0x5e, 0xbe, 0x26, 0xcc, 0xbc, 0x3d,
  0x9b, 0x0f, 0x92, 0x3d, 0x28, 0x32, 0xac, 0xbd, 0x30, 0x20, 0xdc, 0x3d,
  0x79, 0xde, 0xc5, 0x3d, 0x98, 0x9b, 0x48, 0xbe, 0xa8, 0x2a, 0x44, 0xbe,
  0x7a, 0x30, 0xb0, 0x3c, 0x31, 0xea, 0x58, 0xbe, 0x6a, 0x18, 0x53, 0x3e,
  0x5e, 0x99, 0x06, 0xbe, 0xb0, 0x42, 0xd7, 0xbd, 0xc3, 0xf4, 0x19, 0x3d,
  0xe1, 0xe7, 0x62, 0xbe, 0x87, 0x8b, 0xf4, 0x3d, 0x69, 0x86, 0x42, 0xbe,
  0xb2, 0x74, 0x57, 0x3e, 0x05, 0x4b, 0x10, 0x3e, 0xf4, 0xea, 0x66, 0x3e,
  0xea, 0x51, 0x45, 0xbe, 0x59, 0x71, 0x3e, 0x3e, 0x43, 0xc4, 0x37, 0x3e,
  0xa1, 0x97, 0x99, 0xbd, 0xea, 0x5a, 0x7b, 0xbe, 0x27, 0xd7, 0x45, 0xbe,
  0x8c, 0x9c, 0xfc, 0xbd, 0xb9, 0x53, 0x79, 0xbe, 0x18, 0x41, 0x1e, 0x3e,
  0xd0, 0x3b, 0x6d, 0xbe, 0x36, 0x19, 0xe7, 0x3d, 0x27, 0x3d, 0x28, 0xbe,
  0x64, 0xb0, 0xa7, 0xbd, 0x05, 0x7f, 0xb2, 0xbd, 0x68, 0xd5, 0x54, 0x3d,
  0xe8, 0x31, 0x2e, 0x3e, 0xe3, 0xe9, 0x98, 0xbd, 0x9f, 0xc4, 0xe6, 0xbd,
  0xe3, 0x07, 0x95, 0xbd, 0x4e, 0xbd, 0xb3, 0xbd, 0x99, 0x3a, 0xa9, 0xbd,
  0x0e, 0x4a, 0x26, 0x3c, 0xe1, 0xf0, 0xbc, 0xbd, 0xc3, 0x7f, 0xb0, 0xbd,
  0xd4, 0x4c, 0x1a, 0xbe, 0xb6, 0x17, 0x5e, 0x3c, 0xc3, 0x44, 0x55, 0xbe,
  0x25, 0xc3, 0x30, 0x3e, 0x98, 0xd9, 0xd0, 0x3d, 0xc6, 0xfe, 0xff, 0xff,
  0x04, 0x00, 0x00, 0x00, 0x40, 0x00, 0x00, 0x00, 0x00, 0x00, 0x00, 0x00,
  0x61, 0x4d, 0x81, 0xbd, 0xd8, 0x15, 0x81, 0x3e, 0x01, 0x8c, 0xa7, 0xbb,
  0x3d, 0xfa, 0x2e, 0x3e, 0xd0, 0x06, 0x7c, 0x3c, 0x63, 0x12, 0x91, 0xbc,
  0x00, 0x00, 0x00, 0x00, 0x00, 0x00, 0x00, 0x00, 0x00, 0x00, 0x00, 0x00,
  0x4c, 0x39, 0x9f, 0xbc, 0x00, 0x00, 0x00, 0x00, 0xaa, 0x2f, 0x91, 0xbd,
  0x00, 0x00, 0x00, 0x00, 0x59, 0x1e, 0xc8, 0x3d, 0xf1, 0xc5, 0x2e, 0xbc,
  0x12, 0xff, 0xff, 0xff, 0x04, 0x00, 0x00, 0x00, 0x20, 0x00, 0x00, 0x00,
  0x02, 0xa8, 0x6f, 0xbd, 0xf2, 0x3d, 0xa0, 0x3d, 0xf3, 0x8d, 0x3c, 0xbd,
  0x1f, 0x60, 0x80, 0xbb, 0x00, 0x00, 0x00, 0x00, 0x00, 0x00, 0x00, 0x00,
  0xfc, 0xee, 0xa2, 0x3e, 0xf5, 0xf7, 0x96, 0x3e, 0x3e, 0xff, 0xff, 0xff,
  0x04, 0x00, 0x00, 0x00, 0x20, 0x00, 0x00, 0x00, 0x93, 0xc5, 0x45, 0x40,
  0xa7, 0xae, 0x81, 0xc0, 0x01, 0xe8, 0x7e, 0xc0, 0x89, 0xa8, 0xeb, 0x3e,
  0xbd, 0x4e, 0x00, 0xc0, 0x21, 0x4d, 0xb7, 0xbf, 0x3d, 0xa0, 0xa6, 0xbf,
  0xc8, 0xd8, 0x6b, 0x3f, 0x40, 0xfa, 0xff, 0xff, 0x44, 0xfa, 0xff, 0xff,
  0x0f, 0x00, 0x00, 0x00, 0x4d, 0x4c, 0x49, 0x52, 0x20, 0x43, 0x6f, 0x6e,
  0x76, 0x65, 0x72, 0x74, 0x65, 0x64, 0x2e, 0x00, 0x01, 0x00, 0x00, 0x00,
  0x14, 0x00, 0x00, 0x00, 0x00, 0x00, 0x0e, 0x00, 0x18, 0x00, 0x14, 0x00,
  0x10, 0x00, 0x0c, 0x00, 0x08, 0x00, 0x04, 0x00, 0x0e, 0x00, 0x00, 0x00,
  0x14, 0x00, 0x00, 0x00, 0x1c, 0x00, 0x00, 0x00, 0x24, 0x01, 0x00, 0x00,
  0x28, 0x01, 0x00, 0x00, 0x2c, 0x01, 0x00, 0x00, 0x04, 0x00, 0x00, 0x00,
  0x6d, 0x61, 0x69, 0x6e, 0x00, 0x00, 0x00, 0x00, 0x04, 0x00, 0x00, 0x00,
  0xcc, 0x00, 0x00, 0x00, 0x84, 0x00, 0x00, 0x00, 0x50, 0x00, 0x00, 0x00,
  0x14, 0x00, 0x00, 0x00, 0x00, 0x00, 0x0e, 0x00, 0x1a, 0x00, 0x14, 0x00,
  0x10, 0x00, 0x0c, 0x00, 0x0b, 0x00, 0x04, 0x00, 0x0e, 0x00, 0x00, 0x00,
  0x1c, 0x00, 0x00, 0x00, 0x00, 0x00, 0x00, 0x09, 0x1c, 0x00, 0x00, 0x00,
  0x20, 0x00, 0x00, 0x00, 0x01, 0x00, 0x00, 0x00, 0x00, 0x00, 0x06, 0x00,
  0x08, 0x00, 0x04, 0x00, 0x06, 0x00, 0x00, 0x00, 0x00, 0x00, 0x80, 0x3f,
  0x01, 0x00, 0x00, 0x00, 0x0a, 0x00, 0x00, 0x00, 0x01, 0x00, 0x00, 0x00,
  0x09, 0x00, 0x00, 0x00, 0x9a, 0xff, 0xff, 0xff, 0x10, 0x00, 0x00, 0x00,
  0x00, 0x00, 0x00, 0x08, 0x0c, 0x00, 0x00, 0x00, 0x10, 0x00, 0x00, 0x00,
  0x08, 0xfb, 0xff, 0xff, 0x01, 0x00, 0x00, 0x00, 0x09, 0x00, 0x00, 0x00,
  0x03, 0x00, 0x00, 0x00, 0x08, 0x00, 0x00, 0x00, 0x06, 0x00, 0x00, 0x00,
  0x01, 0x00, 0x00, 0x00, 0xca, 0xff, 0xff, 0xff, 0x10, 0x00, 0x00, 0x00,
  0x00, 0x00, 0x00, 0x08, 0x10, 0x00, 0x00, 0x00, 0x14, 0x00, 0x00, 0x00,
  0xba, 0xff, 0xff, 0xff, 0x00, 0x00, 0x00, 0x01, 0x01, 0x00, 0x00, 0x00,
  0x08, 0x00, 0x00, 0x00, 0x03, 0x00, 0x00, 0x00, 0x07, 0x00, 0x00, 0x00,
  0x05, 0x00, 0x00, 0x00, 0x02, 0x00, 0x00, 0x00, 0x00, 0x00, 0x0e, 0x00,
  0x16, 0x00, 0x00, 0x00, 0x10, 0x00, 0x0c, 0x00, 0x0b, 0x00, 0x04, 0x00,
  0x0e, 0x00, 0x00, 0x00, 0x18, 0x00, 0x00, 0x00, 0x00, 0x00, 0x00, 0x08,
  0x18, 0x00, 0x00, 0x00, 0x1c, 0x00, 0x00, 0x00, 0x00, 0x00, 0x06, 0x00,
  0x08, 0x00, 0x07, 0x00, 0x06, 0x00, 0x00, 0x00, 0x00, 0x00, 0x00, 0x01,
  0x01, 0x00, 0x00, 0x00, 0x07, 0x00, 0x00, 0x00, 0x03, 0x00, 0x00, 0x00,
  0x00, 0x00, 0x00, 0x00, 0x04, 0x00, 0x00, 0x00, 0x03, 0x00, 0x00, 0x00,
  0x01, 0x00, 0x00, 0x00, 0x0a, 0x00, 0x00, 0x00, 0x01, 0x00, 0x00, 0x00,
  0x00, 0x00, 0x00, 0x00, 0x0b, 0x00, 0x00, 0x00, 0x20, 0x04, 0x00, 0x00,
  0xb0, 0x03, 0x00, 0x00, 0x40, 0x03, 0x00, 0x00, 0xe8, 0x02, 0x00, 0x00,
  0x9c, 0x02, 0x00, 0x00, 0x50, 0x02, 0x00, 0x00, 0x04, 0x02, 0x00, 0x00,
  0x70, 0x01, 0x00, 0x00, 0xdc, 0x00, 0x00, 0x00, 0x60, 0x00, 0x00, 0x00,
  0x04, 0x00, 0x00, 0x00, 0x22, 0xfc, 0xff, 0xff, 0x00, 0x00, 0x00, 0x01,
  0x14, 0x00, 0x00, 0x00, 0x1c, 0x00, 0x00, 0x00, 0x1c, 0x00, 0x00, 0x00,
  0x0b, 0x00, 0x00, 0x00, 0x34, 0x00, 0x00, 0x00, 0x02, 0x00, 0x00, 0x00,
  0xff, 0xff, 0xff, 0xff, 0x08, 0x00, 0x00, 0x00, 0x0c, 0xfc, 0xff, 0xff,
  0x19, 0x00, 0x00, 0x00, 0x53, 0x74, 0x61, 0x74, 0x65, 0x66, 0x75, 0x6c,
  0x50, 0x61, 0x72, 0x74, 0x69, 0x74, 0x69, 0x6f, 0x6e, 0x65, 0x64, 0x43,
  0x61, 0x6c, 0x6c, 0x3a, 0x30, 0x00, 0x00, 0x00, 0x02, 0x00, 0x00, 0x00,
  0x01, 0x00, 0x00, 0x00, 0x08, 0x00, 0x00, 0x00, 0x7a, 0xfc, 0xff, 0xff,
  0x00, 0x00, 0x00, 0x01, 0x14, 0x00, 0x00, 0x00, 0x1c, 0x00, 0x00, 0x00,
  0x1c, 0x00, 0x00, 0x00, 0x0a, 0x00, 0x00, 0x00, 0x54, 0x00, 0x00, 0x00,
  0x02, 0x00, 0x00, 0x00, 0xff, 0xff, 0xff, 0xff, 0x08, 0x00, 0x00, 0x00,
  0x64, 0xfc, 0xff, 0xff, 0x38, 0x00, 0x00, 0x00, 0x73, 0x65, 0x71, 0x75,
  0x65, 0x6e, 0x74, 0x69, 0x61, 0x6c, 0x5f, 0x32, 0x2f, 0x64, 0x65, 0x6e,
  0x73, 0x65, 0x5f, 0x38, 0x2f, 0x4d, 0x61, 0x74, 0x4d, 0x75, 0x6c, 0x3b,
  0x73, 0x65, 0x71, 0x75, 0x65, 0x6e, 0x74, 0x69, 0x61, 0x6c, 0x5f, 0x32,
  0x2f, 0x64, 0x65, 0x6e, 0x73, 0x65, 0x5f, 0x38, 0x2f, 0x42, 0x69, 0x61,
  0x73, 0x41, 0x64, 0x64, 0x00, 0x00, 0x00, 0x00, 0x02, 0x00, 0x00, 0x00,
  0x01, 0x00, 0x00, 0x00, 0x08, 0x00, 0x00, 0x00, 0xf2, 0xfc, 0xff, 0xff,
  0x00, 0x00, 0x00, 0x01, 0x14, 0x00, 0x00, 0x00, 0x1c, 0x00, 0x00, 0x00,
  0x1c, 0x00, 0x00, 0x00, 0x09, 0x00, 0x00, 0x00, 0x6c, 0x00, 0x00, 0x00,
  0x02, 0x00, 0x00, 0x00, 0xff, 0xff, 0xff, 0xff, 0x08, 0x00, 0x00, 0x00,
  0xdc, 0xfc, 0xff, 0xff, 0x52, 0x00, 0x00, 0x00, 0x73, 0x65, 0x71, 0x75,
  0x65, 0x6e, 0x74, 0x69, 0x61, 0x6c, 0x5f, 0x32, 0x2f, 0x64, 0x65, 0x6e,
  0x73, 0x65, 0x5f, 0x37, 0x2f, 0x4d, 0x61, 0x74, 0x4d, 0x75, 0x6c, 0x3b,
  0x73, 0x65, 0x71, 0x75, 0x65, 0x6e, 0x74, 0x69, 0x61, 0x6c, 0x5f, 0x32,
  0x2f, 0x64, 0x65, 0x6e, 0x73, 0x65, 0x5f, 0x37, 0x2f, 0x52, 0x65, 0x6c,
  0x75, 0x3b, 0x73, 0x65, 0x71, 0x75, 0x65, 0x6e, 0x74, 0x69, 0x61, 0x6c,
  0x5f, 0x32, 0x2f, 0x64, 0x65, 0x6e, 0x73, 0x65, 0x5f, 0x37, 0x2f, 0x42,
  0x69, 0x61, 0x73, 0x41, 0x64, 0x64, 0x00, 0x00, 0x02, 0x00, 0x00, 0x00,
  0x01, 0x00, 0x00, 0x00, 0x08, 0x00, 0x00, 0x00, 0x82, 0xfd, 0xff, 0xff,
  0x00, 0x00, 0x00, 0x01, 0x14, 0x00, 0x00, 0x00, 0x1c, 0x00, 0x00, 0x00,
  0x1c, 0x00, 0x00, 0x00, 0x08, 0x00, 0x00, 0x00, 0x6c, 0x00, 0x00, 0x00,
  0x02, 0x00, 0x00, 0x00, 0xff, 0xff, 0xff, 0xff, 0x10, 0x00, 0x00, 0x00,
  0x6c, 0xfd, 0xff, 0xff, 0x52, 0x00, 0x00, 0x00, 0x73, 0x65, 0x71, 0x75,
  0x65, 0x6e, 0x74, 0x69, 0x61, 0x6c, 0x5f, 0x32, 0x2f, 0x64, 0x65, 0x6e,
  0x73, 0x65, 0x5f, 0x36, 0x2f, 0x4d, 0x61, 0x74, 0x4d, 0x75, 0x6c, 0x3b,
  0x73, 0x65, 0x71, 0x75, 0x65, 0x6e, 0x74, 0x69, 0x61, 0x6c, 0x5f, 0x32,
  0x2f, 0x64, 0x65, 0x6e, 0x73, 0x65, 0x5f, 0x36, 0x2f, 0x52, 0x65, 0x6c,
  0x75, 0x3b, 0x73, 0x65, 0x71, 0x75, 0x65, 0x6e, 0x74, 0x69, 0x61, 0x6c,
  0x5f, 0x32, 0x2f, 0x64, 0x65, 0x6e, 0x73, 0x65, 0x5f, 0x36, 0x2f, 0x42,
  0x69, 0x61, 0x73, 0x41, 0x64, 0x64, 0x00, 0x00, 0x02, 0x00, 0x00, 0x00,
  0x01, 0x00, 0x00, 0x00, 0x10, 0x00, 0x00, 0x00, 0x7e, 0xfe, 0xff, 0xff,
  0x00, 0x00, 0x00, 0x01, 0x10, 0x00, 0x00, 0x00, 0x10, 0x00, 0x00, 0x00,
  0x07, 0x00, 0x00, 0x00, 0x28, 0x00, 0x00, 0x00, 0xec, 0xfd, 0xff, 0xff,
  0x1b, 0x00, 0x00, 0x00, 0x73, 0x65, 0x71, 0x75, 0x65, 0x6e, 0x74, 0x69,
  0x61, 0x6c, 0x5f, 0x32, 0x2f, 0x64, 0x65, 0x6e, 0x73, 0x65, 0x5f, 0x38,
  0x2f, 0x4d, 0x61, 0x74, 0x4d, 0x75, 0x6c, 0x00, 0x02, 0x00, 0x00, 0x00,
  0x08, 0x00, 0x00, 0x00, 0x08, 0x00, 0x00, 0x00, 0xc6, 0xfe, 0xff, 0xff,
  0x00, 0x00, 0x00, 0x01, 0x10, 0x00, 0x00, 0x00, 0x10, 0x00, 0x00, 0x00,
  0x06, 0x00, 0x00, 0x00, 0x28, 0x00, 0x00, 0x00, 0x34, 0xfe, 0xff, 0xff,
  0x1b, 0x00, 0x00, 0x00, 0x73, 0x65, 0x71, 0x75, 0x65, 0x6e, 0x74, 0x69,
  0x61, 0x6c, 0x5f, 0x32, 0x2f, 0x64, 0x65, 0x6e, 0x73, 0x65, 0x5f, 0x37,
  0x2f, 0x4d, 0x61, 0x74, 0x4d, 0x75, 0x6c, 0x00, 0x02, 0x00, 0x00, 0x00,
  0x08, 0x00, 0x00, 0x00, 0x10, 0x00, 0x00, 0x00, 0x0e, 0xff, 0xff, 0xff,
  0x00, 0x00, 0x00, 0x01, 0x10, 0x00, 0x00, 0x00, 0x10, 0x00, 0x00, 0x00,
  0x05, 0x00, 0x00, 0x00, 0x28, 0x00, 0x00, 0x00, 0x7c, 0xfe, 0xff, 0xff,
  0x1b, 0x00, 0x00, 0x00, 0x73, 0x65, 0x71, 0x75, 0x65, 0x6e, 0x74, 0x69,
  0x61, 0x6c, 0x5f, 0x32, 0x2f, 0x64, 0x65, 0x6e, 0x73, 0x65, 0x5f, 0x36,
  0x2f, 0x4d, 0x61, 0x74, 0x4d, 0x75, 0x6c, 0x00, 0x02, 0x00, 0x00, 0x00,
  0x10, 0x00, 0x00, 0x00, 0x5a, 0x00, 0x00, 0x00, 0x56, 0xff, 0xff, 0xff,
  0x00, 0x00, 0x00, 0x01, 0x10, 0x00, 0x00, 0x00, 0x10, 0x00, 0x00, 0x00,
  0x04, 0x00, 0x00, 0x00, 0x38, 0x00, 0x00, 0x00, 0xc4, 0xfe, 0xff, 0xff,
  0x2b, 0x00, 0x00, 0x00, 0x73, 0x65, 0x71, 0x75, 0x65, 0x6e, 0x74, 0x69,
  0x61, 0x6c, 0x5f, 0x32, 0x2f, 0x64, 0x65, 0x6e, 0x73, 0x65, 0x5f, 0x36,
  0x2f, 0x42, 0x69, 0x61, 0x73, 0x41, 0x64, 0x64, 0x2f, 0x52, 0x65, 0x61,
  0x64, 0x56, 0x61, 0x72, 0x69, 0x61, 0x62, 0x6c, 0x65, 0x4f, 0x70, 0x00,
  0x01, 0x00, 0x00, 0x00, 0x10, 0x00, 0x00, 0x00, 0xaa, 0xff, 0xff, 0xff,
  0x00, 0x00, 0x00, 0x01, 0x10, 0x00, 0x00, 0x00, 0x10, 0x00, 0x00, 0x00,
  0x03, 0x00, 0x00, 0x00, 0x38, 0x00, 0x00, 0x00, 0x18, 0xff, 0xff, 0xff,
  0x2b, 0x00, 0x00, 0x00, 0x73, 0x65, 0x71, 0x75, 0x65, 0x6e, 0x74, 0x69,
  0x61, 0x6c, 0x5f, 0x32, 0x2f, 0x64, 0x65, 0x6e, 0x73, 0x65, 0x5f, 0x37,
  0x2f, 0x42, 0x69, 0x61, 0x73, 0x41, 0x64, 0x64, 0x2f, 0x52, 0x65, 0x61,
  0x64, 0x56, 0x61, 0x72, 0x69, 0x61, 0x62, 0x6c, 0x65, 0x4f, 0x70, 0x00,
  0x01, 0x00, 0x00, 0x00, 0x08, 0x00, 0x00, 0x00, 0x00, 0x00, 0x16, 0x00,
  0x18, 0x00, 0x14, 0x00, 0x00, 0x00, 0x10, 0x00, 0x0c, 0x00, 0x08, 0x00,
  0x00, 0x00, 0x00, 0x00, 0x00, 0x00, 0x07, 0x00, 0x16, 0x00, 0x00, 0x00,
  0x00, 0x00, 0x00, 0x01, 0x10, 0x00, 0x00, 0x00, 0x10, 0x00, 0x00, 0x00,
  0x02, 0x00, 0x00, 0x00, 0x38, 0x00, 0x00, 0x00, 0x84, 0xff, 0xff, 0xff,
  0x2b, 0x00, 0x00, 0x00, 0x73, 0x65, 0x71, 0x75, 0x65, 0x6e, 0x74, 0x69,
  0x61, 0x6c, 0x5f, 0x32, 0x2f, 0x64, 0x65, 0x6e, 0x73, 0x65, 0x5f, 0x38,
  0x2f, 0x42, 0x69, 0x61, 0x73, 0x41, 0x64, 0x64, 0x2f, 0x52, 0x65, 0x61,
  0x64, 0x56, 0x61, 0x72, 0x69, 0x61, 0x62, 0x6c, 0x65, 0x4f, 0x70, 0x00,
  0x01, 0x00, 0x00, 0x00, 0x08, 0x00, 0x00, 0x00, 0x00, 0x00, 0x16, 0x00,
  0x1c, 0x00, 0x18, 0x00, 0x00, 0x00, 0x14, 0x00, 0x10, 0x00, 0x0c, 0x00,
  0x00, 0x00, 0x00, 0x00, 0x08, 0x00, 0x07, 0x00, 0x16, 0x00, 0x00, 0x00,
  0x00, 0x00, 0x00, 0x01, 0x14, 0x00, 0x00, 0x00, 0x20, 0x00, 0x00, 0x00,
  0x20, 0x00, 0x00, 0x00, 0x01, 0x00, 0x00, 0x00, 0x3c, 0x00, 0x00, 0x00,
  0x02, 0x00, 0x00, 0x00, 0xff, 0xff, 0xff, 0xff, 0x5a, 0x00, 0x00, 0x00,
  0x04, 0x00, 0x04, 0x00, 0x04, 0x00, 0x00, 0x00, 0x1f, 0x00, 0x00, 0x00,
  0x73, 0x65, 0x72, 0x76, 0x69, 0x6e, 0x67, 0x5f, 0x64, 0x65, 0x66, 0x61,
  0x75, 0x6c, 0x74, 0x5f, 0x64, 0x65, 0x6e, 0x73, 0x65, 0x5f, 0x36, 0x5f,
  0x69, 0x6e, 0x70, 0x75, 0x74, 0x3a, 0x30, 0x00, 0x02, 0x00, 0x00, 0x00,
  0x01, 0x00, 0x00, 0x00, 0x5a, 0x00, 0x00, 0x00, 0x02, 0x00, 0x00, 0x00,
  0x20, 0x00, 0x00, 0x00, 0x04, 0x00, 0x00, 0x00, 0xf4, 0xff, 0xff, 0xff,
  0x19, 0x00, 0x00, 0x00, 0x00, 0x00, 0x00, 0x19, 0x0c, 0x00, 0x0c, 0x00,
  0x0b, 0x00, 0x00, 0x00, 0x00, 0x00, 0x04, 0x00, 0x0c, 0x00, 0x00, 0x00,
  0x09, 0x00, 0x00, 0x00, 0x00, 0x00, 0x00, 0x09
}; 
