const unsigned char gesture_model [] = {  
  0x1c, 0x00, 0x00, 0x00, 0x54, 0x46, 0x4c, 0x33, 0x14, 0x00, 0x20, 0x00,
  0x1c, 0x00, 0x18, 0x00, 0x14, 0x00, 0x10, 0x00, 0x0c, 0x00, 0x00, 0x00,
  0x08, 0x00, 0x04, 0x00, 0x14, 0x00, 0x00, 0x00, 0x1c, 0x00, 0x00, 0x00,
  0x94, 0x00, 0x00, 0x00, 0xec, 0x00, 0x00, 0x00, 0x80, 0x32, 0x00, 0x00,
  0x90, 0x32, 0x00, 0x00, 0x68, 0x38, 0x00, 0x00, 0x03, 0x00, 0x00, 0x00,
  0x01, 0x00, 0x00, 0x00, 0x10, 0x00, 0x00, 0x00, 0x00, 0x00, 0x0a, 0x00,
  0x10, 0x00, 0x0c, 0x00, 0x08, 0x00, 0x04, 0x00, 0x0a, 0x00, 0x00, 0x00,
  0x0c, 0x00, 0x00, 0x00, 0x1c, 0x00, 0x00, 0x00, 0x38, 0x00, 0x00, 0x00,
  0x0f, 0x00, 0x00, 0x00, 0x73, 0x65, 0x72, 0x76, 0x69, 0x6e, 0x67, 0x5f,
  0x64, 0x65, 0x66, 0x61, 0x75, 0x6c, 0x74, 0x00, 0x01, 0x00, 0x00, 0x00,
  0x04, 0x00, 0x00, 0x00, 0x94, 0xff, 0xff, 0xff, 0x0a, 0x00, 0x00, 0x00,
  0x04, 0x00, 0x00, 0x00, 0x07, 0x00, 0x00, 0x00, 0x64, 0x65, 0x6e, 0x73,
  0x65, 0x5f, 0x38, 0x00, 0x01, 0x00, 0x00, 0x00, 0x04, 0x00, 0x00, 0x00,
  0x62, 0xcd, 0xff, 0xff, 0x04, 0x00, 0x00, 0x00, 0x0d, 0x00, 0x00, 0x00,
  0x64, 0x65, 0x6e, 0x73, 0x65, 0x5f, 0x36, 0x5f, 0x69, 0x6e, 0x70, 0x75,
  0x74, 0x00, 0x00, 0x00, 0x02, 0x00, 0x00, 0x00, 0x34, 0x00, 0x00, 0x00,
  0x04, 0x00, 0x00, 0x00, 0xdc, 0xff, 0xff, 0xff, 0x0d, 0x00, 0x00, 0x00,
  0x04, 0x00, 0x00, 0x00, 0x13, 0x00, 0x00, 0x00, 0x43, 0x4f, 0x4e, 0x56,
  0x45, 0x52, 0x53, 0x49, 0x4f, 0x4e, 0x5f, 0x4d, 0x45, 0x54, 0x41, 0x44,
  0x41, 0x54, 0x41, 0x00, 0x08, 0x00, 0x0c, 0x00, 0x08, 0x00, 0x04, 0x00,
  0x08, 0x00, 0x00, 0x00, 0x0c, 0x00, 0x00, 0x00, 0x04, 0x00, 0x00, 0x00,
  0x13, 0x00, 0x00, 0x00, 0x6d, 0x69, 0x6e, 0x5f, 0x72, 0x75, 0x6e, 0x74,
  0x69, 0x6d, 0x65, 0x5f, 0x76, 0x65, 0x72, 0x73, 0x69, 0x6f, 0x6e, 0x00,
  0x0e, 0x00, 0x00, 0x00, 0x90, 0x31, 0x00, 0x00, 0x88, 0x31, 0x00, 0x00,
  0x58, 0x31, 0x00, 0x00, 0x28, 0x31, 0x00, 0x00, 0xd8, 0x30, 0x00, 0x00,
  0xc8, 0x03, 0x00, 0x00, 0xb8, 0x01, 0x00, 0x00, 0xa8, 0x00, 0x00, 0x00,
  0xa0, 0x00, 0x00, 0x00, 0x98, 0x00, 0x00, 0x00, 0x90, 0x00, 0x00, 0x00,
  0x88, 0x00, 0x00, 0x00, 0x68, 0x00, 0x00, 0x00, 0x04, 0x00, 0x00, 0x00,
  0x16, 0xce, 0xff, 0xff, 0x04, 0x00, 0x00, 0x00, 0x54, 0x00, 0x00, 0x00,
  0x0c, 0x00, 0x00, 0x00, 0x08, 0x00, 0x0e, 0x00, 0x08, 0x00, 0x04, 0x00,
  0x08, 0x00, 0x00, 0x00, 0x10, 0x00, 0x00, 0x00, 0x24, 0x00, 0x00, 0x00,
  0x00, 0x00, 0x06, 0x00, 0x08, 0x00, 0x04, 0x00, 0x06, 0x00, 0x00, 0x00,
  0x04, 0x00, 0x00, 0x00, 0x00, 0x00, 0x00, 0x00, 0x00, 0x00, 0x0a, 0x00,
  0x10, 0x00, 0x0c, 0x00, 0x08, 0x00, 0x04, 0x00, 0x0a, 0x00, 0x00, 0x00,
  0x02, 0x00, 0x00, 0x00, 0x02, 0x00, 0x00, 0x00, 0x04, 0x00, 0x00, 0x00,
  0x06, 0x00, 0x00, 0x00, 0x32, 0x2e, 0x31, 0x30, 0x2e, 0x30, 0x00, 0x00,
  0x76, 0xce, 0xff, 0xff, 0x04, 0x00, 0x00, 0x00, 0x10, 0x00, 0x00, 0x00,
  0x31, 0x2e, 0x35, 0x2e, 0x30, 0x00, 0x00, 0x00, 0x00, 0x00, 0x00, 0x00,
  0x00, 0x00, 0x00, 0x00, 0x68, 0xc9, 0xff, 0xff, 0x6c, 0xc9, 0xff, 0xff,
  0x70, 0xc9, 0xff, 0xff, 0x74, 0xc9, 0xff, 0xff, 0xa2, 0xce, 0xff, 0xff,
  0x04, 0x00, 0x00, 0x00, 0x00, 0x01, 0x00, 0x00, 0x50, 0x6b, 0x53, 0xbd,
  0x36, 0xde, 0x08, 0xbf, 0x3c, 0x8e, 0x1f, 0xc0, 0x0f, 0x41, 0x7d, 0x3d,
  0x05, 0x6f, 0x19, 0x3f, 0x4b, 0x6e, 0x23, 0xbd, 0xa1, 0x46, 0xc9, 0xbd,
  0x09, 0xa4, 0x20, 0xbd, 0x94, 0x7e, 0x8f, 0x3d, 0x81, 0x51, 0x18, 0xbf,
  0x63, 0x9f, 0xcc, 0x3e, 0x7d, 0xbc, 0x95, 0x3e, 0xa8, 0x7a, 0x14, 0xc0,
  0x2c, 0xf2, 0x89, 0x3d, 0xf4, 0x86, 0x66, 0xbe, 0x95, 0x2f, 0x38, 0x3d,
  0xe3, 0xae, 0x67, 0x3e, 0x9c, 0x2a, 0xf9, 0xbe, 0xb6, 0x76, 0x27, 0x3f,
  0x50, 0x97, 0x5a, 0xbf, 0x34, 0x64, 0x41, 0xbf, 0x17, 0x77, 0x32, 0xbe,
  0x38, 0x8e, 0x21, 0x3f, 0xe3, 0xc6, 0xe0, 0x3c, 0x87, 0x96, 0xef, 0x3e,
  0x40, 0xbc, 0xfa, 0xbe, 0xbf, 0xf7, 0x8a, 0xbf, 0x2f, 0x15, 0x94, 0x3e,
  0xae, 0x3b, 0x00, 0xbf, 0xb2, 0x8a, 0x10, 0x3f, 0x15, 0xc4, 0x37, 0x3e,
  0x70, 0x80, 0xf0, 0xbe, 0x37, 0x36, 0x91, 0xbd, 0x74, 0xa0, 0xf5, 0xbe,
  0xf0, 0x00, 0x78, 0xbe, 0x9f, 0xca, 0xdf, 0xbf, 0x3f, 0x9c, 0x79, 0x3f,
  0xd0, 0x8a, 0xaa, 0xbe, 0xae, 0x65, 0x53, 0x3f, 0x50, 0xa6, 0x0b, 0xbf,
  0x6f, 0x57, 0x5b, 0x3e, 0x4a, 0xa1, 0xd4, 0xbe, 0x7a, 0x66, 0xa0, 0xbf,
  0x21, 0xb2, 0x36, 0x3f, 0x71, 0xf3, 0x7d, 0xbe, 0x95, 0x69, 0x49, 0xbe,
  0x3b, 0xf1, 0xfd, 0xbf, 0x55, 0xc1, 0x13, 0xbe, 0x67, 0x77, 0x9a, 0xbe,
  0x79, 0x39, 0x1c, 0xbf, 0x50, 0x0a, 0xb7, 0xbd, 0xc6, 0x93, 0x8d, 0xbe,
  0xfb, 0xad, 0x13, 0x3f, 0x9e, 0x56, 0x10, 0x3f, 0xbb, 0xe6, 0xbc, 0xbf,
  0x13, 0x89, 0x03, 0xbf, 0x7e, 0xb1, 0x08, 0xbe, 0xe0, 0x78, 0xad, 0xbd,
  0x39, 0x3c, 0xc2, 0xbe, 0x83, 0xd6, 0xe4, 0xbd, 0xb2, 0x51, 0xab, 0x3d,
  0x3c, 0x49, 0xe2, 0xbe, 0xd0, 0x71, 0x5f, 0x3d, 0x51, 0x26, 0x87, 0x3e,
  0xae, 0xcf, 0xff, 0xff, 0x04, 0x00, 0x00, 0x00, 0x00, 0x02, 0x00, 0x00,
  0xd2, 0x49, 0x47, 0xbc, 0xd8, 0x14, 0xb4, 0xbe, 0x10, 0x03, 0x45, 0x3e,
  0x70, 0xa5, 0xe1, 0x3e, 0x80, 0x6b, 0x4e, 0xbd, 0x72, 0xe8, 0x2a, 0x3e,
  0x39, 0x78, 0x72, 0x3e, 0xa0, 0xd1, 0x13, 0xbe, 0xe0, 0x73, 0x0c, 0x3d,
  0x4d, 0xa6, 0xc2, 0x3e, 0xcd, 0x6d, 0xf5, 0xbe, 0xa0, 0xd2, 0x38, 0x3d,
  0x49, 0x2e, 0xa5, 0xbe, 0x93, 0x24, 0x6c, 0xbe, 0x00, 0xb2, 0x9b, 0xbc,
  0x80, 0x70, 0x96, 0x3c, 0xac, 0x72, 0xee, 0xbe, 0xa0, 0xad, 0xb1, 0xbe,
  0x08, 0x34, 0x66, 0x3e, 0x80, 0xce, 0xc0, 0xbc, 0x80, 0x34, 0xfb, 0x3d,
  0xc0, 0xc1, 0x1a, 0x3d, 0x00, 0xab, 0xde, 0x3b, 0x00, 0x1a, 0x54, 0x3c,
  0xa8, 0x57, 0x33, 0x3e, 0x70, 0xad, 0x9d, 0x3d, 0x34, 0xeb, 0xcb, 0xbe,
  0xd0, 0xd8, 0xc4, 0xbe, 0x70, 0xe6, 0x89, 0xbe, 0xd0, 0x5b, 0x8c, 0x3d,
  0xe8, 0x72, 0x4a, 0xbe, 0x8c, 0x40, 0xb6, 0xbe, 0x27, 0xb0, 0x85, 0xbf,
  0xd0, 0xce, 0x9b, 0x3e, 0x10, 0xec, 0xe3, 0xbd, 0x1c, 0x9d, 0xc5, 0xbe,
  0xdc, 0xe9, 0xe9, 0x3e, 0x66, 0xbf, 0x8e, 0x3e, 0xe2, 0x5b, 0x66, 0x3e,
  0xb0, 0xc0, 0x29, 0x3e, 0x60, 0xeb, 0x68, 0xbe, 0xf8, 0x43, 0xce, 0x3e,
  0x6f, 0x83, 0x31, 0x3f, 0x70, 0x5a, 0x4d, 0xbe, 0x23, 0xb5, 0xb2, 0xbb,
  0xfe, 0xb8, 0xea, 0x3f, 0xfc, 0xcb, 0xcb, 0x3e, 0xf8, 0x4b, 0x59, 0x3e,
  0xea, 0x15, 0x47, 0xbf, 0xb0, 0xe2, 0xd5, 0x3d, 0xf0, 0xd2, 0xeb, 0xbe,
  0xa0, 0x48, 0x27, 0x3d, 0x04, 0x21, 0xda, 0xbe, 0x82, 0x83, 0x00, 0x3e,
  0x7b, 0xdf, 0x07, 0x3f, 0x9c, 0x2e, 0xf3, 0xbe, 0x90, 0xca, 0x83, 0xbd,
  0xe1, 0x6b, 0x46, 0x3e, 0x1c, 0xe2, 0x56, 0x3f, 0xbc, 0xdc, 0xf8, 0xbe,
  0x44, 0x09, 0x56, 0x3f, 0x01, 0x2b, 0x98, 0xbf, 0x0c, 0x2f, 0x9f, 0xbe,
  0xdc, 0x5f, 0x88, 0x3e, 0x96, 0xd9, 0x3a, 0x3f, 0x50, 0xff, 0x89, 0x3d,
  0x38, 0xe4, 0x99, 0x3e, 0x30, 0x36, 0x68, 0x3e, 0x20, 0x9c, 0xe5, 0x3d,
  0x91, 0x67, 0x5e, 0x3f, 0xe0, 0x40, 0x86, 0xbd, 0x18, 0xe6, 0xc5, 0x3e,
  0x6c, 0x82, 0x83, 0x3e, 0x99, 0xbc, 0xa7, 0x3e, 0x27, 0x9e, 0x85, 0xbf,
  0xd8, 0x7c, 0x85, 0xbe, 0x15, 0x34, 0x8b, 0xbd, 0x7a, 0xb3, 0x1e, 0x3f,
  0x74, 0xef, 0xc3, 0x3e, 0x38, 0x0a, 0x44, 0x3e, 0xa5, 0x47, 0xf3, 0xbe,
  0x98, 0xad, 0xac, 0xbe, 0xf0, 0x55, 0xa1, 0xbd, 0x70, 0x12, 0xaa, 0xbd,
  0x70, 0x79, 0x13, 0xbe, 0xa0, 0x44, 0x02, 0xbf, 0x4b, 0x4c, 0xb6, 0xbc,
  0x90, 0x6c, 0xbc, 0x3e, 0x44, 0xfc, 0xc1, 0xbe, 0x28, 0x9a, 0x3b, 0x3e,
  0x80, 0x7d, 0x17, 0x3d, 0xcc, 0x37, 0x9c, 0xbe, 0xd1, 0x2a, 0x01, 0xbe,
  0xf8, 0xe5, 0x51, 0x3e, 0x80, 0xa3, 0x49, 0xbe, 0xdc, 0xac, 0x81, 0x3e,
  0x62, 0xf3, 0x20, 0x3f, 0x94, 0xaf, 0xb2, 0x3e, 0x00, 0x18, 0x24, 0x3c,
  0x1c, 0x50, 0x9a, 0x3e, 0x7c, 0x40, 0x91, 0xbe, 0x80, 0x77, 0xc2, 0x3e,
  0x76, 0x5f, 0xe9, 0x3f, 0x88, 0xd9, 0xc4, 0xbe, 0xc4, 0x27, 0xbd, 0x3e,
  0xd6, 0x66, 0xbd, 0xbe, 0x3b, 0x1f, 0x6f, 0x3f, 0x60, 0x13, 0xf7, 0xbe,
  0xad, 0xa1, 0xac, 0xbe, 0x12, 0x8a, 0x0f, 0x3f, 0x04, 0xaf, 0xce, 0x3e,
  0xb0, 0x02, 0x38, 0x3e, 0xa9, 0x97, 0xde, 0x3e, 0x58, 0xd2, 0xf7, 0x3e,
  0x8c, 0xd2, 0xff, 0xbe, 0xc8, 0xca, 0xd0, 0x3e, 0x74, 0x73, 0xfc, 0x3e,
  0x81, 0x92, 0xc0, 0xbe, 0x99, 0xc5, 0xdc, 0xbe, 0x48, 0xae, 0x3e, 0x3e,
  0xe8, 0x53, 0x61, 0xbe, 0x00, 0x1d, 0x69, 0xbe, 0x2e, 0x8c, 0x2a, 0xbe,
  0xd0, 0xaa, 0xff, 0x3e, 0x59, 0x60, 0x27, 0xbd, 0xbe, 0xc3, 0xdb, 0xbe,
  0xac, 0x31, 0xe2, 0x3e, 0x94, 0x2f, 0xec, 0xbe, 0xba, 0xd1, 0xff, 0xff,
  0x04, 0x00, 0x00, 0x00, 0x00, 0x2d, 0x00, 0x00, 0x9b, 0x59, 0x26, 0x3d,
  0x12, 0x5f, 0xaf, 0x3d, 0x13, 0xe4, 0x46, 0x3e, 0x83, 0x2e, 0x88, 0xbd,
  0x1b, 0xab, 0x91, 0x3d, 0x6d, 0x82, 0xb5, 0xbc, 0xac, 0xd9, 0x2c, 0xbd,
  0xd0, 0x5c, 0x05, 0x3e, 0xb4, 0x88, 0x82, 0xbc, 0x13, 0xba, 0xcb, 0xbe,
  0x13, 0x74, 0x43, 0x3e, 0xf3, 0x33, 0xba, 0x3d, 0x28, 0xc6, 0x62, 0x3d,
  0x39, 0x06, 0x01, 0x3a, 0x00, 0x92, 0x1b, 0x3e, 0x8b, 0x90, 0x64, 0xbe,
  0x17, 0xaf, 0x55, 0x3d, 0xbf, 0xd9, 0xfa, 0xbd, 0xe2, 0xb9, 0x93, 0x3d,
  0xfe, 0x57, 0xb0, 0x3c, 0xae, 0xb8, 0xa7, 0x3d, 0x7a, 0x9a, 0x22, 0xbf,
  0x86, 0x4c, 0xb5, 0x3d, 0x73, 0x74, 0x20, 0x3d, 0x1a, 0xfd, 0xe1, 0x3d,
  0xb9, 0xac, 0x6c, 0xbb, 0xcf, 0x09, 0x54, 0x3e, 0x24, 0x80, 0x06, 0xbf,
  0x08, 0xc7, 0x5a, 0x3e, 0x96, 0xc2, 0xc8, 0x3d, 0xe4, 0x89, 0x03, 0xbe,
  0x53, 0x3b, 0x08, 0x3e, 0x8d, 0x6a, 0x2b, 0x3c, 0xa7, 0x55, 0x2d, 0xbf,
  0xe5, 0x55, 0xdf, 0x3d, 0x09, 0x5b, 0xb0, 0x3b, 0x28, 0x1a, 0x82, 0xbe,
  0x6d, 0xc3, 0x88, 0x3e, 0x97, 0xe6, 0xa3, 0x3d, 0xd3, 0x59, 0x28, 0xbf,
  0xd0, 0x82, 0x06, 0xbe, 0xa4, 0x6b, 0x90, 0xbd, 0xf0, 0xc7, 0xd2, 0xbd,
  0xb0, 0x9c, 0xb6, 0x3e, 0x4c, 0xb0, 0xf2, 0x3d, 0x9d, 0x08, 0xf8, 0xbe,
  0x8e, 0xc2, 0x0c, 0xbe, 0x6c, 0xa0, 0xbf, 0xbc, 0xda, 0x4e, 0x15, 0xbe,
  0x66, 0x34, 0x22, 0x3f, 0xe2, 0x83, 0x8d, 0xbd, 0xe3, 0xd5, 0xfb, 0xbe,
  0x76, 0xa5, 0xa3, 0xbd, 0x2a, 0xec, 0x0c, 0xbd, 0xf1, 0x3a, 0x91, 0xbe,
  0xf5, 0xe8, 0xef, 0x3e, 0xd5, 0x6f, 0x21, 0xbd, 0x67, 0xe1, 0xe6, 0xbe,
  0xb5, 0x0d, 0x42, 0x3e, 0x76, 0xc5, 0xc8, 0xbd, 0xb7, 0x78, 0x4c, 0xbe,
  0xa0, 0x84, 0x18, 0x3f, 0xd8, 0x75, 0xd3, 0x3d, 0x4f, 0x7a, 0x99, 0xbe,
  0x47, 0x28, 0x17, 0xbd, 0xfb, 0xb7, 0x15, 0xbe, 0x8c, 0xc0, 0x9b, 0xbe,
  0x17, 0xac, 0x30, 0x3f, 0x4c, 0x1a, 0x7b, 0xbd, 0x1f, 0xc5, 0x38, 0xbe,
  0x6c, 0xbb, 0x01, 0x3e, 0x68, 0xd0, 0x1c, 0xbb, 0x04, 0x0a, 0xd9, 0xbe,
  0x39, 0x23, 0x46, 0x3f, 0xd6, 0x8a, 0x0f, 0x3e, 0xd4, 0x4c, 0x8b, 0xbe,
  0x55, 0xe4, 0x1a, 0x3e, 0xe1, 0x98, 0x01, 0x3e, 0x66, 0x6c, 0xa5, 0xbe,
  0x20, 0x30, 0x1f, 0x3f, 0xf7, 0x7b, 0xc8, 0xbd, 0xbe, 0x0d, 0xff, 0xbd,
  0xd9, 0xf2, 0x98, 0xbd, 0x2c, 0xcc, 0xfe, 0xbc, 0xea, 0x6f, 0xcb, 0xbe,
  0xfb, 0x88, 0x08, 0x3f, 0x30, 0x8d, 0xd8, 0xbd, 0x72, 0xda, 0x10, 0xbc,
  0x87, 0xf2, 0x28, 0x3e, 0xa0, 0x90, 0xb8, 0x3c, 0xcc, 0x0a, 0x3f, 0xbe,
  0xb0, 0x14, 0xed, 0x3e, 0xaa, 0x27, 0xd1, 0x3d, 0x16, 0xe4, 0xa9, 0x3d,
  0x8c, 0xc1, 0x5f, 0x3d, 0x45, 0x93, 0x24, 0x3e, 0x48, 0xf6, 0x05, 0xbe,
  0x13, 0x3d, 0xa4, 0x3e, 0x07, 0x4c, 0x21, 0x3e, 0xb2, 0xfd, 0xb1, 0x3e,
  0x51, 0x99, 0xb6, 0x3d, 0x83, 0x3d, 0x77, 0x3c, 0x91, 0x14, 0xa8, 0xbe,
  0x9a, 0xca, 0x26, 0x3d, 0xf6, 0x86, 0x52, 0x3e, 0x7c, 0x63, 0x44, 0x3e,
  0x47, 0x8f, 0x30, 0x39, 0xd5, 0x56, 0x97, 0x3d, 0xe3, 0xf3, 0x17, 0x3d,
  0x41, 0xd3, 0x55, 0x3a, 0x62, 0xfc, 0xf8, 0xbd, 0x14, 0xcf, 0x38, 0x3e,
  0xc9, 0x87, 0x5f, 0x3e, 0xa2, 0x61, 0x3a, 0x3e, 0x6e, 0x53, 0x0f, 0xbe,
  0x3b, 0xf5, 0x36, 0xbd, 0x00, 0xe2, 0xdb, 0xbc, 0xd3, 0x8a, 0x17, 0x3e,
  0x02, 0x85, 0xf6, 0x3d, 0xa9, 0xd0, 0x3f, 0xbd, 0x92, 0x40, 0x1b, 0xbe,
  0xf9, 0xe5, 0xcb, 0xbd, 0xb6, 0x6b, 0xa2, 0x3d, 0x4c, 0x0d, 0xbf, 0x3e,
  0xc4, 0x60, 0x0b, 0x3d, 0x7d, 0x1d, 0x4e, 0xbd, 0xd5, 0x47, 0x37, 0xbd,
  0xbf, 0xec, 0xa0, 0xbe, 0x66, 0x0f, 0xa9, 0x3d, 0x83, 0xd5, 0x54, 0x3d,
  0x7e, 0x73, 0x82, 0x3e, 0x1d, 0x84, 0x89, 0x3e, 0x5e, 0x16, 0x2a, 0xbe,
  0x08, 0x19, 0x71, 0xbe, 0x04, 0x95, 0x42, 0x3e, 0xdc, 0x68, 0x25, 0x3e,
  0x0b, 0x6e, 0x0e, 0x3e, 0xa0, 0x0c, 0x81, 0x3e, 0x9f, 0x7f, 0x4d, 0xbe,
  0xb9, 0x82, 0x96, 0xbe, 0xfe, 0xc0, 0xde, 0x3d, 0xfd, 0x83, 0x02, 0x3e,
  0xf0, 0x48, 0x82, 0x3e, 0x4c, 0x27, 0x32, 0x3e, 0x38, 0x3a, 0x86, 0xbd,
  0xc6, 0x91, 0x33, 0xbe, 0x8f, 0x65, 0xbd, 0xbd, 0xfe, 0x94, 0x94, 0x3e,
  0xe8, 0x59, 0xee, 0x3d, 0xb4, 0xe3, 0x8c, 0x3e, 0x5f, 0x60, 0x7b, 0xbd,
  0x03, 0xc9, 0xa1, 0xbd, 0x0b, 0x9d, 0x24, 0xbc, 0xf0, 0xbb, 0x31, 0x3e,
  0x20, 0x4b, 0x9f, 0x3e, 0xd1, 0x83, 0x6a, 0x3d, 0xf2, 0x6c, 0xe0, 0x3d,
  0x77, 0x46, 0xa0, 0xbe, 0x14, 0xf3, 0x01, 0x3e, 0xba, 0xd5, 0x4a, 0x3d,
  0xec, 0xd5, 0x8f, 0x3e, 0x8b, 0xa9, 0x1d, 0x3e, 0x29, 0xce, 0x4a, 0xbd,
  0x15, 0x6e, 0x45, 0xbe, 0xe3, 0x1e, 0x80, 0x3e, 0xda, 0x9a, 0x45, 0x3e,
  0xb9, 0xae, 0x25, 0x3e, 0x67, 0xb8, 0xb3, 0xbd, 0x7f, 0x9f, 0x99, 0x3d,
  0x0f, 0x15, 0x71, 0xbd, 0x4a, 0x73, 0x90, 0x3d, 0x94, 0xa9, 0xae, 0x3e,
  0x8f, 0x3f, 0x06, 0x3d, 0x29, 0xa5, 0x85, 0xbd, 0x38, 0x25, 0xcf, 0xbc,
  0x96, 0x98, 0xa0, 0x3d, 0xb3, 0x06, 0x6e, 0x3d, 0xb8, 0x7a, 0xc8, 0x3d,
  0x92, 0xce, 0x8d, 0x3d, 0x6e, 0x80, 0x1b, 0xbc, 0x50, 0x4b, 0x21, 0xbd,
  0xd2, 0xa6, 0xe0, 0x3d, 0x32, 0x17, 0xff, 0xbd, 0xa4, 0xfa, 0x14, 0x3d,
  0x93, 0x11, 0x15, 0xbe, 0x0e, 0x0f, 0xd3, 0x3d, 0x56, 0x51, 0xa3, 0x3d,
  0x02, 0x10, 0x2d, 0xbe, 0x9e, 0x94, 0xe2, 0x3d, 0xba, 0xc3, 0x8a, 0x3d,
  0xa0, 0x96, 0xaf, 0xbb, 0x52, 0x96, 0xd1, 0xbd, 0xf1, 0x33, 0xc1, 0xbd,
  0xe7, 0xc0, 0x0d, 0x3e, 0x18, 0xfd, 0x97, 0xbc, 0x7a, 0xd7, 0xe4, 0x3d,
  0x20, 0x25, 0xd9, 0xbb, 0x48, 0x82, 0x8b, 0x3d, 0xb3, 0xed, 0x0c, 0x3e,
  0x2e, 0x29, 0x7e, 0xbd, 0x56, 0x29, 0xdd, 0x3d, 0x4c, 0xdf, 0x74, 0xbd,
  0x80, 0x93, 0x00, 0x3b, 0x2d, 0x81, 0xde, 0xbd, 0xb8, 0xa0, 0x2e, 0xbe,
  0x16, 0xd3, 0x5d, 0xbd, 0xdc, 0x50, 0x80, 0x3d, 0x9f, 0xe4, 0x17, 0xbe,
  0xc0, 0xe7, 0x12, 0xbe, 0x28, 0x0f, 0x5f, 0xbd, 0x5c, 0xdb, 0x14, 0x3d,
  0x60, 0x1a, 0xc7, 0x3b, 0x97, 0xb7, 0x06, 0xbe, 0x3a, 0x35, 0x27, 0xbe,
  0x80, 0xaf, 0x29, 0xbe, 0x54, 0x51, 0x7b, 0x3d, 0x80, 0x8a, 0x09, 0x3d,
  0x9e, 0x27, 0xcd, 0x3d, 0xa6, 0xaf, 0xdf, 0x3d, 0xf6, 0x37, 0xd0, 0x3d,
  0x19, 0x56, 0x2c, 0x3e, 0xa4, 0xc2, 0x52, 0x3d, 0x18, 0x74, 0x44, 0xbd,
  0x0c, 0x73, 0x0b, 0xbe, 0x8a, 0x94, 0x05, 0xbe, 0x3a, 0xab, 0xfe, 0xbd,
  0x7a, 0x71, 0xe0, 0x3d, 0xc0, 0x2e, 0xb2, 0xbc, 0x6e, 0xef, 0x6b, 0xbd,
  0x44, 0x07, 0xd8, 0xbd, 0xec, 0x1c, 0x0e, 0x3d, 0xc0, 0x40, 0x37, 0x3d,
  0xf0, 0x4a, 0x0f, 0xbd, 0x80, 0xd4, 0x17, 0xbd, 0xc0, 0x98, 0x70, 0xbc,
  0xda, 0x59, 0xff, 0x3d, 0x3e, 0xd4, 0x1a, 0xbe, 0xe0, 0x89, 0xf1, 0xbb,
  0xd7, 0x7c, 0x13, 0xbe, 0xa1, 0xa7, 0x04, 0x3e, 0xa1, 0xb5, 0x2c, 0xbe,
  0xc9, 0xd1, 0x2a, 0x3e, 0x40, 0x98, 0xc1, 0xbc, 0x26, 0x65, 0x81, 0x3d,
  0x00, 0xbe, 0x5e, 0x3b, 0xe0, 0x3f, 0xbc, 0x3c, 0x38, 0x1a, 0xb7, 0x3c,
  0x06, 0x52, 0xeb, 0x3d, 0xfc, 0xa7, 0x2c, 0x3d, 0x63, 0xd0, 0xe2, 0xbd,
  0x22, 0x84, 0x2e, 0xbe, 0xe0, 0x23, 0xbb, 0xbb, 0x31, 0xb3, 0x0a, 0xbe,
  0x7a, 0x4b, 0xfe, 0x3d, 0xf2, 0x66, 0xb7, 0x3d, 0x75, 0xb6, 0x2e, 0xbe,
  0x59, 0xdd, 0xaa, 0xbd, 0xd0, 0xbb, 0x62, 0x3c, 0x00, 0x92, 0x2a, 0xbc,
  0x71, 0xd3, 0x0d, 0x3e, 0x6c, 0xe7, 0x8c, 0x3d, 0x2b, 0x93, 0x02, 0x3e,
  0xb8, 0xbb, 0xd0, 0xbc, 0xb4, 0x02, 0x2f, 0x3d, 0x02, 0xa6, 0x72, 0xbd,
  0x0b, 0x1e, 0x0f, 0x3e, 0xdb, 0x79, 0xee, 0xbd, 0x77, 0xbd, 0x18, 0xbe,
  0x1d, 0x9c, 0x20, 0x3e, 0x47, 0x35, 0x0c, 0x3e, 0xca, 0xa3, 0x9f, 0x3d,
  0x68, 0xe8, 0xde, 0xbd, 0xa6, 0xdc, 0xe0, 0xbd, 0xe1, 0x2a, 0x82, 0xbd,
  0xbb, 0xde, 0x0b, 0x3e, 0x8d, 0x04, 0xdc, 0xbd, 0x46, 0x65, 0x6f, 0xbd,
  0x40, 0xcc, 0x18, 0xbe, 0x96, 0x30, 0xfa, 0x3d, 0xe3, 0x54, 0xa8, 0xbd,
  0x0f, 0x0a, 0x23, 0x3e, 0x66, 0x59, 0xde, 0x3d, 0x41, 0x44, 0x2a, 0xbe,
  0x60, 0x3e, 0x24, 0xbc, 0xe0, 0x34, 0x16, 0xbd, 0x80, 0xe3, 0xbb, 0x3c,
  0xdd, 0x48, 0x24, 0x3e, 0x54, 0x97, 0xef, 0xbd, 0x2e, 0x59, 0x79, 0xbd,
  0x8b, 0xcb, 0xcc, 0xbd, 0x97, 0xd9, 0x8b, 0xbd, 0x92, 0xef, 0xac, 0x3d,
  0xf2, 0x02, 0xef, 0x3d, 0xa9, 0x98, 0x2a, 0x3e, 0x98, 0x4b, 0x8d, 0x3d,
  0xcc, 0xcc, 0x4c, 0x3d, 0x9f, 0x74, 0x01, 0xbe, 0xaa, 0x01, 0x30, 0xbe,
  0xb3, 0x18, 0x2a, 0xbe, 0xe6, 0xf4, 0xdc, 0x3d, 0xd6, 0x81, 0xb5, 0x3d,
  0x23, 0xb1, 0x10, 0x3e, 0x06, 0x48, 0xa9, 0x3d, 0x98, 0x87, 0x44, 0x3d,
  0x6e, 0x04, 0xfc, 0x3d, 0x18, 0x84, 0x08, 0x3d, 0xa3, 0x3e, 0xad, 0xbd,
  0x8e, 0x70, 0xe9, 0x3d, 0xf8, 0x04, 0xb6, 0xbd, 0xd8, 0x55, 0xc2, 0x3c,
  0x58, 0xac, 0x88, 0x3c, 0x18, 0xaf, 0x93, 0xbc, 0xd8, 0xa2, 0x2d, 0xbe,
  0xde, 0xbf, 0xff, 0x3d, 0xa0, 0x16, 0x75, 0x3d, 0x3e, 0xd8, 0x97, 0x3d,
  0x60, 0xcb, 0xef, 0xbb, 0x80, 0x35, 0x2e, 0xbc, 0xff, 0x04, 0x2a, 0x3e,
  0x82, 0x17, 0xbe, 0x3d, 0x58, 0xb9, 0xec, 0x3c, 0xf8, 0xbd, 0xa5, 0x3c,
  0xc8, 0x7b, 0xff, 0xbd, 0x0e, 0x3b, 0x80, 0xbd, 0xb4, 0x17, 0x32, 0x3d,
  0xde, 0xdd, 0x82, 0x3d, 0x24, 0x4f, 0x86, 0x3d, 0xc2, 0x8c, 0x55, 0xbd,
  0x20, 0xa3, 0xd0, 0xbb, 0x1a, 0x7a, 0xd8, 0x3d, 0x4c, 0x3e, 0x93, 0x3d,
  0x0d, 0x62, 0xc0, 0xbd, 0x9e, 0xe6, 0xda, 0xbd, 0x16, 0x96, 0xb5, 0xbd,
  0xb1, 0xbf, 0x2f, 0xbe, 0xa1, 0x55, 0x0a, 0x3e, 0xf0, 0xa4, 0x03, 0xbc,
  0xb8, 0x61, 0x1c, 0xbd, 0xd8, 0x55, 0x51, 0x3d, 0x91, 0x65, 0xb0, 0xbd,
  0x86, 0xf4, 0x24, 0xbe, 0x4e, 0xb4, 0xcf, 0x3d, 0xc0, 0x32, 0xb2, 0xbd,
  0x00, 0x8b, 0x93, 0x3a, 0x98, 0xb0, 0x1a, 0x3d, 0x78, 0xa9, 0x0d, 0xbe,
  0x67, 0x94, 0x15, 0x3e, 0x62, 0xcf, 0x1e, 0xbe, 0x2c, 0x26, 0x35, 0x3d,
  0x20, 0xc2, 0x87, 0xbd, 0x55, 0xef, 0x13, 0x3e, 0x96, 0xdb, 0xc9, 0x3d,
  0x7c, 0xf6, 0x3e, 0x3d, 0xd0, 0x82, 0x91, 0xbd, 0xa0, 0xa2, 0x05, 0xbd,
  0x40, 0x54, 0x8f, 0xbb, 0xf5, 0x53, 0x2f, 0xbe, 0xfb, 0x4b, 0x02, 0xbe,
  0x5d, 0x05, 0x2c, 0xbe, 0xa8, 0xcb, 0xde, 0xbc, 0x9d, 0x6f, 0x83, 0xbd,
  0xe2, 0x29, 0xb7, 0xbd, 0xd6, 0xab, 0x81, 0xbd, 0xae, 0xf2, 0x55, 0xbd,
  0xb8, 0x75, 0x15, 0xbe, 0x4b, 0x5e, 0x10, 0xbe, 0xe7, 0xfe, 0x32, 0x3e,
  0x54, 0xc3, 0x65, 0x3d, 0x2a, 0x9f, 0xa5, 0x3d, 0x0b, 0x00, 0x29, 0x3e,
  0x1c, 0xcc, 0x42, 0x3d, 0x1a, 0x7b, 0xb9, 0x3d, 0xb0, 0x73, 0x16, 0x3d,
  0x9c, 0xf0, 0xc9, 0xbd, 0x12, 0xc1, 0x01, 0xbe, 0x39, 0xc9, 0x04, 0x3e,
  0x70, 0x62, 0x67, 0x3d, 0x9b, 0x43, 0x0e, 0x3e, 0x45, 0xec, 0x2c, 0x3e,
  0xc4, 0xc2, 0xf2, 0xbd, 0x8e, 0x5c, 0xfe, 0xbd, 0xe4, 0x3a, 0x2b, 0x3d,
  0x86, 0x3c, 0x80, 0x3d, 0xab, 0x83, 0x0f, 0x3e, 0xe6, 0x42, 0x12, 0xbe,
  0x8c, 0x5c, 0xf2, 0xbd, 0x2f, 0x45, 0xca, 0xbd, 0x3e, 0xd9, 0xcb, 0xbd,
  0xf8, 0xce, 0xe5, 0xbd, 0x58, 0xe9, 0x43, 0x3d, 0x72, 0x59, 0xbc, 0x3d,
  0xf7, 0xfd, 0xd1, 0xbd, 0x44, 0x04, 0x76, 0x3d, 0x27, 0x32, 0x11, 0x3e,
  0xa3, 0x19, 0xce, 0xbd, 0x2b, 0x1f, 0x87, 0xbd, 0x1a, 0xc8, 0xa7, 0x3d,
  0x12, 0x8f, 0x2a, 0xbe, 0x55, 0x68, 0x1e, 0x3e, 0x61, 0xbd, 0x0c, 0xbe,
  0x98, 0x66, 0x3a, 0xbd, 0x48, 0x11, 0x80, 0xbc, 0x9c, 0xd0, 0x00, 0x3d,
  0x40, 0xca, 0x4f, 0x3d, 0xb3, 0x23, 0xb9, 0xbd, 0x82, 0x86, 0xbe, 0x3d,
  0x70, 0x56, 0x6b, 0x3c, 0x4a, 0xd8, 0xb6, 0x3d, 0xa1, 0x2a, 0x2c, 0xbe,
  0x5d, 0x78, 0xab, 0xbd, 0xb5, 0x21, 0xac, 0xbd, 0x0e, 0xe6, 0xa6, 0x3d,
  0x62, 0x8f, 0xfe, 0xbd, 0x20, 0x97, 0x15, 0xbc, 0xdc, 0x51, 0x42, 0xbd,
  0xe0, 0x4d, 0x0f, 0xbe, 0xc6, 0x28, 0x9e, 0xbd, 0x2a, 0x6e, 0x8e, 0xbd,
  0x20, 0xd2, 0xd8, 0x3b, 0x47, 0x77, 0x1b, 0x3e, 0x3d, 0xb7, 0x27, 0x3e,
  0x90, 0x87, 0x7f, 0x3c, 0x40, 0x8c, 0x3c, 0xbc, 0x07, 0x8f, 0xb8, 0xbd,
  0x74, 0x57, 0x29, 0xbe, 0x20, 0xcf, 0x06, 0xbe, 0x92, 0x2e, 0xb5, 0x3d,
  0x69, 0xdb, 0x2d, 0x3e, 0xdf, 0x0e, 0x24, 0x3e, 0x00, 0xfd, 0x2a, 0x3d,
  0x00, 0x46, 0x52, 0xbb, 0x56, 0x34, 0xf4, 0x3d, 0x60, 0x51, 0x08, 0x3c,
  0xc0, 0x03, 0x8f, 0x3c, 0x11, 0x07, 0x24, 0x3e, 0x2c, 0x1c, 0x03, 0xbd,
  0xda, 0xb7, 0xf9, 0xbd, 0xe2, 0x1f, 0x00, 0xbe, 0x9e, 0xa2, 0xc0, 0x3d,
  0x30, 0x7f, 0x66, 0xbc, 0x7e, 0xd3, 0xad, 0x3d, 0xb2, 0x3e, 0x31, 0xbe,
  0x5a, 0x6a, 0xd0, 0x3d, 0xec, 0xa3, 0x29, 0xbd, 0x10, 0xbb, 0xec, 0xbd,
  0xcb, 0x54, 0x8e, 0xbd, 0xf3, 0xf8, 0x9c, 0xbd, 0x6f, 0x86, 0x27, 0x3e,
  0xbd, 0xb8, 0x15, 0x3e, 0x9b, 0x99, 0x0d, 0x3e, 0x52, 0xf7, 0x90, 0xbd,
  0xb1, 0xa3, 0x10, 0x3e, 0x4a, 0xec, 0xf0, 0x3d, 0x1c, 0x04, 0xfb, 0xbd,
  0x28, 0x2f, 0xbd, 0xbd, 0x18, 0x90, 0x8c, 0x3d, 0x41, 0x7c, 0x1c, 0xbe,
  0x71, 0xfd, 0x8d, 0xbd, 0xa0, 0xc3, 0xb3, 0x3c, 0xc0, 0x9b, 0x38, 0x3c,
  0xe7, 0xc9, 0xa0, 0xbd, 0x8b, 0x46, 0x90, 0xbd, 0xc0, 0x01, 0x45, 0x3c,
  0xd6, 0x35, 0x85, 0x3d, 0x15, 0x6a, 0x18, 0x3e, 0xc4, 0xc2, 0x1c, 0xbe,
  0xc5, 0xaf, 0x2f, 0xbe, 0xc8, 0x74, 0x43, 0x3d, 0x6e, 0xf1, 0xbe, 0x3d,
  0x22, 0x3c, 0xdd, 0x3d, 0x92, 0xa5, 0xac, 0x3d, 0x28, 0x0e, 0x23, 0xbe,
  0x40, 0xee, 0xa2, 0xbb, 0x98, 0xf2, 0xde, 0xbc, 0x8a, 0x76, 0xa6, 0xbd,
  0xdf, 0xe9, 0x1f, 0xbe, 0x60, 0x86, 0xb3, 0x3c, 0x1d, 0x38, 0x27, 0x3e,
  0xa0, 0x1f, 0x86, 0x3c, 0xf2, 0x83, 0x5c, 0xbd, 0x0b, 0xe0, 0x1a, 0xbe,
  0xef, 0xd9, 0x08, 0x3e, 0xe4, 0x95, 0x5a, 0xbd, 0xd7, 0x6e, 0x18, 0x3e,
  0x30, 0x71, 0xfe, 0xbc, 0xc0, 0xa9, 0x26, 0xbc, 0x86, 0xf7, 0xf2, 0x3d,
  0x3d, 0x51, 0x04, 0x3e, 0xe4, 0x61, 0x71, 0xbd, 0x08, 0x5e, 0x93, 0x3d,
  0x5e, 0x59, 0xce, 0xbd, 0x26, 0xf5, 0xe9, 0x3d, 0xdb, 0xf2, 0x16, 0xbe,
  0xfe, 0x6e, 0xe3, 0x3d, 0xcc, 0x65, 0x23, 0x3d, 0xb2, 0xc1, 0x12, 0xbe,
  0x79, 0x79, 0xce, 0xbd, 0x96, 0x2a, 0xf3, 0xbd, 0x86, 0x5e, 0xcb, 0xbd,
  0xe0, 0xcc, 0x01, 0xbc, 0x52, 0xbe, 0xaf, 0x3d, 0x7d, 0xfd, 0x15, 0xbe,
  0x50, 0x0c, 0xb7, 0xbd, 0xad, 0x96, 0xb2, 0xbd, 0x00, 0x3a, 0xcc, 0xbc,
  0xdd, 0x98, 0x10, 0x3e, 0xf0, 0x03, 0x3e, 0xbd, 0xaa, 0x1e, 0xce, 0x3d,
  0x87, 0xdc, 0x2f, 0x3e, 0x80, 0xc8, 0xfb, 0x3a, 0x50, 0x18, 0xda, 0xbd,
  0x88, 0x6f, 0xeb, 0xbc, 0xa6, 0x71, 0x97, 0xbd, 0xe3, 0xab, 0x03, 0x3e,
  0x40, 0x29, 0x8f, 0xbb, 0xe0, 0x20, 0x27, 0xbe, 0x74, 0x97, 0x18, 0xbd,
  0x63, 0xa5, 0x0e, 0xbe, 0x60, 0x81, 0x16, 0x3d, 0xe9, 0xc7, 0x2e, 0xbe,
  0x90, 0x0f, 0xe1, 0xbd, 0xde, 0x73, 0xb1, 0x3d, 0x88, 0x20, 0x35, 0xbd,
  0xcc, 0xfa, 0x10, 0xbe, 0x40, 0x99, 0xdf, 0xbd, 0x07, 0x2a, 0x2c, 0x3e,
  0x50, 0xf1, 0xeb, 0xbd, 0xd4, 0x34, 0x24, 0xbe, 0xbc, 0x09, 0x95, 0x3d,
  0x3c, 0x4d, 0x2f, 0xbd, 0x00, 0xd8, 0x37, 0xba, 0x59, 0x17, 0x82, 0xbd,
  0x79, 0x89, 0x32, 0x3e, 0x92, 0xe3, 0xfc, 0x3d, 0x81, 0x8b, 0x22, 0x3e,
  0x62, 0x17, 0x84, 0x3d, 0xb9, 0x21, 0xe3, 0xbd, 0x8f, 0xf0, 0x9b, 0xbd,
  0xc6, 0x63, 0x15, 0xbe, 0x47, 0x78, 0x17, 0x3e, 0x35, 0x7c, 0x0f, 0x3e,
  0xd0, 0x79, 0x0e, 0xbd, 0x1c, 0x54, 0x5a, 0x3d, 0x88, 0x57, 0x50, 0x3d,
  0xd3, 0xe9, 0x15, 0x3e, 0x9e, 0xe3, 0x0e, 0xbe, 0x76, 0x19, 0xf7, 0xbd,
  0x32, 0x0f, 0x99, 0x3d, 0x12, 0xcd, 0x53, 0xbd, 0xdd, 0xa8, 0xe6, 0xbd,
  0x9f, 0xbe, 0x01, 0xbe, 0x6e, 0x26, 0x1b, 0xbe, 0x04, 0xaf, 0x61, 0x3d,
  0xb2, 0x40, 0x9b, 0x3d, 0xc9, 0x4c, 0x2a, 0x3e, 0xe6, 0x49, 0xe4, 0x3d,
  0x40, 0x49, 0xb4, 0xbb, 0xb0, 0x3e, 0x9c, 0x3c, 0xe8, 0x80, 0x03, 0x3d,
  0x59, 0x54, 0x31, 0xbe, 0x07, 0xe7, 0x03, 0x3e, 0xa8, 0xfb, 0xb1, 0x3c,
  0x70, 0x91, 0xf7, 0xbd, 0xd0, 0x26, 0x3f, 0x3d, 0xc8, 0x08, 0xea, 0x3c,
  0x8c, 0x43, 0x20, 0xbd, 0x0e, 0xa6, 0xdd, 0x3d, 0xc4, 0x2d, 0x31, 0x3d,
  0xfe, 0x28, 0x08, 0xbe, 0x3e, 0x63, 0x0a, 0xbe, 0xab, 0x0c, 0xb6, 0xbd,
  0x36, 0x60, 0xf6, 0x3d, 0x20, 0xa5, 0x02, 0xbe, 0x0f, 0x5b, 0x11, 0x3e,
  0x35, 0xb1, 0x07, 0x3e, 0x38, 0x5a, 0xf6, 0xbc, 0x4a, 0x5c, 0xf8, 0xbd,
  0x7c, 0x46, 0x2b, 0xbd, 0x7b, 0xb9, 0xd9, 0xbd, 0x1c, 0xa9, 0x83, 0x3d,
  0x50, 0x5b, 0x07, 0xbd, 0x34, 0xd9, 0x2c, 0x3d, 0x40, 0xcb, 0x5a, 0x3c,
  0xe7, 0x9b, 0x09, 0x3e, 0x86, 0x05, 0xf2, 0x3d, 0x2c, 0x05, 0x00, 0x3d,
  0x80, 0x47, 0xfa, 0x3a, 0x9d, 0x1b, 0x30, 0x3e, 0x80, 0x48, 0xeb, 0x3c,
  0x3f, 0x81, 0x1b, 0x3e, 0x02, 0x16, 0xe8, 0x3d, 0xe6, 0x0c, 0x8f, 0x3d,
  0xc3, 0x4d, 0xab, 0xbd, 0xaf, 0xe5, 0x0e, 0x3e, 0x1a, 0x04, 0x9e, 0x3d,
  0xe2, 0x83, 0x2c, 0xbe, 0x80, 0xa4, 0x30, 0xbb, 0xb0, 0x0d, 0x19, 0xbc,
  0x75, 0x04, 0x0c, 0x3e, 0x32, 0x72, 0x17, 0xbe, 0xd8, 0x0b, 0xf0, 0xbc,
  0x67, 0xe7, 0x1a, 0xbe, 0x01, 0xf6, 0x24, 0x3e, 0x2f, 0x95, 0xaf, 0xbd,
  0xbb, 0xa9, 0xbb, 0xbd, 0xbc, 0x6d, 0x06, 0xbe, 0xb8, 0x97, 0x73, 0x3d,
  0x18, 0x54, 0xf6, 0xbc, 0x80, 0xab, 0x23, 0x3b, 0x30, 0x2d, 0x86, 0xbc,
  0x5f, 0xc7, 0x0e, 0x3e, 0xae, 0x29, 0x20, 0xbe, 0x1c, 0x0e, 0x87, 0xbd,
  0x00, 0xda, 0xb8, 0x3b, 0xe6, 0xf1, 0x50, 0xbd, 0x14, 0x80, 0xa2, 0xbd,
  0x66, 0x48, 0x83, 0x3d, 0x11, 0x2a, 0x90, 0xbd, 0xfe, 0xfc, 0x7f, 0xbd,
  0xfe, 0x53, 0x0b, 0xbe, 0x0b, 0xc8, 0x0a, 0x3e, 0xb6, 0x63, 0xce, 0xbd,
  0xb9, 0x4c, 0x1d, 0x3e, 0x4a, 0x6b, 0xed, 0x3d, 0x22, 0x84, 0x04, 0xbe,
  0xe8, 0x29, 0xa1, 0xbc, 0x23, 0xda, 0xd2, 0xbd, 0xb8, 0x6e, 0x69, 0x3d,
  0x9b, 0x43, 0x11, 0xbe, 0x7b, 0xca, 0x16, 0xbe, 0x90, 0xd0, 0x0e, 0x3d,
  0xa2, 0x07, 0x12, 0xbe, 0x8f, 0x12, 0x90, 0xbd, 0xfb, 0xb8, 0xd9, 0xbd,
  0xb1, 0x95, 0xab, 0xbd, 0x94, 0xc7, 0x5f, 0x3d, 0x55, 0x65, 0x1b, 0x3e,
  0x86, 0xef, 0xed, 0xbd, 0xa0, 0xb8, 0x39, 0xbc, 0xc0, 0xd9, 0xed, 0xbc,
  0x70, 0xbd, 0x46, 0xbd, 0xa6, 0x2d, 0x07, 0xbe, 0x64, 0x4e, 0x0e, 0xbd,
  0xd8, 0xea, 0x2d, 0xbe, 0xd8, 0x78, 0x89, 0x3d, 0x80, 0xab, 0x07, 0xbe,
  0x0f, 0x4d, 0x2b, 0x3e, 0xa8, 0xf5, 0x61, 0x3d, 0xae, 0xc9, 0xf2, 0x3d,
  0x10, 0xe2, 0x71, 0xbc, 0xe0, 0x04, 0xf1, 0xbb, 0x30, 0x3e, 0x23, 0xbc,
  0x62, 0x32, 0xc9, 0xbd, 0x2a, 0x8a, 0x54, 0xbd, 0x90, 0x4b, 0x7f, 0xbc,
  0x9e, 0xeb, 0xb8, 0x3d, 0x22, 0x4c, 0xb4, 0x3d, 0x34, 0xe3, 0x25, 0x3d,
  0x3a, 0xb9, 0xf3, 0x3d, 0xae, 0x1c, 0x08, 0xbe, 0x96, 0xaa, 0xeb, 0x3d,
  0x7e, 0x63, 0xdb, 0x3d, 0x05, 0x5a, 0x22, 0x3e, 0x00, 0xd8, 0xaf, 0x38,
  0x8a, 0x35, 0x81, 0x3d, 0xf4, 0x3e, 0x33, 0x3d, 0xa0, 0x8e, 0x0b, 0xbe,
  0xab, 0x9c, 0x90, 0xbd, 0x9d, 0xf4, 0x0c, 0x3e, 0x1c, 0xc3, 0xf3, 0xbd,
  0x3e, 0x3c, 0x8c, 0x3d, 0x30, 0x90, 0x63, 0xbc, 0xb7, 0x3a, 0x27, 0x3e,
  0x62, 0xaf, 0xc8, 0x3d, 0xce, 0xe9, 0xd7, 0xbd, 0x58, 0xa3, 0x18, 0xbe,
  0xe1, 0x90, 0x14, 0x3e, 0x80, 0x28, 0x3e, 0x3b, 0x87, 0x59, 0xcd, 0xbd,
  0xe0, 0xce, 0x4a, 0xbc, 0x90, 0x20, 0xa6, 0x3c, 0x21, 0x0d, 0x31, 0x3e,
  0x3c, 0x16, 0x23, 0xbd, 0x7b, 0x57, 0x2a, 0x3e, 0x80, 0xe4, 0xdd, 0xba,
  0xfa, 0xfc, 0x92, 0x3d, 0x62, 0xf8, 0xcf, 0x3d, 0x78, 0xb1, 0x17, 0x3d,
  0x35, 0x26, 0xc8, 0xbd, 0x30, 0x4f, 0xcb, 0xbc, 0xf0, 0xf7, 0x84, 0x3c,
  0x9c, 0x6d, 0x54, 0x3d, 0x7b, 0x6c, 0x18, 0x3e, 0x10, 0xbb, 0x76, 0x3c,
  0xf8, 0x5d, 0xde, 0xbc, 0x18, 0x0d, 0x9e, 0x3c, 0xbe, 0x86, 0x6a, 0xbd,
  0x48, 0xc6, 0xf2, 0xbc, 0xf2, 0x94, 0xa8, 0xbd, 0xf2, 0x19, 0xd4, 0xbd,
  0x02, 0x9c, 0x83, 0xbd, 0xdd, 0xa7, 0x10, 0x3e, 0xd3, 0x1a, 0x2d, 0x3e,
  0x2a, 0xb4, 0x6b, 0xbd, 0x5a, 0x2e, 0x2d, 0xbe, 0x73, 0x85, 0x03, 0x3e,
  0x2d, 0x58, 0xb1, 0xbd, 0x00, 0x40, 0x91, 0x37, 0x87, 0xea, 0xab, 0xbd,
  0x8c, 0xb4, 0xfa, 0xbd, 0xea, 0x76, 0x80, 0x3d, 0x50, 0x31, 0xcc, 0xbd,
  0x29, 0xfb, 0x28, 0x3e, 0xc0, 0x74, 0xca, 0xbb, 0xd7, 0x55, 0x32, 0xbe,
  0x37, 0x06, 0xc7, 0xbd, 0x1d, 0x13, 0xcf, 0xbd, 0xc8, 0x31, 0xf7, 0xbd,
  0x81, 0x67, 0x29, 0xbe, 0xbb, 0xd2, 0x01, 0xbe, 0xf0, 0x08, 0x5b, 0x3d,
  0x8c, 0x84, 0x30, 0xbe, 0x38, 0xf8, 0x4e, 0x3d, 0xc0, 0x9e, 0x5f, 0x3b,
  0xf5, 0xad, 0x10, 0xbe, 0x9e, 0x81, 0xaf, 0x3d, 0x98, 0x30, 0x8b, 0x3d,
  0x4c, 0x3b, 0xaf, 0xbd, 0x3e, 0xa6, 0xe2, 0xbd, 0xfe, 0xa3, 0x2a, 0xbe,
  0x96, 0xc4, 0xe4, 0xbd, 0xf2, 0x8b, 0x17, 0xbe, 0xe5, 0xd3, 0x27, 0x3e,
  0x00, 0x46, 0x00, 0xbe, 0x9c, 0x19, 0x1d, 0xbd, 0xc5, 0xb2, 0xba, 0xbd,
  0xdc, 0xe3, 0x28, 0xbd, 0x01, 0x42, 0x1e, 0x3e, 0x23, 0x95, 0x1d, 0xbe,
  0xc0, 0x6c, 0x55, 0xbc, 0xea, 0x85, 0xf7, 0xbd, 0x1c, 0xc7, 0x13, 0xbe,
  0xb4, 0xfd, 0x69, 0xbd, 0xa8, 0x83, 0x7f, 0xbd, 0x48, 0x58, 0x53, 0x3d,
  0xb8, 0x1a, 0x16, 0xbd, 0x31, 0x78, 0x31, 0x3e, 0xd4, 0xb6, 0x24, 0xbe,
  0x0b, 0xbd, 0x00, 0xbe, 0x83, 0x1b, 0x17, 0xbe, 0xec, 0xd9, 0x63, 0x3d,
  0xe9, 0xf4, 0x28, 0x3e, 0xc0, 0x62, 0x36, 0xbc, 0x64, 0xcc, 0x06, 0xbe,
  0xe0, 0x8c, 0x2b, 0xbc, 0x8c, 0x22, 0x19, 0xbd, 0x1e, 0xb9, 0x94, 0xbd,
  0xe4, 0xe0, 0x7b, 0xbd, 0xd4, 0x37, 0xb8, 0xbd, 0x5d, 0x57, 0x2e, 0x3e,
  0x4c, 0x71, 0x14, 0xbd, 0x88, 0xd6, 0x51, 0xbd, 0x38, 0xa7, 0xb2, 0xbc,
  0xa1, 0x2c, 0x0e, 0xbe, 0xce, 0x1d, 0x88, 0xbd, 0x04, 0x17, 0x0c, 0xbd,
  0xae, 0x7f, 0xc1, 0x3d, 0x10, 0x27, 0xbe, 0x3c, 0xaa, 0xeb, 0x12, 0xbe,
  0x40, 0x9a, 0xf4, 0xbd, 0x6f, 0xb8, 0xc1, 0xbd, 0x60, 0xa2, 0x0d, 0x3c,
  0x7c, 0xc8, 0x59, 0xbd, 0x50, 0x31, 0x11, 0xbe, 0xcb, 0x5f, 0x1a, 0xbe,
  0xa4, 0xca, 0x35, 0xbd, 0xee, 0x25, 0x97, 0x3d, 0x6e, 0x62, 0xf5, 0xbd,
  0x52, 0x7f, 0xe7, 0x3d, 0x96, 0xbb, 0xa6, 0x3d, 0xc6, 0x47, 0xd3, 0xbd,
  0xf1, 0xf0, 0x2f, 0x3e, 0x6c, 0xfd, 0x62, 0x3d, 0xab, 0x3d, 0xd3, 0xbd,
  0x6f, 0xe2, 0x23, 0xbe, 0xd4, 0x89, 0x41, 0xbd, 0x5a, 0x89, 0xbd, 0x3d,
  0xce, 0x2b, 0xe4, 0x3d, 0x70, 0x31, 0xe7, 0xbc, 0x86, 0x09, 0x01, 0xbe,
  0xc0, 0xce, 0x0c, 0x3b, 0xe9, 0x45, 0x1d, 0x3e, 0x4d, 0x79, 0x2d, 0xbe,
  0x02, 0x44, 0xc6, 0x3d, 0xb8, 0xe2, 0x99, 0x3c, 0x58, 0x6f, 0xe2, 0x3c,
  0x1a, 0x86, 0xca, 0x3d, 0xc0, 0x07, 0xb8, 0xbc, 0x24, 0xb6, 0x1c, 0x3d,
  0x80, 0x59, 0xa2, 0xbb, 0x8a, 0x4a, 0xe6, 0x3d, 0x38, 0xf0, 0x5d, 0xbd,
  0x98, 0xce, 0xcd, 0x3c, 0xa8, 0xf3, 0x3f, 0xbd, 0xc4, 0xeb, 0x36, 0x3d,
  0xc0, 0xc3, 0xe6, 0xbb, 0x20, 0x46, 0x21, 0xbc, 0xf8, 0x9f, 0x97, 0xbd,
  0x06, 0x95, 0x0b, 0xbe, 0xe8, 0x23, 0xff, 0xbc, 0x0a, 0x37, 0xee, 0x3d,
  0xa9, 0xf8, 0x18, 0xbe, 0x2e, 0xfd, 0xf9, 0x3d, 0x23, 0x87, 0xa6, 0xbd,
  0xb5, 0x59, 0xbb, 0xbd, 0x6d, 0x70, 0xe8, 0xbd, 0x88, 0x0f, 0x2c, 0xbe,
  0xcd, 0x6a, 0x15, 0x3e, 0xa4, 0x36, 0x0d, 0xbe, 0x4c, 0xcd, 0x78, 0x3d,
  0x56, 0xeb, 0x28, 0xbe, 0x50, 0x6a, 0xcb, 0xbd, 0x1c, 0x27, 0x11, 0xbd,
  0x00, 0xd7, 0x11, 0xbe, 0xc0, 0x8c, 0xb8, 0xbd, 0xfe, 0x9e, 0x88, 0x3d,
  0x10, 0xfe, 0xc9, 0xbd, 0xca, 0x12, 0xb2, 0x3d, 0xf8, 0x79, 0x18, 0xbd,
  0xf4, 0x43, 0xdf, 0xbd, 0x46, 0x9b, 0xb0, 0x3d, 0xf7, 0x5f, 0x0d, 0x3e,
  0xa0, 0x40, 0xf5, 0xbb, 0xf6, 0x23, 0x7d, 0xbd, 0x20, 0xc6, 0x10, 0xbe,
  0xa6, 0x4c, 0xf8, 0xbd, 0xf0, 0xa2, 0x69, 0xbd, 0xbf, 0x8e, 0x14, 0x3e,
  0xf1, 0xfd, 0x00, 0xbe, 0xf8, 0xfb, 0x67, 0x3d, 0x02, 0xf7, 0x18, 0xbe,
  0x7b, 0x40, 0x2e, 0x3e, 0x06, 0xa5, 0xb5, 0x3d, 0x99, 0x3b, 0x2e, 0x3e,
  0x40, 0xad, 0x2d, 0xbd, 0xe7, 0x15, 0x15, 0x3e, 0xdc, 0x19, 0x3f, 0xbd,
  0x3e, 0xb4, 0x9b, 0x3d, 0x60, 0x11, 0x04, 0xbe, 0xbe, 0x5f, 0xdd, 0x3d,
  0xf8, 0x9c, 0xdd, 0xbc, 0x05, 0xe6, 0xdb, 0xbd, 0xd6, 0x44, 0xee, 0x3d,
  0x90, 0x75, 0x73, 0xbd, 0x70, 0x66, 0x61, 0x3c, 0x00, 0x98, 0xbc, 0xba,
  0xb0, 0xfe, 0x74, 0x3c, 0x00, 0xf2, 0x8d, 0xbc, 0x69, 0x1a, 0xeb, 0xbd,
  0xdb, 0xf0, 0x2d, 0x3e, 0xef, 0xfa, 0x2e, 0x3e, 0x0e, 0x36, 0xe8, 0xbd,
  0x55, 0x11, 0x2d, 0x3e, 0x39, 0x1c, 0x2b, 0x3e, 0x91, 0xc4, 0xee, 0xbd,
  0x04, 0xa7, 0x20, 0xbd, 0x30, 0xa0, 0x88, 0xbc, 0x5d, 0x89, 0x25, 0x3e,
  0x50, 0xfb, 0x53, 0x3d, 0x0a, 0x8c, 0x24, 0xbe, 0xf2, 0xb7, 0x18, 0xbe,
  0xf2, 0x90, 0x9d, 0x3d, 0x70, 0x72, 0x02, 0xbc, 0x2c, 0x00, 0x0f, 0xbe,
  0x70, 0xb7, 0x37, 0xbc, 0x3a, 0xac, 0xff, 0x3d, 0x56, 0x83, 0x05, 0xbe,
  0x92, 0xf5, 0xca, 0xbd, 0x28, 0x96, 0xeb, 0xbd, 0x91, 0x7c, 0x11, 0xbe,
  0x9a, 0xee, 0xb4, 0xbd, 0x20, 0x02, 0x21, 0xbd, 0xa8, 0xc7, 0xb5, 0xbc,
  0xb3, 0x55, 0x19, 0x3e, 0x08, 0x6a, 0x02, 0xbe, 0x8c, 0x0f, 0x0c, 0x3d,
  0xe1, 0x6a, 0xad, 0xbd, 0x4b, 0x8f, 0x31, 0x3e, 0x80, 0x17, 0xb8, 0xbb,
  0xb0, 0xbf, 0x6a, 0x3d, 0x5e, 0x16, 0xee, 0x3d, 0xc0, 0x53, 0xa9, 0x3c,
  0xec, 0x5b, 0x20, 0xbd, 0xe0, 0xd7, 0xf1, 0xbb, 0x10, 0x21, 0x3f, 0x3c,
  0x8d, 0xe2, 0x1c, 0x3e, 0xb7, 0xc3, 0x21, 0x3e, 0xef, 0x3d, 0xad, 0xbd,
  0xc1, 0x00, 0x2a, 0x3e, 0x9a, 0x08, 0xc0, 0xbd, 0xf0, 0xe4, 0x67, 0xbe,
  0xc7, 0x46, 0xbc, 0x3e, 0x64, 0x29, 0xa3, 0x3e, 0x2f, 0xe5, 0x3a, 0xbe,
  0x43, 0x1c, 0x98, 0x3c, 0xf9, 0xcc, 0x9c, 0x3e, 0x31, 0xa9, 0x05, 0xbe,
  0x0a, 0x11, 0xba, 0x3e, 0xd5, 0x2b, 0x45, 0x3e, 0xe7, 0xb7, 0x76, 0xbe,
  0xba, 0x95, 0x4f, 0x3d, 0xb8, 0xda, 0xf3, 0x3e, 0xc3, 0x8a, 0x2e, 0x3d,
  0x99, 0x1c, 0x2e, 0x3e, 0x12, 0xa4, 0xb4, 0x3e, 0x2d, 0xbd, 0x93, 0xbe,
  0x76, 0x63, 0xdb, 0xbd, 0x09, 0x43, 0x0f, 0x3f, 0x87, 0xcc, 0x3b, 0x3d,
  0xdb, 0xab, 0xaf, 0xbd, 0x4e, 0xae, 0x2e, 0x3e, 0x6c, 0xf8, 0xe6, 0xbe,
  0xa1, 0x12, 0x22, 0xbe, 0xdf, 0xa2, 0x26, 0x3f, 0x77, 0x0f, 0x86, 0x3e,
  0xee, 0x5e, 0x0e, 0xbe, 0x67, 0x10, 0x8c, 0xbd, 0x3a, 0xc6, 0xf0, 0xbe,
  0x73, 0x24, 0x44, 0xbd, 0x45, 0xe6, 0xeb, 0x3e, 0x5f, 0x8d, 0x4b, 0x3e,
  0x3e, 0xf8, 0x16, 0xbe, 0x98, 0x8c, 0xfd, 0xbc, 0x18, 0x2f, 0xf4, 0xbe,
  0x2b, 0xe3, 0x13, 0x3e, 0x73, 0x33, 0xb0, 0x3e, 0xb2, 0xe3, 0xf6, 0x3d,
  0x65, 0xc0, 0xed, 0xbd, 0x23, 0x1e, 0x65, 0xbc, 0xbb, 0x17, 0xb7, 0xbe,
  0x45, 0xcc, 0x7e, 0xbd, 0x03, 0xa5, 0xa8, 0x3e, 0x9d, 0x45, 0x8a, 0x3c,
  0x0d, 0x8f, 0x26, 0xbe, 0xac, 0xc9, 0x08, 0xbe, 0x9e, 0x40, 0xcb, 0xbe,
  0x62, 0xaa, 0x56, 0xbd, 0x7b, 0xa2, 0x96, 0x3e, 0x00, 0x8c, 0x28, 0x3e,
  0x12, 0x39, 0x15, 0x3e, 0x77, 0x04, 0xd1, 0xbd, 0xce, 0x08, 0xfd, 0xbe,
  0xcf, 0x73, 0x3e, 0xbe, 0x29, 0x9c, 0x36, 0x3e, 0xd6, 0x6e, 0x16, 0x3e,
  0x8e, 0x4e, 0x6f, 0x3e, 0x4b, 0x7f, 0x6e, 0x3d, 0xb7, 0xd8, 0x87, 0xbe,
  0xeb, 0xd6, 0x99, 0x3d, 0x25, 0x20, 0x81, 0x3d, 0xd4, 0xdc, 0x5e, 0x3e,
  0x52, 0xbc, 0xd7, 0x3d, 0x0e, 0xf7, 0x44, 0x3e, 0x82, 0xa7, 0xad, 0xbd,
  0x5c, 0x9f, 0xd0, 0xbc, 0xd5, 0xd2, 0xe7, 0x3d, 0x15, 0xa3, 0x75, 0x3d,
  0xa9, 0x1b, 0xea, 0x3e, 0xc3, 0x79, 0xa5, 0x3d, 0x4e, 0xcc, 0x8c, 0xbe,
  0xf7, 0xc7, 0xa8, 0x3d, 0x2a, 0x09, 0xc4, 0x3d, 0xa6, 0xe4, 0xbc, 0x3d,
  0x48, 0x7e, 0x0b, 0x3f, 0x97, 0x5b, 0x2f, 0xbd, 0x66, 0xb4, 0x91, 0xbd,
  0xc7, 0xb4, 0x09, 0x3e, 0x46, 0xdd, 0x90, 0xbc, 0x48, 0x22, 0x18, 0x3e,
  0x66, 0x4b, 0xb5, 0x3e, 0xd6, 0x69, 0x29, 0xbe, 0xe1, 0xc7, 0xc8, 0x3c,
  0x6e, 0xfe, 0x11, 0xbe, 0x74, 0x86, 0x25, 0x3e, 0xd5, 0x16, 0x82, 0x3e,
  0x64, 0x62, 0x08, 0x3f, 0x90, 0x1a, 0xfe, 0xbd, 0x67, 0x43, 0x08, 0x3e,
  0x08, 0xde, 0x43, 0x3c, 0x12, 0x13, 0xd3, 0x3c, 0xe1, 0xc3, 0xc6, 0x3e,
  0x52, 0xdd, 0x0c, 0x3f, 0x92, 0x3a, 0xff, 0xbd, 0x4c, 0x30, 0x57, 0x3e,
  0x12, 0xc1, 0x4b, 0x3e, 0x4a, 0x92, 0xa4, 0x3e, 0xaa, 0x45, 0xd2, 0x3e,
  0xe9, 0x08, 0xd0, 0x3e, 0x2e, 0xc7, 0xb8, 0xbd, 0xce, 0x0f, 0x6d, 0x3e,
  0xb3, 0xaa, 0x92, 0x3b, 0xbd, 0xde, 0x23, 0x3e, 0x93, 0xca, 0xde, 0x3e,
  0x54, 0xb0, 0x25, 0x3e, 0xed, 0xae, 0xe6, 0x3d, 0xa7, 0x0a, 0x49, 0x3d,
  0xdd, 0xfd, 0x99, 0x3d, 0xef, 0x26, 0x54, 0x3e, 0x7b, 0x6c, 0x01, 0x3f,
  0x3c, 0x32, 0x3a, 0xbe, 0xc4, 0xb5, 0xa0, 0xbd, 0x8a, 0xc3, 0xd2, 0x3d,
  0x69, 0x3b, 0x87, 0x3e, 0x4a, 0x38, 0x9d, 0x3e, 0x8d, 0x1a, 0xba, 0x3e,
  0x05, 0xdb, 0xa2, 0xbd, 0x46, 0x78, 0xa2, 0xbd, 0xa6, 0x0e, 0x15, 0x3e,
  0xb8, 0xdc, 0x3e, 0x3e, 0x86, 0xc7, 0x8a, 0x3e, 0xe0, 0x74, 0xf5, 0x3e,
  0x05, 0x8a, 0x99, 0xbe, 0x82, 0xb6, 0xc1, 0x3d, 0xd9, 0x2b, 0x62, 0x3e,
  0x03, 0x51, 0x92, 0x3e, 0xd5, 0xd7, 0x69, 0x3e, 0x1c, 0xfa, 0xec, 0x3e,
  0xe2, 0x15, 0x1a, 0xbe, 0x7d, 0x93, 0x40, 0xbe, 0x85, 0x32, 0x9c, 0x3e,
  0x2f, 0xff, 0x8f, 0x3e, 0x1d, 0xf8, 0x31, 0x3e, 0x44, 0x12, 0xd0, 0x3e,
  0x0c, 0x0e, 0x53, 0xbe, 0xcd, 0x53, 0xb9, 0xbd, 0x89, 0x1e, 0x5d, 0x3e,
  0x6b, 0x81, 0xcc, 0x3d, 0x7c, 0x46, 0x9f, 0x3e, 0x30, 0x8f, 0xe7, 0x3e,
  0xdb, 0x02, 0xa0, 0xbd, 0xdc, 0xc0, 0xe0, 0x3d, 0x73, 0xc0, 0xeb, 0x3c,
  0x41, 0x25, 0x9e, 0x3d, 0xee, 0x40, 0x11, 0x3e, 0x6f, 0xaa, 0x31, 0x3e,
  0x2a, 0x64, 0xd8, 0xbd, 0xdc, 0x68, 0xc5, 0x3c, 0xb5, 0x07, 0x56, 0x3e,
  0x24, 0x48, 0x87, 0x3e, 0x62, 0x2d, 0x85, 0x3e, 0x3c, 0x6a, 0xd4, 0x3e,
  0xbb, 0x8c, 0x74, 0xbe, 0x48, 0x20, 0xbc, 0x3d, 0xac, 0x47, 0xc0, 0x3d,
  0x48, 0x6a, 0x89, 0x3e, 0xbf, 0x1b, 0xa6, 0x3e, 0x8e, 0x54, 0xba, 0x3e,
  0x91, 0x71, 0x8d, 0xbe, 0x9b, 0x19, 0x4c, 0x3c, 0x93, 0x1a, 0x14, 0x3e,
  0xd5, 0xc6, 0x55, 0x3e, 0x47, 0xff, 0x3f, 0x3e, 0x4c, 0xa4, 0x85, 0x3e,
  0x33, 0xb4, 0xdc, 0xbe, 0xf0, 0xcc, 0x96, 0x3c, 0x0d, 0xc4, 0x95, 0x3e,
  0xae, 0x2e, 0x9e, 0x3e, 0x8d, 0x93, 0x7c, 0x3e, 0xd6, 0x16, 0xed, 0x3d,
  0x2d, 0x66, 0x41, 0xbe, 0x9f, 0x04, 0x6e, 0x3e, 0x15, 0x92, 0x4e, 0x3e,
  0x72, 0x53, 0x7c, 0x3e, 0x16, 0xcb, 0xa7, 0x3d, 0xb5, 0xd9, 0x84, 0x3d,
  0x82, 0x86, 0xe1, 0xbe, 0x37, 0x39, 0xca, 0x3d, 0x9c, 0x9d, 0x8c, 0x3d,
  0x25, 0x06, 0x56, 0x3e, 0x2c, 0xaa, 0x71, 0x3e, 0x27, 0x4e, 0x2d, 0xbe,
  0x49, 0x6f, 0x19, 0x3e, 0x48, 0xce, 0x57, 0xbe, 0xd8, 0xe8, 0x9f, 0xbe,
  0xfe, 0xfa, 0x83, 0x3d, 0x94, 0x29, 0xde, 0xbe, 0xb0, 0x44, 0xf6, 0xbd,
  0xf5, 0x0e, 0xf1, 0x3e, 0x77, 0xac, 0x04, 0xbe, 0x4f, 0xa0, 0x8f, 0xbe,
  0x8a, 0x4b, 0xc3, 0xbd, 0xb4, 0x79, 0x04, 0xbf, 0x92, 0x2c, 0xc8, 0xbd,
  0xdc, 0x2e, 0x07, 0x3f, 0xea, 0x9d, 0x89, 0xbe, 0x5f, 0x65, 0xa7, 0xbe,
  0xae, 0x0a, 0x02, 0xbe, 0xb8, 0xb4, 0xf1, 0xbe, 0x52, 0xd2, 0x54, 0x3d,
  0x12, 0xb7, 0x28, 0x3f, 0x4d, 0xa8, 0x1b, 0xbe, 0xe0, 0x76, 0xba, 0xbe,
  0x79, 0xcb, 0x91, 0x3d, 0x33, 0x23, 0xc3, 0xbe, 0x50, 0xcc, 0x6b, 0xbd,
  0xc1, 0x18, 0xf9, 0x3e, 0xd6, 0x6b, 0xb2, 0xbe, 0xc9, 0x12, 0xc8, 0xbe,
  0x01, 0xcf, 0x6d, 0x3c, 0x5a, 0x59, 0xb8, 0xbe, 0x4e, 0x14, 0x15, 0x3e,
  0x4b, 0xc9, 0xcc, 0x3e, 0xf7, 0x18, 0xdb, 0xbe, 0x49, 0xed, 0x30, 0xbe,
  0x40, 0x02, 0xfb, 0xbd, 0x65, 0x93, 0x87, 0xbe, 0xb4, 0xcf, 0x73, 0x3e,
  0xf7, 0x2e, 0x41, 0x3f, 0x9d, 0xfb, 0x50, 0xbe, 0x5a, 0x47, 0x58, 0xbe,
  0x23, 0xea, 0x62, 0xbd, 0x00, 0x19, 0x2b, 0xbe, 0x7b, 0xf8, 0x5e, 0x3e,
  0x22, 0x4f, 0x15, 0x3f, 0x0f, 0x12, 0x76, 0xbd, 0x70, 0x0e, 0x2a, 0xbe,
  0x7d, 0xd9, 0x18, 0xbe, 0xfb, 0x88, 0x82, 0xbe, 0xad, 0x3f, 0x06, 0x3e,
  0xf0, 0x84, 0x25, 0x3f, 0xf1, 0xb0, 0x85, 0xbd, 0x00, 0x17, 0x7e, 0xbe,
  0xec, 0x4f, 0x88, 0x3c, 0xab, 0x53, 0xc3, 0xbe, 0x7c, 0x1e, 0xc4, 0x3e,
  0xde, 0x7a, 0x65, 0x3f, 0x65, 0x10, 0x85, 0xbd, 0x95, 0x7e, 0x39, 0xbd,
  0x54, 0xee, 0xfb, 0xbd, 0xfe, 0x10, 0x54, 0xbe, 0x4b, 0x50, 0xf7, 0x3e,
  0x23, 0x39, 0x2d, 0x3f, 0x66, 0x41, 0x90, 0xbd, 0x9b, 0xbf, 0x87, 0xbd,
  0x1c, 0xc1, 0x79, 0xbe, 0x59, 0x64, 0x14, 0xbe, 0x4b, 0xfb, 0x9d, 0x3e,
  0xef, 0x86, 0x2c, 0x3f, 0xc5, 0xc9, 0x84, 0xbd, 0x8e, 0xc7, 0xc6, 0x3d,
  0xc9, 0x90, 0x83, 0x3d, 0xd4, 0xdc, 0x27, 0xbe, 0x60, 0xe9, 0xf8, 0x3e,
  0xa2, 0xfe, 0x3e, 0x3f, 0x7b, 0x17, 0x3e, 0xbd, 0x8a, 0x6f, 0x12, 0xbe,
  0x46, 0xfc, 0x31, 0xbd, 0x77, 0x6f, 0x84, 0xbe, 0x8b, 0xee, 0x26, 0x3f,
  0xf6, 0xe3, 0x37, 0x3f, 0xfd, 0x6d, 0x39, 0xbe, 0xe1, 0x6a, 0xa9, 0xbd,
  0x5c, 0xcf, 0x4a, 0xbe, 0x01, 0x11, 0xe7, 0xbd, 0x3b, 0xa0, 0x25, 0x3f,
  0x41, 0xa7, 0x1a, 0x3f, 0xac, 0x05, 0x01, 0x3d, 0x31, 0x6b, 0xc0, 0xbd,
  0xdc, 0x08, 0x0d, 0xbe, 0x2e, 0xbc, 0xd6, 0x3c, 0x92, 0x96, 0x11, 0x3f,
  0xa2, 0xae, 0xc9, 0x3e, 0xfb, 0x9f, 0x28, 0xbd, 0xc5, 0x10, 0x11, 0x3e,
  0x4c, 0x4f, 0xef, 0x3c, 0xfe, 0x54, 0x57, 0x3d, 0x88, 0xee, 0xd4, 0x3e,
  0x5e, 0x31, 0xce, 0x3e, 0xa4, 0xe6, 0x55, 0x3d, 0x1c, 0xaf, 0xc2, 0x3d,
  0x84, 0x4a, 0xc4, 0xbd, 0x60, 0x00, 0x41, 0x3d, 0x32, 0xff, 0x9c, 0x3e,
  0xb9, 0x8b, 0x74, 0x3e, 0x26, 0x85, 0x29, 0x3d, 0xe4, 0x1c, 0xa8, 0x3a,
  0xdb, 0x04, 0x8d, 0xbe, 0xe7, 0x38, 0xfe, 0xbd, 0xda, 0x99, 0xc0, 0x3e,
  0xef, 0xd6, 0xff, 0x3d, 0xc3, 0x99, 0x66, 0xbd, 0x36, 0xf1, 0x62, 0xbe,
  0xb4, 0x70, 0x3e, 0xbe, 0x15, 0xf4, 0x98, 0x3d, 0x66, 0x1b, 0x05, 0x3f,
  0x8c, 0xa9, 0xf8, 0x3d, 0x75, 0xa5, 0x90, 0xbe, 0x2c, 0x95, 0x04, 0xbe,
  0x89, 0x4c, 0x8b, 0xbd, 0xc8, 0x42, 0x75, 0xbc, 0xf1, 0xed, 0xad, 0x3e,
  0x27, 0x26, 0xbf, 0x3d, 0xce, 0x6f, 0x69, 0xbc, 0xb2, 0x76, 0x52, 0xbe,
  0x7d, 0xca, 0x87, 0xbe, 0xcd, 0xac, 0xa5, 0xbd, 0x60, 0x58, 0xb5, 0x3e,
  0x17, 0x85, 0x83, 0xbc, 0xeb, 0xfc, 0xd2, 0xbd, 0xcc, 0xf1, 0x0e, 0xbe,
  0xa8, 0x86, 0xba, 0xb9, 0xca, 0x1d, 0xc5, 0x3d, 0xc9, 0x0e, 0x84, 0x3e,
  0xbc, 0xd5, 0x07, 0x3e, 0xb2, 0x6a, 0x91, 0xbe, 0x03, 0xf9, 0x2c, 0xbe,
  0x77, 0x0e, 0x04, 0x3c, 0xf6, 0xb2, 0x1b, 0x3e, 0x87, 0xc1, 0x6f, 0x3e,
  0xa3, 0x6f, 0x9d, 0x3d, 0x61, 0xfc, 0x0b, 0x3d, 0x9b, 0x28, 0x8e, 0x3c,
  0x46, 0xc4, 0x18, 0xbe, 0x75, 0x88, 0xbc, 0xbd, 0x0a, 0x14, 0x46, 0x3e,
  0xc8, 0x97, 0x20, 0xbe, 0xe8, 0x38, 0xba, 0xbd, 0x5e, 0x52, 0x57, 0x3c,
  0x4c, 0xc3, 0x21, 0xbd, 0x0f, 0xe1, 0x0e, 0x3e, 0xbd, 0xaf, 0x82, 0x3e,
  0x0c, 0xfe, 0x8b, 0xbc, 0xe1, 0xaa, 0xde, 0xbd, 0x82, 0x6c, 0x89, 0xbc,
  0xde, 0x84, 0xe7, 0x3c, 0xc4, 0x0a, 0xce, 0xbb, 0x0e, 0xae, 0xa7, 0x3e,
  0x02, 0x15, 0x4a, 0x3c, 0xb3, 0x76, 0x58, 0xbe, 0xc6, 0x30, 0xb5, 0xbd,
  0xaa, 0x6b, 0xc4, 0x3b, 0x74, 0x22, 0xbc, 0xbd, 0xdb, 0xa2, 0xa6, 0x3e,
  0xe2, 0x46, 0x1a, 0xbe, 0x7f, 0x0f, 0x54, 0x3d, 0xdc, 0x0f, 0xf6, 0xbd,
  0x15, 0xbf, 0x96, 0xbc, 0xba, 0x10, 0xcc, 0xbd, 0xc5, 0xcf, 0x99, 0x3e,
  0x80, 0xd2, 0x33, 0x3e, 0xb6, 0xe2, 0x6d, 0xbc, 0x06, 0x77, 0x59, 0xbe,
  0x8c, 0xd9, 0x0e, 0xbd, 0xeb, 0xc5, 0x08, 0x3d, 0xc1, 0x2f, 0x96, 0x3e,
  0x42, 0xa9, 0x2c, 0x3c, 0x62, 0x16, 0x5a, 0x3d, 0xda, 0xb0, 0x56, 0xbe,
  0x02, 0x3e, 0xe0, 0xbb, 0xa8, 0x1c, 0x12, 0xbe, 0x74, 0x89, 0xc5, 0xbd,
  0xcd, 0xfb, 0x01, 0x3e, 0x72, 0xc7, 0x9a, 0x3d, 0x20, 0x52, 0xeb, 0x3c,
  0xdb, 0x6e, 0x25, 0x3e, 0x38, 0x59, 0x19, 0xbe, 0x10, 0x84, 0x1a, 0xbd,
  0x5c, 0x51, 0xa6, 0xbd, 0x00, 0x70, 0x0a, 0xbd, 0x0d, 0x6b, 0x31, 0xbe,
  0x74, 0x60, 0x1f, 0xbd, 0x8a, 0xc6, 0x98, 0x3d, 0x72, 0x8e, 0x70, 0xbd,
  0xcd, 0xc3, 0x27, 0xbe, 0x57, 0xd0, 0xb0, 0xbd, 0x67, 0xf3, 0x2c, 0xbe,
  0xc8, 0x6a, 0x36, 0xbd, 0xc0, 0x23, 0x15, 0x3b, 0x7e, 0x97, 0x88, 0xbd,
  0xf4, 0x21, 0x06, 0xbd, 0x80, 0x03, 0x9d, 0x3c, 0x34, 0x60, 0x3a, 0x3d,
  0x7b, 0x51, 0x24, 0x3e, 0xde, 0xd0, 0xac, 0xbd, 0xc6, 0xe5, 0x98, 0x3d,
  0x22, 0x50, 0xf3, 0x3d, 0xd0, 0x53, 0x7d, 0x3d, 0x4e, 0x54, 0xe5, 0x3d,
  0x98, 0x4d, 0xf8, 0xbd, 0xc6, 0xdd, 0x17, 0xbe, 0x00, 0x88, 0x2a, 0x3c,
  0xf3, 0xab, 0x11, 0x3e, 0x79, 0x7f, 0x9a, 0xbd, 0xd2, 0xef, 0x57, 0xbd,
  0x82, 0x47, 0x04, 0xbe, 0xcd, 0xd2, 0x82, 0xbd, 0xab, 0x87, 0x16, 0xbe,
  0x31, 0x9c, 0x2e, 0x3e, 0x6a, 0x5f, 0x9e, 0x3d, 0x94, 0x7d, 0x3e, 0x3d,
  0x12, 0xba, 0xf4, 0x3d, 0x48, 0xa8, 0xec, 0x3c, 0x18, 0xea, 0x8c, 0x3d,
  0x2f, 0x06, 0x23, 0x3e, 0xfc, 0x55, 0x2b, 0xbe, 0xc7, 0x00, 0x26, 0xbe,
  0x4a, 0x54, 0x10, 0xbe, 0xe8, 0xa1, 0xfe, 0x3c, 0x86, 0x56, 0xa5, 0x3d,
  0x99, 0x0a, 0x1c, 0x3e, 0x9a, 0xff, 0xe5, 0x3d, 0x06, 0x61, 0x2f, 0xbe,
  0x04, 0xcf, 0xf2, 0xbd, 0xae, 0x73, 0xa2, 0x3d, 0x80, 0x71, 0xd4, 0x3c,
  0x80, 0xdf, 0x70, 0xbd, 0x8b, 0x5f, 0x0b, 0x3e, 0x7e, 0x51, 0x94, 0x3d,
  0xc0, 0x04, 0x80, 0x3d, 0x40, 0xad, 0xc4, 0x3b, 0x7e, 0x93, 0xf1, 0x3d,
  0x90, 0x4f, 0xb7, 0xbd, 0xa2, 0xf5, 0x0f, 0xbe, 0x80, 0x89, 0x80, 0xba,
  0x02, 0x21, 0x22, 0xbe, 0x5f, 0xf7, 0x1d, 0x3e, 0x2d, 0x5c, 0x0a, 0x3e,
  0xb2, 0xf2, 0xe0, 0x3d, 0x95, 0xc5, 0x05, 0xbe, 0x70, 0x68, 0xc0, 0x3c,
  0xe1, 0x83, 0x06, 0x3e, 0x2c, 0x42, 0x1f, 0xbe, 0xbe, 0x55, 0xde, 0x3d,
  0x5b, 0xac, 0x24, 0x3e, 0x80, 0xb5, 0xfe, 0xbc, 0xa0, 0x43, 0x08, 0xbd,
  0xc6, 0x6f, 0xa4, 0x3d, 0x82, 0x2d, 0x53, 0xbd, 0x18, 0x22, 0xf1, 0xbd,
  0xd0, 0x05, 0xf0, 0x3c, 0xd2, 0x19, 0xf9, 0x3d, 0xac, 0xbc, 0x3f, 0x3d,
  0x94, 0x5a, 0x21, 0x3d, 0xf9, 0x5a, 0x31, 0x3e, 0x87, 0x3f, 0xa0, 0xbd,
  0x58, 0xe6, 0xeb, 0x3c, 0xb1, 0x75, 0x2f, 0x3e, 0x80, 0x05, 0x49, 0x3d,
  0x08, 0xec, 0xfa, 0x3c, 0x4e, 0xfe, 0xc6, 0x3d, 0xad, 0x6c, 0x2b, 0x3e,
  0xe0, 0x8a, 0xe5, 0xbb, 0x47, 0x57, 0x02, 0x3e, 0xe8, 0x55, 0xd5, 0x3c,
  0x92, 0x9c, 0xed, 0xbd, 0xd3, 0x24, 0x13, 0x3e, 0x54, 0x6b, 0x35, 0xbd,
  0xc3, 0xfc, 0x07, 0x3e, 0x65, 0xf6, 0x05, 0x3e, 0x77, 0x48, 0x08, 0xbe,
  0x56, 0x34, 0x21, 0xbe, 0x03, 0xb8, 0xd3, 0xbd, 0xd0, 0x53, 0x76, 0xbc,
  0x5b, 0x48, 0x17, 0xbe, 0xc6, 0x02, 0xcd, 0x3d, 0x43, 0x78, 0x31, 0xbe,
  0xb0, 0x63, 0xa8, 0x3c, 0xaa, 0x63, 0x06, 0xbe, 0x7c, 0x6b, 0x36, 0x3d,
  0x06, 0x4c, 0xe6, 0xbd, 0x28, 0x16, 0xb3, 0xbd, 0xa8, 0xd8, 0x55, 0x3d,
  0x60, 0x97, 0x73, 0x3d, 0x50, 0x72, 0x63, 0xbc, 0xa0, 0xfd, 0xdd, 0xbd,
  0x16, 0xa7, 0xbb, 0x3d, 0x72, 0xe0, 0xc5, 0x3d, 0x68, 0x00, 0xd9, 0x3c,
  0x57, 0xea, 0xcf, 0xbd, 0x88, 0xf4, 0x06, 0xbe, 0x21, 0x7e, 0x07, 0x3e,
  0x40, 0x3e, 0x03, 0xbe, 0x7c, 0x5c, 0x99, 0x3d, 0x80, 0x91, 0xde, 0xbc,
  0x8c, 0xe7, 0x46, 0xbd, 0x00, 0x67, 0xaa, 0xbb, 0x3b, 0xe1, 0xc0, 0xbd,
  0x58, 0x28, 0x27, 0xbe, 0x66, 0xa4, 0x21, 0xbe, 0x02, 0x42, 0xe7, 0x3d,
  0xb0, 0xf9, 0x3f, 0xbc, 0x3f, 0xee, 0x13, 0x3e, 0xc8, 0x41, 0x43, 0x3d,
  0xf3, 0x42, 0x14, 0x3e, 0x80, 0x60, 0x8c, 0x3b, 0x57, 0x74, 0x1f, 0xbe,
  0xa0, 0x84, 0x7a, 0xbd, 0x7d, 0x8d, 0x17, 0xbe, 0xee, 0xf2, 0x11, 0xbe,
  0xf2, 0x00, 0xe2, 0x3d, 0x6f, 0xe0, 0x92, 0xbd, 0x08, 0xcd, 0x3f, 0xbd,
  0x00, 0xc2, 0xaf, 0x3b, 0x00, 0x1a, 0xfa, 0xbc, 0x97, 0x3b, 0xbf, 0xbd,
  0x73, 0xb0, 0x1c, 0xbe, 0x60, 0x96, 0xdb, 0xbb, 0x58, 0x28, 0xaf, 0x3c,
  0xe2, 0x6b, 0x75, 0xbd, 0x92, 0xc3, 0xb3, 0x3d, 0x5d, 0x54, 0x01, 0xbe,
  0x0b, 0x8f, 0x0e, 0x3e, 0xcc, 0xc4, 0xfd, 0xbd, 0xd1, 0xc8, 0xe6, 0xbd,
  0x38, 0x88, 0xe7, 0xbc, 0xe6, 0x89, 0x2c, 0xbe, 0x2a, 0x4f, 0x85, 0xbd,
  0x48, 0x95, 0xd7, 0x3c, 0x78, 0x6b, 0xfc, 0x3c, 0xdf, 0x8c, 0x0e, 0x3e,
  0x20, 0x42, 0xcd, 0xbd, 0x80, 0xae, 0x8c, 0xbc, 0x25, 0x80, 0x94, 0xbd,
  0xf8, 0x08, 0x00, 0x3d, 0x8f, 0x1c, 0x08, 0xbe, 0xfc, 0x56, 0xf6, 0xbd,
  0xee, 0xcb, 0xa2, 0x3d, 0x52, 0xbd, 0xcd, 0x3d, 0x08, 0xdf, 0x99, 0xbd,
  0x8d, 0x76, 0x11, 0x3e, 0x72, 0x08, 0x7d, 0xbd, 0x50, 0xf4, 0xbd, 0xbc,
  0xe0, 0x2e, 0x46, 0x3c, 0x40, 0x47, 0xfa, 0xbb, 0x4b, 0x27, 0xe1, 0xbd,
  0x7e, 0x48, 0xb5, 0xbd, 0xc7, 0xa5, 0x28, 0x3e, 0x23, 0xe1, 0xbd, 0xbd,
  0xe5, 0x60, 0x2d, 0xbe, 0x40, 0xd1, 0x46, 0xbd, 0xc9, 0x70, 0x28, 0xbe,
  0x38, 0xb3, 0xa8, 0xbc, 0xb4, 0x86, 0xba, 0xbd, 0x76, 0xfe, 0x88, 0xbd,
  0x10, 0x29, 0xbe, 0x3c, 0xc8, 0x29, 0xdc, 0xbc, 0x4f, 0xeb, 0xc4, 0xbd,
  0x4a, 0xe4, 0x69, 0xbd, 0x27, 0xfc, 0x2d, 0x3e, 0xc9, 0xaf, 0x2b, 0xbe,
  0x4a, 0x5b, 0xb0, 0xbd, 0xa0, 0xb4, 0x13, 0xbc, 0x26, 0x7d, 0x66, 0xbd,
  0x37, 0x6a, 0x06, 0x3e, 0x6d, 0xcb, 0xe5, 0xbd, 0xfe, 0xc4, 0x0a, 0xbe,
  0x54, 0x5b, 0x0f, 0xbe, 0x8e, 0x03, 0xec, 0x3d, 0x38, 0xde, 0xee, 0xbd,
  0x0c, 0x16, 0x22, 0x3d, 0x30, 0x03, 0xda, 0x3c, 0x58, 0xaa, 0x59, 0xbd,
  0x5f, 0x82, 0xa6, 0xbd, 0x78, 0x1d, 0x88, 0x3c, 0x46, 0x83, 0x6f, 0xbd,
  0x51, 0xd1, 0xb1, 0xbd, 0xdb, 0x2d, 0x2a, 0x3e, 0xf0, 0x3f, 0xcc, 0x3c,
  0xe0, 0x89, 0xcd, 0xbb, 0xe0, 0x06, 0x7a, 0x3d, 0x45, 0xea, 0x29, 0x3e,
  0xcf, 0xb1, 0x2b, 0xbe, 0x28, 0x16, 0x0e, 0xbe, 0x70, 0x0b, 0x1b, 0x3d,
  0x30, 0x52, 0xec, 0xbc, 0x3f, 0xca, 0x2b, 0xbe, 0xc5, 0x1d, 0x19, 0x3e,
  0x1a, 0x5d, 0xa7, 0x3d, 0x60, 0x16, 0xec, 0x3b, 0x04, 0x85, 0x60, 0x3d,
  0xee, 0x56, 0x9d, 0x3d, 0xa8, 0xfc, 0x33, 0xbd, 0x68, 0xa9, 0xef, 0xbc,
  0x67, 0x8d, 0x8d, 0xbd, 0x7f, 0xa6, 0x11, 0x3e, 0x90, 0x64, 0x16, 0xbc,
  0xf6, 0x0a, 0x91, 0xbd, 0x24, 0x86, 0x04, 0xbe, 0x14, 0xc4, 0x21, 0xbe,
  0xc0, 0x2b, 0xa1, 0xbd, 0xdc, 0xbc, 0x38, 0x3d, 0xca, 0x30, 0xf5, 0x3d,
  0x1c, 0x4d, 0x05, 0xbe, 0xe1, 0x07, 0x11, 0x3e, 0xcc, 0x3b, 0x41, 0xbd,
  0xf6, 0x02, 0xb1, 0x3d, 0x98, 0x37, 0x33, 0xbd, 0x6c, 0x4a, 0xf1, 0xbd,
  0x10, 0x4f, 0x29, 0xbd, 0x54, 0x07, 0x43, 0xbd, 0x6c, 0x7e, 0x25, 0x3d,
  0x6c, 0xe2, 0x50, 0x3d, 0x7c, 0x5f, 0x7a, 0x3d, 0x10, 0x82, 0xa8, 0x3c,
  0xf0, 0x71, 0xd7, 0x3c, 0x40, 0x48, 0x45, 0xbb, 0x50, 0x28, 0x20, 0xbe,
  0xdc, 0xf5, 0x02, 0x3d, 0xc0, 0xae, 0x04, 0x3c, 0xb0, 0x2e, 0x2a, 0xbe,
  0x49, 0x84, 0x1c, 0x3e, 0x19, 0x70, 0x2e, 0x3e, 0x48, 0x67, 0xc7, 0xbc,
  0xe0, 0x14, 0x0c, 0xbd, 0xc7, 0x8b, 0xd5, 0xbd, 0xa8, 0x5b, 0x06, 0xbe,
  0xca, 0xdd, 0xfb, 0x3d, 0x20, 0xeb, 0xa0, 0xbb, 0xa2, 0x36, 0xac, 0x3d,
  0x68, 0x86, 0x57, 0x3d, 0x74, 0x9b, 0x74, 0xbd, 0x70, 0x29, 0x61, 0xbd,
  0x63, 0x1e, 0xf6, 0xbd, 0x09, 0xc0, 0x0e, 0xbe, 0x81, 0x91, 0x09, 0xbe,
  0x8a, 0x6e, 0x31, 0xbe, 0xac, 0xc9, 0x29, 0xbd, 0x0a, 0x82, 0xe0, 0xbd,
  0xfc, 0x9d, 0x8f, 0x3d, 0xc6, 0x63, 0xf6, 0x3d, 0x00, 0x88, 0x62, 0x3c,
  0x84, 0xde, 0x58, 0x3d, 0x58, 0x27, 0x2e, 0xbd, 0x32, 0xb1, 0x02, 0xbe,
  0xc0, 0xce, 0x1c, 0xbe, 0x10, 0x55, 0x89, 0x3d, 0xc6, 0x5e, 0xd5, 0x3d,
  0x80, 0x13, 0xa4, 0x3b, 0xec, 0xa0, 0x7a, 0x3d, 0xa9, 0x18, 0x29, 0x3e,
  0x33, 0xe1, 0x13, 0x3e, 0x74, 0xf1, 0x8a, 0x3d, 0xd5, 0x3a, 0x04, 0xbe,
  0x38, 0x72, 0x89, 0x3d, 0x50, 0x39, 0x3b, 0xbc, 0xcd, 0xeb, 0x16, 0x3e,
  0x3b, 0xdc, 0x99, 0xbd, 0x3a, 0x18, 0xc6, 0x3d, 0xc2, 0x99, 0xef, 0x3d,
  0x43, 0x4e, 0x1c, 0xbe, 0x7e, 0xe3, 0x5a, 0xbd, 0xde, 0xd3, 0x25, 0xbe,
  0xc1, 0xa4, 0xd5, 0xbd, 0x57, 0xab, 0x0b, 0x3e, 0x30, 0xa6, 0x2c, 0xbe,
  0x52, 0x2a, 0x13, 0xbe, 0x08, 0xe0, 0x15, 0xbe, 0xcd, 0xa5, 0x10, 0x3e,
  0xad, 0x6e, 0xd7, 0xbd, 0x4c, 0x46, 0x2f, 0xbe, 0x9a, 0x15, 0x89, 0x3d,
  0xa0, 0x39, 0xb2, 0xbb, 0xe2, 0x00, 0x8a, 0x3d, 0x34, 0x41, 0x23, 0xbe,
  0xc0, 0x64, 0x60, 0x3c, 0x8f, 0xf8, 0x0c, 0x3e, 0x80, 0xca, 0x37, 0x3b,
  0xaa, 0x90, 0xd0, 0x3d, 0xf0, 0xc9, 0x73, 0xbd, 0xc8, 0x5c, 0x52, 0x3d,
  0x38, 0x81, 0x94, 0xbc, 0x21, 0x65, 0x24, 0x3e, 0x38, 0xd5, 0xf6, 0x3c,
  0x92, 0xfe, 0xb3, 0x3d, 0x9a, 0xf4, 0xd6, 0x3d, 0x8e, 0xe4, 0xdd, 0x3d,
  0xe0, 0x89, 0x1c, 0x3d, 0xca, 0xe9, 0x8f, 0x3d, 0x17, 0x18, 0x21, 0xbe,
  0xcd, 0x8a, 0x2d, 0xbe, 0x6f, 0xb3, 0xb9, 0xbd, 0x00, 0x94, 0xe0, 0x3b,
  0x7a, 0x92, 0x57, 0xbd, 0xce, 0x85, 0xa6, 0x3d, 0xeb, 0xe9, 0x21, 0x3e,
  0xa6, 0x25, 0x1e, 0xbe, 0x7c, 0xe3, 0xf9, 0xbd, 0x5c, 0x9c, 0x83, 0x3d,
  0x3d, 0x6f, 0x16, 0x3e, 0x82, 0x73, 0xab, 0xbd, 0x9c, 0x9c, 0xd3, 0xbd,
  0xf2, 0x91, 0xf7, 0xbd, 0xe4, 0xbc, 0xa0, 0xbd, 0x94, 0x33, 0xa5, 0xbd,
  0xcd, 0x6a, 0x23, 0xbe, 0x5a, 0x49, 0xf1, 0xbd, 0x2f, 0xcc, 0x2e, 0xbe,
  0xc3, 0xfc, 0xd8, 0xbd, 0xb2, 0x0c, 0xde, 0xbd, 0xcd, 0x57, 0xd7, 0xbd,
  0x66, 0x5b, 0xd5, 0x3d, 0xf9, 0xe3, 0x32, 0x3e, 0xda, 0x4e, 0xa7, 0x3d,
  0xaf, 0x76, 0x1d, 0x3e, 0xc0, 0x06, 0x21, 0x3b, 0xd1, 0x35, 0xc9, 0xbd,
  0xc4, 0xf0, 0xaa, 0xbd, 0xce, 0x65, 0xf5, 0x3d, 0x18, 0xc9, 0x18, 0x3d,
  0x00, 0x0f, 0x16, 0x3c, 0x40, 0xf6, 0x6a, 0xbb, 0x94, 0xd0, 0xfe, 0xbd,
  0xa8, 0xa8, 0x88, 0x3c, 0x30, 0x37, 0x2a, 0x3c, 0x25, 0x98, 0xd0, 0xbd,
  0x9e, 0xd8, 0xae, 0x3d, 0x3c, 0x4d, 0xbc, 0xbd, 0x4d, 0x27, 0x01, 0x3e,
  0x82, 0xe9, 0x67, 0xbd, 0x5e, 0x15, 0xce, 0x3d, 0x3d, 0xac, 0x8d, 0xbd,
  0xe9, 0x3e, 0x47, 0xbd, 0xb8, 0xe9, 0xdd, 0xbd, 0x43, 0x02, 0x21, 0x3d,
  0x10, 0xfc, 0x09, 0xbe, 0x2b, 0x80, 0xc6, 0xbd, 0x3e, 0x96, 0x25, 0xbe,
  0x21, 0xf6, 0xe8, 0xbb, 0x69, 0x27, 0x07, 0xbe, 0x98, 0x23, 0x3e, 0xbd,
  0xae, 0x09, 0x3d, 0x3d, 0x3b, 0x16, 0x0b, 0xbe, 0x44, 0xa4, 0xfc, 0x3d,
  0x6b, 0x68, 0xca, 0x3d, 0x60, 0x9e, 0x0a, 0xbe, 0x64, 0x70, 0xc9, 0xbc,
  0x9e, 0x75, 0xd9, 0x3d, 0xf3, 0x67, 0x98, 0xbb, 0x67, 0xfb, 0xd8, 0x3d,
  0x9d, 0x19, 0x38, 0x3d, 0x4c, 0x36, 0xac, 0x3d, 0x3b, 0xc9, 0x93, 0x3c,
  0x65, 0x41, 0xf1, 0xbb, 0x0d, 0x7f, 0x60, 0x3d, 0x3d, 0xa8, 0x2c, 0xbe,
  0xc2, 0xe5, 0xbb, 0x3c, 0x02, 0x7f, 0x59, 0x3d, 0xab, 0xde, 0x96, 0x3b,
  0x1e, 0x68, 0xb3, 0x3d, 0x0d, 0x03, 0x67, 0x3d, 0xd9, 0xd0, 0xc4, 0xbd,
  0xb6, 0x67, 0x9c, 0xbd, 0x11, 0x90, 0x5e, 0x3c, 0x1b, 0xf3, 0x1f, 0x3e,
  0x10, 0x3c, 0x84, 0xbd, 0x3c, 0x9d, 0xec, 0xbc, 0xbe, 0xb4, 0x3b, 0x3c,
  0xd9, 0x39, 0x06, 0x3e, 0x07, 0x2c, 0x66, 0x3c, 0x99, 0x43, 0x92, 0xbd,
  0xb0, 0x15, 0x21, 0x3c, 0xb5, 0xff, 0x13, 0x3e, 0xcb, 0x10, 0x2d, 0xbd,
  0x01, 0x86, 0x67, 0xbd, 0x1d, 0x70, 0xb3, 0x3c, 0x99, 0xab, 0xd2, 0xbc,
  0xd9, 0x9c, 0xb2, 0x3d, 0xab, 0xf1, 0xd3, 0xbd, 0xd0, 0x3f, 0x0d, 0xbd,
  0xb7, 0xa7, 0xdc, 0xbd, 0x04, 0x92, 0x07, 0x3e, 0x82, 0x7a, 0x2d, 0xbe,
  0x87, 0xfb, 0xd2, 0x3d, 0x64, 0xa1, 0x6b, 0xbc, 0x87, 0x73, 0x27, 0x3e,
  0x87, 0x1f, 0x69, 0x3d, 0x94, 0xdf, 0xe3, 0x3c, 0x52, 0xc7, 0x93, 0xbd,
  0xe5, 0x47, 0x37, 0xbd, 0x8e, 0x34, 0x18, 0xbe, 0x42, 0x0c, 0xf2, 0xbd,
  0xbd, 0x0c, 0x12, 0xbe, 0xc8, 0x82, 0x93, 0xbc, 0xd8, 0x70, 0x1c, 0xbe,
  0xdf, 0x25, 0xab, 0x3d, 0x3b, 0x3a, 0x21, 0x3b, 0x45, 0x22, 0xf8, 0x3d,
  0xd6, 0xfc, 0x3c, 0xbe, 0x87, 0xf8, 0x28, 0xbe, 0x08, 0x18, 0xd6, 0x3d,
  0x69, 0xe6, 0x44, 0xbd, 0x81, 0x3d, 0xc7, 0xbd, 0xf9, 0x04, 0xd4, 0x3d,
  0xb4, 0x2e, 0xa9, 0xbd, 0xcb, 0x93, 0xb3, 0xbd, 0x10, 0x07, 0x01, 0x3e,
  0xa1, 0x1d, 0xd8, 0xbc, 0x7e, 0x39, 0xa9, 0x3d, 0xff, 0xf5, 0xad, 0x3d,
  0x41, 0x24, 0x8e, 0x3c, 0x7b, 0x41, 0x0b, 0x3e, 0x40, 0x26, 0x6f, 0x3d,
  0x7c, 0x9e, 0x01, 0xbd, 0x40, 0x5a, 0x0d, 0x3e, 0x5c, 0x4f, 0xde, 0x3d,
  0x56, 0x00, 0x13, 0xbe, 0x51, 0x7e, 0x2e, 0xbe, 0x0d, 0x6d, 0xf9, 0x3d,
  0xfd, 0xd5, 0xcc, 0x3d, 0x26, 0xb7, 0x9b, 0x3d, 0xe3, 0xa8, 0x3a, 0xbe,
  0x73, 0x17, 0xdd, 0x3c, 0x37, 0xc8, 0x32, 0xbe, 0xab, 0x4c, 0x4d, 0xbd,
  0xac, 0xc3, 0x0e, 0xbe, 0x65, 0x27, 0x14, 0x3e, 0xaa, 0x1b, 0x36, 0x3d,
  0x43, 0x73, 0x11, 0xbe, 0x1c, 0x67, 0x2d, 0x3d, 0xe9, 0x17, 0xc7, 0x3c,
  0x05, 0x30, 0x88, 0xbd, 0xd5, 0xbf, 0x2a, 0xbd, 0xb1, 0x05, 0xa5, 0xbd,
  0xae, 0xd0, 0x26, 0xbd, 0x5e, 0x4c, 0x5a, 0xbd, 0xf4, 0xcf, 0x30, 0xbe,
  0x01, 0x29, 0xde, 0x3d, 0xbf, 0x07, 0x89, 0x3d, 0x0b, 0x42, 0x87, 0x3d,
  0xc2, 0x1b, 0x31, 0xbe, 0x4e, 0xfb, 0x9d, 0x3d, 0x94, 0x4e, 0x24, 0x3e,
  0xf8, 0x5a, 0x05, 0xbe, 0x72, 0x0d, 0x93, 0x3c, 0x8c, 0xc4, 0xa7, 0xbd,
  0xbf, 0x70, 0x76, 0xbd, 0x4f, 0x9c, 0x3b, 0xbe, 0x8a, 0xdf, 0x22, 0x3e,
  0x16, 0x12, 0x10, 0x3d, 0x8c, 0xad, 0xe1, 0x3d, 0x17, 0x1e, 0xc6, 0x3d,
  0x88, 0x3a, 0x06, 0xbc, 0x2a, 0x1a, 0xe4, 0x3d, 0x36, 0x0f, 0x0f, 0x3c,
  0xbd, 0x1b, 0x38, 0x3b, 0xc8, 0xb4, 0x0f, 0x3e, 0x55, 0x69, 0x3f, 0xbd,
  0x50, 0xf0, 0x2a, 0x3d, 0xd2, 0x2c, 0x90, 0xbc, 0xf4, 0x8a, 0x93, 0xbc,
  0x38, 0x24, 0x32, 0xbe, 0x4c, 0x80, 0x10, 0x3e, 0x10, 0xc2, 0xfa, 0xbd,
  0x24, 0x8f, 0xff, 0x3d, 0xf0, 0x28, 0xec, 0x3b, 0x6d, 0x25, 0x83, 0xbd,
  0x53, 0xed, 0xd2, 0xbd, 0xd3, 0xcc, 0x67, 0xbd, 0x63, 0xad, 0x07, 0xbe,
  0x5b, 0x88, 0xc9, 0xbd, 0xa0, 0x8e, 0xe0, 0xbd, 0x03, 0x3e, 0xc6, 0xbc,
  0x01, 0x54, 0xa0, 0xbd, 0x2a, 0x4b, 0xcb, 0x3d, 0x54, 0xaa, 0xb5, 0xbd,
  0x1e, 0x5e, 0x21, 0x3e, 0x8e, 0x7f, 0xf5, 0x3d, 0x1e, 0xfc, 0xa9, 0xbd,
  0x4a, 0xa3, 0x96, 0x3d, 0xf5, 0x66, 0x25, 0x3e, 0x43, 0x2b, 0x9c, 0x3d,
  0x92, 0xb6, 0x18, 0x3c, 0x90, 0xcc, 0xf1, 0xbd, 0x67, 0xeb, 0x55, 0xbb,
  0xb2, 0x87, 0x8a, 0xbd, 0xcf, 0xa0, 0x08, 0xbd, 0xb1, 0x72, 0x2e, 0xbd,
  0x8a, 0xde, 0x00, 0xbe, 0xa0, 0x77, 0x20, 0x3e, 0x92, 0xe0, 0xe4, 0xbd,
  0xd6, 0xb4, 0x3b, 0xbe, 0x7e, 0x37, 0xbc, 0xbd, 0xd9, 0x99, 0x3f, 0x3d,
  0xae, 0xf7, 0xad, 0xbc, 0x13, 0xeb, 0xea, 0x3c, 0x68, 0x17, 0x10, 0xbe,
  0xe0, 0x80, 0xde, 0x3d, 0xe0, 0x48, 0x18, 0x3e, 0x19, 0x87, 0x9e, 0x3d,
  0xc4, 0xcb, 0xb4, 0xbd, 0xc4, 0xb8, 0x33, 0xbd, 0x3c, 0xdb, 0xc4, 0xbc,
  0xf1, 0x5e, 0x04, 0x3e, 0x4a, 0x2d, 0x1d, 0x3e, 0xd2, 0x61, 0xdc, 0x3d,
  0xc6, 0x68, 0x02, 0xbe, 0xc3, 0xb2, 0x14, 0x3e, 0xb3, 0x52, 0x0e, 0x3e,
  0x4d, 0x76, 0x70, 0xbc, 0x81, 0xf3, 0xa7, 0x3d, 0x8c, 0xd3, 0xc8, 0xbe,
  0xc3, 0x59, 0x80, 0x3d, 0x3d, 0xa5, 0x32, 0xbd, 0xc4, 0xee, 0x18, 0xbe,
  0xc5, 0x9c, 0x4c, 0xbe, 0x41, 0x0a, 0x95, 0xbd, 0x5b, 0x58, 0x65, 0xbe,
  0x1c, 0x8a, 0x21, 0x3d, 0x0a, 0xbd, 0xb1, 0xbe, 0x12, 0xcb, 0x46, 0x3e,
  0xd1, 0xa1, 0x11, 0x3d, 0x47, 0x10, 0x8a, 0xbe, 0x04, 0x6e, 0xc5, 0xbd,
  0xe2, 0xcd, 0xe2, 0x3e, 0x0b, 0x63, 0xd7, 0xbe, 0x6a, 0x2d, 0xd5, 0x3d,
  0xfd, 0x3d, 0x0b, 0x3e, 0x2a, 0x62, 0xda, 0xbe, 0x23, 0x7b, 0xad, 0x3d,
  0xb3, 0x2c, 0xa9, 0x3e, 0x88, 0xd0, 0x14, 0xbf, 0xaa, 0xa4, 0x1a, 0x3d,
  0x7f, 0xb9, 0x57, 0x3c, 0x28, 0xa3, 0xd7, 0xbe, 0x1e, 0x95, 0x1c, 0x3c,
  0x5b, 0xe0, 0xcc, 0x3e, 0x0a, 0xdd, 0x1c, 0xbf, 0x19, 0x39, 0x84, 0x3e,
  0xdc, 0xbf, 0x16, 0xbe, 0x2f, 0x1b, 0x9e, 0xbe, 0x4a, 0xb0, 0x77, 0xbc,
  0x55, 0x23, 0x04, 0x3f, 0x1b, 0x47, 0xcc, 0xbe, 0xe5, 0x07, 0xaf, 0x3e,
  0x1b, 0xfa, 0x01, 0x3e, 0xeb, 0xde, 0xb6, 0xbd, 0x1b, 0xec, 0xbb, 0x3d,
  0xfc, 0x2a, 0x0c, 0x3f, 0x63, 0x57, 0x54, 0xbe, 0x5b, 0xb2, 0xb2, 0x3e,
  0x60, 0x7b, 0x99, 0x3d, 0xb2, 0x3c, 0xaf, 0xbe, 0x08, 0x63, 0xa1, 0x3e,
  0x5e, 0xf9, 0xbc, 0x3e, 0xde, 0xb1, 0x98, 0xbe, 0xf2, 0xf2, 0x88, 0x3e,
  0x51, 0xb3, 0x1f, 0x3e, 0xd5, 0xcf, 0xb4, 0xbd, 0x9a, 0x72, 0xeb, 0x3e,
  0xb5, 0xe8, 0xef, 0x3e, 0xd3, 0xdc, 0x7e, 0xbe, 0xe9, 0x66, 0xc7, 0x3e,
  0x19, 0xb8, 0x19, 0x3e, 0x42, 0x20, 0x7c, 0xbe, 0xcb, 0xd1, 0x56, 0x3e,
  0x2b, 0xbf, 0x64, 0x3e, 0x16, 0x35, 0x55, 0xbe, 0xb9, 0xdb, 0xb1, 0x3e,
  0xcb, 0x4d, 0x90, 0xbd, 0x27, 0x4b, 0x5f, 0xbe, 0x76, 0x97, 0x86, 0x3e,
  0x96, 0x2d, 0x23, 0x3e, 0x3c, 0x25, 0x85, 0x3c, 0x38, 0xe7, 0x24, 0x3e,
  0x8e, 0xfc, 0x25, 0xbe, 0x5e, 0x9c, 0x83, 0xbe, 0x80, 0x39, 0xeb, 0x3e,
  0x80, 0x73, 0x1b, 0x3e, 0x92, 0xbc, 0x96, 0xbd, 0x42, 0xaf, 0xc5, 0x3e,
  0x5f, 0xe3, 0x1d, 0x3d, 0xcb, 0xc2, 0x36, 0xbe, 0xcc, 0x6e, 0x2f, 0x3f,
  0xca, 0x80, 0x07, 0xbe, 0x19, 0xf5, 0x87, 0xbe, 0x59, 0x85, 0xb1, 0x3d,
  0x65, 0x17, 0x84, 0x3d, 0xc1, 0x49, 0x34, 0xbe, 0x39, 0x43, 0x4c, 0x3f,
  0x9f, 0x68, 0x96, 0xbd, 0x84, 0x71, 0x04, 0xbe, 0x31, 0x5a, 0x4b, 0x3d,
  0xdf, 0x03, 0x80, 0xbd, 0x40, 0x11, 0x24, 0x3d, 0x87, 0x80, 0x04, 0x3f,
  0x40, 0xd8, 0x6e, 0xbe, 0x9a, 0x31, 0x34, 0xbe, 0xb3, 0x93, 0xdc, 0x3d,
  0xfa, 0x7f, 0x89, 0x3d, 0x0c, 0x93, 0x2f, 0xbe, 0x1e, 0xa5, 0x27, 0x3f,
  0xaa, 0x7b, 0x71, 0x3d, 0xf3, 0x52, 0xa0, 0x3d, 0x8b, 0x3e, 0x24, 0xbe,
  0x08, 0xd7, 0x10, 0xbe, 0x51, 0x20, 0xca, 0xbd, 0xa4, 0xbe, 0x98, 0x3e,
  0x4d, 0x21, 0x2e, 0x3e, 0x3a, 0xa7, 0xef, 0xbb, 0xae, 0xf2, 0x85, 0xbc,
  0x85, 0xc2, 0x1a, 0xbc, 0xea, 0x77, 0x86, 0x3d, 0x43, 0x80, 0xc0, 0x3e,
  0xf1, 0x4d, 0x00, 0x3d, 0x5b, 0x7d, 0xc2, 0x3d, 0x99, 0x62, 0x9b, 0xbd,
  0x08, 0x85, 0xba, 0xbc, 0x3a, 0x4f, 0x2d, 0xbe, 0x4e, 0xf6, 0x42, 0x3e,
  0x20, 0x76, 0xdf, 0x3e, 0x60, 0x31, 0x95, 0xbd, 0x31, 0x42, 0x9a, 0xbe,
  0xed, 0x6e, 0xac, 0xbe, 0x03, 0x84, 0xd2, 0xbc, 0x2c, 0x2b, 0xc9, 0x3e,
  0xdc, 0x21, 0x3a, 0x3e, 0xf8, 0x64, 0x03, 0x3e, 0x9c, 0x95, 0x75, 0xbe,
  0x3e, 0x19, 0x91, 0xbd, 0x74, 0xca, 0x2c, 0x3d, 0x19, 0x8f, 0x21, 0x3e,
  0x01, 0x89, 0x90, 0x3e, 0x28, 0x7d, 0xa2, 0xbd, 0x05, 0x5b, 0x11, 0xbd,
  0x22, 0xf7, 0x95, 0xbe, 0x27, 0x68, 0xa9, 0xbd, 0xfa, 0xb2, 0xac, 0x3e,
  0x06, 0x74, 0xe2, 0x3d, 0x67, 0x29, 0x01, 0xbd, 0x32, 0x3c, 0x8e, 0xbe,
  0x7e, 0x74, 0xac, 0xbe, 0xa5, 0xa9, 0x8c, 0xbd, 0x58, 0xef, 0xec, 0x3d,
  0x10, 0x24, 0xcd, 0x3d, 0x12, 0x2b, 0xb9, 0xbd, 0xfb, 0xf2, 0x55, 0xbd,
  0x07, 0x41, 0xf8, 0xbd, 0xed, 0x58, 0xb5, 0xbd, 0xce, 0x9d, 0x8e, 0x3e,
  0x8e, 0xd8, 0xa0, 0x3e, 0x52, 0xc0, 0x24, 0xbd, 0x53, 0x5d, 0x58, 0xbe,
  0xb0, 0x9b, 0xad, 0xbe, 0xd7, 0x42, 0xd5, 0xbd, 0xa8, 0xdb, 0x1b, 0x3e,
  0x98, 0x24, 0xcd, 0x3d, 0x8b, 0xc4, 0x17, 0xbe, 0xc1, 0xae, 0x3b, 0xbe,
  0x2a, 0x5c, 0x27, 0xbd, 0xb6, 0x84, 0x15, 0xbe, 0x5c, 0xef, 0xa1, 0x3e,
  0xba, 0x5f, 0x59, 0x3e, 0x77, 0xc2, 0x28, 0xba, 0x7a, 0xd7, 0x57, 0xbd,
  0x44, 0xb0, 0x11, 0xbe, 0x26, 0xc9, 0xdd, 0x3d, 0x1d, 0x48, 0x3e, 0x3e,
  0x59, 0xa8, 0xd3, 0x3e, 0x38, 0x67, 0x83, 0xbe, 0x16, 0xd9, 0xeb, 0xbd,
  0x66, 0xa2, 0xca, 0xbd, 0xf8, 0xd8, 0xc3, 0xbd, 0xc4, 0x2d, 0xd0, 0x3d,
  0x4b, 0xd9, 0xcb, 0x3e, 0x43, 0x7a, 0x18, 0x3d, 0x3b, 0x3e, 0xef, 0xbc,
  0x5b, 0x66, 0x8f, 0xbd, 0xcd, 0x98, 0x14, 0xbe, 0x15, 0x0b, 0xc8, 0x3d,
  0x61, 0xc6, 0xa7, 0x3d, 0x61, 0xba, 0x5f, 0xbd, 0x7b, 0x17, 0x47, 0xbe,
  0x53, 0xe8, 0x93, 0xbe, 0x78, 0x65, 0x19, 0xbe, 0xc5, 0xbb, 0x99, 0x3e,
  0x81, 0x2a, 0xad, 0x3e, 0x78, 0x00, 0x93, 0xbe, 0x37, 0x94, 0x25, 0xbe,
  0x07, 0x06, 0x56, 0xbe, 0xe7, 0x16, 0xee, 0x3d, 0x0e, 0xe1, 0xde, 0x3d,
  0xd2, 0x22, 0xa3, 0x3d, 0x90, 0x07, 0x30, 0x3d, 0x68, 0xdf, 0x1f, 0xbe,
  0x77, 0x34, 0x2a, 0x3e, 0x53, 0x9e, 0x0e, 0x3e, 0x33, 0xab, 0x2a, 0x3e,
  0x60, 0x2d, 0xbe, 0xbb, 0x61, 0xd5, 0x24, 0x3e, 0x68, 0x36, 0x65, 0x3d,
  0xfa, 0xd0, 0xe2, 0x3d, 0xf9, 0xce, 0x1a, 0xbe, 0xe2, 0xbb, 0x0c, 0xbe,
  0x8d, 0x67, 0x0a, 0xbe, 0x19, 0xbd, 0x80, 0xbd, 0xe0, 0x00, 0x91, 0xbc,
  0x01, 0xc7, 0x13, 0x3e, 0x20, 0x3e, 0xea, 0xbc, 0x20, 0x38, 0xae, 0x3c,
  0xfa, 0xe5, 0xc7, 0x3d, 0x18, 0xc4, 0x36, 0xbd, 0x24, 0x0f, 0xf6, 0xbd,
  0x61, 0x15, 0x32, 0x3e, 0x20, 0xc4, 0x46, 0x3c, 0x23, 0x73, 0x26, 0xbe,
  0x9c, 0x59, 0x20, 0xbe, 0xa5, 0x53, 0x18, 0xbe, 0xb6, 0xb6, 0xb7, 0x3d,
  0xbf, 0xb7, 0x15, 0xbe, 0x47, 0x58, 0xaf, 0xbd, 0x20, 0x6c, 0xb4, 0xbd,
  0x1f, 0x47, 0x25, 0x3e, 0x7c, 0x08, 0xb7, 0xbd, 0x8d, 0x57, 0x87, 0xbd,
  0x3e, 0x06, 0x97, 0x3d, 0x6e, 0x76, 0xdc, 0xbd, 0x4f, 0xbe, 0x27, 0x3e,
  0x60, 0x9a, 0xbd, 0x3c, 0x1f, 0x37, 0xa5, 0xbd, 0x91, 0x51, 0x15, 0x3e,
  0x20, 0x2e, 0xba, 0x3b, 0xe2, 0x62, 0xbf, 0x3d, 0xb4, 0x45, 0x40, 0xbd,
  0x6f, 0xe7, 0x1f, 0xbe, 0x18, 0xaa, 0xa0, 0xbc, 0xbe, 0x73, 0xba, 0x3d,
  0x8c, 0x66, 0x2e, 0xbd, 0x8e, 0x42, 0xd9, 0x3d, 0xec, 0xb7, 0x24, 0xbe,
  0x16, 0x69, 0xbd, 0x3d, 0x45, 0x0c, 0x21, 0xbe, 0xf2, 0x3d, 0xab, 0x3d,
  0x4c, 0x6a, 0x52, 0x3d, 0xe8, 0x0b, 0x8d, 0x3d, 0x4a, 0x36, 0xeb, 0x3d,
  0x22, 0xe2, 0xfc, 0xbd, 0x34, 0xa6, 0x76, 0x3d, 0xc0, 0xa7, 0x43, 0xbb,
  0xd2, 0x5f, 0xb6, 0x3d, 0x07, 0x70, 0x0a, 0xbe, 0x87, 0x16, 0xcb, 0xbd,
  0x90, 0x5e, 0x50, 0xbc, 0x6a, 0x39, 0x8a, 0xbd, 0xaf, 0x66, 0xc1, 0xbd,
  0xda, 0x79, 0x06, 0xbe, 0xad, 0x10, 0x97, 0xbd, 0x64, 0x93, 0x01, 0x3d,
  0xc7, 0xe9, 0x2f, 0x3e, 0xe9, 0x33, 0x0b, 0x3e, 0xb0, 0x66, 0x46, 0x3d,
  0xd8, 0x4d, 0x1b, 0xbd, 0xca, 0xac, 0xb1, 0x3d, 0x6f, 0xea, 0xb6, 0xbd,
  0x5c, 0xc5, 0x66, 0x3d, 0x63, 0x29, 0x97, 0xbd, 0xfb, 0x98, 0xd9, 0xbd,
  0xe0, 0xe8, 0xc5, 0xbb, 0xf0, 0x5b, 0x85, 0xbc, 0x40, 0xb3, 0xf9, 0xbb,
  0x86, 0xa6, 0xc1, 0x3d, 0x6c, 0x12, 0x90, 0x3d, 0xe2, 0x22, 0xda, 0x3d,
  0xc0, 0x91, 0xd2, 0xbc, 0x0b, 0xf6, 0x18, 0x3e, 0x92, 0xb3, 0x24, 0xbe,
  0x10, 0x4d, 0x2b, 0xbe, 0x90, 0x88, 0xa4, 0xbc, 0x02, 0xb8, 0xb5, 0xbd,
  0x1c, 0x68, 0x0f, 0xbe, 0x9f, 0x6f, 0x11, 0x3e, 0x94, 0x22, 0x2f, 0xbd,
  0x94, 0x2f, 0x40, 0x3d, 0x23, 0x90, 0x17, 0x3e, 0x3b, 0x59, 0xcf, 0xbd,
  0x5a, 0x89, 0xe9, 0xbd, 0x8d, 0xf0, 0x28, 0x3e, 0xf2, 0xcf, 0x81, 0x3d,
  0x66, 0x9e, 0x9a, 0x3d, 0x5f, 0x96, 0x1d, 0x3e, 0xfb, 0x91, 0x27, 0x3e,
  0xe6, 0x64, 0xda, 0x3d, 0x7c, 0xfc, 0x50, 0xbd, 0x94, 0x8f, 0xf4, 0xbd,
  0xc1, 0xc2, 0xb7, 0xbd, 0xd8, 0x6c, 0xc5, 0x3c, 0x3f, 0xc7, 0x9b, 0xbd,
  0x76, 0x87, 0x23, 0xbe, 0x32, 0x28, 0xf8, 0xbd, 0xa5, 0xa3, 0xcd, 0xbd,
  0xe8, 0xbf, 0x05, 0xbe, 0x05, 0x60, 0x19, 0xbe, 0x47, 0x39, 0x09, 0x3e,
  0x38, 0x5d, 0x69, 0xbd, 0xac, 0xf9, 0x3b, 0xbd, 0xa6, 0xff, 0xf9, 0x3d,
  0x35, 0xe9, 0x2e, 0x3e, 0xab, 0xe7, 0x13, 0x3e, 0x64, 0x01, 0x13, 0xbe,
  0x0c, 0x15, 0xef, 0xbd, 0x14, 0x31, 0xf4, 0xbd, 0x72, 0xb3, 0xcf, 0xbd,
  0x74, 0xfc, 0xfe, 0xbd, 0x53, 0x1b, 0x28, 0xbe, 0xd0, 0x64, 0x84, 0xbc,
  0xb3, 0x3b, 0x93, 0xbd, 0xe0, 0xa7, 0x91, 0x3b, 0x10, 0x72, 0xd6, 0x3c,
  0x2d, 0xb0, 0xcd, 0xbd, 0x5c, 0x34, 0x98, 0xbd, 0xd5, 0xfd, 0x1d, 0xbe,
  0xca, 0x50, 0x12, 0xbe, 0x4b, 0xcd, 0x0f, 0x3e, 0x16, 0xcd, 0x01, 0xbe,
  0xe0, 0x7d, 0x91, 0x3c, 0x60, 0x7b, 0x6d, 0xbd, 0x2e, 0x9e, 0x72, 0xbd,
  0x10, 0xd9, 0x5a, 0xbc, 0x99, 0x22, 0x0d, 0x3e, 0xb5, 0x83, 0x1f, 0x3e,
  0x0b, 0x98, 0x1d, 0x3e, 0xe0, 0xaf, 0x43, 0x3d, 0xe4, 0x32, 0x7e, 0xbd,
  0x56, 0xb6, 0xd5, 0xbd, 0x00, 0x96, 0x99, 0xba, 0x83, 0x4f, 0x2e, 0x3e,
  0x00, 0xf1, 0x32, 0xbd, 0x46, 0xc9, 0xd1, 0x3d, 0x40, 0xeb, 0x35, 0x3c,
  0x7f, 0x0c, 0xe5, 0xbd, 0xa6, 0xf0, 0x08, 0xbe, 0x8d, 0x60, 0x82, 0xbd,
  0xa8, 0x53, 0x90, 0x3c, 0x49, 0x3d, 0x9b, 0xbd, 0x48, 0x2c, 0x9d, 0x3c,
  0xb8, 0xc1, 0x96, 0xbc, 0x33, 0x25, 0xad, 0xbd, 0xe8, 0x11, 0x15, 0x3d,
  0xe0, 0x29, 0x93, 0x3d, 0x59, 0x76, 0xd1, 0xbd, 0xfb, 0xb9, 0xdd, 0xbd,
  0x18, 0x56, 0x50, 0x3d, 0xa0, 0x9d, 0xd9, 0xbc, 0x04, 0x0a, 0x1f, 0xbe,
  0x6c, 0xcf, 0xf3, 0xbd, 0x3a, 0xc7, 0x90, 0xbd, 0xa8, 0xd1, 0x31, 0xbe,
  0xe4, 0xd3, 0x47, 0x3d, 0x82, 0xe6, 0x25, 0xbe, 0x2a, 0x4d, 0xc0, 0xbd,
  0x35, 0x78, 0x1b, 0x3e, 0x5d, 0x3e, 0x18, 0x3e, 0xb0, 0x09, 0xc1, 0xbd,
  0x28, 0x73, 0xe6, 0x3c, 0x80, 0xa5, 0x6b, 0x3d, 0x0f, 0xf6, 0x20, 0xbe,
  0x42, 0xcd, 0xfd, 0xbd, 0xd0, 0xf9, 0x7e, 0x3c, 0x9b, 0x47, 0x0e, 0xbe,
  0x78, 0x64, 0x2a, 0x3d, 0xc7, 0x1f, 0x04, 0x3e, 0xf9, 0xbe, 0x55, 0x3f,
  0xbd, 0xab, 0xb7, 0xbd, 0x32, 0x87, 0xe3, 0x3e, 0x38, 0x8c, 0x2d, 0x3f,
  0x24, 0x60, 0x74, 0x3e, 0x5d, 0x40, 0x3e, 0xbe, 0x13, 0x3f, 0x7a, 0x3f,
  0x2d, 0xfd, 0x3b, 0x3e, 0x47, 0x97, 0xa4, 0x3e, 0x5b, 0xee, 0x47, 0x3f,
  0x85, 0xd6, 0x76, 0x3e, 0xbb, 0xc1, 0x24, 0xbe, 0xc9, 0xc2, 0x04, 0x3f,
  0xe3, 0x70, 0x90, 0x3e, 0xc7, 0xaf, 0xd9, 0x3e, 0x87, 0x95, 0x6e, 0x3f,
  0xd8, 0x1c, 0xe1, 0x3d, 0xaf, 0x30, 0xd5, 0xbc, 0x76, 0xda, 0xeb, 0x3d,
  0x07, 0x5b, 0x71, 0x3e, 0xb1, 0x9d, 0x2c, 0x3f, 0xe8, 0x81, 0x36, 0x3f,
  0xcf, 0x31, 0x5e, 0xbd, 0xc6, 0xf1, 0x3d, 0xbe, 0x72, 0x50, 0x56, 0x3e,
  0x28, 0xe9, 0xf2, 0x3e, 0x8e, 0xc4, 0x30, 0x3f, 0x3f, 0x26, 0x61, 0x3f,
  0x6c, 0x46, 0x28, 0x3e, 0x70, 0xe3, 0x22, 0x3d, 0xce, 0xa0, 0x1c, 0xbe,
  0xed, 0x39, 0xdb, 0x3e, 0x55, 0xf7, 0x1f, 0x3f, 0xa3, 0xdb, 0x66, 0x3f,
  0xf7, 0x2a, 0xd8, 0x3d, 0x81, 0x06, 0x41, 0xbc, 0xaa, 0x44, 0x06, 0x3e,
  0x1a, 0xf9, 0x9a, 0x3e, 0x8d, 0x8d, 0xbd, 0x3e, 0x63, 0x7d, 0x7f, 0x3f,
  0x94, 0xf7, 0x23, 0x3e, 0xe0, 0x00, 0x31, 0xbd, 0xf4, 0x3d, 0x07, 0x3e,
  0xde, 0x0a, 0x56, 0x3e, 0x5a, 0x42, 0x36, 0x3e, 0xe6, 0x38, 0x64, 0x3f,
  0xfa, 0x3d, 0x57, 0x3d, 0x78, 0xae, 0x26, 0x3e, 0xf5, 0xd2, 0x12, 0x3e,
  0x6f, 0x00, 0xc3, 0x3d, 0x1b, 0xdc, 0x25, 0x3e, 0x31, 0xdb, 0x30, 0x3f,
  0x5d, 0x64, 0x55, 0x3e, 0x75, 0xc9, 0x85, 0x3e, 0x2a, 0xb7, 0xe3, 0xbd,
  0xc5, 0x84, 0xb6, 0x3d, 0x1e, 0xf0, 0x8a, 0x3d, 0xee, 0xfe, 0xe0, 0x3e,
  0xfb, 0xa8, 0x47, 0xbd, 0x4b, 0x4b, 0xe4, 0x3e, 0x4b, 0x12, 0x3b, 0x3d,
  0xbc, 0x28, 0x9d, 0xbd, 0xd7, 0xd1, 0xa2, 0xbd, 0x03, 0x0b, 0xd0, 0x3e,
  0x44, 0x6d, 0xb1, 0x3d, 0x11, 0x0e, 0x31, 0x3e, 0x81, 0xa2, 0x6b, 0xbc,
  0xee, 0x13, 0x8a, 0xbd, 0xd6, 0x27, 0x56, 0x3d, 0xa4, 0x92, 0xf6, 0x3e,
  0xd4, 0xfb, 0xe1, 0x3d, 0x74, 0x7d, 0x77, 0x3e, 0xc3, 0xa1, 0xd1, 0xbc,
  0x96, 0x5f, 0x88, 0xbe, 0xd9, 0x68, 0x07, 0xbd, 0x4f, 0x32, 0xe5, 0x3e,
  0xae, 0xda, 0xa5, 0x3e, 0xef, 0x83, 0xa7, 0x3e, 0x8d, 0x0a, 0x45, 0x3c,
  0x9c, 0x44, 0xbe, 0xbe, 0xf3, 0xcc, 0x3d, 0xbd, 0x3e, 0xa4, 0xd8, 0x3e,
  0x57, 0x69, 0x95, 0x3e, 0x8a, 0x8b, 0x64, 0x3e, 0x1f, 0x7b, 0x57, 0x3d,
  0x16, 0xa6, 0x9e, 0xbe, 0xd0, 0x0e, 0xdc, 0xbd, 0x6f, 0x1d, 0xff, 0x3d,
  0x69, 0x89, 0xc2, 0x3e, 0x20, 0xee, 0x03, 0x3e, 0xdc, 0x89, 0xf1, 0xbd,
  0xca, 0xc2, 0x51, 0xbe, 0xcf, 0xda, 0x57, 0x3e, 0xeb, 0xc7, 0x31, 0x3e,
  0x5e, 0x3a, 0xa6, 0x3e, 0xc8, 0x5e, 0xe0, 0x3d, 0x07, 0x51, 0xbd, 0xbd,
  0x9b, 0xb2, 0x4c, 0x3d, 0x43, 0xfa, 0xaa, 0x3d, 0x7c, 0x7e, 0xf7, 0xbb,
  0xd5, 0xd4, 0x51, 0x3e, 0x36, 0xb5, 0x97, 0x3d, 0x97, 0xbf, 0x73, 0xbe,
  0xf5, 0x95, 0xd0, 0x3c, 0xcf, 0xc0, 0x63, 0xbd, 0x90, 0x40, 0xc2, 0x3c,
  0xda, 0x75, 0xd3, 0x3d, 0xb6, 0x4e, 0xdc, 0xbc, 0x95, 0xcc, 0x43, 0xbe,
  0x96, 0x07, 0xcf, 0x3e, 0xca, 0x7d, 0xa9, 0x3d, 0xeb, 0x14, 0x0d, 0x3d,
  0x55, 0x04, 0x23, 0x3e, 0x8f, 0x9e, 0x8e, 0x3e, 0x75, 0x1a, 0xf5, 0x3c,
  0xd3, 0x05, 0xbf, 0x3e, 0x19, 0x52, 0x3b, 0x3e, 0x68, 0xc2, 0x9e, 0x3b,
  0x5f, 0x5e, 0x8f, 0x3e, 0x4d, 0x3a, 0xae, 0x3c, 0xa4, 0xff, 0x89, 0x3d,
  0x35, 0xe4, 0xa9, 0x3e, 0x10, 0xfb, 0x12, 0x3e, 0xce, 0x9f, 0x91, 0x3e,
  0xf6, 0x3f, 0xc0, 0x3e, 0x02, 0x31, 0x81, 0x3e, 0xc9, 0x7f, 0xda, 0x3d,
  0xe5, 0x53, 0x12, 0x3f, 0x5d, 0xe6, 0x24, 0x3e, 0x56, 0x4c, 0x8d, 0x3e,
  0x35, 0x7a, 0x9f, 0x3e, 0xcb, 0x63, 0xdd, 0x3d, 0x57, 0x94, 0x20, 0x3e,
  0x92, 0x32, 0x08, 0x3f, 0x01, 0xf1, 0x5c, 0x3e, 0x28, 0x37, 0x4a, 0x3e,
  0xe7, 0x8b, 0x8e, 0x3e, 0x5a, 0x68, 0x93, 0x3e, 0xbf, 0x19, 0xaa, 0x3d,
  0x62, 0x81, 0x9e, 0x3e, 0x46, 0x6e, 0x9c, 0x3e, 0x02, 0x72, 0xb7, 0x3d,
  0x7b, 0xbb, 0x8a, 0x3e, 0x4f, 0x69, 0x41, 0x3e, 0xc3, 0x36, 0x8f, 0x3e,
  0xb3, 0xf7, 0x17, 0x3f, 0x13, 0xc3, 0xf6, 0x3d, 0x3a, 0xd5, 0x97, 0xbc,
  0xb2, 0xc0, 0xbb, 0x3e, 0x11, 0xc0, 0xb9, 0xbc, 0x2c, 0x80, 0x9b, 0x3d,
  0x78, 0x21, 0xfc, 0x3e, 0x65, 0x93, 0xd5, 0x3a, 0xe0, 0xbf, 0x8a, 0x3c,
  0x0d, 0xc5, 0xc5, 0x3d, 0x96, 0xb0, 0xd0, 0xbc, 0xd4, 0x3c, 0xa0, 0x3e,
  0x2a, 0xb6, 0x9a, 0x3e, 0x99, 0xe8, 0xf2, 0x3d, 0x6c, 0xda, 0xf4, 0x3d,
  0x76, 0x54, 0x58, 0x3e, 0xcc, 0x58, 0x5f, 0x3e, 0x21, 0x2a, 0x2a, 0x3e,
  0x38, 0x69, 0x02, 0x3f, 0xe7, 0xf5, 0x82, 0x3d, 0x73, 0x37, 0x53, 0x3d,
  0x45, 0xdd, 0xa9, 0x3e, 0xc1, 0xf8, 0xc8, 0x3c, 0x1c, 0x45, 0x9d, 0x3e,
  0xca, 0x31, 0x1c, 0x3f, 0x41, 0xea, 0xa8, 0x3e, 0x73, 0xd3, 0xfa, 0x3d,
  0x8d, 0x51, 0x74, 0x3e, 0xa2, 0x0f, 0x19, 0x3e, 0x29, 0xcd, 0x42, 0x3e,
  0xb4, 0x82, 0x1a, 0x3f, 0x1b, 0xb9, 0xc4, 0x3d, 0x7f, 0x3d, 0x74, 0x3e,
  0x99, 0xab, 0x14, 0x3e, 0xc9, 0x01, 0x0f, 0xbd, 0x67, 0x31, 0x35, 0xbf,
  0x6c, 0x09, 0x27, 0x3e, 0x9b, 0xe1, 0xda, 0xbd, 0xea, 0xe1, 0x20, 0xbe,
  0x1b, 0xae, 0x20, 0xbe, 0x5a, 0xb6, 0x16, 0x3f, 0x3f, 0xa0, 0xcc, 0xbe,
  0x35, 0xbe, 0x58, 0x3d, 0x90, 0x17, 0xf4, 0xbe, 0x44, 0x68, 0x60, 0xbd,
  0xc1, 0xde, 0x27, 0x3d, 0x46, 0xc4, 0xd9, 0x3e, 0x8d, 0x65, 0x96, 0xbe,
  0x3d, 0x95, 0xa8, 0x3d, 0xf3, 0x7b, 0x33, 0xbf, 0x99, 0x43, 0xb4, 0xbe,
  0xe8, 0x7c, 0x42, 0x3e, 0xda, 0x66, 0x06, 0x3f, 0x9c, 0x5c, 0x37, 0x3d,
  0xb5, 0x4e, 0xa6, 0xbd, 0x7f, 0x95, 0x56, 0xbf, 0xd7, 0xf5, 0xdc, 0xbe,
  0xac, 0x55, 0x66, 0x3e, 0x50, 0xed, 0x1d, 0x3f, 0xb6, 0xad, 0x32, 0x3e,
  0x3a, 0x53, 0x0a, 0xbe, 0x0b, 0xba, 0x30, 0xbf, 0xcc, 0x3f, 0xb5, 0xbe,
  0xcb, 0x35, 0x76, 0x3e, 0x28, 0x23, 0xd3, 0x3e, 0xba, 0x9b, 0xda, 0x3d,
  0x01, 0xcf, 0x8c, 0xbe, 0x39, 0xd8, 0x19, 0xbf, 0x88, 0xd6, 0x93, 0xbe,
  0x0a, 0x80, 0x02, 0x3e, 0x4f, 0x8a, 0x95, 0x3e, 0x55, 0x6e, 0x05, 0x3f,
  0x43, 0x67, 0x88, 0xbe, 0x53, 0xba, 0xef, 0xbe, 0x5e, 0xbd, 0xaa, 0xbe,
  0x4b, 0xd2, 0xc3, 0x3d, 0xdf, 0x8a, 0xa0, 0x3e, 0x49, 0x27, 0xbf, 0x3e,
  0x39, 0x17, 0x6e, 0xbe, 0x2d, 0xbc, 0x9b, 0xbe, 0xf2, 0x9a, 0xee, 0xbd,
  0x75, 0x8a, 0x2e, 0x3e, 0x4e, 0x14, 0xe1, 0x3d, 0x5d, 0xc2, 0x19, 0x3f,
  0x76, 0x8c, 0xc9, 0xbe, 0x08, 0x28, 0xa8, 0xbd, 0xfd, 0x69, 0x48, 0xbe,
  0xee, 0x2e, 0x3e, 0xbd, 0xdf, 0xa3, 0xf7, 0x3d, 0xec, 0x2b, 0x1a, 0x3f,
  0x06, 0xc8, 0x83, 0xbe, 0x07, 0x79, 0x74, 0x3e, 0x22, 0x44, 0xb9, 0xbd,
  0xbf, 0x63, 0x96, 0xbd, 0xc9, 0xcb, 0x57, 0x3e, 0xcc, 0x9c, 0xde, 0x3e,
  0x3f, 0xc1, 0x28, 0xbe, 0x9a, 0x8f, 0x93, 0x3e, 0xa6, 0x3b, 0x19, 0xbe,
  0x66, 0x2e, 0xa0, 0xbd, 0x37, 0xa5, 0x85, 0xbd, 0xf3, 0x57, 0x12, 0x3f,
  0x08, 0x5e, 0x65, 0xbe, 0x14, 0xd6, 0x57, 0x39, 0x74, 0x19, 0x41, 0xbd,
  0xfc, 0x8e, 0x07, 0x3e, 0xd9, 0x2c, 0xad, 0xbd, 0x3e, 0x08, 0x04, 0x3f,
  0xcc, 0x75, 0x96, 0xbe, 0xe8, 0x3a, 0x62, 0x3e, 0x55, 0x58, 0x75, 0x3d,
  0xc3, 0x75, 0x18, 0x3e, 0x89, 0x54, 0x92, 0x3d, 0x30, 0xe0, 0x27, 0x3f,
  0x40, 0xde, 0x6e, 0x3c, 0x97, 0x18, 0x76, 0x3e, 0x1e, 0xd9, 0xa0, 0x3d,
  0xb4, 0x9e, 0x49, 0xbd, 0x1f, 0xc3, 0x48, 0x3e, 0x6d, 0x29, 0x07, 0x3f,
  0x76, 0xcb, 0xa2, 0x3d, 0xef, 0x07, 0x53, 0x3d, 0x78, 0xb1, 0x74, 0xbd,
  0xaf, 0x1f, 0x70, 0xbe, 0x82, 0x9c, 0x48, 0x3e, 0xcf, 0x91, 0x39, 0x3f,
  0x02, 0x21, 0x35, 0x3e, 0x75, 0x7a, 0x9f, 0x3d, 0xda, 0xda, 0x1d, 0x3d,
  0xb2, 0x64, 0x2c, 0xbe, 0xcb, 0xd1, 0xbb, 0xbd, 0x7c, 0xd0, 0x39, 0x3f,
  0xbc, 0x02, 0x20, 0xbd, 0xab, 0x4d, 0xc2, 0xba, 0xb6, 0xce, 0xf8, 0xbd,
  0x36, 0x14, 0x67, 0xbe, 0x4a, 0xf2, 0x86, 0xbd, 0x23, 0x2c, 0x08, 0x3f,
  0xd0, 0x77, 0xe8, 0x3d, 0xcc, 0xf0, 0xd5, 0x3c, 0x1c, 0xe3, 0x5c, 0xbe,
  0xaf, 0xe3, 0x07, 0xbd, 0xa8, 0x26, 0xed, 0x3d, 0xf1, 0x7e, 0x27, 0x3f,
  0x83, 0x0e, 0x8f, 0xbd, 0x84, 0x76, 0xd3, 0x3d, 0xe6, 0xd8, 0x0f, 0xbe,
  0xe3, 0x6e, 0x63, 0xbe, 0x71, 0x51, 0x63, 0x3e, 0xc1, 0x8f, 0xd5, 0x3e,
  0xc8, 0xd2, 0x5b, 0xbe, 0x8a, 0x03, 0x08, 0x3e, 0xbc, 0x05, 0x6b, 0x3d,
  0xad, 0x22, 0x29, 0x3d, 0x57, 0x0a, 0xbb, 0xbd, 0x65, 0xe1, 0xba, 0x3e,
  0x9a, 0xc9, 0x77, 0xbe, 0xfc, 0xd6, 0xb3, 0xbc, 0x71, 0x83, 0x16, 0xbe,
  0x03, 0x0d, 0x81, 0xbe, 0x7f, 0xb4, 0x8b, 0xbc, 0xa8, 0xb7, 0xce, 0x3e,
  0xfa, 0x64, 0xd1, 0xbd, 0x24, 0xbb, 0x78, 0x3d, 0x4a, 0x2f, 0x0d, 0x3e,
  0x49, 0x4c, 0x73, 0xbe, 0x2d, 0x7b, 0x12, 0x3d, 0x9b, 0x83, 0xfb, 0x3e,
  0xf1, 0xd9, 0x47, 0x3d, 0x50, 0xa1, 0xaa, 0x3b, 0xfd, 0xa3, 0xc3, 0xbd,
  0x94, 0xc5, 0x2b, 0x3c, 0x93, 0xb7, 0xd4, 0x3c, 0xe5, 0x20, 0xb1, 0x3e,
  0xdb, 0x5b, 0x67, 0x3d, 0x60, 0xdf, 0xa7, 0x3d, 0x72, 0xe9, 0x76, 0x3d,
  0x90, 0x03, 0x04, 0xbe, 0x68, 0xb7, 0xab, 0x3d, 0x4c, 0xbf, 0xe2, 0x3e,
  0x18, 0x2b, 0x4d, 0xbe, 0x35, 0x1b, 0x6f, 0xbb, 0xa0, 0x15, 0xc1, 0x3b,
  0xbf, 0x42, 0x6e, 0xbe, 0x1d, 0x34, 0x5b, 0x3e, 0x5e, 0x0e, 0xce, 0x3e,
  0x75, 0x57, 0x03, 0xbd, 0xa9, 0xe0, 0x11, 0xbe, 0x1e, 0xa2, 0x19, 0xbe,
  0x90, 0xba, 0x83, 0xbe, 0xc7, 0x4f, 0xb1, 0xbc, 0x63, 0x97, 0xeb, 0x3d,
  0xe1, 0xa3, 0x97, 0xbe, 0xa6, 0x9c, 0xc9, 0x3d, 0x2b, 0x81, 0x0c, 0xbd,
  0x74, 0xbc, 0xd9, 0x3c, 0xf2, 0xa8, 0x1f, 0xbd, 0x56, 0xe0, 0x1a, 0x3e,
  0xa8, 0x65, 0xd3, 0x3c, 0xea, 0x35, 0xc7, 0xbc, 0xe2, 0x4d, 0xcf, 0x3d,
  0x26, 0x2c, 0x51, 0xbe, 0xad, 0xb2, 0xf3, 0x3d, 0xb3, 0xb8, 0xa3, 0x3e,
  0x28, 0x3c, 0x94, 0xbe, 0xd9, 0x7c, 0x0a, 0xbe, 0x3b, 0xb0, 0xf9, 0x3d,
  0xa3, 0x99, 0x56, 0xbd, 0x32, 0x83, 0x06, 0x3e, 0x6a, 0x06, 0x64, 0x3e,
  0xbb, 0x8f, 0xac, 0xbe, 0xd3, 0x0f, 0xd5, 0x3d, 0x6c, 0xfe, 0xbd, 0x3d,
  0x0c, 0x9c, 0x1b, 0xbe, 0xda, 0xc6, 0x4b, 0x3d, 0x62, 0x47, 0xf2, 0x3d,
  0x47, 0x37, 0x08, 0x3e, 0x06, 0xaf, 0x85, 0x3d, 0xf2, 0x04, 0x18, 0xbe,
  0x2b, 0x52, 0x09, 0x3e, 0x90, 0x20, 0x56, 0xbd, 0x09, 0x16, 0xab, 0xbd,
  0xfc, 0x51, 0x20, 0xbd, 0x40, 0xdc, 0x59, 0xbc, 0xd8, 0xec, 0x10, 0xbe,
  0xeb, 0x58, 0x09, 0x3e, 0xb2, 0x7e, 0x9d, 0x3d, 0xd6, 0x6f, 0x6b, 0xbd,
  0xfa, 0x15, 0xf1, 0x3d, 0x11, 0x06, 0x08, 0x3e, 0xdc, 0x30, 0x47, 0xbd,
  0x9a, 0x10, 0x07, 0xbe, 0x72, 0xa6, 0xc7, 0x3d, 0x8e, 0xfd, 0xe4, 0x3d,
  0xe8, 0x4e, 0xe8, 0x3c, 0x50, 0x5c, 0x16, 0x3c, 0xe3, 0x62, 0x06, 0x3e,
  0x74, 0x8a, 0x06, 0xbd, 0x14, 0xc4, 0x7c, 0x3d, 0xee, 0x2a, 0x92, 0xbd,
  0xbc, 0x80, 0x0b, 0x3d, 0x38, 0xe1, 0xaa, 0xbd, 0xbc, 0xfc, 0x1c, 0xbe,
  0x34, 0xe5, 0x69, 0xbd, 0xb1, 0x33, 0x90, 0xbd, 0xb9, 0xd7, 0xb8, 0xbd,
  0xd0, 0xbc, 0x99, 0xbc, 0xc9, 0x9e, 0x91, 0xbd, 0x75, 0x0a, 0xf0, 0xbd,
  0xca, 0x07, 0xa3, 0x3d, 0x4b, 0x04, 0x2a, 0x3e, 0x38, 0xa8, 0x82, 0xbd,
  0xb1, 0xf9, 0x16, 0x3e, 0xac, 0x1e, 0x39, 0xbd, 0x37, 0xe4, 0x08, 0xbe,
  0xe0, 0xaf, 0x87, 0xbb, 0x92, 0x30, 0x99, 0x3d, 0x3e, 0x21, 0xad, 0xbd,
  0x40, 0x7d, 0x7e, 0xbd, 0xbe, 0x44, 0xf3, 0xbd, 0x94, 0xbe, 0x7f, 0x3d,
  0x16, 0x99, 0xaa, 0x3d, 0x8e, 0x97, 0xe0, 0x3d, 0x06, 0x8e, 0x19, 0xbe,
  0xa8, 0x83, 0xf1, 0xbd, 0x40, 0x57, 0x97, 0x3d, 0x00, 0x48, 0x69, 0x3b,
  0x5e, 0xfe, 0xe7, 0x3d, 0xf5, 0x1f, 0x1d, 0xbe, 0xa5, 0xa7, 0x23, 0xbe,
  0xad, 0xf6, 0x15, 0x3e, 0x24, 0x05, 0x9f, 0xbd, 0x0e, 0x0d, 0xe4, 0x3d,
  0xcc, 0x44, 0x24, 0xbe, 0x6e, 0x9f, 0xc9, 0xbd, 0x68, 0xd0, 0xe1, 0xbc,
  0xec, 0xa9, 0x83, 0x3d, 0xe8, 0xf8, 0xa9, 0xbc, 0x85, 0x43, 0xdb, 0xbd,
  0x77, 0xc7, 0x0a, 0x3e, 0x74, 0x20, 0x2a, 0xbe, 0x62, 0xd0, 0xfe, 0x3d,
  0x17, 0xcd, 0x13, 0x3e, 0x6e, 0xd0, 0xf0, 0xbd, 0xc4, 0xd2, 0x6a, 0xbd,
  0x33, 0x42, 0x19, 0x3e, 0xaa, 0xfc, 0xf8, 0xbd, 0xb8, 0xc0, 0xe8, 0xbc,
  0xbe, 0xc1, 0x90, 0x3d, 0x20, 0xeb, 0xc0, 0x3c, 0x7e, 0xd9, 0x4d, 0xbd,
  0xf6, 0xc7, 0xd5, 0x3d, 0x4f, 0x11, 0xde, 0xbd, 0x59, 0xe6, 0xc3, 0xbd,
  0xb8, 0xa0, 0x34, 0xbd, 0xb5, 0x2b, 0x90, 0xbd, 0x54, 0x97, 0xaf, 0xbd,
  0xc9, 0x81, 0xaf, 0xbd, 0x37, 0x5e, 0xad, 0xbd, 0xa5, 0x88, 0x12, 0xbe,
  0x4c, 0x44, 0xee, 0xbd, 0x54, 0x97, 0x15, 0xbd, 0x90, 0xd4, 0x80, 0x3d,
  0x18, 0xe1, 0x33, 0x3d, 0x10, 0x5f, 0xfe, 0xbc, 0x24, 0x89, 0x4a, 0xbd,
  0x5c, 0x37, 0x05, 0xbe, 0x7a, 0x63, 0x17, 0xbe, 0x5f, 0x0f, 0x03, 0xbe,
  0x16, 0xb4, 0x6c, 0xbd, 0xcd, 0xef, 0xe1, 0xbd, 0x0e, 0x5d, 0xd5, 0x3d,
  0x96, 0x08, 0xff, 0x3d, 0x28, 0xba, 0xeb, 0x3c, 0xea, 0x49, 0xe7, 0x3d,
  0x18, 0xab, 0x8b, 0x3d, 0xc0, 0x1d, 0x09, 0xbd, 0xee, 0x4c, 0xe1, 0xbd,
  0x2b, 0xfb, 0x1a, 0x3e, 0x2e, 0xa8, 0xfc, 0x3d, 0x24, 0x90, 0x82, 0x3d,
  0xb4, 0x78, 0x2d, 0xbe, 0x9e, 0x5a, 0x8d, 0xbd, 0xd9, 0xb9, 0x1b, 0x3e,
  0x66, 0x6f, 0xb5, 0xbd, 0x04, 0xd5, 0xd9, 0xbd, 0x46, 0x89, 0xd4, 0x3d,
  0x1f, 0xf7, 0x2a, 0x3e, 0x50, 0xa3, 0x5b, 0x3c, 0xf0, 0x4b, 0x32, 0x3c,
  0x24, 0xb1, 0x3b, 0xbd, 0x42, 0x1d, 0xf5, 0xbd, 0xaa, 0x2a, 0xb5, 0x3d,
  0xfd, 0xff, 0x85, 0xbd, 0x33, 0x56, 0x1e, 0x3e, 0x80, 0xcd, 0xb1, 0x3b,
  0x76, 0x30, 0xee, 0x3d, 0x70, 0x82, 0xa1, 0xbc, 0x98, 0x69, 0xc9, 0x3c,
  0x68, 0x03, 0xe8, 0xbc, 0x0e, 0x21, 0x54, 0xbd, 0x51, 0x26, 0x1a, 0x3e,
  0xf4, 0x93, 0x31, 0xbd, 0x5c, 0x3f, 0x9f, 0xbd, 0x9c, 0x84, 0x24, 0x3d,
  0x62, 0x88, 0x55, 0xbd, 0xf5, 0x47, 0x0e, 0x3e, 0x48, 0x6f, 0xfd, 0xbc,
  0x84, 0x94, 0xfc, 0xbd, 0x34, 0xfa, 0x07, 0xbe, 0x60, 0xeb, 0x98, 0xbb,
  0x70, 0x40, 0x2c, 0x3c, 0x00, 0xaa, 0x7d, 0x3b, 0x02, 0x22, 0xdc, 0x3d,
  0x6e, 0x3a, 0xc9, 0xbd, 0x80, 0x9b, 0x9c, 0x3c, 0xc0, 0x69, 0x46, 0xbd,
  0x20, 0x72, 0x5c, 0x3c, 0x6f, 0x2f, 0x0d, 0x3e, 0x3e, 0x4d, 0xad, 0x3d,
  0xa2, 0xa3, 0xbe, 0x3d, 0x50, 0xbc, 0x44, 0xbc, 0xe0, 0x8e, 0x60, 0xbc,
  0x77, 0xfe, 0xe6, 0xbd, 0xde, 0x7d, 0x9f, 0xbd, 0x64, 0xd4, 0x01, 0xbe,
  0x0c, 0x45, 0x0d, 0x3d, 0x73, 0x77, 0x0c, 0xbe, 0x7f, 0x63, 0x2d, 0xbe,
  0x79, 0xe9, 0x0a, 0xbe, 0x20, 0xff, 0x50, 0xbc, 0x1e, 0x4f, 0xef, 0x3d,
  0x9d, 0x02, 0x21, 0xbe, 0xc1, 0x06, 0xbe, 0xbd, 0x00, 0xc9, 0x28, 0xbb,
  0x7a, 0xbd, 0xeb, 0xbd, 0x6c, 0x22, 0x27, 0x3d, 0x34, 0xfe, 0x76, 0x3d,
  0x0d, 0xd0, 0xd9, 0xbd, 0xf0, 0x4a, 0x57, 0xbc, 0xc0, 0x8b, 0x4c, 0xbb,
  0x21, 0xe9, 0x24, 0xbe, 0xe0, 0x1c, 0x69, 0xbd, 0x28, 0x6d, 0xa4, 0xbc,
  0x01, 0xb6, 0x2f, 0xbe, 0x29, 0x07, 0x0f, 0x3e, 0xa5, 0x9d, 0x18, 0xbe,
  0xa1, 0x79, 0xec, 0xbd, 0x1b, 0xd6, 0x11, 0x3e, 0x18, 0x79, 0x1d, 0x3d,
  0xb7, 0xbc, 0x00, 0x3e, 0xbf, 0xeb, 0x24, 0x3e, 0x40, 0xba, 0x5b, 0x3c,
  0xc0, 0xce, 0x21, 0xbe, 0x2c, 0x31, 0x03, 0xbd, 0x1c, 0x8d, 0x95, 0xbd,
  0x1b, 0x7c, 0x09, 0x3e, 0x80, 0x75, 0x30, 0x3b, 0x20, 0x9e, 0x41, 0x3d,
  0x80, 0xd1, 0x05, 0xbe, 0x88, 0x88, 0x61, 0x3d, 0x2f, 0x26, 0xbe, 0xbd,
  0xa5, 0xa5, 0x21, 0xbe, 0x2a, 0x3b, 0x8a, 0xbd, 0x19, 0xc7, 0xa1, 0xbd,
  0x68, 0x82, 0x18, 0xbe, 0x00, 0x13, 0xba, 0xba, 0x70, 0x41, 0xde, 0x3c,
  0x4f, 0xcc, 0x14, 0xbe, 0xc8, 0x20, 0x89, 0xbc, 0xd0, 0xdf, 0x0d, 0x3c,
  0xf0, 0x5d, 0x70, 0x3d, 0x00, 0x94, 0x6c, 0x3c, 0xa0, 0xbc, 0xac, 0xbb,
  0xd2, 0x38, 0xc5, 0x3d, 0x26, 0xd0, 0xd1, 0xbd, 0xf2, 0x29, 0x19, 0xbe,
  0xb0, 0x2a, 0x2c, 0xbc, 0x4b, 0x45, 0xb6, 0xbd, 0x1e, 0x1e, 0x95, 0xbd,
  0x26, 0x90, 0x84, 0xbd, 0xdd, 0xfc, 0x0f, 0x3e, 0x20, 0x4a, 0x73, 0xbc,
  0x0e, 0x9b, 0xb7, 0x3d, 0x78, 0xa9, 0xb9, 0xbc, 0x6c, 0x51, 0x95, 0xbd,
  0x43, 0x44, 0x18, 0x3e, 0x2b, 0xa1, 0x20, 0xbe, 0x30, 0xf2, 0x38, 0x3c,
  0xe3, 0x1b, 0xe6, 0xbd, 0x1f, 0x77, 0x0c, 0x3e, 0xe6, 0x87, 0x1b, 0xbe,
  0x4c, 0x12, 0x2b, 0x3d, 0xb3, 0xe6, 0xde, 0xbd, 0x16, 0xd3, 0xf5, 0xbd,
  0x0a, 0x04, 0xc8, 0x3d, 0xc4, 0x69, 0x9f, 0xbd, 0xb3, 0x43, 0x90, 0xbd,
  0x94, 0xcc, 0x52, 0xbd, 0xba, 0x5f, 0x81, 0xbd, 0x0c, 0xc1, 0x95, 0x3d,
  0x50, 0xb2, 0x26, 0xbc, 0xd1, 0x7a, 0x18, 0x3e, 0x21, 0x46, 0x04, 0x3e,
  0x0f, 0xcc, 0x27, 0x3e, 0x14, 0xf8, 0x78, 0x3d, 0x48, 0xd2, 0x92, 0x3c,
  0x8d, 0xad, 0x23, 0x3e, 0x8d, 0x52, 0x1c, 0x3e, 0x0b, 0xb8, 0x0f, 0x3e,
  0x86, 0xb4, 0xfd, 0x3d, 0xfe, 0x70, 0x6f, 0xbd, 0x38, 0x71, 0x64, 0x3d,
  0x84, 0xc4, 0x01, 0xbe, 0x18, 0xd9, 0xc7, 0x3c, 0xc8, 0x7e, 0x20, 0xbd,
  0x1c, 0x47, 0xfd, 0xbd, 0x80, 0x57, 0x5b, 0xbb, 0xb0, 0xf2, 0x8e, 0x3c,
  0x0d, 0x92, 0x26, 0x3e, 0x4c, 0x20, 0x53, 0x3d, 0x74, 0x28, 0x49, 0x3d,
  0x80, 0x44, 0xf5, 0x3b, 0x87, 0x75, 0x96, 0xbd, 0xf4, 0x86, 0x03, 0x3d,
  0xba, 0xce, 0xec, 0xbd, 0x52, 0x02, 0xc8, 0x3d, 0x58, 0xf0, 0xc5, 0x3c,
  0xf6, 0xe8, 0xfb, 0xbd, 0x00, 0xc4, 0x81, 0x3b, 0xc1, 0xa9, 0xf8, 0xbd,
  0xa0, 0xd8, 0xea, 0xbd, 0xa0, 0x63, 0xae, 0x3c, 0x11, 0xab, 0xf8, 0xbd,
  0xdc, 0xff, 0x28, 0xbe, 0x50, 0x2b, 0x44, 0xbd, 0x14, 0xc0, 0x56, 0x3d,
  0x34, 0x9e, 0x16, 0xbe, 0x63, 0xea, 0x98, 0xbd, 0xf3, 0x90, 0x1d, 0x3e,
  0x32, 0x5d, 0x87, 0x3d, 0x54, 0x7f, 0x03, 0xbe, 0xa8, 0x0d, 0xb3, 0xbc,
  0x59, 0xc7, 0x28, 0xbe, 0xf8, 0x13, 0xa9, 0x3c, 0x40, 0xb2, 0x50, 0xbb,
  0x8b, 0x30, 0x04, 0x3e, 0x5c, 0x60, 0x12, 0xbe, 0xc6, 0x2b, 0xf1, 0x3d,
  0x02, 0x2e, 0x79, 0xbd, 0xc4, 0x81, 0x51, 0xbd, 0xa6, 0x1b, 0xbd, 0x3d,
  0x82, 0xc3, 0xe5, 0x3d, 0x72, 0x8a, 0xb6, 0x3d, 0xec, 0xe0, 0x8a, 0xbd,
  0x20, 0x3a, 0xea, 0x3b, 0x3c, 0x32, 0x10, 0xbe, 0xb6, 0x7d, 0xc9, 0x3d,
  0xc3, 0x4c, 0xa0, 0xbd, 0xf0, 0xdc, 0x21, 0xbc, 0xd8, 0xd1, 0xae, 0x3c,
  0x31, 0xd0, 0x03, 0xbe, 0x70, 0xaf, 0x2a, 0xbd, 0x61, 0xe6, 0x20, 0xbe,
  0x7c, 0x34, 0x00, 0xbe, 0x4c, 0x2c, 0x40, 0xbd, 0x12, 0x41, 0x4e, 0xbd,
  0xe1, 0x75, 0x28, 0xbe, 0xd8, 0x5b, 0xd5, 0x3c, 0x2a, 0x6f, 0x1e, 0xbe,
  0x1a, 0x3a, 0xad, 0x3d, 0xaf, 0xd9, 0x10, 0x3e, 0x45, 0x6b, 0x85, 0xbd,
  0x60, 0x6c, 0x91, 0x3b, 0x32, 0x23, 0x4e, 0xbd, 0x30, 0xed, 0x15, 0x3d,
  0xb3, 0xa4, 0x1b, 0xbe, 0x4f, 0x1c, 0x31, 0x3e, 0xb6, 0x46, 0xfd, 0xbd,
  0x5f, 0x49, 0x03, 0xbe, 0x5e, 0xfb, 0xef, 0x3d, 0xf9, 0xac, 0xfe, 0xbd,
  0x38, 0xc3, 0x8c, 0xbc, 0x76, 0xac, 0x82, 0x3d, 0xf3, 0xfc, 0x31, 0xbe,
  0xa8, 0x89, 0x19, 0x3d, 0x1d, 0x01, 0x0d, 0xbe, 0x90, 0x5c, 0xed, 0xbc,
  0xf0, 0x6d, 0x0a, 0xbe, 0x6e, 0x4a, 0xf3, 0x3d, 0xfc, 0x1f, 0x90, 0x3d,
  0x33, 0x51, 0x0a, 0xbe, 0xe0, 0xaa, 0xc9, 0xbb, 0x72, 0x5c, 0x0d, 0xbe,
  0x60, 0xb5, 0x66, 0x3c, 0x80, 0x27, 0xb2, 0xbc, 0xb9, 0x06, 0x1e, 0x3e,
  0xd1, 0xd4, 0x18, 0x3e, 0x7d, 0xd6, 0x13, 0x3e, 0x1e, 0xc0, 0x6c, 0xbd,
  0x67, 0xe3, 0xe4, 0xbd, 0x42, 0xd6, 0xea, 0x3d, 0xc2, 0x00, 0xae, 0x3d,
  0x88, 0x06, 0x37, 0xbd, 0x80, 0xfa, 0x15, 0xbc, 0x4e, 0x27, 0x91, 0x3d,
  0xae, 0xd2, 0xc1, 0xbd, 0x8b, 0x46, 0x1f, 0xbe, 0x60, 0xcb, 0x09, 0xbe,
  0xb6, 0x01, 0x8d, 0x3d, 0x41, 0x77, 0x07, 0x3e, 0x55, 0x17, 0x1e, 0xbe,
  0xdb, 0x98, 0x09, 0x3e, 0x46, 0x01, 0xc1, 0x3d, 0xb4, 0x50, 0x7d, 0x3d,
  0x6a, 0x13, 0x8f, 0x3d, 0x13, 0x28, 0x10, 0x3e, 0xf6, 0x87, 0xd6, 0x3d,
  0x4c, 0x0a, 0x42, 0xbd, 0x8f, 0x50, 0x90, 0xbd, 0x21, 0x33, 0x21, 0x3e,
  0x75, 0x28, 0x0f, 0x3e, 0xb6, 0x7d, 0xb3, 0x3d, 0x8b, 0xcc, 0x03, 0x3e,
  0xc3, 0x6a, 0xda, 0xbd, 0x14, 0x0d, 0x36, 0x3d, 0x82, 0x9c, 0xe9, 0x3d,
  0xca, 0x7b, 0x84, 0xbd, 0xd7, 0x1a, 0x0e, 0x3e, 0x1a, 0x3e, 0xcd, 0xbd,
  0xcc, 0x49, 0x74, 0x3d, 0xa8, 0xc7, 0xce, 0xbc, 0x20, 0xb6, 0x10, 0x3d,
  0x00, 0x68, 0x17, 0x3b, 0x50, 0xe3, 0x8a, 0xbc, 0xc6, 0xfe, 0xff, 0xff,
  0x04, 0x00, 0x00, 0x00, 0x40, 0x00, 0x00, 0x00, 0x52, 0xd0, 0x18, 0x3e,
  0x00, 0x00, 0x00, 0x00, 0x00, 0x00, 0x00, 0x00, 0x00, 0x00, 0x00, 0x00,
  0x00, 0x00, 0x00, 0x00, 0xb9, 0xc5, 0x1c, 0x3e, 0x3b, 0x84, 0xc3, 0xbd,
  0x00, 0x00, 0x00, 0x00, 0x00, 0x00, 0x00, 0x00, 0x98, 0xcd, 0x10, 0xbc,
  0xa3, 0x26, 0x17, 0xbe, 0x00, 0x00, 0x00, 0x00, 0x86, 0x34, 0x45, 0x3e,
  0xc5, 0x44, 0x33, 0xbd, 0x00, 0x00, 0x00, 0x00, 0x00, 0x00, 0x00, 0x00,
  0x12, 0xff, 0xff, 0xff, 0x04, 0x00, 0x00, 0x00, 0x20, 0x00, 0x00, 0x00,
  0x03, 0x9e, 0xfd, 0xbc, 0x00, 0x00, 0x00, 0x00, 0xd2, 0xaf, 0x92, 0xbb,
  0xbb, 0xc4, 0x71, 0x3e, 0x5c, 0x0c, 0x84, 0x3e, 0x34, 0x9a, 0x34, 0xbc,
  0xc0, 0x69, 0x4f, 0xbe, 0xf7, 0x2d, 0xe1, 0xbc, 0x3e, 0xff, 0xff, 0xff,
  0x04, 0x00, 0x00, 0x00, 0x20, 0x00, 0x00, 0x00, 0x8f, 0x88, 0xec, 0x3e,
  0x09, 0x12, 0x12, 0xbe, 0xa0, 0xce, 0x0d, 0xbf, 0x9c, 0x0e, 0x40, 0xbf,
  0xb8, 0xb7, 0x00, 0xbe, 0x76, 0x5b, 0x2d, 0x3f, 0xb6, 0xbc, 0x09, 0xbe,
  0xbf, 0x01, 0x60, 0x3e, 0x40, 0xfa, 0xff, 0xff, 0x44, 0xfa, 0xff, 0xff,
  0x0f, 0x00, 0x00, 0x00, 0x4d, 0x4c, 0x49, 0x52, 0x20, 0x43, 0x6f, 0x6e,
  0x76, 0x65, 0x72, 0x74, 0x65, 0x64, 0x2e, 0x00, 0x01, 0x00, 0x00, 0x00,
  0x14, 0x00, 0x00, 0x00, 0x00, 0x00, 0x0e, 0x00, 0x18, 0x00, 0x14, 0x00,
  0x10, 0x00, 0x0c, 0x00, 0x08, 0x00, 0x04, 0x00, 0x0e, 0x00, 0x00, 0x00,
  0x14, 0x00, 0x00, 0x00, 0x1c, 0x00, 0x00, 0x00, 0x24, 0x01, 0x00, 0x00,
  0x28, 0x01, 0x00, 0x00, 0x2c, 0x01, 0x00, 0x00, 0x04, 0x00, 0x00, 0x00,
  0x6d, 0x61, 0x69, 0x6e, 0x00, 0x00, 0x00, 0x00, 0x04, 0x00, 0x00, 0x00,
  0xcc, 0x00, 0x00, 0x00, 0x84, 0x00, 0x00, 0x00, 0x50, 0x00, 0x00, 0x00,
  0x14, 0x00, 0x00, 0x00, 0x00, 0x00, 0x0e, 0x00, 0x1a, 0x00, 0x14, 0x00,
  0x10, 0x00, 0x0c, 0x00, 0x0b, 0x00, 0x04, 0x00, 0x0e, 0x00, 0x00, 0x00,
  0x1c, 0x00, 0x00, 0x00, 0x00, 0x00, 0x00, 0x09, 0x1c, 0x00, 0x00, 0x00,
  0x20, 0x00, 0x00, 0x00, 0x01, 0x00, 0x00, 0x00, 0x00, 0x00, 0x06, 0x00,
  0x08, 0x00, 0x04, 0x00, 0x06, 0x00, 0x00, 0x00, 0x00, 0x00, 0x80, 0x3f,
  0x01, 0x00, 0x00, 0x00, 0x0a, 0x00, 0x00, 0x00, 0x01, 0x00, 0x00, 0x00,
  0x09, 0x00, 0x00, 0x00, 0x9a, 0xff, 0xff, 0xff, 0x10, 0x00, 0x00, 0x00,
  0x00, 0x00, 0x00, 0x08, 0x0c, 0x00, 0x00, 0x00, 0x10, 0x00, 0x00, 0x00,
  0x08, 0xfb, 0xff, 0xff, 0x01, 0x00, 0x00, 0x00, 0x09, 0x00, 0x00, 0x00,
  0x03, 0x00, 0x00, 0x00, 0x08, 0x00, 0x00, 0x00, 0x06, 0x00, 0x00, 0x00,
  0x01, 0x00, 0x00, 0x00, 0xca, 0xff, 0xff, 0xff, 0x10, 0x00, 0x00, 0x00,
  0x00, 0x00, 0x00, 0x08, 0x10, 0x00, 0x00, 0x00, 0x14, 0x00, 0x00, 0x00,
  0xba, 0xff, 0xff, 0xff, 0x00, 0x00, 0x00, 0x01, 0x01, 0x00, 0x00, 0x00,
  0x08, 0x00, 0x00, 0x00, 0x03, 0x00, 0x00, 0x00, 0x07, 0x00, 0x00, 0x00,
  0x05, 0x00, 0x00, 0x00, 0x02, 0x00, 0x00, 0x00, 0x00, 0x00, 0x0e, 0x00,
  0x16, 0x00, 0x00, 0x00, 0x10, 0x00, 0x0c, 0x00, 0x0b, 0x00, 0x04, 0x00,
  0x0e, 0x00, 0x00, 0x00, 0x18, 0x00, 0x00, 0x00, 0x00, 0x00, 0x00, 0x08,
  0x18, 0x00, 0x00, 0x00, 0x1c, 0x00, 0x00, 0x00, 0x00, 0x00, 0x06, 0x00,
  0x08, 0x00, 0x07, 0x00, 0x06, 0x00, 0x00, 0x00, 0x00, 0x00, 0x00, 0x01,
  0x01, 0x00, 0x00, 0x00, 0x07, 0x00, 0x00, 0x00, 0x03, 0x00, 0x00, 0x00,
  0x00, 0x00, 0x00, 0x00, 0x04, 0x00, 0x00, 0x00, 0x03, 0x00, 0x00, 0x00,
  0x01, 0x00, 0x00, 0x00, 0x0a, 0x00, 0x00, 0x00, 0x01, 0x00, 0x00, 0x00,
  0x00, 0x00, 0x00, 0x00, 0x0b, 0x00, 0x00, 0x00, 0x20, 0x04, 0x00, 0x00,
  0xb0, 0x03, 0x00, 0x00, 0x40, 0x03, 0x00, 0x00, 0xe8, 0x02, 0x00, 0x00,
  0x9c, 0x02, 0x00, 0x00, 0x50, 0x02, 0x00, 0x00, 0x04, 0x02, 0x00, 0x00,
  0x70, 0x01, 0x00, 0x00, 0xdc, 0x00, 0x00, 0x00, 0x60, 0x00, 0x00, 0x00,
  0x04, 0x00, 0x00, 0x00, 0x22, 0xfc, 0xff, 0xff, 0x00, 0x00, 0x00, 0x01,
  0x14, 0x00, 0x00, 0x00, 0x1c, 0x00, 0x00, 0x00, 0x1c, 0x00, 0x00, 0x00,
  0x0b, 0x00, 0x00, 0x00, 0x34, 0x00, 0x00, 0x00, 0x02, 0x00, 0x00, 0x00,
  0xff, 0xff, 0xff, 0xff, 0x08, 0x00, 0x00, 0x00, 0x0c, 0xfc, 0xff, 0xff,
  0x19, 0x00, 0x00, 0x00, 0x53, 0x74, 0x61, 0x74, 0x65, 0x66, 0x75, 0x6c,
  0x50, 0x61, 0x72, 0x74, 0x69, 0x74, 0x69, 0x6f, 0x6e, 0x65, 0x64, 0x43,
  0x61, 0x6c, 0x6c, 0x3a, 0x30, 0x00, 0x00, 0x00, 0x02, 0x00, 0x00, 0x00,
  0x01, 0x00, 0x00, 0x00, 0x08, 0x00, 0x00, 0x00, 0x7a, 0xfc, 0xff, 0xff,
  0x00, 0x00, 0x00, 0x01, 0x14, 0x00, 0x00, 0x00, 0x1c, 0x00, 0x00, 0x00,
  0x1c, 0x00, 0x00, 0x00, 0x0a, 0x00, 0x00, 0x00, 0x54, 0x00, 0x00, 0x00,
  0x02, 0x00, 0x00, 0x00, 0xff, 0xff, 0xff, 0xff, 0x08, 0x00, 0x00, 0x00,
  0x64, 0xfc, 0xff, 0xff, 0x38, 0x00, 0x00, 0x00, 0x73, 0x65, 0x71, 0x75,
  0x65, 0x6e, 0x74, 0x69, 0x61, 0x6c, 0x5f, 0x32, 0x2f, 0x64, 0x65, 0x6e,
  0x73, 0x65, 0x5f, 0x38, 0x2f, 0x4d, 0x61, 0x74, 0x4d, 0x75, 0x6c, 0x3b,
  0x73, 0x65, 0x71, 0x75, 0x65, 0x6e, 0x74, 0x69, 0x61, 0x6c, 0x5f, 0x32,
  0x2f, 0x64, 0x65, 0x6e, 0x73, 0x65, 0x5f, 0x38, 0x2f, 0x42, 0x69, 0x61,
  0x73, 0x41, 0x64, 0x64, 0x00, 0x00, 0x00, 0x00, 0x02, 0x00, 0x00, 0x00,
  0x01, 0x00, 0x00, 0x00, 0x08, 0x00, 0x00, 0x00, 0xf2, 0xfc, 0xff, 0xff,
  0x00, 0x00, 0x00, 0x01, 0x14, 0x00, 0x00, 0x00, 0x1c, 0x00, 0x00, 0x00,
  0x1c, 0x00, 0x00, 0x00, 0x09, 0x00, 0x00, 0x00, 0x6c, 0x00, 0x00, 0x00,
  0x02, 0x00, 0x00, 0x00, 0xff, 0xff, 0xff, 0xff, 0x08, 0x00, 0x00, 0x00,
  0xdc, 0xfc, 0xff, 0xff, 0x52, 0x00, 0x00, 0x00, 0x73, 0x65, 0x71, 0x75,
  0x65, 0x6e, 0x74, 0x69, 0x61, 0x6c, 0x5f, 0x32, 0x2f, 0x64, 0x65, 0x6e,
  0x73, 0x65, 0x5f, 0x37, 0x2f, 0x4d, 0x61, 0x74, 0x4d, 0x75, 0x6c, 0x3b,
  0x73, 0x65, 0x71, 0x75, 0x65, 0x6e, 0x74, 0x69, 0x61, 0x6c, 0x5f, 0x32,
  0x2f, 0x64, 0x65, 0x6e, 0x73, 0x65, 0x5f, 0x37, 0x2f, 0x52, 0x65, 0x6c,
  0x75, 0x3b, 0x73, 0x65, 0x71, 0x75, 0x65, 0x6e, 0x74, 0x69, 0x61, 0x6c,
  0x5f, 0x32, 0x2f, 0x64, 0x65, 0x6e, 0x73, 0x65, 0x5f, 0x37, 0x2f, 0x42,
  0x69, 0x61, 0x73, 0x41, 0x64, 0x64, 0x00, 0x00, 0x02, 0x00, 0x00, 0x00,
  0x01, 0x00, 0x00, 0x00, 0x08, 0x00, 0x00, 0x00, 0x82, 0xfd, 0xff, 0xff,
  0x00, 0x00, 0x00, 0x01, 0x14, 0x00, 0x00, 0x00, 0x1c, 0x00, 0x00, 0x00,
  0x1c, 0x00, 0x00, 0x00, 0x08, 0x00, 0x00, 0x00, 0x6c, 0x00, 0x00, 0x00,
  0x02, 0x00, 0x00, 0x00, 0xff, 0xff, 0xff, 0xff, 0x10, 0x00, 0x00, 0x00,
  0x6c, 0xfd, 0xff, 0xff, 0x52, 0x00, 0x00, 0x00, 0x73, 0x65, 0x71, 0x75,
  0x65, 0x6e, 0x74, 0x69, 0x61, 0x6c, 0x5f, 0x32, 0x2f, 0x64, 0x65, 0x6e,
  0x73, 0x65, 0x5f, 0x36, 0x2f, 0x4d, 0x61, 0x74, 0x4d, 0x75, 0x6c, 0x3b,
  0x73, 0x65, 0x71, 0x75, 0x65, 0x6e, 0x74, 0x69, 0x61, 0x6c, 0x5f, 0x32,
  0x2f, 0x64, 0x65, 0x6e, 0x73, 0x65, 0x5f, 0x36, 0x2f, 0x52, 0x65, 0x6c,
  0x75, 0x3b, 0x73, 0x65, 0x71, 0x75, 0x65, 0x6e, 0x74, 0x69, 0x61, 0x6c,
  0x5f, 0x32, 0x2f, 0x64, 0x65, 0x6e, 0x73, 0x65, 0x5f, 0x36, 0x2f, 0x42,
  0x69, 0x61, 0x73, 0x41, 0x64, 0x64, 0x00, 0x00, 0x02, 0x00, 0x00, 0x00,
  0x01, 0x00, 0x00, 0x00, 0x10, 0x00, 0x00, 0x00, 0x7e, 0xfe, 0xff, 0xff,
  0x00, 0x00, 0x00, 0x01, 0x10, 0x00, 0x00, 0x00, 0x10, 0x00, 0x00, 0x00,
  0x07, 0x00, 0x00, 0x00, 0x28, 0x00, 0x00, 0x00, 0xec, 0xfd, 0xff, 0xff,
  0x1b, 0x00, 0x00, 0x00, 0x73, 0x65, 0x71, 0x75, 0x65, 0x6e, 0x74, 0x69,
  0x61, 0x6c, 0x5f, 0x32, 0x2f, 0x64, 0x65, 0x6e, 0x73, 0x65, 0x5f, 0x38,
  0x2f, 0x4d, 0x61, 0x74, 0x4d, 0x75, 0x6c, 0x00, 0x02, 0x00, 0x00, 0x00,
  0x08, 0x00, 0x00, 0x00, 0x08, 0x00, 0x00, 0x00, 0xc6, 0xfe, 0xff, 0xff,
  0x00, 0x00, 0x00, 0x01, 0x10, 0x00, 0x00, 0x00, 0x10, 0x00, 0x00, 0x00,
  0x06, 0x00, 0x00, 0x00, 0x28, 0x00, 0x00, 0x00, 0x34, 0xfe, 0xff, 0xff,
  0x1b, 0x00, 0x00, 0x00, 0x73, 0x65, 0x71, 0x75, 0x65, 0x6e, 0x74, 0x69,
  0x61, 0x6c, 0x5f, 0x32, 0x2f, 0x64, 0x65, 0x6e, 0x73, 0x65, 0x5f, 0x37,
  0x2f, 0x4d, 0x61, 0x74, 0x4d, 0x75, 0x6c, 0x00, 0x02, 0x00, 0x00, 0x00,
  0x08, 0x00, 0x00, 0x00, 0x10, 0x00, 0x00, 0x00, 0x0e, 0xff, 0xff, 0xff,
  0x00, 0x00, 0x00, 0x01, 0x10, 0x00, 0x00, 0x00, 0x10, 0x00, 0x00, 0x00,
  0x05, 0x00, 0x00, 0x00, 0x28, 0x00, 0x00, 0x00, 0x7c, 0xfe, 0xff, 0xff,
  0x1b, 0x00, 0x00, 0x00, 0x73, 0x65, 0x71, 0x75, 0x65, 0x6e, 0x74, 0x69,
  0x61, 0x6c, 0x5f, 0x32, 0x2f, 0x64, 0x65, 0x6e, 0x73, 0x65, 0x5f, 0x36,
  0x2f, 0x4d, 0x61, 0x74, 0x4d, 0x75, 0x6c, 0x00, 0x02, 0x00, 0x00, 0x00,
  0x10, 0x00, 0x00, 0x00, 0xb4, 0x00, 0x00, 0x00, 0x56, 0xff, 0xff, 0xff,
  0x00, 0x00, 0x00, 0x01, 0x10, 0x00, 0x00, 0x00, 0x10, 0x00, 0x00, 0x00,
  0x04, 0x00, 0x00, 0x00, 0x38, 0x00, 0x00, 0x00, 0xc4, 0xfe, 0xff, 0xff,
  0x2b, 0x00, 0x00, 0x00, 0x73, 0x65, 0x71, 0x75, 0x65, 0x6e, 0x74, 0x69,
  0x61, 0x6c, 0x5f, 0x32, 0x2f, 0x64, 0x65, 0x6e, 0x73, 0x65, 0x5f, 0x36,
  0x2f, 0x42, 0x69, 0x61, 0x73, 0x41, 0x64, 0x64, 0x2f, 0x52, 0x65, 0x61,
  0x64, 0x56, 0x61, 0x72, 0x69, 0x61, 0x62, 0x6c, 0x65, 0x4f, 0x70, 0x00,
  0x01, 0x00, 0x00, 0x00, 0x10, 0x00, 0x00, 0x00, 0xaa, 0xff, 0xff, 0xff,
  0x00, 0x00, 0x00, 0x01, 0x10, 0x00, 0x00, 0x00, 0x10, 0x00, 0x00, 0x00,
  0x03, 0x00, 0x00, 0x00, 0x38, 0x00, 0x00, 0x00, 0x18, 0xff, 0xff, 0xff,
  0x2b, 0x00, 0x00, 0x00, 0x73, 0x65, 0x71, 0x75, 0x65, 0x6e, 0x74, 0x69,
  0x61, 0x6c, 0x5f, 0x32, 0x2f, 0x64, 0x65, 0x6e, 0x73, 0x65, 0x5f, 0x37,
  0x2f, 0x42, 0x69, 0x61, 0x73, 0x41, 0x64, 0x64, 0x2f, 0x52, 0x65, 0x61,
  0x64, 0x56, 0x61, 0x72, 0x69, 0x61, 0x62, 0x6c, 0x65, 0x4f, 0x70, 0x00,
  0x01, 0x00, 0x00, 0x00, 0x08, 0x00, 0x00, 0x00, 0x00, 0x00, 0x16, 0x00,
  0x18, 0x00, 0x14, 0x00, 0x00, 0x00, 0x10, 0x00, 0x0c, 0x00, 0x08, 0x00,
  0x00, 0x00, 0x00, 0x00, 0x00, 0x00, 0x07, 0x00, 0x16, 0x00, 0x00, 0x00,
  0x00, 0x00, 0x00, 0x01, 0x10, 0x00, 0x00, 0x00, 0x10, 0x00, 0x00, 0x00,
  0x02, 0x00, 0x00, 0x00, 0x38, 0x00, 0x00, 0x00, 0x84, 0xff, 0xff, 0xff,
  0x2b, 0x00, 0x00, 0x00, 0x73, 0x65, 0x71, 0x75, 0x65, 0x6e, 0x74, 0x69,
  0x61, 0x6c, 0x5f, 0x32, 0x2f, 0x64, 0x65, 0x6e, 0x73, 0x65, 0x5f, 0x38,
  0x2f, 0x42, 0x69, 0x61, 0x73, 0x41, 0x64, 0x64, 0x2f, 0x52, 0x65, 0x61,
  0x64, 0x56, 0x61, 0x72, 0x69, 0x61, 0x62, 0x6c, 0x65, 0x4f, 0x70, 0x00,
  0x01, 0x00, 0x00, 0x00, 0x08, 0x00, 0x00, 0x00, 0x00, 0x00, 0x16, 0x00,
  0x1c, 0x00, 0x18, 0x00, 0x00, 0x00, 0x14, 0x00, 0x10, 0x00, 0x0c, 0x00,
  0x00, 0x00, 0x00, 0x00, 0x08, 0x00, 0x07, 0x00, 0x16, 0x00, 0x00, 0x00,
  0x00, 0x00, 0x00, 0x01, 0x14, 0x00, 0x00, 0x00, 0x20, 0x00, 0x00, 0x00,
  0x20, 0x00, 0x00, 0x00, 0x01, 0x00, 0x00, 0x00, 0x3c, 0x00, 0x00, 0x00,
  0x02, 0x00, 0x00, 0x00, 0xff, 0xff, 0xff, 0xff, 0xb4, 0x00, 0x00, 0x00,
  0x04, 0x00, 0x04, 0x00, 0x04, 0x00, 0x00, 0x00, 0x1f, 0x00, 0x00, 0x00,
  0x73, 0x65, 0x72, 0x76, 0x69, 0x6e, 0x67, 0x5f, 0x64, 0x65, 0x66, 0x61,
  0x75, 0x6c, 0x74, 0x5f, 0x64, 0x65, 0x6e, 0x73, 0x65, 0x5f, 0x36, 0x5f,
  0x69, 0x6e, 0x70, 0x75, 0x74, 0x3a, 0x30, 0x00, 0x02, 0x00, 0x00, 0x00,
  0x01, 0x00, 0x00, 0x00, 0xb4, 0x00, 0x00, 0x00, 0x02, 0x00, 0x00, 0x00,
  0x20, 0x00, 0x00, 0x00, 0x04, 0x00, 0x00, 0x00, 0xf4, 0xff, 0xff, 0xff,
  0x19, 0x00, 0x00, 0x00, 0x00, 0x00, 0x00, 0x19, 0x0c, 0x00, 0x0c, 0x00,
  0x0b, 0x00, 0x00, 0x00, 0x00, 0x00, 0x04, 0x00, 0x0c, 0x00, 0x00, 0x00,
  0x09, 0x00, 0x00, 0x00, 0x00, 0x00, 0x00, 0x09
}; 
