const unsigned char gesture_model [] = {  
  0x1c, 0x00, 0x00, 0x00, 0x54, 0x46, 0x4c, 0x33, 0x14, 0x00, 0x20, 0x00,
  0x1c, 0x00, 0x18, 0x00, 0x14, 0x00, 0x10, 0x00, 0x0c, 0x00, 0x00, 0x00,
  0x08, 0x00, 0x04, 0x00, 0x14, 0x00, 0x00, 0x00, 0x1c, 0x00, 0x00, 0x00,
  0x98, 0x00, 0x00, 0x00, 0xf0, 0x00, 0x00, 0x00, 0xd4, 0x19, 0x00, 0x00,
  0xe4, 0x19, 0x00, 0x00, 0xd0, 0x1f, 0x00, 0x00, 0x03, 0x00, 0x00, 0x00,
  0x01, 0x00, 0x00, 0x00, 0x10, 0x00, 0x00, 0x00, 0x00, 0x00, 0x0a, 0x00,
  0x10, 0x00, 0x0c, 0x00, 0x08, 0x00, 0x04, 0x00, 0x0a, 0x00, 0x00, 0x00,
  0x0c, 0x00, 0x00, 0x00, 0x1c, 0x00, 0x00, 0x00, 0x3c, 0x00, 0x00, 0x00,
  0x0f, 0x00, 0x00, 0x00, 0x73, 0x65, 0x72, 0x76, 0x69, 0x6e, 0x67, 0x5f,
  0x64, 0x65, 0x66, 0x61, 0x75, 0x6c, 0x74, 0x00, 0x01, 0x00, 0x00, 0x00,
  0x04, 0x00, 0x00, 0x00, 0x90, 0xff, 0xff, 0xff, 0x0a, 0x00, 0x00, 0x00,
  0x04, 0x00, 0x00, 0x00, 0x08, 0x00, 0x00, 0x00, 0x64, 0x65, 0x6e, 0x73,
  0x65, 0x5f, 0x31, 0x31, 0x00, 0x00, 0x00, 0x00, 0x01, 0x00, 0x00, 0x00,
  0x04, 0x00, 0x00, 0x00, 0x12, 0xe6, 0xff, 0xff, 0x04, 0x00, 0x00, 0x00,
  0x0d, 0x00, 0x00, 0x00, 0x64, 0x65, 0x6e, 0x73, 0x65, 0x5f, 0x39, 0x5f,
  0x69, 0x6e, 0x70, 0x75, 0x74, 0x00, 0x00, 0x00, 0x02, 0x00, 0x00, 0x00,
  0x34, 0x00, 0x00, 0x00, 0x04, 0x00, 0x00, 0x00, 0xdc, 0xff, 0xff, 0xff,
  0x0d, 0x00, 0x00, 0x00, 0x04, 0x00, 0x00, 0x00, 0x13, 0x00, 0x00, 0x00,
  0x43, 0x4f, 0x4e, 0x56, 0x45, 0x52, 0x53, 0x49, 0x4f, 0x4e, 0x5f, 0x4d,
  0x45, 0x54, 0x41, 0x44, 0x41, 0x54, 0x41, 0x00, 0x08, 0x00, 0x0c, 0x00,
  0x08, 0x00, 0x04, 0x00, 0x08, 0x00, 0x00, 0x00, 0x0c, 0x00, 0x00, 0x00,
  0x04, 0x00, 0x00, 0x00, 0x13, 0x00, 0x00, 0x00, 0x6d, 0x69, 0x6e, 0x5f,
  0x72, 0x75, 0x6e, 0x74, 0x69, 0x6d, 0x65, 0x5f, 0x76, 0x65, 0x72, 0x73,
  0x69, 0x6f, 0x6e, 0x00, 0x0e, 0x00, 0x00, 0x00, 0xe0, 0x18, 0x00, 0x00,
  0xd8, 0x18, 0x00, 0x00, 0xb8, 0x18, 0x00, 0x00, 0x88, 0x18, 0x00, 0x00,
  0x58, 0x18, 0x00, 0x00, 0xc8, 0x01, 0x00, 0x00, 0x38, 0x01, 0x00, 0x00,
  0xa8, 0x00, 0x00, 0x00, 0xa0, 0x00, 0x00, 0x00, 0x98, 0x00, 0x00, 0x00,
  0x90, 0x00, 0x00, 0x00, 0x88, 0x00, 0x00, 0x00, 0x68, 0x00, 0x00, 0x00,
  0x04, 0x00, 0x00, 0x00, 0xc6, 0xe6, 0xff, 0xff, 0x04, 0x00, 0x00, 0x00,
  0x54, 0x00, 0x00, 0x00, 0x0c, 0x00, 0x00, 0x00, 0x08, 0x00, 0x0e, 0x00,
  0x08, 0x00, 0x04, 0x00, 0x08, 0x00, 0x00, 0x00, 0x10, 0x00, 0x00, 0x00,
  0x24, 0x00, 0x00, 0x00, 0x00, 0x00, 0x06, 0x00, 0x08, 0x00, 0x04, 0x00,
  0x06, 0x00, 0x00, 0x00, 0x04, 0x00, 0x00, 0x00, 0x00, 0x00, 0x00, 0x00,
  0x00, 0x00, 0x0a, 0x00, 0x10, 0x00, 0x0c, 0x00, 0x08, 0x00, 0x04, 0x00,
  0x0a, 0x00, 0x00, 0x00, 0x02, 0x00, 0x00, 0x00, 0x02, 0x00, 0x00, 0x00,
  0x04, 0x00, 0x00, 0x00, 0x06, 0x00, 0x00, 0x00, 0x32, 0x2e, 0x31, 0x30,
  0x2e, 0x30, 0x00, 0x00, 0x26, 0xe7, 0xff, 0xff, 0x04, 0x00, 0x00, 0x00,
  0x10, 0x00, 0x00, 0x00, 0x31, 0x2e, 0x35, 0x2e, 0x30, 0x00, 0x00, 0x00,
  0x00, 0x00, 0x00, 0x00, 0x00, 0x00, 0x00, 0x00, 0x04, 0xe2, 0xff, 0xff,
  0x08, 0xe2, 0xff, 0xff, 0x0c, 0xe2, 0xff, 0xff, 0x10, 0xe2, 0xff, 0xff,
  0x52, 0xe7, 0xff, 0xff, 0x04, 0x00, 0x00, 0x00, 0x80, 0x00, 0x00, 0x00,
  0xb8, 0xae, 0x0f, 0x3f, 0x21, 0x8a, 0x29, 0x3f, 0x33, 0x16, 0xdb, 0xbe,
  0xc8, 0x02, 0x6c, 0x3e, 0xe2, 0x21, 0x86, 0xc0, 0xf1, 0x36, 0xea, 0xbe,
  0x40, 0x49, 0xd5, 0xbf, 0x80, 0x91, 0xec, 0xbd, 0xa0, 0x4b, 0xfd, 0x3e,
  0xd8, 0x7c, 0xcd, 0xbd, 0x1c, 0x7b, 0x61, 0x3f, 0x48, 0xa7, 0x74, 0x3e,
  0x4d, 0x9c, 0x58, 0x3f, 0xb7, 0x3e, 0x2e, 0x3f, 0x41, 0x9c, 0x4e, 0xc0,
  0xf3, 0x11, 0xbc, 0xbe, 0x2b, 0x4b, 0x15, 0x3f, 0x35, 0x38, 0x04, 0xbf,
  0x28, 0x6d, 0xd2, 0x3f, 0xf3, 0xe3, 0x19, 0x3f, 0x6a, 0x6b, 0x16, 0xc0,
  0xb2, 0x91, 0xff, 0xbe, 0xf0, 0xf7, 0xc8, 0xbf, 0xa0, 0xf3, 0x85, 0x3e,
  0xb8, 0x19, 0x3d, 0xc0, 0x20, 0x34, 0x3e, 0x3e, 0xed, 0x3b, 0x02, 0xc0,
  0x88, 0x24, 0x63, 0xbe, 0x1f, 0xeb, 0xce, 0x3e, 0x66, 0x2c, 0x0a, 0xbf,
  0x76, 0x46, 0x47, 0xbf, 0xc1, 0x5e, 0xca, 0xbe, 0xde, 0xe7, 0xff, 0xff,
  0x04, 0x00, 0x00, 0x00, 0x80, 0x00, 0x00, 0x00, 0x7d, 0xfa, 0x1f, 0x3f,
  0x34, 0x56, 0x66, 0x3e, 0x59, 0x4b, 0x26, 0xbf, 0x69, 0x5d, 0x54, 0xbe,
  0xb5, 0x54, 0x18, 0x3f, 0xfa, 0xe0, 0x30, 0xbf, 0x6d, 0x82, 0x17, 0xbf,
  0xcf, 0x04, 0x17, 0x40, 0xd8, 0x46, 0x2a, 0xbf, 0x56, 0x08, 0xd1, 0xbe,
  0x28, 0xfc, 0xb2, 0xbd, 0x7a, 0x0c, 0xc7, 0xbe, 0xa5, 0x7d, 0x18, 0x3f,
  0xb8, 0x6d, 0xe1, 0xbd, 0x08, 0x70, 0xa7, 0x3d, 0x7d, 0x11, 0xc0, 0xbe,
  0x94, 0x47, 0x32, 0xbf, 0xb6, 0xd6, 0x6d, 0xbe, 0xfc, 0x53, 0xb1, 0xbe,
  0x39, 0x45, 0x17, 0xbf, 0xf5, 0x6d, 0x66, 0x3e, 0x21, 0x07, 0x81, 0xbe,
  0xa0, 0x07, 0xf5, 0xbd, 0x03, 0xd0, 0x91, 0x3f, 0xc8, 0x3c, 0xa9, 0xbd,
  0xae, 0x9d, 0xce, 0x3e, 0x96, 0xba, 0xd4, 0x3e, 0x83, 0x3c, 0x22, 0xbf,
  0xda, 0x48, 0xe7, 0x3e, 0x1c, 0xad, 0x71, 0x3e, 0xeb, 0xe8, 0x99, 0xbe,
  0x0b, 0x5a, 0x83, 0xbe, 0x6a, 0xe8, 0xff, 0xff, 0x04, 0x00, 0x00, 0x00,
  0x80, 0x16, 0x00, 0x00, 0x52, 0x79, 0x06, 0xbe, 0xe1, 0xad, 0x2e, 0xbe,
  0x78, 0x5d, 0x09, 0xbe, 0x1d, 0x88, 0xc6, 0xbd, 0xb5, 0xf6, 0x1f, 0xbe,
  0x0f, 0x9a, 0x21, 0xbe, 0x74, 0x17, 0xfd, 0x3d, 0x56, 0x7f, 0x05, 0x3e,
  0x85, 0x1d, 0x00, 0xbe, 0x70, 0xab, 0xb2, 0x3c, 0xcc, 0x01, 0x23, 0xbd,
  0x61, 0x06, 0x32, 0xbe, 0xf4, 0xb9, 0x40, 0x3d, 0x60, 0x33, 0xd0, 0xbc,
  0xa2, 0x3c, 0x7b, 0xbd, 0x8c, 0x84, 0x49, 0xbd, 0xac, 0xd6, 0x2c, 0x3d,
  0x94, 0x91, 0xaa, 0x3d, 0xe4, 0xc7, 0x2e, 0x3e, 0x5c, 0x86, 0x25, 0xbd,
  0xbe, 0xd6, 0x70, 0xbd, 0xda, 0x35, 0xca, 0xbd, 0x50, 0xca, 0x1b, 0xbc,
  0x04, 0xf8, 0x21, 0xbe, 0x5c, 0x7e, 0x07, 0xbe, 0x50, 0xf0, 0x68, 0x3c,
  0xf0, 0x07, 0x63, 0x3d, 0x62, 0x25, 0xaa, 0xbd, 0xa0, 0xe2, 0x8f, 0x3b,
  0xa0, 0x62, 0x31, 0x3e, 0x04, 0x02, 0x37, 0xbd, 0xb0, 0x14, 0x3a, 0x3d,
  0x47, 0xf5, 0x1e, 0xbe, 0x4c, 0x35, 0x32, 0xbe, 0x7e, 0x1f, 0xac, 0xbd,
  0x78, 0x17, 0x0d, 0x3e, 0xc0, 0x1c, 0xc7, 0xbc, 0x76, 0x58, 0x18, 0x3e,
  0x2a, 0x5f, 0x1b, 0xbe, 0x28, 0x35, 0x3b, 0x3d, 0xd0, 0xd4, 0x0e, 0xbc,
  0x62, 0xf3, 0xb5, 0xbd, 0x88, 0x8b, 0xd1, 0x3c, 0x58, 0x9b, 0xd0, 0x3c,
  0x1c, 0x1a, 0x5b, 0xbd, 0xe8, 0xb7, 0xe1, 0x3d, 0x3e, 0x13, 0xcb, 0xbd,
  0x1c, 0xcc, 0x31, 0x3e, 0xc8, 0xf8, 0x06, 0x3d, 0xa0, 0xd2, 0x2a, 0x3e,
  0xa8, 0xd4, 0x45, 0x3d, 0x84, 0x17, 0xa0, 0x3d, 0x6c, 0x1f, 0xd4, 0x3d,
  0xd0, 0x9d, 0xe5, 0x3d, 0xc0, 0xbd, 0x48, 0xbb, 0xac, 0x22, 0xfc, 0x3d,
  0x30, 0xb7, 0x7b, 0x3d, 0xf8, 0x78, 0x2a, 0xbd, 0x46, 0x55, 0xb0, 0xbd,
  0x2e, 0x0a, 0xf5, 0xbd, 0xc8, 0xd7, 0xce, 0xbd, 0xdd, 0xb6, 0xe6, 0xbd,
  0x18, 0xc5, 0x22, 0x3e, 0xf6, 0x3e, 0x00, 0x3e, 0xcc, 0x32, 0x41, 0x3d,
  0x24, 0x6c, 0x26, 0x3e, 0x50, 0xb1, 0xd6, 0x3c, 0x00, 0x6b, 0xe2, 0xba,
  0x10, 0xba, 0xaa, 0x3d, 0x54, 0xc8, 0xb7, 0x3d, 0x84, 0x15, 0x95, 0xbd,
  0xf8, 0x55, 0xc9, 0x3d, 0x64, 0x0d, 0x4b, 0xbd, 0xd8, 0x9e, 0x13, 0xbd,
  0xa8, 0x30, 0x77, 0x3d, 0x16, 0x42, 0x87, 0xbd, 0x28, 0x53, 0x19, 0xbe,
  0x40, 0xc8, 0x14, 0xbd, 0x6f, 0x0d, 0xb0, 0xbd, 0x69, 0x0c, 0x8b, 0xbd,
  0x6e, 0xb6, 0xae, 0xbd, 0x00, 0x5d, 0x91, 0x3a, 0x40, 0x68, 0xa3, 0x3d,
  0xc0, 0xea, 0xad, 0x3d, 0x40, 0x48, 0x72, 0x3c, 0x62, 0xeb, 0x1e, 0xbe,
  0x54, 0xcf, 0x9e, 0x3d, 0xb0, 0x73, 0x7a, 0xbc, 0x3c, 0x31, 0x8b, 0x3d,
  0xae, 0xc7, 0xf5, 0xbd, 0xe0, 0x8a, 0x40, 0x3d, 0x6b, 0xda, 0x2f, 0xbe,
  0x30, 0x22, 0x12, 0x3d, 0xf0, 0x51, 0xa3, 0x3d, 0x20, 0x8b, 0x86, 0x3c,
  0x50, 0x6a, 0x5d, 0x3c, 0x53, 0xc6, 0xf8, 0xbd, 0x60, 0x05, 0xd3, 0xbc,
  0x00, 0x56, 0x84, 0x3d, 0x21, 0xa1, 0xbd, 0xbd, 0x53, 0x1f, 0x11, 0xbe,
  0x14, 0xc4, 0x3f, 0xbd, 0x38, 0x22, 0x22, 0xbd, 0x74, 0xcd, 0x35, 0xbe,
  0x0c, 0x86, 0x56, 0x3d, 0x80, 0xd3, 0xca, 0xbb, 0xd4, 0xc8, 0x25, 0x3e,
  0x50, 0x6a, 0xd4, 0xbc, 0x38, 0x20, 0xbe, 0x3d, 0x82, 0x5f, 0x15, 0xbe,
  0xa6, 0x37, 0x0e, 0xbe, 0x08, 0xfc, 0x17, 0xbe, 0x84, 0x33, 0xeb, 0x3d,
  0x6c, 0x28, 0xec, 0x3d, 0xa0, 0xf9, 0x7d, 0x3c, 0xc8, 0xf8, 0x04, 0x3e,
  0x14, 0x51, 0x0c, 0x3e, 0x65, 0xd3, 0x27, 0xbe, 0xa8, 0x59, 0xc3, 0x3c,
  0x10, 0x25, 0x7f, 0x3c, 0x08, 0x30, 0xc7, 0xbc, 0x00, 0x06, 0xab, 0x3c,
  0xbc, 0x3c, 0xbf, 0x3d, 0x01, 0xa6, 0x1a, 0xbe, 0xf0, 0x49, 0xf0, 0xbc,
  0x00, 0x58, 0x15, 0x39, 0xbf, 0xab, 0x27, 0xbe, 0x00, 0x9d, 0x22, 0x3d,
  0x00, 0xfc, 0x9d, 0xbc, 0xfe, 0x2e, 0xae, 0xbd, 0x07, 0x54, 0xa6, 0xbd,
  0x08, 0x79, 0x0e, 0x3e, 0xf0, 0x64, 0x1d, 0xbe, 0x2d, 0xa9, 0x07, 0xbe,
  0xb0, 0x02, 0x52, 0x3c, 0xaa, 0xa2, 0x6c, 0xbd, 0x3a, 0xf1, 0x01, 0xbe,
  0xa0, 0x43, 0x36, 0x3d, 0x3a, 0x4f, 0x80, 0x3d, 0x3c, 0x2a, 0x7b, 0xbd,
  0x60, 0x57, 0x06, 0x3e, 0x7b, 0x1b, 0xb0, 0xbd, 0x14, 0xd3, 0x19, 0x3e,
  0x7e, 0xc4, 0x1b, 0x3e, 0x24, 0x89, 0xe4, 0x3d, 0x55, 0x5b, 0x1b, 0xbe,
  0xec, 0x8f, 0x74, 0x3d, 0xe5, 0xbc, 0x06, 0xbe, 0xb7, 0xd1, 0xb9, 0xbd,
  0x20, 0xf5, 0x6c, 0xbc, 0xc4, 0x92, 0x6b, 0x3d, 0x98, 0x18, 0xb4, 0xbc,
  0x04, 0xbe, 0x11, 0xbe, 0xc9, 0x18, 0xdb, 0xbd, 0xf0, 0x6a, 0xd2, 0xbc,
  0x20, 0xd9, 0xa2, 0x3b, 0xfd, 0x74, 0xe7, 0xbd, 0x3b, 0xd9, 0xc0, 0xbd,
  0x5c, 0x31, 0x3d, 0xbd, 0x38, 0x17, 0x14, 0xbd, 0xfe, 0xae, 0x14, 0x3e,
  0x40, 0x77, 0xb8, 0xbb, 0xcb, 0xa7, 0x00, 0xbe, 0x6a, 0x4e, 0xfc, 0xbd,
  0xe0, 0x1d, 0x67, 0xbd, 0x0c, 0xe0, 0x0b, 0xbd, 0x2d, 0x17, 0x27, 0xbe,
  0xe0, 0x6a, 0x73, 0xbc, 0xc0, 0xe7, 0x35, 0xbb, 0x1d, 0xdf, 0xc6, 0xbd,
  0xfe, 0x42, 0x1d, 0x3e, 0x10, 0xc0, 0x49, 0x3c, 0x47, 0xba, 0x1e, 0xbe,
  0x41, 0x62, 0xc2, 0xbd, 0x9c, 0x43, 0x46, 0xbd, 0x80, 0x5a, 0xf8, 0x3b,
  0x80, 0xd5, 0xa7, 0x3c, 0xbc, 0x11, 0xa0, 0x3d, 0x14, 0xbd, 0xd0, 0xbd,
  0x64, 0x3d, 0x03, 0x3e, 0x70, 0x5d, 0x50, 0x3c, 0xd3, 0x86, 0xd7, 0xbd,
  0xc0, 0xef, 0x38, 0x3b, 0x30, 0x03, 0x83, 0x3c, 0x4c, 0x70, 0x3e, 0xbd,
  0xbc, 0x01, 0xe9, 0x3d, 0xf0, 0xd9, 0x4b, 0xbc, 0xe0, 0xa6, 0x60, 0xbc,
  0x10, 0xe7, 0x22, 0xbc, 0x23, 0xd6, 0xe0, 0xbd, 0x6f, 0x08, 0xb2, 0xbd,
  0x18, 0xc2, 0xd1, 0x3c, 0xe8, 0x22, 0x17, 0xbe, 0x44, 0xa6, 0x16, 0xbe,
  0x4c, 0x82, 0xa2, 0x3d, 0x1a, 0xdb, 0x87, 0x3d, 0xc8, 0x3a, 0x70, 0x3d,
  0x88, 0xaf, 0xcc, 0x3d, 0x04, 0x65, 0xb1, 0x3d, 0x20, 0xe3, 0x6a, 0x3c,
  0x84, 0x02, 0x3a, 0xbd, 0xc0, 0x4c, 0xae, 0x3b, 0x93, 0x4d, 0x0c, 0xbe,
  0x66, 0x83, 0x9d, 0xbd, 0xc7, 0xeb, 0xe0, 0xbd, 0xb2, 0x3e, 0xd7, 0xbd,
  0xd4, 0xbd, 0xc0, 0x3d, 0x28, 0xbc, 0xec, 0x3c, 0x7c, 0x37, 0xd7, 0x3d,
  0xe9, 0x22, 0x1a, 0xbe, 0x12, 0xd6, 0xe1, 0xbd, 0x94, 0xe8, 0x16, 0xbe,
  0x04, 0xef, 0x16, 0xbd, 0x49, 0x8a, 0xe3, 0xbd, 0x21, 0x43, 0x36, 0xbe,
  0x46, 0x3e, 0x8b, 0xbd, 0x76, 0x17, 0x8a, 0xbd, 0xbd, 0x21, 0xcd, 0xbd,
  0x96, 0x11, 0x35, 0x3e, 0x40, 0x3c, 0x6e, 0x3d, 0xff, 0x41, 0x86, 0xbd,
  0x13, 0x9a, 0x89, 0xbd, 0x60, 0x1b, 0x80, 0x3c, 0x68, 0xca, 0xc1, 0x3d,
  0x40, 0x91, 0x57, 0x3c, 0xa0, 0xac, 0xbe, 0xbc, 0x78, 0x76, 0xe8, 0x3d,
  0xa2, 0xa3, 0x2f, 0x3e, 0x3c, 0x82, 0x9c, 0x3d, 0xde, 0xaa, 0x1f, 0x3e,
  0x16, 0xf4, 0x13, 0xbe, 0x90, 0x97, 0xbe, 0x3c, 0xc7, 0xf5, 0x11, 0xbe,
  0x84, 0x29, 0x11, 0x3e, 0xf0, 0x72, 0x82, 0xbd, 0x68, 0x96, 0x2a, 0xbd,
  0x08, 0x45, 0xcc, 0x3c, 0x68, 0xa9, 0x91, 0x3d, 0x68, 0xe0, 0xd9, 0x3c,
  0xe4, 0x88, 0x9c, 0xbd, 0x94, 0xea, 0xf0, 0xbd, 0xba, 0x3c, 0x60, 0xbd,
  0x00, 0x1b, 0xc9, 0xbb, 0x95, 0xa1, 0xda, 0xbd, 0xf0, 0xaa, 0xf7, 0xbc,
  0xfa, 0x84, 0x1b, 0x3e, 0x18, 0xff, 0xbb, 0xbd, 0xb0, 0x78, 0x13, 0xbc,
  0x74, 0x6f, 0x22, 0x3e, 0xcc, 0x3f, 0x81, 0xbd, 0xe0, 0x98, 0x07, 0xbe,
  0x2e, 0x22, 0xcb, 0xbd, 0x2a, 0x2f, 0x84, 0x3d, 0x0c, 0x0c, 0xba, 0x3d,
  0xe0, 0xfe, 0x2f, 0xbe, 0xcc, 0x2e, 0x08, 0x3e, 0x20, 0xe4, 0xbf, 0xbd,
  0xfb, 0xff, 0x23, 0xbe, 0x38, 0xfb, 0xb0, 0x3d, 0x00, 0x4c, 0xae, 0x3d,
  0x40, 0x94, 0xc6, 0x3c, 0x97, 0x62, 0x15, 0xbe, 0x00, 0xa1, 0x4c, 0x3d,
  0x5c, 0x18, 0x27, 0x3d, 0xc0, 0x0f, 0xae, 0x3c, 0x30, 0xfa, 0x4a, 0xbd,
  0x08, 0xb2, 0x9f, 0x3c, 0x64, 0xd9, 0x8c, 0x3d, 0x10, 0xa8, 0xf2, 0x3c,
  0x58, 0xb3, 0x16, 0x3e, 0xdc, 0x1a, 0x24, 0xbd, 0x64, 0xf9, 0x8e, 0xbd,
  0xb6, 0x51, 0x76, 0xbd, 0x5e, 0x2f, 0x83, 0xbd, 0x04, 0xde, 0x1f, 0x3d,
  0x5c, 0xf2, 0x5c, 0xbd, 0xe2, 0xe1, 0xac, 0xbd, 0xc0, 0x81, 0x5d, 0x3c,
  0x88, 0xa0, 0xe6, 0xbd, 0xdc, 0x30, 0x52, 0xbd, 0xb2, 0x07, 0x1b, 0x3e,
  0xbd, 0x01, 0x0c, 0xbe, 0xc0, 0x5a, 0x6e, 0xbb, 0xc0, 0x88, 0x92, 0x3b,
  0xc4, 0xc6, 0x0f, 0x3e, 0xdc, 0x33, 0xe0, 0xbd, 0x60, 0x72, 0x0e, 0x3e,
  0xca, 0x8b, 0x26, 0x3e, 0x74, 0x63, 0x05, 0x3e, 0x74, 0x11, 0x35, 0x3e,
  0x2d, 0xec, 0x2a, 0xbe, 0xa4, 0x49, 0x67, 0x3d, 0xd0, 0x86, 0x5a, 0xbd,
  0xb8, 0xd1, 0xd0, 0x3c, 0x3c, 0xd2, 0xec, 0x3d, 0x44, 0xd2, 0x4d, 0x3d,
  0x92, 0x58, 0x17, 0x3e, 0x30, 0x5c, 0x6b, 0xbd, 0x8c, 0xe1, 0x22, 0xbd,
  0x40, 0x74, 0x36, 0xbc, 0xb8, 0xf0, 0x2f, 0xbd, 0xe0, 0xed, 0x75, 0xbc,
  0xee, 0x17, 0xd6, 0xbd, 0x08, 0x08, 0x14, 0x3d, 0x00, 0xfd, 0x81, 0x3c,
  0xfe, 0x4b, 0x29, 0x3e, 0x69, 0x5b, 0xd5, 0xbd, 0xc8, 0xf9, 0x0f, 0xbe,
  0x48, 0x23, 0xaa, 0x3d, 0x68, 0xf9, 0xa5, 0xbd, 0x5a, 0xf9, 0x03, 0xbe,
  0x28, 0x42, 0x24, 0x3e, 0x00, 0xba, 0xb8, 0x3a, 0x9c, 0xc9, 0x86, 0xbd,
  0x84, 0x82, 0x09, 0x3e, 0x80, 0x04, 0x3c, 0xbb, 0x48, 0xda, 0xb0, 0x3d,
  0x1a, 0x83, 0x05, 0xbe, 0xb1, 0x22, 0xf0, 0xbd, 0x2e, 0x68, 0x13, 0xbe,
  0xd8, 0x70, 0x9c, 0x3d, 0x68, 0x7b, 0x19, 0xbe, 0x49, 0xde, 0xdf, 0xbd,
  0x8c, 0x0b, 0x90, 0x3d, 0xe4, 0xa4, 0x22, 0xbe, 0x96, 0xbc, 0x1e, 0x3e,
  0x1c, 0x39, 0x12, 0x3d, 0xd8, 0xe3, 0xcc, 0xbc, 0xde, 0xbe, 0x11, 0xbe,
  0xd0, 0xb0, 0xed, 0x3c, 0xf0, 0x19, 0x2e, 0x3d, 0xc8, 0x1f, 0xf7, 0x3c,
  0x54, 0x63, 0xed, 0x3d, 0x00, 0xc2, 0xfe, 0xbc, 0x94, 0x35, 0x44, 0x3d,
  0x4c, 0xf1, 0xab, 0x3d, 0xac, 0xac, 0x87, 0xbd, 0x40, 0x1c, 0xa7, 0x3d,
  0xa0, 0xb2, 0xf3, 0x3c, 0x58, 0xee, 0xe4, 0x3c, 0x26, 0xfa, 0xc0, 0xbd,
  0xc0, 0x58, 0x20, 0xbd, 0x22, 0x5a, 0x30, 0x3e, 0xfe, 0x56, 0x09, 0x3e,
  0xee, 0x07, 0x02, 0xbe, 0x40, 0x0e, 0xaa, 0x3d, 0x56, 0xd6, 0x13, 0x3e,
  0x00, 0x00, 0x42, 0x36, 0xd5, 0x01, 0xde, 0xbd, 0x10, 0xf3, 0x09, 0xbe,
  0xa0, 0x62, 0xdd, 0xbc, 0xf3, 0x4e, 0xba, 0xbd, 0x20, 0x03, 0x4d, 0xbd,
  0x7e, 0xe7, 0xfc, 0xbd, 0xa0, 0xe2, 0x7a, 0x3c, 0x10, 0xa3, 0x8a, 0x3c,
  0x02, 0x89, 0xac, 0xbd, 0x80, 0x4e, 0xf8, 0x3d, 0xb8, 0xca, 0x52, 0xbd,
  0xca, 0x9e, 0x2c, 0x3e, 0x57, 0x3c, 0xfe, 0x3d, 0xe8, 0x32, 0xb0, 0xbd,
  0xcb, 0x07, 0xe6, 0x3d, 0xd8, 0xbc, 0xa5, 0xbc, 0xca, 0x9a, 0x62, 0xbd,
  0x30, 0x20, 0x6c, 0x3d, 0xf8, 0x5c, 0x9d, 0x3d, 0xe9, 0xb1, 0x1c, 0x3d,
  0x6e, 0x5e, 0x1a, 0x3b, 0x70, 0xfe, 0x23, 0xbe, 0x50, 0xae, 0x8e, 0x3d,
  0xdb, 0x00, 0x92, 0xbd, 0xa6, 0xd1, 0x16, 0xbe, 0xdd, 0x09, 0x09, 0xbd,
  0x44, 0x57, 0x28, 0x3e, 0xc1, 0xe1, 0x1f, 0x3e, 0x12, 0x13, 0x49, 0xbd,
  0xdd, 0xa7, 0x85, 0x3c, 0x83, 0x0f, 0xbf, 0x3d, 0x64, 0x8b, 0xa8, 0xbc,
  0xa0, 0xc2, 0xac, 0x3d, 0xcd, 0x79, 0x8b, 0xbc, 0x5e, 0xbc, 0x45, 0xbc,
  0x5c, 0x0a, 0xee, 0x3d, 0x38, 0x2e, 0x21, 0x3e, 0x09, 0x92, 0x26, 0xbc,
  0xbd, 0xfa, 0x0c, 0xbe, 0xb1, 0xb5, 0x32, 0x3d, 0x2d, 0x2e, 0x12, 0x3e,
  0x80, 0xd7, 0x28, 0xbe, 0xaa, 0x35, 0xb4, 0xbc, 0xdd, 0x03, 0xe4, 0x3d,
  0x30, 0x7d, 0xde, 0x3d, 0xd7, 0x07, 0x84, 0x3c, 0xfc, 0x08, 0x8a, 0x3d,
  0x52, 0x93, 0xd7, 0x3c, 0xb0, 0x91, 0x1c, 0xbe, 0x3f, 0xf7, 0x40, 0x3d,
  0x76, 0x2e, 0x4d, 0x3d, 0x7d, 0xf0, 0xfa, 0xbd, 0xce, 0x03, 0x26, 0x3d,
  0x0f, 0x36, 0xd9, 0xbd, 0xf6, 0x5b, 0xc9, 0xbd, 0xa8, 0x7a, 0x2f, 0xbe,
  0x54, 0x29, 0xd3, 0xbc, 0x80, 0xd0, 0xbd, 0x3d, 0x0f, 0xf8, 0xde, 0x3c,
  0x7f, 0x7b, 0xaa, 0xbd, 0xed, 0x28, 0x09, 0x3e, 0x21, 0x02, 0x82, 0xbc,
  0x05, 0x89, 0xe5, 0xbc, 0xd7, 0x11, 0x00, 0x3e, 0xdb, 0x69, 0x0a, 0x3e,
  0x07, 0x88, 0xa7, 0xbd, 0xf2, 0xca, 0x74, 0x3c, 0xbb, 0xa1, 0x12, 0x3e,
  0x40, 0xe0, 0x19, 0x3e, 0xb1, 0x6b, 0x08, 0x3e, 0x6d, 0xbd, 0xca, 0xbd,
  0xe4, 0xeb, 0xae, 0xbd, 0x74, 0xb6, 0x17, 0xbe, 0x77, 0x1f, 0x84, 0x3c,
  0x52, 0x34, 0x22, 0xbe, 0x37, 0x4d, 0xbe, 0xbd, 0x69, 0xc8, 0xb0, 0xbd,
  0xca, 0xae, 0x84, 0x3d, 0x92, 0x72, 0x23, 0x3d, 0x33, 0x9f, 0x62, 0xbc,
  0x3b, 0x37, 0x8e, 0x3a, 0x38, 0x3e, 0x1e, 0xbe, 0xba, 0xb2, 0x01, 0xbe,
  0xa0, 0x14, 0xba, 0x3d, 0xc0, 0x0b, 0x37, 0xbe, 0x96, 0x67, 0xb9, 0xbd,
  0x2d, 0x50, 0xce, 0xbd, 0x70, 0xfb, 0x6c, 0xbc, 0x26, 0x9a, 0x38, 0xbd,
  0xe7, 0xa2, 0x2c, 0x3e, 0xa6, 0x7c, 0x0d, 0xbe, 0x94, 0x41, 0x5c, 0xbd,
  0xdd, 0x59, 0x0d, 0x3e, 0x70, 0xe8, 0xfa, 0x3d, 0x57, 0xdb, 0x54, 0x3d,
  0x19, 0x99, 0xe4, 0xbb, 0x7f, 0xc7, 0xa3, 0x3b, 0xa9, 0xc7, 0x22, 0xbe,
  0x76, 0x66, 0x1b, 0x3e, 0x60, 0x38, 0xdf, 0xbb, 0xa2, 0x98, 0x8e, 0x3c,
  0x37, 0xa4, 0x0c, 0xbe, 0x8c, 0x9f, 0x92, 0x3c, 0x2b, 0x8f, 0xb2, 0x3d,
  0xba, 0x22, 0x4b, 0xbd, 0x50, 0x31, 0xd8, 0x3c, 0xdb, 0xd9, 0x93, 0x3c,
  0xa8, 0x8f, 0xc7, 0x3d, 0x99, 0xf1, 0xf9, 0x3d, 0x10, 0x46, 0xaf, 0xbd,
  0x20, 0x51, 0xa6, 0xbd, 0x42, 0x11, 0x28, 0xbc, 0x04, 0x9d, 0xc7, 0x3d,
  0x34, 0xba, 0xcc, 0x3d, 0x6c, 0x2e, 0x4c, 0xbd, 0xb6, 0x96, 0x30, 0x3d,
  0x5d, 0x60, 0x06, 0x3e, 0x08, 0x8c, 0xd5, 0x3d, 0xe6, 0x1f, 0xd2, 0xbc,
  0xb2, 0x99, 0xfe, 0xbd, 0xfe, 0x7a, 0x2c, 0xbe, 0x79, 0x51, 0x33, 0xbe,
  0x86, 0x8d, 0x8b, 0x3c, 0xcc, 0x85, 0x4f, 0x3c, 0x50, 0xfe, 0xdb, 0x3c,
  0x5e, 0xc5, 0x9f, 0xbd, 0x4f, 0xc2, 0x66, 0x3b, 0x10, 0x0c, 0x1c, 0xbd,
  0x92, 0xc1, 0x26, 0x3d, 0x47, 0x44, 0x0e, 0x3e, 0xda, 0xfb, 0xde, 0xbd,
  0x52, 0x5c, 0x06, 0x3d, 0x45, 0xde, 0xec, 0xbd, 0x71, 0x90, 0x17, 0xbe,
  0xa9, 0x0f, 0xaf, 0xbc, 0x3e, 0x1b, 0x61, 0xbd, 0x0a, 0xac, 0x6d, 0x3d,
  0xc7, 0x7b, 0x33, 0xbe, 0xe2, 0xe3, 0x2e, 0xbe, 0xe0, 0x50, 0xd7, 0xbd,
  0x1b, 0xc5, 0x21, 0x3e, 0x88, 0xc1, 0xd9, 0x3d, 0xd3, 0x90, 0x33, 0xbe,
  0xb4, 0x38, 0x32, 0xbe, 0xe5, 0x4c, 0x8c, 0x3d, 0x50, 0xf0, 0x8c, 0x3d,
  0xc1, 0xad, 0x1a, 0xbe, 0x5b, 0x0d, 0x2a, 0x3e, 0x62, 0xca, 0xff, 0x3c,
  0xc6, 0x7c, 0x16, 0x3d, 0x1b, 0xe8, 0x42, 0x3c, 0xe4, 0x0f, 0x80, 0x3b,
  0xbd, 0xce, 0xc0, 0xbd, 0x50, 0xda, 0xe1, 0x3d, 0x22, 0x68, 0x5a, 0xbd,
  0x15, 0x9f, 0x14, 0xbc, 0xf8, 0xb2, 0x0b, 0x3e, 0x4b, 0xdb, 0x9f, 0xbc,
  0x85, 0xaf, 0x8d, 0xbd, 0xcd, 0x23, 0xeb, 0xbd, 0x5e, 0xd6, 0x60, 0x3c,
  0x30, 0xa2, 0x9a, 0x3d, 0x48, 0x0c, 0x89, 0xbd, 0x64, 0x23, 0xc5, 0x3d,
  0xe4, 0xb4, 0xb8, 0x3d, 0xdd, 0x02, 0x83, 0xbd, 0x74, 0xb7, 0x11, 0xbe,
  0x50, 0x69, 0xe5, 0xbb, 0x80, 0x7e, 0x00, 0xbe, 0x73, 0xc1, 0x80, 0x3d,
  0x3f, 0x9d, 0x0e, 0x3e, 0xb5, 0xde, 0x22, 0x3e, 0xa3, 0x66, 0x90, 0xbd,
  0xb1, 0x6b, 0x2c, 0xbc, 0xad, 0x10, 0x88, 0xbd, 0xa7, 0xa3, 0x58, 0x3c,
  0xb7, 0x7d, 0x24, 0x3e, 0xb3, 0x37, 0xd3, 0xbd, 0xa3, 0xd0, 0x03, 0x3e,
  0x4b, 0x85, 0xe9, 0xbd, 0xde, 0x52, 0xe0, 0xbc, 0xc6, 0x5f, 0x12, 0xbe,
  0xc6, 0xe0, 0x88, 0xbd, 0x5b, 0xac, 0x1e, 0x3e, 0xf3, 0x7d, 0x24, 0xbe,
  0xa9, 0x41, 0x95, 0xbc, 0xea, 0x30, 0x9c, 0x3c, 0xe1, 0x2f, 0xc7, 0xbd,
  0x0c, 0xd6, 0x1f, 0xbe, 0x11, 0x50, 0x07, 0x3e, 0x93, 0x31, 0x0d, 0xbe,
  0x68, 0x80, 0x7e, 0xbd, 0x46, 0x4d, 0x0c, 0x3e, 0xc4, 0xdf, 0x0b, 0x3c,
  0xf3, 0xd4, 0x07, 0xbe, 0xae, 0xcf, 0x9b, 0x3d, 0x64, 0xac, 0x21, 0x3d,
  0xb3, 0xa4, 0xb3, 0x3d, 0x6a, 0xe5, 0x3b, 0x3c, 0x98, 0x85, 0x95, 0xbd,
  0x43, 0x07, 0x1e, 0xbd, 0xe2, 0x3d, 0xf5, 0x3d, 0x7a, 0x5c, 0x39, 0xbe,
  0x57, 0xbb, 0xd2, 0x3d, 0x92, 0x9b, 0x61, 0x3d, 0x2c, 0x3e, 0xa8, 0xbd,
  0xb2, 0x32, 0xf4, 0x3d, 0x12, 0xee, 0x35, 0x3c, 0xc9, 0xb0, 0xcd, 0x3d,
  0x1c, 0x02, 0x09, 0xbe, 0x38, 0x80, 0x30, 0xbe, 0x4b, 0x0f, 0x94, 0x3d,
  0xec, 0x82, 0x83, 0xbd, 0xd3, 0xba, 0x2f, 0x3e, 0x60, 0x15, 0x69, 0x3d,
  0xc5, 0x9c, 0xd1, 0x3d, 0x4f, 0x1c, 0x3b, 0xbd, 0xe0, 0xe9, 0x6d, 0xbd,
  0xae, 0x57, 0xcb, 0x3d, 0x78, 0xa8, 0x73, 0xbd, 0x3a, 0x0f, 0x1f, 0x3e,
  0xe8, 0xe4, 0x6d, 0x39, 0xd0, 0xc3, 0x17, 0x3e, 0x9e, 0xb8, 0x04, 0xbe,
  0xed, 0x45, 0x9e, 0x3d, 0x9c, 0x30, 0x79, 0x3d, 0x3c, 0xfc, 0x13, 0xbe,
  0xba, 0x7e, 0xa6, 0xbd, 0x75, 0xc5, 0xa8, 0xbd, 0x4d, 0x98, 0xa7, 0x3d,
  0x66, 0xb2, 0x12, 0x3e, 0xf6, 0xe7, 0x54, 0xbb, 0x69, 0x98, 0x7c, 0x3b,
  0xa8, 0x1f, 0x6f, 0xbd, 0x85, 0x19, 0x27, 0xbe, 0x72, 0x12, 0x4e, 0x3b,
  0x59, 0x17, 0xbe, 0x3d, 0x74, 0xb7, 0xfd, 0x3d, 0xad, 0xe6, 0xbe, 0xbd,
  0xdd, 0x2b, 0x02, 0x3e, 0x0f, 0x50, 0xe8, 0x3d, 0xef, 0x7a, 0x20, 0xbe,
  0xe5, 0x84, 0x1e, 0x3e, 0xf1, 0x7f, 0x0c, 0xba, 0x45, 0xba, 0xae, 0x3d,
  0x20, 0x91, 0x32, 0xbe, 0x9b, 0x96, 0x96, 0xbd, 0x20, 0x8b, 0xf8, 0x3d,
  0x62, 0x67, 0xe4, 0xbd, 0x26, 0xbe, 0x1b, 0xbe, 0xc4, 0x8e, 0x70, 0xbd,
  0xbd, 0x35, 0x38, 0xbe, 0xe8, 0xda, 0x02, 0x3e, 0x99, 0x9e, 0xa2, 0xbc,
  0x98, 0x3b, 0x5a, 0xbd, 0x78, 0xcd, 0x39, 0xbd, 0xf8, 0xc5, 0x19, 0xbe,
  0xcf, 0xd1, 0xa2, 0xbd, 0x9d, 0x2d, 0xc1, 0xbc, 0xec, 0xb1, 0x0e, 0xbe,
  0xe0, 0xb6, 0x2a, 0x3c, 0x26, 0x87, 0x1d, 0xbe, 0xe8, 0x26, 0x7d, 0xbd,
  0x64, 0xba, 0x6d, 0xbd, 0xd7, 0x9e, 0xae, 0x3d, 0xd5, 0xb0, 0x2c, 0x3e,
  0x0e, 0x8b, 0x9c, 0x3c, 0xe0, 0xcd, 0x2d, 0x3e, 0x16, 0x3e, 0xec, 0x3d,
  0x09, 0x2d, 0xb2, 0x3d, 0xcf, 0x21, 0xd6, 0x3c, 0xa4, 0x4b, 0x32, 0xbe,
  0x95, 0xd5, 0x27, 0xbe, 0x1a, 0x61, 0xac, 0xbd, 0xd2, 0x04, 0xab, 0x3d,
  0x12, 0x29, 0xf7, 0xbd, 0xdd, 0x9c, 0x5f, 0x3d, 0xab, 0x20, 0x09, 0x3e,
  0xf7, 0x5e, 0x0c, 0x3e, 0xfb, 0xd7, 0x0c, 0xbe, 0x20, 0x0e, 0x99, 0xbd,
  0x8b, 0x02, 0xcd, 0xbb, 0xab, 0x40, 0xda, 0xbd, 0x62, 0x79, 0x04, 0xbe,
  0xe5, 0xb3, 0x73, 0x3d, 0x7a, 0x6d, 0x2a, 0x3d, 0xe5, 0xe5, 0x2b, 0xbd,
  0x26, 0x1a, 0x0d, 0xbe, 0x1f, 0x78, 0x65, 0x3d, 0x6c, 0xce, 0x18, 0x3e,
  0x98, 0x47, 0x0a, 0xbe, 0x3e, 0x9e, 0x0d, 0x3e, 0x1c, 0x1c, 0xb1, 0x3d,
  0x2e, 0xbe, 0x2e, 0x3e, 0x26, 0x56, 0x5b, 0xbd, 0x98, 0x9d, 0x26, 0x3e,
  0x7e, 0xd3, 0x1f, 0xbe, 0xdc, 0xc1, 0x29, 0x3e, 0x8a, 0x87, 0x08, 0xbe,
  0xf1, 0x7f, 0x4b, 0xbc, 0xc7, 0x00, 0x4d, 0xbd, 0x76, 0x25, 0x20, 0x3e,
  0x42, 0x17, 0x8d, 0x3c, 0x4c, 0x01, 0xce, 0xbd, 0x0c, 0x56, 0x30, 0xbd,
  0x71, 0x93, 0xce, 0x3c, 0x3d, 0xbb, 0x26, 0xbe, 0xb4, 0x76, 0x11, 0xbe,
  0x6e, 0x66, 0xec, 0x3d, 0xeb, 0xb8, 0xf2, 0xbd, 0x74, 0xc0, 0x6f, 0x3d,
  0x8a, 0x81, 0x0e, 0xbe, 0xb7, 0x9e, 0x3b, 0xbe, 0xf2, 0x0f, 0xec, 0x3c,
  0x6d, 0xc9, 0x31, 0x3c, 0xbe, 0xe7, 0xbc, 0xbd, 0xee, 0xd7, 0x37, 0x3c,
  0x36, 0xd2, 0x75, 0xbd, 0xa6, 0x12, 0xfe, 0x3d, 0x28, 0xed, 0xfd, 0xbd,
  0x54, 0xb6, 0x82, 0xbd, 0x9e, 0x13, 0xbe, 0x3d, 0x49, 0x1f, 0xa8, 0xbd,
  0xce, 0x6f, 0xb0, 0xbd, 0xb2, 0xde, 0x07, 0xbd, 0xaa, 0x44, 0x07, 0xbe,
  0xf3, 0x69, 0x60, 0xbc, 0x59, 0x45, 0x52, 0x3d, 0x3e, 0x26, 0xed, 0x3d,
  0xe8, 0xb3, 0x0e, 0x3d, 0x31, 0xc7, 0x28, 0x3e, 0x98, 0x65, 0x2a, 0x3e,
  0x93, 0xd3, 0xef, 0xbd, 0xce, 0xa5, 0xce, 0xbd, 0x8a, 0xa2, 0xee, 0x3d,
  0xac, 0x2a, 0x19, 0x3e, 0x45, 0x78, 0xb1, 0xbd, 0x3f, 0x3f, 0xc0, 0xbb,
  0x16, 0x09, 0x0d, 0x3d, 0x05, 0x9a, 0xc9, 0x3a, 0xa6, 0xcc, 0xe5, 0x3d,
  0xea, 0x59, 0x6a, 0xbc, 0x0d, 0x47, 0x38, 0xbe, 0x54, 0x3c, 0x09, 0x3d,
  0x98, 0x69, 0x22, 0x3e, 0x7a, 0x83, 0xac, 0x3c, 0x84, 0x20, 0xd8, 0x3c,
  0x50, 0x99, 0x23, 0x3e, 0xc3, 0xcd, 0x09, 0x3e, 0xe2, 0x4c, 0x09, 0xbe,
  0x62, 0x04, 0x83, 0x3d, 0xb0, 0xeb, 0xee, 0xbd, 0xd6, 0x8f, 0x18, 0xbe,
  0xbe, 0x19, 0xcc, 0x3d, 0xc8, 0x8d, 0x37, 0xbe, 0x43, 0x12, 0x30, 0xbe,
  0xef, 0xc6, 0x28, 0xbe, 0x6d, 0x43, 0x35, 0xbe, 0xf3, 0x41, 0xd4, 0xbd,
  0xf7, 0x91, 0xaf, 0xbd, 0xd0, 0x66, 0x69, 0x3d, 0xae, 0x7e, 0x1b, 0x3e,
  0xfc, 0x84, 0x17, 0xbb, 0xee, 0xf7, 0xc9, 0x3d, 0xb4, 0xa5, 0x9b, 0xbc,
  0x87, 0xe7, 0x2b, 0xbd, 0x24, 0xe2, 0x25, 0xbd, 0x16, 0x53, 0xde, 0x3d,
  0xc2, 0x83, 0x6f, 0x3d, 0x4a, 0x7e, 0x19, 0x3e, 0x0c, 0x9c, 0x28, 0xbe,
  0x71, 0xba, 0x9b, 0xbd, 0xc5, 0x49, 0xac, 0x3b, 0x48, 0x82, 0x0b, 0xbe,
  0x13, 0xbd, 0xc6, 0xbd, 0x6d, 0x51, 0x7e, 0xbd, 0x6d, 0x9f, 0x46, 0xbc,
  0x1e, 0x0b, 0x1f, 0xbe, 0x2a, 0xc5, 0x10, 0xbe, 0x1a, 0xae, 0x9c, 0xbd,
  0x7d, 0x2c, 0x06, 0xbe, 0xeb, 0x59, 0xca, 0xbd, 0x55, 0xf9, 0x87, 0xbd,
  0xf0, 0xd2, 0x98, 0xbd, 0x61, 0xdb, 0x9e, 0x3d, 0xce, 0xa2, 0xbc, 0x3d,
  0x90, 0x0c, 0xd7, 0xbd, 0x59, 0xf6, 0x18, 0xbd, 0xd7, 0x24, 0x0c, 0x3e,
  0xcb, 0x30, 0x2f, 0xbe, 0x32, 0x83, 0x2a, 0x3e, 0x59, 0x0a, 0x12, 0x3e,
  0xd3, 0xcf, 0x35, 0xbc, 0xc7, 0xaa, 0xdc, 0x3d, 0x46, 0x00, 0x16, 0x3e,
  0xb7, 0x61, 0x92, 0x3d, 0x83, 0x53, 0xa7, 0x3d, 0xd2, 0x95, 0x41, 0x3d,
  0xac, 0x7b, 0xa4, 0xbd, 0xeb, 0x2c, 0xf6, 0xbd, 0x58, 0x44, 0x28, 0x3e,
  0xed, 0x56, 0x27, 0xbe, 0x19, 0xbc, 0x1f, 0x3e, 0x8e, 0xd1, 0x1b, 0x3e,
  0xd5, 0xa4, 0x34, 0xbd, 0x8a, 0xbb, 0x8b, 0xbd, 0x11, 0xfe, 0x31, 0xbd,
  0x81, 0xd2, 0xec, 0x3d, 0x26, 0xad, 0x10, 0x3e, 0xc4, 0x73, 0xaf, 0x3d,
  0x5d, 0x0f, 0xfb, 0x3d, 0x53, 0xfa, 0xf5, 0xbc, 0xbc, 0xa7, 0x0b, 0xbc,
  0x87, 0xd3, 0xfa, 0x3b, 0x53, 0xd0, 0x24, 0xbe, 0x6a, 0x95, 0xce, 0x3d,
  0x8e, 0x6d, 0x09, 0x3d, 0x6d, 0x7c, 0xc9, 0x3d, 0x7d, 0xf9, 0xb8, 0xbd,
  0xc4, 0xd2, 0x50, 0xbc, 0x13, 0xa5, 0x2e, 0xbe, 0x46, 0x05, 0xf3, 0x3d,
  0x91, 0xfc, 0x0e, 0xbe, 0x21, 0x44, 0xfb, 0x3c, 0xdd, 0x9c, 0xdb, 0x3d,
  0x6f, 0x69, 0xee, 0xbd, 0x2c, 0x94, 0xea, 0x3c, 0xfd, 0x35, 0x5f, 0xbc,
  0xb3, 0x58, 0xb2, 0xbc, 0x51, 0xba, 0xc2, 0x3d, 0xe6, 0x68, 0xb4, 0xbc,
  0xf2, 0xb1, 0xc7, 0x3d, 0xe4, 0x9e, 0x1f, 0x3e, 0xd6, 0x50, 0xf7, 0xbd,
  0xd8, 0x7d, 0xe0, 0x3c, 0x30, 0xfb, 0xcc, 0xbc, 0xfc, 0x7a, 0xf0, 0x3d,
  0x20, 0x35, 0x23, 0xbd, 0x47, 0xea, 0xf7, 0xbc, 0x3e, 0x92, 0x22, 0x3e,
  0xde, 0x8f, 0x0a, 0xbe, 0x90, 0x45, 0x68, 0x3b, 0x99, 0x04, 0x01, 0xbd,
  0xd5, 0x30, 0xe0, 0xbc, 0x9e, 0xf1, 0x0f, 0xbe, 0x04, 0xe8, 0x85, 0x3d,
  0x7e, 0xed, 0xea, 0x3c, 0x4b, 0xa3, 0x7e, 0xbc, 0x4b, 0x96, 0x3a, 0xbe,
  0x8f, 0xa1, 0x0a, 0xbe, 0xcf, 0xf5, 0x85, 0x3d, 0x56, 0xe2, 0xde, 0xbd,
  0x03, 0x9d, 0x1c, 0xbd, 0xdc, 0x7b, 0xed, 0xbc, 0xf3, 0xce, 0x05, 0x3e,
  0x37, 0x2f, 0xdb, 0xbd, 0x1f, 0x4d, 0x3d, 0x3d, 0xb4, 0x7a, 0xfe, 0x3d,
  0x1b, 0x1c, 0x37, 0xbe, 0xad, 0x07, 0x92, 0x3c, 0xe1, 0xeb, 0xc9, 0x3d,
  0xd6, 0x97, 0xab, 0x3d, 0x27, 0x8d, 0x6e, 0xbd, 0x23, 0x21, 0x29, 0xbe,
  0xa3, 0x06, 0x7e, 0x3c, 0x56, 0x01, 0x07, 0x3e, 0x36, 0x7c, 0x95, 0xbc,
  0x49, 0xdb, 0x70, 0x3d, 0x12, 0xe7, 0x8e, 0xbd, 0xb1, 0x68, 0x36, 0xbe,
  0x42, 0x39, 0xa0, 0xbd, 0x5a, 0xe8, 0xf4, 0xbb, 0x36, 0xbc, 0x81, 0xbd,
  0x0a, 0xd6, 0xa9, 0x3c, 0x9a, 0xc2, 0x22, 0xbe, 0xd1, 0x67, 0x97, 0xbb,
  0x0c, 0x10, 0xba, 0x3d, 0x1a, 0x78, 0x9b, 0x3d, 0x20, 0x1e, 0x84, 0xbb,
  0x62, 0xa4, 0xe0, 0xbd, 0xaa, 0x2f, 0x10, 0x3d, 0x3c, 0xe5, 0x65, 0xbb,
  0xf2, 0x56, 0xec, 0xbd, 0x34, 0x9e, 0xb5, 0x3d, 0xdb, 0xd8, 0xbf, 0x3d,
  0x7d, 0x85, 0x1c, 0x3e, 0x0d, 0xa6, 0xbb, 0x3c, 0x67, 0xe4, 0x14, 0x3e,
  0x4b, 0x9c, 0x62, 0xbd, 0x51, 0x77, 0x68, 0xbd, 0xf8, 0x8b, 0xe3, 0xbd,
  0x6b, 0xbf, 0x32, 0x3e, 0xe1, 0xf5, 0x70, 0xbd, 0xf2, 0x2c, 0x58, 0xbb,
  0x16, 0x3f, 0x5d, 0x3a, 0xc0, 0x82, 0x7b, 0x3d, 0xd1, 0x24, 0xa6, 0xbd,
  0x94, 0xe8, 0x22, 0xbd, 0xff, 0x5c, 0xdc, 0x3d, 0x14, 0x9a, 0x8a, 0x3c,
  0xd1, 0xa5, 0xe9, 0xbd, 0x35, 0x5d, 0x63, 0x3c, 0xf6, 0x6d, 0x31, 0x3e,
  0xb3, 0xdb, 0xa0, 0x3d, 0x70, 0xc3, 0x20, 0x3e, 0x04, 0x84, 0x12, 0x3e,
  0x50, 0xcc, 0x6b, 0x3d, 0x81, 0x76, 0xd3, 0xbd, 0x2e, 0x46, 0xa1, 0x3c,
  0xb2, 0x15, 0x26, 0xbe, 0x84, 0x13, 0x4e, 0xbd, 0x63, 0x46, 0xa7, 0x3d,
  0xa1, 0x69, 0x46, 0xbd, 0x52, 0x59, 0x26, 0xbe, 0xf7, 0x7d, 0xa3, 0x3d,
  0x76, 0x45, 0x09, 0x3e, 0xb6, 0x5e, 0x1b, 0xbe, 0x84, 0x0f, 0xa9, 0xbd,
  0x9b, 0x28, 0x90, 0xbd, 0xe8, 0x0d, 0x31, 0xbe, 0xb1, 0xd8, 0x2e, 0x3b,
  0x10, 0x57, 0xc4, 0x3c, 0x86, 0xb1, 0xc6, 0x3d, 0x5b, 0xf9, 0x30, 0xbe,
  0xd2, 0x16, 0xf5, 0xbd, 0x2b, 0x03, 0x16, 0xbe, 0xca, 0x1b, 0x84, 0xbd,
  0x05, 0xd7, 0x5a, 0x3d, 0xa7, 0xb4, 0x00, 0x3e, 0x24, 0xfe, 0xc9, 0xbd,
  0xbc, 0x7f, 0xcc, 0xbc, 0x17, 0x51, 0xc5, 0xbd, 0xb7, 0xd7, 0x13, 0x3e,
  0x7a, 0x98, 0x49, 0x3c, 0x9c, 0xc2, 0x28, 0xbe, 0xf9, 0x64, 0x0d, 0xbe,
  0x46, 0x80, 0xdc, 0x3d, 0x62, 0x51, 0x33, 0x3d, 0xfc, 0xaa, 0xe0, 0x3d,
  0xab, 0xf3, 0x69, 0x3d, 0x93, 0xac, 0x31, 0xbd, 0xbe, 0x09, 0x3a, 0xbe,
  0xd4, 0x24, 0xc2, 0xbd, 0x8c, 0xb0, 0x5c, 0xbd, 0xe2, 0x73, 0xe0, 0xbd,
  0x00, 0xf6, 0xde, 0x3d, 0x3f, 0x7f, 0xd5, 0xb9, 0x3b, 0x7d, 0x78, 0x3d,
  0x6d, 0xb9, 0xc6, 0x39, 0x32, 0xab, 0x8a, 0xbd, 0x5b, 0x09, 0xb3, 0xbb,
  0x76, 0xc9, 0x46, 0x3c, 0xbc, 0x9a, 0xa2, 0x3d, 0xe1, 0xd7, 0xcb, 0xbd,
  0x4b, 0x2a, 0xb3, 0x3d, 0x4a, 0xcb, 0x9f, 0xbc, 0x23, 0x10, 0x45, 0xbd,
  0x88, 0x06, 0x19, 0x3e, 0x61, 0x5f, 0x05, 0xbe, 0xe0, 0x13, 0x2e, 0xbe,
  0x53, 0x62, 0xf7, 0x3d, 0xae, 0x55, 0x0d, 0xbe, 0x4c, 0xf3, 0xd1, 0x3c,
  0x86, 0xa6, 0x25, 0xbe, 0x8b, 0x6e, 0x9f, 0xbd, 0x31, 0xf2, 0xdf, 0x3b,
  0x94, 0xee, 0x29, 0x3e, 0xe9, 0x56, 0x8a, 0x3d, 0xca, 0x8b, 0xfc, 0x3d,
  0x69, 0x1b, 0x10, 0x3e, 0x9e, 0x85, 0x9d, 0xbd, 0xd9, 0xc5, 0xb4, 0xbc,
  0x3b, 0xc3, 0x91, 0x3d, 0xa2, 0x41, 0xc9, 0x3d, 0xdd, 0xcd, 0x82, 0xbd,
  0x89, 0x53, 0x32, 0xbe, 0x7e, 0x06, 0x04, 0x3d, 0xea, 0x4e, 0x0f, 0x3e,
  0xe3, 0x01, 0x1c, 0x3e, 0x21, 0x81, 0x4b, 0xbc, 0x3f, 0xbf, 0x3b, 0xbe,
  0x18, 0x62, 0x3c, 0xbe, 0xda, 0x10, 0x0d, 0x3e, 0x31, 0xc7, 0x14, 0x3e,
  0x58, 0x67, 0x08, 0xbe, 0xc7, 0xdc, 0x2c, 0xbe, 0x40, 0x31, 0xb1, 0x3d,
  0xb5, 0xcd, 0xf2, 0x3d, 0x48, 0xba, 0xac, 0x3d, 0xb3, 0x84, 0xe0, 0x3c,
  0xdc, 0x13, 0x2a, 0x3e, 0xa8, 0x85, 0xaf, 0xbc, 0x2f, 0x25, 0xba, 0x3c,
  0x4f, 0xc3, 0xbf, 0xbd, 0x04, 0x71, 0x0c, 0xbc, 0x8b, 0xb3, 0xe0, 0x3b,
  0x0c, 0xd0, 0xc4, 0xbd, 0xcc, 0x00, 0xe4, 0x3d, 0x6e, 0xab, 0x0b, 0x3e,
  0xec, 0x34, 0x1d, 0xbe, 0xfd, 0x77, 0x0f, 0x3d, 0x92, 0x75, 0x31, 0x3d,
  0x01, 0x52, 0xe0, 0x3d, 0x46, 0xe0, 0x70, 0xbd, 0xd5, 0x02, 0x2a, 0xbe,
  0xe3, 0xe9, 0xd6, 0xbd, 0xec, 0xd0, 0xad, 0xbd, 0xa8, 0xc8, 0x3e, 0xbe,
  0xe4, 0xb4, 0xf3, 0x3d, 0x06, 0xab, 0x1c, 0xbe, 0x2d, 0x9d, 0xd1, 0x3d,
  0x1b, 0x91, 0x3b, 0xbe, 0x83, 0xdb, 0xdd, 0xbd, 0x3c, 0x78, 0x6e, 0xbd,
  0xc1, 0x2e, 0x12, 0xbe, 0x00, 0xe4, 0x35, 0xbe, 0xc5, 0xb3, 0xea, 0x3a,
  0x60, 0x63, 0x83, 0xbd, 0x84, 0xc1, 0xb7, 0xbd, 0x1d, 0x9f, 0x99, 0x3d,
  0x7d, 0xaa, 0x19, 0xbe, 0x81, 0xf7, 0x67, 0xbd, 0xaf, 0x93, 0x94, 0x3d,
  0x8a, 0xcc, 0x00, 0x3d, 0xd4, 0x84, 0x7c, 0xbc, 0x49, 0x6d, 0xc7, 0x3d,
  0x13, 0xac, 0x0f, 0x3e, 0x61, 0xe2, 0x9f, 0x3d, 0x04, 0x94, 0xc6, 0xbc,
  0x90, 0x8a, 0x94, 0x3d, 0xf9, 0xff, 0xe1, 0x3d, 0x28, 0x40, 0x01, 0xbe,
  0x3a, 0xe1, 0x01, 0x3e, 0x3d, 0x63, 0xb8, 0x3d, 0x51, 0x16, 0x02, 0xbe,
  0xb3, 0xdb, 0xa4, 0x3d, 0x62, 0xa9, 0xcd, 0xbd, 0x86, 0xfb, 0x28, 0xbe,
  0x73, 0x12, 0x3f, 0xbc, 0x3c, 0x08, 0xf2, 0xbd, 0xb6, 0xeb, 0xf3, 0xbd,
  0xf6, 0x5c, 0x39, 0x3c, 0x28, 0x1e, 0x92, 0x3c, 0xf3, 0x92, 0xb6, 0xbd,
  0x8c, 0x23, 0xca, 0x3d, 0xbb, 0xd0, 0x15, 0x3d, 0xab, 0x9c, 0x49, 0x3c,
  0x53, 0x10, 0xdb, 0x3d, 0x2f, 0xa2, 0xff, 0x3d, 0x21, 0xe5, 0x37, 0xbe,
  0x82, 0x7b, 0x89, 0x3d, 0xf1, 0x92, 0x19, 0x3d, 0xb8, 0xc1, 0x16, 0xbe,
  0x31, 0x0a, 0x2b, 0x3d, 0xd8, 0x31, 0x2b, 0x3d, 0xff, 0x7f, 0x10, 0xbe,
  0x95, 0xe6, 0xe4, 0xbc, 0x40, 0x5f, 0xa2, 0x3d, 0x80, 0x04, 0xbf, 0xbc,
  0xdf, 0xf0, 0x93, 0x3c, 0x33, 0x18, 0x55, 0x3d, 0x52, 0x92, 0xd4, 0x3d,
  0xc4, 0xb3, 0x8b, 0xbd, 0x84, 0xba, 0x29, 0x3e, 0x62, 0x9a, 0x34, 0xbc,
  0x0d, 0x1a, 0x90, 0x3d, 0x77, 0x59, 0xda, 0xbd, 0x2b, 0x27, 0xd9, 0x3d,
  0xfd, 0xa3, 0x88, 0xbd, 0x80, 0x81, 0x4c, 0x3d, 0x92, 0x47, 0x1a, 0x3e,
  0x36, 0xcf, 0x1b, 0x3c, 0x46, 0xe2, 0x22, 0x3e, 0x81, 0x56, 0xc6, 0x3d,
  0x27, 0xac, 0x16, 0x3c, 0xf6, 0x63, 0x98, 0x3d, 0x2e, 0x9b, 0x02, 0x3e,
  0xff, 0x57, 0xd0, 0xbb, 0xa8, 0xbf, 0x01, 0xbc, 0x0f, 0x6c, 0xf0, 0x3d,
  0x45, 0x03, 0x24, 0x3d, 0xec, 0x3b, 0x82, 0xbd, 0xbb, 0xa8, 0x1f, 0xbe,
  0x40, 0xef, 0x98, 0x3d, 0x76, 0xc2, 0x04, 0x3b, 0xca, 0xf2, 0x3f, 0xbe,
  0xcd, 0x7b, 0xfc, 0xbd, 0xa1, 0x12, 0xe0, 0x3d, 0x2a, 0x78, 0x28, 0x3e,
  0x5f, 0xfa, 0x8d, 0xbd, 0x0c, 0x19, 0x1e, 0x3d, 0x32, 0x57, 0xc6, 0x3d,
  0xdf, 0x7b, 0x27, 0xbe, 0x33, 0x08, 0xc4, 0x3d, 0xb0, 0x4d, 0x2e, 0xbe,
  0xb1, 0x70, 0xfa, 0xbb, 0x7c, 0x92, 0x29, 0xbe, 0x41, 0x5e, 0x26, 0xbd,
  0xb6, 0xae, 0xb6, 0x3d, 0x6f, 0x82, 0xba, 0xbd, 0x41, 0xc9, 0x1d, 0xbe,
  0x61, 0xc9, 0x0a, 0x3e, 0xc5, 0x86, 0xab, 0xbd, 0xd1, 0xc6, 0x1c, 0x3e,
  0x14, 0xf8, 0x3c, 0xbd, 0x43, 0x92, 0xd6, 0x3d, 0x23, 0xdc, 0x37, 0xbb,
  0xf8, 0x1a, 0xf7, 0xbd, 0x41, 0xe3, 0xd1, 0x3c, 0x14, 0x67, 0x17, 0xba,
  0x00, 0x1d, 0x14, 0xbe, 0x04, 0x60, 0x08, 0x3e, 0xe7, 0x9c, 0x89, 0x3c,
  0x0a, 0x2f, 0x37, 0xbe, 0x1f, 0xd2, 0x1e, 0xbc, 0x12, 0x45, 0x06, 0x3e,
  0x76, 0xb2, 0xfe, 0xbc, 0x64, 0xb2, 0x27, 0xbd, 0x7b, 0xe4, 0x21, 0xbe,
  0x5f, 0x6b, 0x90, 0xbd, 0x9f, 0x17, 0x00, 0xbd, 0x5b, 0x7c, 0x07, 0xbe,
  0xf1, 0xe7, 0xda, 0x3d, 0xf7, 0x54, 0x82, 0x3c, 0x66, 0x62, 0x0e, 0xbe,
  0x20, 0xd5, 0x86, 0xbd, 0x6c, 0x60, 0xaa, 0xbd, 0x41, 0x7a, 0x64, 0xbd,
  0x9e, 0xcc, 0x01, 0xbd, 0xe1, 0x88, 0x77, 0x3d, 0x4f, 0x25, 0x1c, 0x3e,
  0x75, 0xf3, 0xf2, 0xbd, 0xe9, 0x65, 0x09, 0xbd, 0xc8, 0x75, 0x46, 0x3d,
  0x40, 0x77, 0x24, 0x3e, 0xd0, 0x92, 0x34, 0x3c, 0x2f, 0xaf, 0x27, 0xbe,
  0xa3, 0x2e, 0x48, 0x3b, 0x8b, 0x5b, 0x72, 0xbd, 0x22, 0xe0, 0x0b, 0xbd,
  0xc3, 0xdd, 0x36, 0xbd, 0x01, 0x91, 0x13, 0xbd, 0x38, 0xc4, 0xe1, 0x3d,
  0xad, 0x70, 0x1d, 0xbe, 0x10, 0xa3, 0x9c, 0xbd, 0xf3, 0x8d, 0x85, 0xbd,
  0xe8, 0x3b, 0x1b, 0xbd, 0xd3, 0xfc, 0xe2, 0xbd, 0x54, 0x08, 0xee, 0x3d,
  0xb0, 0xec, 0x1c, 0x3e, 0x5c, 0x36, 0x40, 0x3b, 0xe0, 0xda, 0x08, 0x3e,
  0x1a, 0x9a, 0xa0, 0x3c, 0x52, 0xc6, 0xfa, 0x3d, 0xcc, 0xcd, 0x92, 0x3d,
  0xb8, 0x0f, 0x01, 0x3e, 0x19, 0x06, 0x7e, 0xbd, 0x7f, 0xee, 0xed, 0xbd,
  0x14, 0x02, 0x8d, 0xbd, 0x24, 0x66, 0x1c, 0xbe, 0x7b, 0xbd, 0x19, 0x3d,
  0x04, 0x6b, 0xef, 0xbc, 0x7b, 0x05, 0xf0, 0xbd, 0x99, 0x16, 0x56, 0x3c,
  0xff, 0x3f, 0x5e, 0x3c, 0x23, 0xee, 0x09, 0x3e, 0x74, 0xd8, 0xe0, 0x3d,
  0xb2, 0x9b, 0x58, 0xbd, 0x76, 0x55, 0x1b, 0xbc, 0x62, 0xf1, 0xa1, 0x3d,
  0xa2, 0x3d, 0x5e, 0xbc, 0x56, 0x03, 0xa8, 0xbd, 0xa5, 0x11, 0x31, 0x3d,
  0xbb, 0x0d, 0x32, 0x3d, 0x80, 0x5a, 0x0d, 0x3e, 0x5b, 0x52, 0x08, 0x3e,
  0x12, 0xcb, 0xd8, 0xbd, 0xe8, 0x18, 0xc1, 0x3d, 0x18, 0x90, 0xe7, 0xbd,
  0xea, 0xc0, 0x1e, 0x3c, 0x9f, 0x63, 0x8c, 0xbd, 0xeb, 0x76, 0x80, 0xbc,
  0x5d, 0xe2, 0x27, 0xbe, 0x23, 0xdd, 0xb8, 0x3d, 0x73, 0x5b, 0xba, 0xbd,
  0x51, 0x58, 0x7b, 0xbb, 0xa9, 0x69, 0x43, 0x3d, 0x4b, 0x48, 0x11, 0x3e,
  0x46, 0xde, 0x31, 0xbe, 0x06, 0xe5, 0x9e, 0xbc, 0x24, 0x4a, 0xfa, 0xbd,
  0x90, 0x9a, 0xa7, 0x3b, 0x24, 0xd6, 0x2f, 0xbe, 0x9b, 0xa3, 0xf2, 0x3d,
  0x29, 0x7e, 0x24, 0xbd, 0x3c, 0xdb, 0x0c, 0xbd, 0x1c, 0x5a, 0x7f, 0x3a,
  0x05, 0x6a, 0x15, 0x3e, 0x60, 0x6a, 0x0f, 0x3e, 0x59, 0xdf, 0xf4, 0x3d,
  0xcc, 0xbb, 0x09, 0x3e, 0x5f, 0x5b, 0xa4, 0xbd, 0x56, 0x86, 0x9d, 0x3d,
  0xcf, 0x07, 0x25, 0x3e, 0xe1, 0xde, 0x21, 0x3e, 0x4b, 0x61, 0xc4, 0xbd,
  0xa2, 0x99, 0xf6, 0xbd, 0x49, 0x70, 0x90, 0xbd, 0x7d, 0xd9, 0x44, 0x3d,
  0x57, 0xbe, 0x10, 0x3e, 0x88, 0x18, 0x0c, 0xbe, 0xac, 0x78, 0x56, 0x3d,
  0xa1, 0x51, 0x39, 0xbd, 0x0e, 0x70, 0xa9, 0x3d, 0xae, 0x23, 0x2f, 0x3d,
  0xa6, 0x30, 0x04, 0xbe, 0x59, 0x32, 0x3c, 0xbe, 0x4c, 0x9b, 0xb8, 0x3d,
  0x95, 0x8f, 0x72, 0xbd, 0x22, 0xc5, 0xb0, 0xbd, 0xe1, 0xbb, 0x6f, 0xbd,
  0x5e, 0x2d, 0xca, 0xbd, 0x30, 0xe0, 0x47, 0x3d, 0x3f, 0xa3, 0xf4, 0xbd,
  0x0b, 0x5c, 0xdb, 0xbd, 0x4a, 0xea, 0x33, 0xbe, 0xcd, 0x13, 0x67, 0xbd,
  0x71, 0x1b, 0x30, 0xbd, 0x09, 0x3d, 0xd5, 0xbc, 0x5d, 0xfd, 0x3c, 0xbe,
  0x06, 0xfb, 0xf0, 0xbd, 0x4d, 0xb5, 0x03, 0x3e, 0x1b, 0x3b, 0x53, 0x3d,
  0x6b, 0x05, 0x2f, 0x3d, 0xdd, 0x50, 0xb4, 0xbd, 0x93, 0x50, 0x62, 0xbd,
  0x6a, 0x3a, 0x9f, 0xbd, 0xbb, 0x79, 0x91, 0xbd, 0xc1, 0x5e, 0xbd, 0x3c,
  0x7e, 0x83, 0xa7, 0x3b, 0x2f, 0x9c, 0x14, 0x3d, 0x26, 0x6e, 0x73, 0x3c,
  0x1e, 0x09, 0x0e, 0x3e, 0x35, 0x94, 0x09, 0x3e, 0x74, 0x12, 0xf9, 0x3d,
  0xc4, 0x9c, 0x1c, 0x3e, 0x61, 0x93, 0xb2, 0xbd, 0xee, 0xcc, 0xaf, 0x3b,
  0xba, 0x0a, 0x9a, 0xbd, 0x93, 0xd3, 0x2e, 0x3d, 0x21, 0x6c, 0xde, 0x3c,
  0xc6, 0xf4, 0x49, 0xbd, 0x66, 0xd6, 0xb7, 0xbd, 0xe5, 0x59, 0x4c, 0x3d,
  0x2d, 0xa8, 0x57, 0xbd, 0x4e, 0x32, 0x11, 0xbe, 0xff, 0x51, 0x2d, 0x3d,
  0x18, 0x41, 0x02, 0x3c, 0x76, 0x60, 0x98, 0xbd, 0x4c, 0xb1, 0xb1, 0x3c,
  0x24, 0xbd, 0xb1, 0x3d, 0xce, 0x28, 0x50, 0xbd, 0x77, 0xb6, 0xb5, 0x3d,
  0xa3, 0x46, 0xf7, 0xbd, 0xaa, 0x57, 0xa8, 0x3c, 0xde, 0x27, 0x87, 0x3d,
  0x44, 0x5b, 0xe2, 0xbd, 0x40, 0x2e, 0xee, 0xbc, 0xcd, 0x4e, 0x25, 0x3e,
  0xa6, 0xd6, 0x13, 0x3e, 0x5e, 0x91, 0x42, 0xbc, 0x7c, 0xae, 0x1c, 0xbe,
  0x7b, 0x32, 0xfe, 0x3d, 0x8e, 0x66, 0x2e, 0xbd, 0x55, 0x3d, 0x0f, 0xbe,
  0x14, 0xfb, 0x09, 0x3e, 0x4c, 0x54, 0x0f, 0xbe, 0x5a, 0xfb, 0x22, 0x3b,
  0x37, 0x9f, 0x7f, 0xbc, 0xae, 0xc2, 0xed, 0x3d, 0x58, 0xd7, 0xed, 0x3c,
  0xa7, 0x63, 0xe1, 0xbd, 0xb0, 0xb0, 0xa2, 0xbd, 0x35, 0xa5, 0xf9, 0x3d,
  0x41, 0xf1, 0xca, 0xba, 0xee, 0x92, 0x29, 0x3e, 0x0f, 0x75, 0x5a, 0x3c,
  0x4c, 0x5a, 0xf1, 0xbd, 0x64, 0xbd, 0xa5, 0x3d, 0x88, 0x4e, 0x21, 0x3e,
  0x18, 0x6d, 0xb7, 0xbb, 0x7b, 0xb9, 0xc2, 0xbd, 0xdb, 0xa4, 0x88, 0x3d,
  0x5f, 0x19, 0x99, 0x3d, 0x35, 0x0e, 0x29, 0x3e, 0x46, 0xd0, 0xe5, 0x3d,
  0xfa, 0xcd, 0x94, 0xbb, 0xce, 0xca, 0x11, 0xbe, 0xbb, 0x5f, 0x39, 0x3d,
  0xa3, 0x4c, 0x29, 0xbe, 0x22, 0x8f, 0xd8, 0xbd, 0xe4, 0xb7, 0x1f, 0xbe,
  0xcf, 0x2b, 0xd2, 0xbd, 0x5e, 0x2e, 0x14, 0xbe, 0x60, 0x5e, 0xaf, 0x3c,
  0xcd, 0xc1, 0xc2, 0x3c, 0x77, 0x76, 0xb4, 0xbc, 0x46, 0xaa, 0x35, 0xbe,
  0x76, 0x82, 0x3c, 0xbe, 0x64, 0x4b, 0xcb, 0x3c, 0x06, 0x84, 0x0c, 0xbe,
  0xc5, 0xbc, 0x07, 0xbe, 0x3c, 0x20, 0xce, 0xbe, 0xf5, 0x5d, 0x50, 0x3c,
  0xb7, 0xcc, 0x9d, 0xbe, 0x52, 0x76, 0xb5, 0xbe, 0xbd, 0x77, 0xaa, 0x3e,
  0x10, 0x95, 0xa5, 0xbe, 0x2e, 0x4c, 0xbd, 0xbe, 0xcf, 0x27, 0x22, 0x3e,
  0xce, 0x39, 0x72, 0xbe, 0x44, 0xa4, 0xcd, 0xbe, 0xd9, 0x4e, 0x0b, 0x3d,
  0x04, 0x11, 0x88, 0xbe, 0xe3, 0xa5, 0x7f, 0xbe, 0x34, 0x09, 0x72, 0x3e,
  0xbb, 0xab, 0xcb, 0xbe, 0x03, 0x21, 0x0b, 0xbf, 0xb8, 0xff, 0x39, 0x3e,
  0x66, 0x6c, 0xd5, 0x3b, 0x20, 0xe2, 0xd9, 0xbd, 0xe6, 0x12, 0x98, 0x3e,
  0x94, 0xdd, 0x13, 0xbf, 0xb1, 0x19, 0x2e, 0xbf, 0x09, 0x44, 0x76, 0x3e,
  0x60, 0x44, 0x25, 0xbe, 0xf3, 0x87, 0x70, 0x3b, 0xb8, 0xd3, 0x9a, 0xbd,
  0xe5, 0x86, 0x1f, 0xbf, 0xa3, 0xf1, 0x44, 0xbf, 0x08, 0xac, 0x21, 0x3e,
  0x9d, 0x15, 0xde, 0x3d, 0x9d, 0xf1, 0x30, 0xbe, 0xea, 0x06, 0x1e, 0x3e,
  0xd9, 0xfd, 0x1f, 0xbf, 0x63, 0x79, 0x69, 0xbf, 0xf3, 0x9a, 0x99, 0x3d,
  0x82, 0x4f, 0x85, 0x3d, 0x0f, 0x4f, 0x02, 0x3e, 0xb3, 0xc8, 0xed, 0x3d,
  0xfa, 0xf3, 0x07, 0xbf, 0x62, 0x50, 0x64, 0xbf, 0x8e, 0x64, 0x8f, 0x3e,
  0x0d, 0x88, 0x95, 0x3c, 0x67, 0xe2, 0x02, 0xbc, 0x6d, 0xd9, 0x44, 0x3e,
  0x27, 0x8f, 0x86, 0xbe, 0x6e, 0x1e, 0x1c, 0xbf, 0x78, 0x90, 0x5f, 0x3c,
  0xc1, 0x88, 0x37, 0x3c, 0x69, 0x98, 0xba, 0x3e, 0x59, 0x02, 0x30, 0x3d,
  0x4f, 0x07, 0xff, 0xbe, 0x62, 0x7c, 0x1e, 0xbf, 0x5a, 0x47, 0x83, 0x3d,
  0x29, 0xa0, 0x16, 0x3c, 0xa0, 0x72, 0x03, 0x3e, 0xd7, 0xc7, 0xb1, 0x3e,
  0x8d, 0x9f, 0x9c, 0xbe, 0x6d, 0x4b, 0x16, 0xbf, 0x5b, 0x4f, 0x5b, 0x3e,
  0xf2, 0x2f, 0x0b, 0xbe, 0x76, 0xc8, 0x96, 0x3e, 0x82, 0x34, 0x9a, 0x3e,
  0x17, 0x38, 0x32, 0xbe, 0xc3, 0xaf, 0xdb, 0xbe, 0xf1, 0xf1, 0xeb, 0xbd,
  0x90, 0xac, 0xf9, 0xbd, 0x50, 0x7e, 0x40, 0x3d, 0x3e, 0xd0, 0xe4, 0x3e,
  0x1f, 0x10, 0x34, 0xbe, 0x0b, 0x12, 0xf4, 0xbe, 0xf4, 0x9b, 0x85, 0xbd,
  0xb0, 0xbd, 0x83, 0xbd, 0x5d, 0xf3, 0x1f, 0xbd, 0x9b, 0x1d, 0x03, 0x3f,
  0x2f, 0x1d, 0x79, 0xbe, 0xf7, 0x3a, 0xcc, 0xbd, 0xa7, 0x83, 0x1c, 0x3e,
  0x1d, 0xff, 0xfc, 0x3d, 0x76, 0x6d, 0x77, 0x3d, 0xca, 0x4e, 0xe3, 0x3e,
  0xd3, 0x3b, 0x07, 0xbb, 0x37, 0xc7, 0x54, 0xbd, 0x7c, 0x52, 0xa2, 0xbd,
  0xdd, 0xc8, 0xb9, 0x3d, 0xd3, 0x12, 0x1b, 0x3e, 0x8e, 0x62, 0x30, 0x3f,
  0x30, 0x18, 0x72, 0xbc, 0x91, 0x61, 0x16, 0xbe, 0x23, 0xdc, 0x24, 0x3e,
  0x35, 0xc8, 0xab, 0xbd, 0x28, 0x02, 0x1f, 0xbd, 0x52, 0x53, 0x2a, 0x3f,
  0xdf, 0x55, 0xd7, 0x3d, 0x19, 0x14, 0x0f, 0x3d, 0x6b, 0x63, 0x29, 0x3e,
  0x67, 0xac, 0x14, 0x3e, 0xfa, 0x48, 0xb5, 0x3d, 0x47, 0x38, 0x92, 0x3e,
  0x13, 0xbf, 0xa2, 0x3e, 0x2f, 0xa7, 0x97, 0x3d, 0xa6, 0x5c, 0xe8, 0x3d,
  0xef, 0x2a, 0xf7, 0x3d, 0x75, 0xbc, 0x10, 0x3d, 0x0b, 0x04, 0xad, 0x3d,
  0xc2, 0xd1, 0x7c, 0x3e, 0xaa, 0x09, 0x67, 0x3e, 0x29, 0x9b, 0x5c, 0x3e,
  0x6b, 0x36, 0x04, 0x3e, 0x8f, 0x44, 0xa1, 0x3e, 0x43, 0xb2, 0x5a, 0x3d,
  0x3e, 0x92, 0x79, 0x3c, 0xc0, 0xaf, 0xb2, 0x3e, 0x14, 0x69, 0x27, 0x3e,
  0x0d, 0xca, 0xc8, 0x3d, 0x45, 0xe5, 0x6a, 0x3e, 0x0a, 0x2b, 0x62, 0xbe,
  0x6a, 0x5e, 0x4f, 0xbc, 0x4b, 0x66, 0xe6, 0x3d, 0x4f, 0x1f, 0x6d, 0x3e,
  0xcf, 0x99, 0x93, 0xbd, 0x69, 0xae, 0x58, 0x3e, 0xa5, 0x58, 0xed, 0xbd,
  0xe6, 0x83, 0x80, 0x3e, 0xea, 0xd7, 0xaa, 0x3e, 0x03, 0xf6, 0xd2, 0x3d,
  0x5e, 0xdb, 0xb3, 0x3d, 0xed, 0x81, 0x8f, 0xbc, 0xf5, 0x98, 0x18, 0xbd,
  0x92, 0xd5, 0xf3, 0x3d, 0x6a, 0x63, 0x30, 0x3e, 0xa1, 0xdb, 0xa7, 0x3d,
  0xe3, 0x3b, 0xe2, 0x3c, 0x9b, 0xfe, 0x02, 0x3d, 0x81, 0xc6, 0x91, 0x3d,
  0x75, 0x17, 0x10, 0x3e, 0xc1, 0x94, 0xa7, 0x3e, 0x8e, 0x07, 0x43, 0x3e,
  0x7b, 0x02, 0x9e, 0xbd, 0x9b, 0x36, 0x38, 0x3d, 0x4e, 0xe9, 0x80, 0xbe,
  0xcc, 0x39, 0x2d, 0x3d, 0x39, 0x5a, 0x68, 0x3e, 0x5c, 0x27, 0x06, 0x3e,
  0x31, 0xb3, 0x3b, 0x3e, 0x36, 0x89, 0xf8, 0xbd, 0x91, 0x19, 0x45, 0xbe,
  0x9e, 0xd5, 0x15, 0x3e, 0x32, 0xbe, 0x05, 0x3d, 0xd9, 0x9f, 0x4b, 0x3e,
  0xd3, 0x98, 0x9f, 0xbd, 0x74, 0x5f, 0x03, 0xbe, 0xeb, 0x01, 0xd5, 0xbd,
  0x99, 0x44, 0xa2, 0x3e, 0x9a, 0x63, 0x8c, 0x3e, 0x4d, 0x07, 0x0f, 0xbd,
  0x2a, 0x4a, 0xc0, 0x3d, 0x01, 0x88, 0x06, 0xbe, 0xac, 0xaa, 0x21, 0xbe,
  0x25, 0x15, 0xc3, 0x3d, 0x1f, 0x07, 0x2b, 0x3e, 0x10, 0xd0, 0x08, 0xbd,
  0xfa, 0x82, 0x08, 0x3d, 0x68, 0x98, 0x9c, 0xbd, 0xe2, 0x1c, 0x0c, 0x3e,
  0xf4, 0xb2, 0x20, 0x3e, 0x1b, 0xe0, 0xc2, 0x3d, 0x9d, 0xef, 0x48, 0x3d,
  0x89, 0x9a, 0x67, 0x3e, 0xd9, 0x70, 0x30, 0x3e, 0xb6, 0x70, 0x9f, 0x3d,
  0x9f, 0x87, 0x6f, 0x3e, 0xbb, 0xb2, 0x83, 0xbd, 0x56, 0xc7, 0x86, 0x3e,
  0xfa, 0x50, 0x51, 0x3c, 0xab, 0x59, 0x65, 0xbc, 0x2c, 0x17, 0x33, 0x3d,
  0xe5, 0x05, 0x89, 0x3e, 0xd3, 0x17, 0x0c, 0x3e, 0x4c, 0x06, 0x41, 0x3e,
  0xcf, 0xb0, 0x3b, 0x3e, 0xf6, 0xfe, 0xff, 0xff, 0x04, 0x00, 0x00, 0x00,
  0x20, 0x00, 0x00, 0x00, 0x00, 0x00, 0x00, 0x00, 0x00, 0x00, 0x00, 0x00,
  0xd1, 0x22, 0xa8, 0xbb, 0xa0, 0x22, 0xa8, 0xbb, 0xbf, 0x39, 0x8b, 0xbb,
  0xf8, 0xeb, 0x18, 0xbc, 0x24, 0xc9, 0xc4, 0xbb, 0x16, 0x76, 0xb1, 0x3d,
  0x22, 0xff, 0xff, 0xff, 0x04, 0x00, 0x00, 0x00, 0x20, 0x00, 0x00, 0x00,
  0x85, 0x4a, 0xf9, 0xbe, 0xe9, 0xe3, 0xc8, 0x3f, 0x79, 0x04, 0x90, 0xbf,
  0xeb, 0x16, 0xc5, 0xbe, 0x06, 0x97, 0x80, 0xc0, 0x1b, 0x60, 0x9c, 0x3f,
  0x3b, 0x75, 0xb1, 0x3f, 0x5d, 0xe1, 0x63, 0xbd, 0x4e, 0xff, 0xff, 0xff,
  0x04, 0x00, 0x00, 0x00, 0x10, 0x00, 0x00, 0x00, 0xf3, 0x4f, 0x21, 0xbb,
  0x00, 0x00, 0x00, 0x00, 0xfb, 0x78, 0xa3, 0xbf, 0x00, 0x00, 0x00, 0x00,
  0x2c, 0xfa, 0xff, 0xff, 0x30, 0xfa, 0xff, 0xff, 0x0f, 0x00, 0x00, 0x00,
  0x4d, 0x4c, 0x49, 0x52, 0x20, 0x43, 0x6f, 0x6e, 0x76, 0x65, 0x72, 0x74,
  0x65, 0x64, 0x2e, 0x00, 0x01, 0x00, 0x00, 0x00, 0x14, 0x00, 0x00, 0x00,
  0x00, 0x00, 0x0e, 0x00, 0x18, 0x00, 0x14, 0x00, 0x10, 0x00, 0x0c, 0x00,
  0x08, 0x00, 0x04, 0x00, 0x0e, 0x00, 0x00, 0x00, 0x14, 0x00, 0x00, 0x00,
  0x1c, 0x00, 0x00, 0x00, 0x24, 0x01, 0x00, 0x00, 0x28, 0x01, 0x00, 0x00,
  0x2c, 0x01, 0x00, 0x00, 0x04, 0x00, 0x00, 0x00, 0x6d, 0x61, 0x69, 0x6e,
  0x00, 0x00, 0x00, 0x00, 0x04, 0x00, 0x00, 0x00, 0xcc, 0x00, 0x00, 0x00,
  0x84, 0x00, 0x00, 0x00, 0x50, 0x00, 0x00, 0x00, 0x14, 0x00, 0x00, 0x00,
  0x00, 0x00, 0x0e, 0x00, 0x1a, 0x00, 0x14, 0x00, 0x10, 0x00, 0x0c, 0x00,
  0x0b, 0x00, 0x04, 0x00, 0x0e, 0x00, 0x00, 0x00, 0x1c, 0x00, 0x00, 0x00,
  0x00, 0x00, 0x00, 0x09, 0x1c, 0x00, 0x00, 0x00, 0x20, 0x00, 0x00, 0x00,
  0x01, 0x00, 0x00, 0x00, 0x00, 0x00, 0x06, 0x00, 0x08, 0x00, 0x04, 0x00,
  0x06, 0x00, 0x00, 0x00, 0x00, 0x00, 0x80, 0x3f, 0x01, 0x00, 0x00, 0x00,
  0x0a, 0x00, 0x00, 0x00, 0x01, 0x00, 0x00, 0x00, 0x09, 0x00, 0x00, 0x00,
  0x9a, 0xff, 0xff, 0xff, 0x10, 0x00, 0x00, 0x00, 0x00, 0x00, 0x00, 0x08,
  0x0c, 0x00, 0x00, 0x00, 0x10, 0x00, 0x00, 0x00, 0xf4, 0xfa, 0xff, 0xff,
  0x01, 0x00, 0x00, 0x00, 0x09, 0x00, 0x00, 0x00, 0x03, 0x00, 0x00, 0x00,
  0x08, 0x00, 0x00, 0x00, 0x06, 0x00, 0x00, 0x00, 0x02, 0x00, 0x00, 0x00,
  0xca, 0xff, 0xff, 0xff, 0x10, 0x00, 0x00, 0x00, 0x00, 0x00, 0x00, 0x08,
  0x10, 0x00, 0x00, 0x00, 0x14, 0x00, 0x00, 0x00, 0xba, 0xff, 0xff, 0xff,
  0x00, 0x00, 0x00, 0x01, 0x01, 0x00, 0x00, 0x00, 0x08, 0x00, 0x00, 0x00,
  0x03, 0x00, 0x00, 0x00, 0x07, 0x00, 0x00, 0x00, 0x05, 0x00, 0x00, 0x00,
  0x01, 0x00, 0x00, 0x00, 0x00, 0x00, 0x0e, 0x00, 0x16, 0x00, 0x00, 0x00,
  0x10, 0x00, 0x0c, 0x00, 0x0b, 0x00, 0x04, 0x00, 0x0e, 0x00, 0x00, 0x00,
  0x18, 0x00, 0x00, 0x00, 0x00, 0x00, 0x00, 0x08, 0x18, 0x00, 0x00, 0x00,
  0x1c, 0x00, 0x00, 0x00, 0x00, 0x00, 0x06, 0x00, 0x08, 0x00, 0x07, 0x00,
  0x06, 0x00, 0x00, 0x00, 0x00, 0x00, 0x00, 0x01, 0x01, 0x00, 0x00, 0x00,
  0x07, 0x00, 0x00, 0x00, 0x03, 0x00, 0x00, 0x00, 0x00, 0x00, 0x00, 0x00,
  0x04, 0x00, 0x00, 0x00, 0x03, 0x00, 0x00, 0x00, 0x01, 0x00, 0x00, 0x00,
  0x0a, 0x00, 0x00, 0x00, 0x01, 0x00, 0x00, 0x00, 0x00, 0x00, 0x00, 0x00,
  0x0b, 0x00, 0x00, 0x00, 0x34, 0x04, 0x00, 0x00, 0xc0, 0x03, 0x00, 0x00,
  0x4c, 0x03, 0x00, 0x00, 0xf4, 0x02, 0x00, 0x00, 0xa8, 0x02, 0x00, 0x00,
  0x58, 0x02, 0x00, 0x00, 0x08, 0x02, 0x00, 0x00, 0x74, 0x01, 0x00, 0x00,
  0xdc, 0x00, 0x00, 0x00, 0x60, 0x00, 0x00, 0x00, 0x04, 0x00, 0x00, 0x00,
  0x0e, 0xfc, 0xff, 0xff, 0x00, 0x00, 0x00, 0x01, 0x14, 0x00, 0x00, 0x00,
  0x1c, 0x00, 0x00, 0x00, 0x1c, 0x00, 0x00, 0x00, 0x0b, 0x00, 0x00, 0x00,
  0x34, 0x00, 0x00, 0x00, 0x02, 0x00, 0x00, 0x00, 0xff, 0xff, 0xff, 0xff,
  0x08, 0x00, 0x00, 0x00, 0xf8, 0xfb, 0xff, 0xff, 0x19, 0x00, 0x00, 0x00,
  0x53, 0x74, 0x61, 0x74, 0x65, 0x66, 0x75, 0x6c, 0x50, 0x61, 0x72, 0x74,
  0x69, 0x74, 0x69, 0x6f, 0x6e, 0x65, 0x64, 0x43, 0x61, 0x6c, 0x6c, 0x3a,
  0x30, 0x00, 0x00, 0x00, 0x02, 0x00, 0x00, 0x00, 0x01, 0x00, 0x00, 0x00,
  0x08, 0x00, 0x00, 0x00, 0x66, 0xfc, 0xff, 0xff, 0x00, 0x00, 0x00, 0x01,
  0x14, 0x00, 0x00, 0x00, 0x1c, 0x00, 0x00, 0x00, 0x1c, 0x00, 0x00, 0x00,
  0x0a, 0x00, 0x00, 0x00, 0x54, 0x00, 0x00, 0x00, 0x02, 0x00, 0x00, 0x00,
  0xff, 0xff, 0xff, 0xff, 0x08, 0x00, 0x00, 0x00, 0x50, 0xfc, 0xff, 0xff,
  0x3a, 0x00, 0x00, 0x00, 0x73, 0x65, 0x71, 0x75, 0x65, 0x6e, 0x74, 0x69,
  0x61, 0x6c, 0x5f, 0x33, 0x2f, 0x64, 0x65, 0x6e, 0x73, 0x65, 0x5f, 0x31,
  0x31, 0x2f, 0x4d, 0x61, 0x74, 0x4d, 0x75, 0x6c, 0x3b, 0x73, 0x65, 0x71,
  0x75, 0x65, 0x6e, 0x74, 0x69, 0x61, 0x6c, 0x5f, 0x33, 0x2f, 0x64, 0x65,
  0x6e, 0x73, 0x65, 0x5f, 0x31, 0x31, 0x2f, 0x42, 0x69, 0x61, 0x73, 0x41,
  0x64, 0x64, 0x00, 0x00, 0x02, 0x00, 0x00, 0x00, 0x01, 0x00, 0x00, 0x00,
  0x08, 0x00, 0x00, 0x00, 0xde, 0xfc, 0xff, 0xff, 0x00, 0x00, 0x00, 0x01,
  0x14, 0x00, 0x00, 0x00, 0x1c, 0x00, 0x00, 0x00, 0x1c, 0x00, 0x00, 0x00,
  0x09, 0x00, 0x00, 0x00, 0x70, 0x00, 0x00, 0x00, 0x02, 0x00, 0x00, 0x00,
  0xff, 0xff, 0xff, 0xff, 0x04, 0x00, 0x00, 0x00, 0xc8, 0xfc, 0xff, 0xff,
  0x55, 0x00, 0x00, 0x00, 0x73, 0x65, 0x71, 0x75, 0x65, 0x6e, 0x74, 0x69,
  0x61, 0x6c, 0x5f, 0x33, 0x2f, 0x64, 0x65, 0x6e, 0x73, 0x65, 0x5f, 0x31,
  0x30, 0x2f, 0x4d, 0x61, 0x74, 0x4d, 0x75, 0x6c, 0x3b, 0x73, 0x65, 0x71,
  0x75, 0x65, 0x6e, 0x74, 0x69, 0x61, 0x6c, 0x5f, 0x33, 0x2f, 0x64, 0x65,
  0x6e, 0x73, 0x65, 0x5f, 0x31, 0x30, 0x2f, 0x52, 0x65, 0x6c, 0x75, 0x3b,
  0x73, 0x65, 0x71, 0x75, 0x65, 0x6e, 0x74, 0x69, 0x61, 0x6c, 0x5f, 0x33,
  0x2f, 0x64, 0x65, 0x6e, 0x73, 0x65, 0x5f, 0x31, 0x30, 0x2f, 0x42, 0x69,
  0x61, 0x73, 0x41, 0x64, 0x64, 0x00, 0x00, 0x00, 0x02, 0x00, 0x00, 0x00,
  0x01, 0x00, 0x00, 0x00, 0x04, 0x00, 0x00, 0x00, 0x72, 0xfd, 0xff, 0xff,
  0x00, 0x00, 0x00, 0x01, 0x14, 0x00, 0x00, 0x00, 0x1c, 0x00, 0x00, 0x00,
  0x1c, 0x00, 0x00, 0x00, 0x08, 0x00, 0x00, 0x00, 0x6c, 0x00, 0x00, 0x00,
  0x02, 0x00, 0x00, 0x00, 0xff, 0xff, 0xff, 0xff, 0x08, 0x00, 0x00, 0x00,
  0x5c, 0xfd, 0xff, 0xff, 0x52, 0x00, 0x00, 0x00, 0x73, 0x65, 0x71, 0x75,
  0x65, 0x6e, 0x74, 0x69, 0x61, 0x6c, 0x5f, 0x33, 0x2f, 0x64, 0x65, 0x6e,
  0x73, 0x65, 0x5f, 0x39, 0x2f, 0x4d, 0x61, 0x74, 0x4d, 0x75, 0x6c, 0x3b,
  0x73, 0x65, 0x71, 0x75, 0x65, 0x6e, 0x74, 0x69, 0x61, 0x6c, 0x5f, 0x33,
  0x2f, 0x64, 0x65, 0x6e, 0x73, 0x65, 0x5f, 0x39, 0x2f, 0x52, 0x65, 0x6c,
  0x75, 0x3b, 0x73, 0x65, 0x71, 0x75, 0x65, 0x6e, 0x74, 0x69, 0x61, 0x6c,
  0x5f, 0x33, 0x2f, 0x64, 0x65, 0x6e, 0x73, 0x65, 0x5f, 0x39, 0x2f, 0x42,
  0x69, 0x61, 0x73, 0x41, 0x64, 0x64, 0x00, 0x00, 0x02, 0x00, 0x00, 0x00,
  0x01, 0x00, 0x00, 0x00, 0x08, 0x00, 0x00, 0x00, 0x72, 0xfe, 0xff, 0xff,
  0x00, 0x00, 0x00, 0x01, 0x10, 0x00, 0x00, 0x00, 0x10, 0x00, 0x00, 0x00,
  0x07, 0x00, 0x00, 0x00, 0x2c, 0x00, 0x00, 0x00, 0xdc, 0xfd, 0xff, 0xff,
  0x1c, 0x00, 0x00, 0x00, 0x73, 0x65, 0x71, 0x75, 0x65, 0x6e, 0x74, 0x69,
  0x61, 0x6c, 0x5f, 0x33, 0x2f, 0x64, 0x65, 0x6e, 0x73, 0x65, 0x5f, 0x31,
  0x31, 0x2f, 0x4d, 0x61, 0x74, 0x4d, 0x75, 0x6c, 0x00, 0x00, 0x00, 0x00,
  0x02, 0x00, 0x00, 0x00, 0x08, 0x00, 0x00, 0x00, 0x04, 0x00, 0x00, 0x00,
  0xbe, 0xfe, 0xff, 0xff, 0x00, 0x00, 0x00, 0x01, 0x10, 0x00, 0x00, 0x00,
  0x10, 0x00, 0x00, 0x00, 0x06, 0x00, 0x00, 0x00, 0x2c, 0x00, 0x00, 0x00,
  0x28, 0xfe, 0xff, 0xff, 0x1c, 0x00, 0x00, 0x00, 0x73, 0x65, 0x71, 0x75,
  0x65, 0x6e, 0x74, 0x69, 0x61, 0x6c, 0x5f, 0x33, 0x2f, 0x64, 0x65, 0x6e,
  0x73, 0x65, 0x5f, 0x31, 0x30, 0x2f, 0x4d, 0x61, 0x74, 0x4d, 0x75, 0x6c,
  0x00, 0x00, 0x00, 0x00, 0x02, 0x00, 0x00, 0x00, 0x04, 0x00, 0x00, 0x00,
  0x08, 0x00, 0x00, 0x00, 0x0a, 0xff, 0xff, 0xff, 0x00, 0x00, 0x00, 0x01,
  0x10, 0x00, 0x00, 0x00, 0x10, 0x00, 0x00, 0x00, 0x05, 0x00, 0x00, 0x00,
  0x28, 0x00, 0x00, 0x00, 0x74, 0xfe, 0xff, 0xff, 0x1b, 0x00, 0x00, 0x00,
  0x73, 0x65, 0x71, 0x75, 0x65, 0x6e, 0x74, 0x69, 0x61, 0x6c, 0x5f, 0x33,
  0x2f, 0x64, 0x65, 0x6e, 0x73, 0x65, 0x5f, 0x39, 0x2f, 0x4d, 0x61, 0x74,
  0x4d, 0x75, 0x6c, 0x00, 0x02, 0x00, 0x00, 0x00, 0x08, 0x00, 0x00, 0x00,
  0xb4, 0x00, 0x00, 0x00, 0x52, 0xff, 0xff, 0xff, 0x00, 0x00, 0x00, 0x01,
  0x10, 0x00, 0x00, 0x00, 0x10, 0x00, 0x00, 0x00, 0x04, 0x00, 0x00, 0x00,
  0x38, 0x00, 0x00, 0x00, 0xbc, 0xfe, 0xff, 0xff, 0x2b, 0x00, 0x00, 0x00,
  0x73, 0x65, 0x71, 0x75, 0x65, 0x6e, 0x74, 0x69, 0x61, 0x6c, 0x5f, 0x33,
  0x2f, 0x64, 0x65, 0x6e, 0x73, 0x65, 0x5f, 0x39, 0x2f, 0x42, 0x69, 0x61,
  0x73, 0x41, 0x64, 0x64, 0x2f, 0x52, 0x65, 0x61, 0x64, 0x56, 0x61, 0x72,
  0x69, 0x61, 0x62, 0x6c, 0x65, 0x4f, 0x70, 0x00, 0x01, 0x00, 0x00, 0x00,
  0x08, 0x00, 0x00, 0x00, 0xa6, 0xff, 0xff, 0xff, 0x00, 0x00, 0x00, 0x01,
  0x10, 0x00, 0x00, 0x00, 0x10, 0x00, 0x00, 0x00, 0x03, 0x00, 0x00, 0x00,
  0x3c, 0x00, 0x00, 0x00, 0x10, 0xff, 0xff, 0xff, 0x2c, 0x00, 0x00, 0x00,
  0x73, 0x65, 0x71, 0x75, 0x65, 0x6e, 0x74, 0x69, 0x61, 0x6c, 0x5f, 0x33,
  0x2f, 0x64, 0x65, 0x6e, 0x73, 0x65, 0x5f, 0x31, 0x31, 0x2f, 0x42, 0x69,
  0x61, 0x73, 0x41, 0x64, 0x64, 0x2f, 0x52, 0x65, 0x61, 0x64, 0x56, 0x61,
  0x72, 0x69, 0x61, 0x62, 0x6c, 0x65, 0x4f, 0x70, 0x00, 0x00, 0x00, 0x00,
  0x01, 0x00, 0x00, 0x00, 0x08, 0x00, 0x00, 0x00, 0x00, 0x00, 0x16, 0x00,
  0x18, 0x00, 0x14, 0x00, 0x00, 0x00, 0x10, 0x00, 0x0c, 0x00, 0x08, 0x00,
  0x00, 0x00, 0x00, 0x00, 0x00, 0x00, 0x07, 0x00, 0x16, 0x00, 0x00, 0x00,
  0x00, 0x00, 0x00, 0x01, 0x10, 0x00, 0x00, 0x00, 0x10, 0x00, 0x00, 0x00,
  0x02, 0x00, 0x00, 0x00, 0x3c, 0x00, 0x00, 0x00, 0x80, 0xff, 0xff, 0xff,
  0x2c, 0x00, 0x00, 0x00, 0x73, 0x65, 0x71, 0x75, 0x65, 0x6e, 0x74, 0x69,
  0x61, 0x6c, 0x5f, 0x33, 0x2f, 0x64, 0x65, 0x6e, 0x73, 0x65, 0x5f, 0x31,
  0x30, 0x2f, 0x42, 0x69, 0x61, 0x73, 0x41, 0x64, 0x64, 0x2f, 0x52, 0x65,
  0x61, 0x64, 0x56, 0x61, 0x72, 0x69, 0x61, 0x62, 0x6c, 0x65, 0x4f, 0x70,
  0x00, 0x00, 0x00, 0x00, 0x01, 0x00, 0x00, 0x00, 0x04, 0x00, 0x00, 0x00,
  0x00, 0x00, 0x16, 0x00, 0x1c, 0x00, 0x18, 0x00, 0x00, 0x00, 0x14, 0x00,
  0x10, 0x00, 0x0c, 0x00, 0x00, 0x00, 0x00, 0x00, 0x08, 0x00, 0x07, 0x00,
  0x16, 0x00, 0x00, 0x00, 0x00, 0x00, 0x00, 0x01, 0x14, 0x00, 0x00, 0x00,
  0x20, 0x00, 0x00, 0x00, 0x20, 0x00, 0x00, 0x00, 0x01, 0x00, 0x00, 0x00,
  0x3c, 0x00, 0x00, 0x00, 0x02, 0x00, 0x00, 0x00, 0xff, 0xff, 0xff, 0xff,
  0xb4, 0x00, 0x00, 0x00, 0x04, 0x00, 0x04, 0x00, 0x04, 0x00, 0x00, 0x00,
  0x1f, 0x00, 0x00, 0x00, 0x73, 0x65, 0x72, 0x76, 0x69, 0x6e, 0x67, 0x5f,
  0x64, 0x65, 0x66, 0x61, 0x75, 0x6c, 0x74, 0x5f, 0x64, 0x65, 0x6e, 0x73,
  0x65, 0x5f, 0x39, 0x5f, 0x69, 0x6e, 0x70, 0x75, 0x74, 0x3a, 0x30, 0x00,
  0x02, 0x00, 0x00, 0x00, 0x01, 0x00, 0x00, 0x00, 0xb4, 0x00, 0x00, 0x00,
  0x02, 0x00, 0x00, 0x00, 0x20, 0x00, 0x00, 0x00, 0x04, 0x00, 0x00, 0x00,
  0xf4, 0xff, 0xff, 0xff, 0x19, 0x00, 0x00, 0x00, 0x00, 0x00, 0x00, 0x19,
  0x0c, 0x00, 0x0c, 0x00, 0x0b, 0x00, 0x00, 0x00, 0x00, 0x00, 0x04, 0x00,
  0x0c, 0x00, 0x00, 0x00, 0x09, 0x00, 0x00, 0x00, 0x00, 0x00, 0x00, 0x09
}; 
