const unsigned char gesture_model_q [] = {  
  0x1c, 0x00, 0x00, 0x00, 0x54, 0x46, 0x4c, 0x33, 0x14, 0x00, 0x20, 0x00,
  0x1c, 0x00, 0x18, 0x00, 0x14, 0x00, 0x10, 0x00, 0x0c, 0x00, 0x00, 0x00,
  0x08, 0x00, 0x04, 0x00, 0x14, 0x00, 0x00, 0x00, 0x1c, 0x00, 0x00, 0x00,
  0x84, 0x00, 0x00, 0x00, 0xdc, 0x00, 0x00, 0x00, 0x84, 0x0e, 0x00, 0x00,
  0x94, 0x0e, 0x00, 0x00, 0xf4, 0x16, 0x00, 0x00, 0x03, 0x00, 0x00, 0x00,
  0x01, 0x00, 0x00, 0x00, 0x04, 0x00, 0x00, 0x00, 0x26, 0xf1, 0xff, 0xff,
  0x0c, 0x00, 0x00, 0x00, 0x1c, 0x00, 0x00, 0x00, 0x38, 0x00, 0x00, 0x00,
  0x0f, 0x00, 0x00, 0x00, 0x73, 0x65, 0x72, 0x76, 0x69, 0x6e, 0x67, 0x5f,
  0x64, 0x65, 0x66, 0x61, 0x75, 0x6c, 0x74, 0x00, 0x01, 0x00, 0x00, 0x00,
  0x04, 0x00, 0x00, 0x00, 0x98, 0xff, 0xff, 0xff, 0x0c, 0x00, 0x00, 0x00,
  0x04, 0x00, 0x00, 0x00, 0x07, 0x00, 0x00, 0x00, 0x64, 0x65, 0x6e, 0x73,
  0x65, 0x5f, 0x32, 0x00, 0x01, 0x00, 0x00, 0x00, 0x04, 0x00, 0x00, 0x00,
  0x2e, 0xf1, 0xff, 0xff, 0x04, 0x00, 0x00, 0x00, 0x0b, 0x00, 0x00, 0x00,
  0x64, 0x65, 0x6e, 0x73, 0x65, 0x5f, 0x69, 0x6e, 0x70, 0x75, 0x74, 0x00,
  0x02, 0x00, 0x00, 0x00, 0x34, 0x00, 0x00, 0x00, 0x04, 0x00, 0x00, 0x00,
  0xdc, 0xff, 0xff, 0xff, 0x0f, 0x00, 0x00, 0x00, 0x04, 0x00, 0x00, 0x00,
  0x13, 0x00, 0x00, 0x00, 0x43, 0x4f, 0x4e, 0x56, 0x45, 0x52, 0x53, 0x49,
  0x4f, 0x4e, 0x5f, 0x4d, 0x45, 0x54, 0x41, 0x44, 0x41, 0x54, 0x41, 0x00,
  0x08, 0x00, 0x0c, 0x00, 0x08, 0x00, 0x04, 0x00, 0x08, 0x00, 0x00, 0x00,
  0x0e, 0x00, 0x00, 0x00, 0x04, 0x00, 0x00, 0x00, 0x13, 0x00, 0x00, 0x00,
  0x6d, 0x69, 0x6e, 0x5f, 0x72, 0x75, 0x6e, 0x74, 0x69, 0x6d, 0x65, 0x5f,
  0x76, 0x65, 0x72, 0x73, 0x69, 0x6f, 0x6e, 0x00, 0x10, 0x00, 0x00, 0x00,
  0xa4, 0x0d, 0x00, 0x00, 0x9c, 0x0d, 0x00, 0x00, 0x6c, 0x0d, 0x00, 0x00,
  0x1c, 0x0d, 0x00, 0x00, 0xec, 0x0c, 0x00, 0x00, 0x5c, 0x0c, 0x00, 0x00,
  0x0c, 0x0c, 0x00, 0x00, 0xbc, 0x00, 0x00, 0x00, 0xb4, 0x00, 0x00, 0x00,
  0xac, 0x00, 0x00, 0x00, 0xa4, 0x00, 0x00, 0x00, 0x9c, 0x00, 0x00, 0x00,
  0x94, 0x00, 0x00, 0x00, 0x8c, 0x00, 0x00, 0x00, 0x6c, 0x00, 0x00, 0x00,
  0x04, 0x00, 0x00, 0x00, 0xe6, 0xf1, 0xff, 0xff, 0x04, 0x00, 0x00, 0x00,
  0x58, 0x00, 0x00, 0x00, 0x0c, 0x00, 0x00, 0x00, 0x08, 0x00, 0x0e, 0x00,
  0x08, 0x00, 0x04, 0x00, 0x08, 0x00, 0x00, 0x00, 0x10, 0x00, 0x00, 0x00,
  0x28, 0x00, 0x00, 0x00, 0x00, 0x00, 0x06, 0x00, 0x08, 0x00, 0x04, 0x00,
  0x06, 0x00, 0x00, 0x00, 0x04, 0x00, 0x00, 0x00, 0x01, 0x00, 0x00, 0x00,
  0xeb, 0x03, 0x00, 0x00, 0x00, 0x00, 0x0a, 0x00, 0x10, 0x00, 0x0c, 0x00,
  0x08, 0x00, 0x04, 0x00, 0x0a, 0x00, 0x00, 0x00, 0x02, 0x00, 0x00, 0x00,
  0x02, 0x00, 0x00, 0x00, 0x04, 0x00, 0x00, 0x00, 0x06, 0x00, 0x00, 0x00,
  0x32, 0x2e, 0x31, 0x30, 0x2e, 0x30, 0x00, 0x00, 0x4a, 0xf2, 0xff, 0xff,
  0x04, 0x00, 0x00, 0x00, 0x10, 0x00, 0x00, 0x00, 0x31, 0x2e, 0x31, 0x34,
  0x2e, 0x30, 0x00, 0x00, 0x00, 0x00, 0x00, 0x00, 0x00, 0x00, 0x00, 0x00,
  0xd8, 0xea, 0xff, 0xff, 0xdc, 0xea, 0xff, 0xff, 0xe0, 0xea, 0xff, 0xff,
  0xe4, 0xea, 0xff, 0xff, 0xe8, 0xea, 0xff, 0xff, 0xec, 0xea, 0xff, 0xff,
  0x7e, 0xf2, 0xff, 0xff, 0x04, 0x00, 0x00, 0x00, 0x40, 0x0b, 0x00, 0x00,
  0x10, 0xec, 0x09, 0x01, 0xfb, 0x0d, 0x14, 0x0d, 0xea, 0x04, 0x0c, 0x00,
  0x12, 0xeb, 0xfc, 0x0b, 0x0b, 0x08, 0x07, 0xef, 0xf7, 0xff, 0xf8, 0x07,
  0xfe, 0x03, 0xea, 0x0d, 0xf4, 0x12, 0xe9, 0xf2, 0xf5, 0x02, 0x00, 0xf4,
  0x05, 0x08, 0x14, 0xff, 0xf8, 0x16, 0xed, 0xf8, 0xff, 0x0a, 0xeb, 0x0a,
  0x16, 0x0e, 0xfe, 0x11, 0x05, 0xf0, 0xf2, 0xe9, 0x05, 0x08, 0x16, 0xed,
  0x0a, 0x14, 0x0d, 0xee, 0xf2, 0x05, 0xfa, 0x04, 0x14, 0xf8, 0xea, 0x03,
  0xf3, 0x09, 0x03, 0x07, 0xea, 0x07, 0xfe, 0x14, 0x0a, 0x01, 0x0c, 0x16,
  0xf5, 0x07, 0xf3, 0x05, 0xfb, 0x11, 0xff, 0xed, 0xf7, 0x10, 0xf0, 0x11,
  0xfa, 0x05, 0xed, 0xfe, 0xf4, 0x05, 0xf2, 0x04, 0xeb, 0xf8, 0x0c, 0x07,
  0xfb, 0xfe, 0x07, 0x0c, 0xf7, 0x0d, 0xef, 0xed, 0x10, 0x0f, 0x05, 0xf1,
  0xf7, 0xf5, 0xf7, 0x0b, 0xf8, 0x12, 0xfa, 0xf4, 0xec, 0x05, 0xec, 0x00,
  0xf4, 0xf7, 0x03, 0x08, 0x14, 0x08, 0x03, 0x04, 0x04, 0xef, 0xf0, 0xe9,
  0x16, 0xf9, 0xeb, 0x0e, 0xed, 0xf3, 0x09, 0x17, 0x15, 0x02, 0x00, 0x00,
  0xf3, 0xef, 0xfb, 0xf5, 0xfb, 0xf8, 0x13, 0x03, 0x15, 0xee, 0xfd, 0xf2,
  0xf5, 0xfc, 0x02, 0xeb, 0x01, 0x16, 0xf8, 0xf3, 0x04, 0x08, 0x04, 0xf3,
  0xfa, 0x01, 0x29, 0xe8, 0x00, 0x21, 0xe6, 0xec, 0x1d, 0xd2, 0x17, 0x1a,
  0xea, 0xf0, 0x08, 0xc7, 0x0e, 0x23, 0xf4, 0x1d, 0xf6, 0xbf, 0x01, 0x1e,
  0xe9, 0x10, 0xd5, 0xb3, 0xe9, 0x10, 0xde, 0x0d, 0xcc, 0xd2, 0x06, 0xf7,
  0xf1, 0x04, 0xe1, 0xc9, 0xdf, 0xf8, 0x0a, 0x09, 0xd9, 0xcd, 0xf0, 0xf5,
  0xe9, 0x26, 0xc9, 0xc1, 0xd7, 0x15, 0xe5, 0x22, 0xe6, 0xd8, 0xdd, 0x0c,
  0xe3, 0x31, 0xc8, 0xe3, 0xdc, 0xf8, 0x00, 0x42, 0xd6, 0xfa, 0xe4, 0x0c,
  0x01, 0x26, 0xd8, 0xef, 0xec, 0x23, 0xf9, 0x37, 0xb3, 0x12, 0xd4, 0x0e,
  0xe2, 0x12, 0xbf, 0xfc, 0xf2, 0x02, 0x08, 0x21, 0xd1, 0x22, 0x0d, 0x1d,
  0x12, 0x20, 0xdd, 0xfe, 0xef, 0xfc, 0x13, 0xfe, 0xee, 0x06, 0x03, 0x1d,
  0x18, 0x17, 0xfa, 0x18, 0x09, 0x22, 0x16, 0xf4, 0xf1, 0x0d, 0x04, 0x24,
  0x29, 0x08, 0xfb, 0x05, 0x25, 0x11, 0x31, 0x05, 0xfa, 0x23, 0x0c, 0x09,
  0x23, 0xf5, 0x1e, 0x1b, 0x13, 0x16, 0x0f, 0xfa, 0x02, 0x27, 0x13, 0x1b,
  0x3c, 0x05, 0x18, 0x0f, 0x02, 0x0b, 0x23, 0xdc, 0x2d, 0x00, 0x20, 0x0f,
  0x14, 0xf0, 0x22, 0xfd, 0x09, 0x20, 0x1e, 0xd8, 0x28, 0x03, 0x0b, 0x16,
  0x32, 0xf7, 0x2c, 0x02, 0x15, 0x1c, 0x34, 0xd5, 0x32, 0x0e, 0xff, 0x2b,
  0xfe, 0xfa, 0xea, 0x10, 0x0e, 0xfe, 0xfe, 0x12, 0x0a, 0x10, 0x11, 0xf4,
  0x00, 0xfa, 0xe9, 0x09, 0xfd, 0xec, 0x09, 0x14, 0xf8, 0x00, 0xf8, 0xf5,
  0x0e, 0xea, 0x07, 0x0b, 0x0f, 0x06, 0x13, 0x08, 0x0d, 0xfc, 0xf8, 0xf6,
  0x14, 0xf7, 0x04, 0xe9, 0x04, 0x0a, 0xfa, 0xfd, 0x0b, 0xef, 0xe8, 0x0a,
  0x00, 0x03, 0xfd, 0xe8, 0x15, 0x11, 0xec, 0xf1, 0x11, 0x03, 0x02, 0xed,
  0xff, 0xfb, 0xf6, 0x13, 0xee, 0x14, 0xeb, 0x14, 0xf6, 0x0b, 0xec, 0xef,
  0x13, 0x08, 0xf3, 0xf7, 0x03, 0xf5, 0xf8, 0x05, 0x12, 0x10, 0xf0, 0xfc,
  0x11, 0xf9, 0xf1, 0x07, 0x15, 0xf2, 0xf9, 0xf1, 0xed, 0x13, 0x16, 0xf3,
  0x14, 0xfb, 0xf3, 0xfb, 0x10, 0x07, 0x0f, 0xea, 0xea, 0x02, 0xee, 0x03,
  0x12, 0x0c, 0xed, 0x09, 0xf9, 0xe9, 0x0a, 0x06, 0xff, 0xfc, 0xf1, 0x06,
  0xfd, 0x07, 0xff, 0x16, 0x03, 0xf4, 0x04, 0xf1, 0xff, 0x13, 0x0c, 0xee,
  0x00, 0x0a, 0x01, 0x11, 0xf5, 0xe8, 0x05, 0xef, 0xf5, 0x0d, 0xfb, 0x0b,
  0x01, 0xf4, 0x0d, 0xf8, 0x13, 0xf9, 0xe8, 0xf4, 0xf1, 0xee, 0xec, 0xfb,
  0x06, 0xf9, 0xfd, 0xf7, 0xf9, 0x05, 0x00, 0xf6, 0xf6, 0xf1, 0x12, 0xfc,
  0x13, 0x09, 0xfc, 0xf3, 0x00, 0x03, 0x0d, 0x12, 0xeb, 0xf4, 0xfd, 0x01,
  0x04, 0x2c, 0xf7, 0x27, 0x1a, 0xef, 0xfc, 0x2a, 0x1a, 0x37, 0x1e, 0xf1,
  0xe5, 0x1c, 0x2f, 0x31, 0x13, 0xeb, 0xe8, 0x36, 0x38, 0x22, 0x2d, 0xf9,
  0x02, 0x2a, 0x1f, 0x3a, 0x2e, 0xe1, 0x03, 0x07, 0x2c, 0x57, 0x2a, 0xea,
  0xf9, 0x10, 0x26, 0x4c, 0x18, 0xe2, 0xdc, 0x35, 0x14, 0x4a, 0x2d, 0xcc,
  0xe3, 0x0e, 0x14, 0x2f, 0x19, 0xe0, 0xf4, 0x22, 0x23, 0x31, 0x31, 0xd3,
  0xdc, 0x29, 0x08, 0x32, 0x22, 0xfd, 0xcf, 0x1e, 0x08, 0x28, 0x23, 0x03,
  0xd0, 0x32, 0x26, 0x3d, 0x2a, 0xf3, 0xc8, 0x22, 0x2a, 0x30, 0x32, 0x06,
  0xe3, 0x01, 0x0e, 0x12, 0x15, 0x13, 0xc8, 0x19, 0x36, 0x28, 0x19, 0x10,
  0xd4, 0xf9, 0x32, 0xfd, 0x19, 0x18, 0xbd, 0x12, 0x2b, 0xfe, 0x17, 0x13,
  0xe1, 0xfa, 0x25, 0xfc, 0x0d, 0xf6, 0xdd, 0x02, 0x32, 0x24, 0x2d, 0x10,
  0xc6, 0x0c, 0x25, 0x27, 0x10, 0x0e, 0xc0, 0xf1, 0x29, 0x11, 0x2d, 0x14,
  0xbc, 0x12, 0x15, 0x22, 0x15, 0xf5, 0xc9, 0xf7, 0x2d, 0x11, 0x23, 0x06,
  0xd1, 0x13, 0x1a, 0x22, 0x19, 0xf7, 0xcc, 0x00, 0x14, 0x20, 0x1c, 0xff,
  0xd7, 0x09, 0x17, 0x1d, 0x17, 0x09, 0xd9, 0x0d, 0x25, 0x0d, 0x09, 0xf7,
  0xc1, 0x21, 0x09, 0x16, 0x1b, 0x02, 0xcd, 0xfe, 0x26, 0x24, 0x0e, 0xf7,
  0x36, 0x1d, 0x1a, 0x0a, 0xde, 0x59, 0x3c, 0x0a, 0x22, 0x1f, 0xc5, 0x4c,
  0x30, 0xf7, 0x25, 0x0c, 0xd0, 0x44, 0x1a, 0xfa, 0x09, 0xf9, 0xd7, 0x3b,
  0x09, 0x01, 0x21, 0x1b, 0xd7, 0x3d, 0x0b, 0x01, 0x1d, 0xff, 0xca, 0x2b,
  0x00, 0x05, 0x18, 0x0b, 0xd4, 0x24, 0xea, 0xf0, 0x18, 0xfe, 0xd9, 0x1a,
  0xf7, 0xfb, 0xff, 0x03, 0xdf, 0x21, 0xfc, 0xde, 0x11, 0x12, 0xed, 0x22,
  0xe1, 0x03, 0xe4, 0x19, 0xea, 0x16, 0xe2, 0xeb, 0xd8, 0xee, 0xca, 0x1e,
  0xf1, 0xd6, 0xf3, 0x09, 0xd1, 0x2f, 0xf8, 0xd5, 0xdb, 0xf5, 0xd8, 0x23,
  0xf5, 0xdd, 0xd9, 0xf2, 0xdd, 0x19, 0xf5, 0xe8, 0xdc, 0xfd, 0xfd, 0x26,
  0xfe, 0xd7, 0xd0, 0x01, 0x00, 0x07, 0xef, 0xee, 0xb7, 0xfc, 0xe2, 0x10,
  0xfa, 0x0e, 0xda, 0x0e, 0xf7, 0x19, 0xfc, 0x21, 0xc7, 0xdf, 0xfc, 0x17,
  0xf6, 0x25, 0xe9, 0x05, 0x0a, 0x1d, 0x21, 0x33, 0xe1, 0x0d, 0x0e, 0x0d,
  0x10, 0x18, 0xf9, 0xfb, 0xf0, 0xff, 0x0e, 0x35, 0xe1, 0xf9, 0x0c, 0x27,
  0x30, 0x3b, 0xf1, 0x0d, 0x05, 0x1a, 0x3b, 0x17, 0xed, 0xfe, 0x14, 0x25,
  0x24, 0x0d, 0xf8, 0xe8, 0x08, 0x1c, 0x24, 0x18, 0xe3, 0xed, 0x11, 0x19,
  0x33, 0x10, 0xff, 0xfd, 0x00, 0x0d, 0x28, 0x1c, 0xdd, 0xf2, 0x05, 0x06,
  0x33, 0x0a, 0x14, 0x05, 0xdc, 0x14, 0x57, 0x03, 0x0a, 0x11, 0xcb, 0x1c,
  0x57, 0x17, 0x07, 0x18, 0xe2, 0x2b, 0x41, 0x0e, 0x15, 0x00, 0xce, 0x15,
  0x3e, 0x10, 0x11, 0x0b, 0xd6, 0x2e, 0x26, 0x0f, 0x2a, 0xde, 0xc3, 0x13,
  0x36, 0xf2, 0x0e, 0xea, 0xce, 0x1d, 0x14, 0xe5, 0x24, 0xd6, 0xd6, 0x35,
  0x27, 0xe4, 0x29, 0xd8, 0xf6, 0x33, 0x1e, 0xdc, 0x08, 0xd4, 0xe4, 0x27,
  0x14, 0xf9, 0x01, 0xd1, 0xf9, 0x16, 0x1c, 0xd6, 0x02, 0x00, 0xf6, 0x2e,
  0x0f, 0xe4, 0x05, 0xdd, 0xe7, 0x28, 0x03, 0xe9, 0xfa, 0xe7, 0x0a, 0x10,
  0x39, 0xe7, 0xf9, 0xf6, 0x06, 0x1f, 0x12, 0xf7, 0xdd, 0x00, 0xfd, 0x08,
  0x24, 0xf9, 0xd2, 0xee, 0xe9, 0x10, 0x06, 0x04, 0xea, 0xf3, 0xef, 0xee,
  0x26, 0x16, 0xc4, 0xf3, 0xef, 0x0f, 0x2a, 0xfe, 0xe3, 0xf7, 0xe4, 0x0b,
  0x21, 0x02, 0xd8, 0xf1, 0x04, 0xf6, 0x0e, 0x26, 0xd0, 0xdb, 0xf6, 0x11,
  0x27, 0x36, 0xcc, 0xea, 0x0a, 0xff, 0x25, 0x2c, 0xea, 0xe3, 0xeb, 0x0b,
  0x1c, 0x0f, 0xcf, 0x00, 0x0a, 0xf8, 0x33, 0x2c, 0xdd, 0xf7, 0xde, 0x14,
  0x1d, 0x24, 0xe2, 0xea, 0xfb, 0x10, 0x19, 0x14, 0xe2, 0xe6, 0xf3, 0x01,
  0x2e, 0x08, 0xd3, 0xfb, 0xf2, 0x02, 0x20, 0x06, 0xea, 0xfc, 0xf2, 0x19,
  0xf4, 0x01, 0xf0, 0x16, 0x0d, 0xfe, 0x03, 0xfb, 0x0f, 0x17, 0xf4, 0xf2,
  0x03, 0x13, 0x14, 0x0d, 0x14, 0x08, 0x12, 0xfe, 0xf5, 0xed, 0xf5, 0x03,
  0x14, 0x0d, 0x13, 0xed, 0xeb, 0xef, 0x15, 0x09, 0xef, 0x12, 0xf5, 0xed,
  0xf9, 0xf5, 0x05, 0xfc, 0xfb, 0xf3, 0xe9, 0x01, 0x0d, 0xfd, 0xf5, 0xee,
  0xf1, 0x0e, 0x07, 0x09, 0xf2, 0x05, 0xee, 0x04, 0xe9, 0x04, 0xec, 0x0a,
  0x10, 0xf8, 0xfc, 0xed, 0x06, 0x07, 0xf8, 0xf7, 0xfc, 0xf8, 0xea, 0x05,
  0x0c, 0xea, 0x09, 0xf5, 0xee, 0x0d, 0xf3, 0x01, 0xf1, 0x00, 0x02, 0x0d,
  0x10, 0x03, 0xf5, 0xf4, 0x08, 0xf7, 0x10, 0x0f, 0xf0, 0x0a, 0xf1, 0xf9,
  0xf6, 0x09, 0xf8, 0xf8, 0xf8, 0xf6, 0xf5, 0xfd, 0xf7, 0x0b, 0xf1, 0xfc,
  0x01, 0x03, 0xfb, 0xec, 0x0f, 0x06, 0x0b, 0x13, 0x05, 0x09, 0xf4, 0x0c,
  0x02, 0x16, 0xf0, 0xef, 0xeb, 0x0b, 0x17, 0x14, 0xf8, 0x08, 0x08, 0xf4,
  0x06, 0x07, 0xed, 0xfe, 0x14, 0xef, 0xfa, 0xec, 0xfd, 0x08, 0xe9, 0x11,
  0x12, 0xe9, 0xee, 0x06, 0xfd, 0xfb, 0xf1, 0xfe, 0x0c, 0xf3, 0xee, 0x08,
  0x0e, 0x12, 0xeb, 0x0f, 0xff, 0x02, 0x06, 0x08, 0x0c, 0x00, 0x02, 0xf8,
  0xf3, 0x13, 0xe9, 0x04, 0x0a, 0x0b, 0xf0, 0x07, 0xf8, 0x02, 0x00, 0x16,
  0x0f, 0xf3, 0xee, 0xea, 0x0b, 0xee, 0x13, 0x01, 0x13, 0xf5, 0x04, 0x03,
  0x0a, 0xeb, 0xfc, 0xf9, 0x05, 0xeb, 0xea, 0x0d, 0xf4, 0xf1, 0x07, 0xef,
  0x00, 0x0a, 0xfa, 0x05, 0xf7, 0x08, 0x04, 0xfd, 0x02, 0xf6, 0x15, 0x07,
  0xf6, 0x01, 0xf2, 0xf8, 0x0e, 0x09, 0xed, 0x0e, 0xfe, 0x0d, 0x16, 0x10,
  0xfc, 0x10, 0x13, 0x12, 0xe8, 0xe9, 0xf0, 0x06, 0xf8, 0x02, 0x15, 0xe9,
  0xec, 0x07, 0xf3, 0x05, 0x09, 0xf1, 0x15, 0x0f, 0xed, 0xf7, 0x01, 0x04,
  0xed, 0xec, 0xef, 0x0e, 0x08, 0xee, 0xf2, 0x11, 0xe9, 0xf0, 0x0f, 0xf4,
  0xe9, 0x10, 0xec, 0xfa, 0x15, 0xe8, 0x0f, 0x03, 0x14, 0x0c, 0x10, 0x0e,
  0xee, 0x07, 0x16, 0xeb, 0xfc, 0xfd, 0xf4, 0x03, 0x0e, 0x09, 0x0c, 0xfa,
  0x0f, 0xe8, 0xec, 0xf4, 0x14, 0x0e, 0x11, 0xec, 0x12, 0xee, 0x09, 0x13,
  0x13, 0xf5, 0xfe, 0x06, 0xf9, 0x09, 0x07, 0xef, 0x0f, 0xfd, 0x01, 0xe8,
  0x02, 0x07, 0x04, 0xed, 0xf1, 0xf0, 0xf9, 0x07, 0xfc, 0xfa, 0x11, 0xfc,
  0x0e, 0xfb, 0x0e, 0xef, 0x08, 0x02, 0x14, 0xf2, 0x14, 0xf5, 0xea, 0xf5,
  0xf1, 0x06, 0x0a, 0xe9, 0xf3, 0xea, 0x00, 0x0a, 0xf7, 0xf6, 0xfa, 0xff,
  0x03, 0xf2, 0x16, 0x14, 0x15, 0xfd, 0xe8, 0xf5, 0xf1, 0xed, 0x14, 0x02,
  0x03, 0x09, 0xf0, 0xf2, 0xf2, 0xf5, 0xf4, 0xf0, 0xf3, 0xec, 0xfd, 0x07,
  0xed, 0x02, 0x13, 0x05, 0xff, 0xf6, 0x06, 0x16, 0xf7, 0xf6, 0xff, 0x11,
  0xef, 0xf4, 0xf7, 0x02, 0x08, 0x0d, 0x03, 0x0b, 0xf8, 0xf2, 0xeb, 0x00,
  0x03, 0xf5, 0xee, 0x0c, 0xf4, 0x16, 0x0c, 0xf5, 0xf1, 0xfb, 0x00, 0xfe,
  0x0d, 0xed, 0xf2, 0xff, 0xf1, 0x0f, 0xfc, 0x05, 0xe9, 0xf1, 0xf8, 0xee,
  0xfb, 0xe9, 0xf8, 0x07, 0x06, 0x03, 0x06, 0x0c, 0x13, 0xf1, 0x0b, 0xfa,
  0x05, 0x00, 0x0b, 0xf6, 0x01, 0x07, 0x08, 0x05, 0x12, 0x15, 0xfa, 0x0b,
  0x0a, 0xeb, 0xf8, 0xea, 0xf0, 0x15, 0x13, 0x0f, 0x00, 0xfe, 0x12, 0xfa,
  0xf5, 0x01, 0x0f, 0x0d, 0x00, 0xf8, 0xfb, 0x09, 0xfd, 0xf0, 0xf9, 0xea,
  0xea, 0xed, 0xf3, 0x0d, 0xec, 0xfe, 0x11, 0xf6, 0x0c, 0x00, 0xf4, 0xf6,
  0x03, 0x03, 0x09, 0xf4, 0xf2, 0xf0, 0xec, 0xf9, 0xf8, 0x08, 0x13, 0x02,
  0x07, 0x14, 0xed, 0xf0, 0x17, 0xfb, 0xfc, 0x0e, 0x0b, 0xf7, 0xea, 0x0d,
  0xf2, 0xef, 0x02, 0x0c, 0xf2, 0xeb, 0xed, 0x11, 0x12, 0xf7, 0x13, 0x0e,
  0xf3, 0xec, 0x04, 0x14, 0xf1, 0xec, 0xf9, 0x16, 0x13, 0x0c, 0xeb, 0x11,
  0x0e, 0x14, 0xe9, 0x0f, 0xee, 0x13, 0x11, 0x10, 0x03, 0xf9, 0xed, 0x02,
  0xe6, 0xe7, 0x1d, 0xe1, 0xf6, 0x7e, 0x03, 0xcd, 0x1d, 0xd1, 0xfb, 0x6d,
  0x2e, 0xad, 0xe6, 0xb9, 0xf9, 0x78, 0x0c, 0x9e, 0xe4, 0xb7, 0xe2, 0x62,
  0x1a, 0xaa, 0xff, 0xd6, 0xfa, 0x5d, 0x29, 0xb4, 0x08, 0xc9, 0xd7, 0x47,
  0x32, 0xb6, 0xfd, 0xe2, 0xf8, 0x31, 0x3a, 0xbb, 0x0f, 0xd5, 0xe6, 0x3b,
  0x1e, 0xd5, 0xfe, 0xbf, 0xe9, 0x2f, 0x2a, 0xe4, 0x15, 0xe0, 0xf4, 0x3b,
  0x20, 0xe0, 0xf8, 0xd9, 0xe5, 0x10, 0x2f, 0xec, 0xf5, 0xeb, 0xf6, 0x13,
  0x1e, 0xeb, 0xe9, 0xf4, 0xf4, 0x2d, 0x0e, 0xef, 0x05, 0xef, 0xef, 0x2c,
  0x3f, 0x0b, 0x00, 0x0e, 0xf0, 0x29, 0x49, 0x08, 0xed, 0x17, 0x0a, 0x26,
  0x3d, 0xfb, 0xd4, 0x1e, 0x0a, 0x2c, 0x2f, 0x0a, 0xe4, 0x0c, 0xf7, 0x0e,
  0x3a, 0xe4, 0xdf, 0x15, 0x02, 0x02, 0x35, 0x00, 0xe0, 0xf7, 0x0b, 0x25,
  0x2a, 0xed, 0xd5, 0x01, 0x19, 0x22, 0x2d, 0x00, 0xf0, 0xf6, 0x1d, 0x2b,
  0x3b, 0xf6, 0xf2, 0xfe, 0x1d, 0x1b, 0x26, 0x0c, 0x02, 0xf2, 0x1a, 0x2a,
  0x44, 0xff, 0x0b, 0x13, 0x18, 0x1b, 0x2d, 0x0b, 0xf3, 0x1e, 0x1e, 0x16,
  0x40, 0xf9, 0xf1, 0x02, 0xf4, 0x33, 0x2b, 0x02, 0x06, 0x05, 0xfe, 0x1d,
  0x45, 0xdc, 0xe3, 0x23, 0x14, 0x14, 0x45, 0xef, 0xf1, 0x01, 0x13, 0x33,
  0xec, 0x11, 0xf4, 0x07, 0xfe, 0x04, 0x02, 0xfb, 0x10, 0xed, 0x03, 0x04,
  0xea, 0xf3, 0xff, 0xfe, 0xf8, 0xfc, 0x0b, 0xfd, 0x12, 0x16, 0x09, 0x05,
  0xe9, 0xea, 0xf8, 0x13, 0xf7, 0xfc, 0x0e, 0xee, 0xf6, 0xfd, 0x11, 0xeb,
  0x0b, 0xec, 0x0d, 0x0e, 0xfd, 0xed, 0xec, 0xe9, 0xfc, 0xe9, 0x0a, 0xeb,
  0xf1, 0x05, 0x0e, 0xfd, 0xeb, 0xf4, 0x13, 0x15, 0xfd, 0x08, 0xf4, 0xec,
  0xf7, 0x14, 0xf8, 0x06, 0x13, 0x02, 0x12, 0x06, 0x16, 0xeb, 0x03, 0x11,
  0xe9, 0x0e, 0xf5, 0x00, 0xf3, 0x07, 0x03, 0x00, 0xeb, 0x0a, 0xff, 0x12,
  0x07, 0x02, 0x04, 0xec, 0xf7, 0x01, 0x14, 0xee, 0x06, 0x08, 0xfa, 0xf7,
  0xe9, 0x0a, 0x11, 0xf3, 0x08, 0xed, 0xea, 0x10, 0xea, 0xec, 0x08, 0x06,
  0x14, 0xfd, 0xed, 0x09, 0x01, 0xeb, 0x0f, 0xed, 0x13, 0x04, 0x17, 0x15,
  0xf6, 0xf8, 0x06, 0x04, 0xfb, 0x13, 0x06, 0x06, 0x11, 0x16, 0x05, 0x14,
  0x12, 0x00, 0xeb, 0x16, 0xf7, 0xf8, 0xeb, 0xf4, 0xf5, 0xf5, 0xec, 0xf9,
  0x06, 0x17, 0xec, 0xfa, 0x01, 0x05, 0x07, 0x0e, 0x01, 0x0b, 0x16, 0xef,
  0x07, 0xf6, 0xf8, 0xf4, 0x16, 0xfa, 0xfb, 0xf4, 0xf2, 0xf6, 0xf9, 0xed,
  0x07, 0x0e, 0x15, 0x07, 0x0d, 0xf4, 0xe9, 0xf4, 0xf4, 0xed, 0xf6, 0xf5,
  0x23, 0xf9, 0x26, 0x29, 0x0a, 0x01, 0xf6, 0x06, 0x1e, 0x4d, 0xfa, 0x15,
  0xf5, 0x1c, 0x3c, 0x47, 0xf6, 0x0e, 0xd7, 0x13, 0x1b, 0x3a, 0x0e, 0xf5,
  0xbb, 0x09, 0x26, 0x55, 0x13, 0xed, 0xd9, 0x29, 0x1d, 0x52, 0x02, 0x07,
  0xcd, 0x2e, 0x05, 0x5d, 0x13, 0xf5, 0xad, 0x2e, 0xef, 0x59, 0x00, 0x00,
  0xaf, 0x1c, 0xe7, 0x55, 0x0f, 0xf9, 0xb2, 0x1f, 0xef, 0x5a, 0xf5, 0x13,
  0xc4, 0x23, 0xe8, 0x44, 0xfe, 0xfd, 0xab, 0x1a, 0xdf, 0x44, 0x12, 0xf1,
  0xc6, 0xea, 0xf8, 0x4c, 0x0b, 0xf7, 0xb9, 0xe7, 0xd3, 0x1d, 0xee, 0x02,
  0xc4, 0xae, 0xf3, 0x35, 0xfb, 0x0b, 0xb6, 0xba, 0xe9, 0x04, 0x10, 0x05,
  0xae, 0xd0, 0xf5, 0x03, 0xfc, 0x02, 0xb3, 0x1b, 0xf8, 0xec, 0x08, 0xfa,
  0xc3, 0x0c, 0x1c, 0xf5, 0x19, 0x16, 0xdc, 0x21, 0x16, 0x1f, 0x13, 0x08,
  0xcc, 0x3f, 0x29, 0xfc, 0x1c, 0x1b, 0xdf, 0x3b, 0x20, 0x1c, 0x06, 0x0a,
  0xe8, 0x33, 0x06, 0x13, 0x13, 0x14, 0xde, 0x33, 0x11, 0x22, 0x04, 0x16,
  0xc8, 0x16, 0x31, 0x1b, 0x1c, 0x26, 0xdc, 0x21, 0x04, 0x1f, 0x0b, 0x1a,
  0xcf, 0x38, 0x1f, 0x19, 0x10, 0x01, 0xee, 0x21, 0x1f, 0x0c, 0x05, 0x17,
  0xe9, 0x2e, 0x18, 0x24, 0x17, 0x18, 0xd4, 0x26, 0x29, 0x14, 0x21, 0x1d,
  0xe4, 0x07, 0xcc, 0xff, 0x12, 0x25, 0xda, 0xef, 0xd2, 0xfc, 0x06, 0x0b,
  0xf6, 0xdf, 0xc8, 0x05, 0x09, 0xf9, 0x0f, 0xc3, 0xde, 0x0c, 0x19, 0x0b,
  0x03, 0xd4, 0xf2, 0x06, 0x1e, 0x09, 0x06, 0xdc, 0xfd, 0x0c, 0x15, 0x08,
  0x21, 0xeb, 0x27, 0x21, 0x2f, 0xfc, 0x13, 0xcc, 0x33, 0x15, 0x45, 0xf6,
  0x24, 0xdc, 0x3f, 0x1f, 0x46, 0xee, 0x23, 0xcc, 0x33, 0x22, 0x37, 0xff,
  0x36, 0xb8, 0x4a, 0x16, 0x41, 0xff, 0x3d, 0xb2, 0x4d, 0xfe, 0x1c, 0xf2,
  0x34, 0xe5, 0x59, 0x0e, 0x3e, 0xf9, 0x07, 0xd6, 0x56, 0x15, 0x2b, 0xf6,
  0x07, 0xe7, 0x5f, 0x06, 0x14, 0xfb, 0x08, 0xf9, 0x37, 0x04, 0x09, 0x01,
  0xfa, 0xed, 0x54, 0xf3, 0xf9, 0xf3, 0x14, 0xeb, 0x3d, 0xf5, 0x02, 0xeb,
  0xfc, 0xf0, 0x1a, 0xf1, 0xf1, 0xe3, 0xe0, 0xde, 0x26, 0xe9, 0x0b, 0xfc,
  0xfb, 0xe7, 0x1d, 0xf4, 0x07, 0x05, 0xd3, 0xe2, 0x1a, 0xfc, 0x09, 0xfe,
  0xca, 0x07, 0x17, 0xf4, 0xf2, 0xf8, 0xdb, 0xfa, 0x12, 0xf0, 0xea, 0xec,
  0xe4, 0xfe, 0xe7, 0x09, 0xe7, 0xee, 0xc2, 0xfb, 0x05, 0xfb, 0xe4, 0xf5,
  0xd9, 0x10, 0xfc, 0xfe, 0xfc, 0xe4, 0xca, 0x08, 0x01, 0x15, 0xe7, 0x0b,
  0xce, 0x05, 0xe3, 0xf4, 0xef, 0x01, 0xdb, 0x13, 0xfe, 0xfe, 0xfd, 0xef,
  0x0d, 0xf7, 0xf3, 0x06, 0x02, 0xea, 0xf3, 0x16, 0x0d, 0x17, 0xf8, 0xf1,
  0x07, 0xf3, 0xea, 0x13, 0x0b, 0xf0, 0xf6, 0xf9, 0xf9, 0xeb, 0xf2, 0xfc,
  0xec, 0x10, 0xfc, 0xf5, 0xf3, 0xf5, 0x00, 0x01, 0x12, 0x04, 0x0f, 0x0d,
  0xf5, 0xef, 0xf9, 0xf2, 0xf7, 0x13, 0xf8, 0x12, 0x16, 0x12, 0x10, 0xfb,
  0xfc, 0x0b, 0xfc, 0xf4, 0xfa, 0x08, 0xf0, 0xf4, 0xeb, 0x15, 0xf7, 0x15,
  0x0d, 0x13, 0x03, 0xf8, 0xf1, 0x0e, 0x09, 0x07, 0xf4, 0xf8, 0xf2, 0xed,
  0xeb, 0x16, 0x15, 0xf2, 0xf9, 0x07, 0xed, 0xeb, 0xff, 0x04, 0x0b, 0xf4,
  0x07, 0x0e, 0xf7, 0x0d, 0xf5, 0x0f, 0x02, 0x00, 0x03, 0xfb, 0x10, 0xf0,
  0x14, 0xf0, 0xf0, 0x17, 0xf5, 0x13, 0xf6, 0x0e, 0x07, 0x14, 0x07, 0x0e,
  0x14, 0x16, 0x05, 0xec, 0xf4, 0x13, 0xe9, 0x02, 0x10, 0xfa, 0x16, 0x08,
  0xf0, 0xf5, 0xeb, 0x0a, 0xef, 0xfc, 0xe9, 0xf4, 0xec, 0xf7, 0xef, 0x0a,
  0x02, 0x0c, 0xf0, 0xef, 0xf0, 0xf0, 0x05, 0xf2, 0x00, 0x0b, 0xf4, 0xf7,
  0x10, 0xf2, 0xf0, 0xff, 0x0d, 0xf0, 0x0a, 0x08, 0x05, 0xf9, 0x13, 0x11,
  0x0a, 0x02, 0x02, 0xeb, 0xfc, 0x0d, 0xf4, 0xf1, 0xfa, 0xef, 0x03, 0xf7,
  0x16, 0x00, 0x04, 0x0b, 0x05, 0xed, 0xfa, 0xf2, 0x0d, 0xf4, 0x04, 0xf3,
  0x24, 0x2a, 0x0e, 0xd6, 0x1f, 0x8a, 0x24, 0x4c, 0x0d, 0xf2, 0x29, 0x81,
  0x25, 0x68, 0x2d, 0xfc, 0x19, 0xb0, 0x0a, 0x50, 0x0c, 0xe4, 0x21, 0xbb,
  0x29, 0x2c, 0x2e, 0xdf, 0x1b, 0xcf, 0x2b, 0x25, 0x1d, 0xbb, 0x00, 0xde,
  0x22, 0x32, 0x02, 0xad, 0x15, 0xd1, 0x2e, 0x3d, 0x25, 0xa9, 0xf3, 0xe4,
  0x26, 0x13, 0xfa, 0xc2, 0xee, 0xe6, 0x28, 0x29, 0x03, 0xbb, 0xfc, 0xe0,
  0x1b, 0x27, 0xff, 0xcb, 0x15, 0xeb, 0x2b, 0x3a, 0xf4, 0xbd, 0x10, 0xf0,
  0x0b, 0x42, 0xe9, 0xf0, 0x09, 0xd5, 0x00, 0x54, 0x05, 0xdf, 0x18, 0xdd,
  0x0c, 0x60, 0xe9, 0x09, 0x05, 0xdd, 0x26, 0x53, 0xfa, 0xf7, 0x18, 0xd7,
  0x28, 0x28, 0x03, 0x12, 0x12, 0xf0, 0x30, 0x30, 0x05, 0x1c, 0x1b, 0xe5,
  0x25, 0xf4, 0xfa, 0xf6, 0x1a, 0xf8, 0x21, 0xe6, 0x13, 0x14, 0x14, 0x0e,
  0x1d, 0xe8, 0xe9, 0xff, 0x00, 0xf8, 0x11, 0xfa, 0xef, 0xfd, 0x09, 0x05,
  0x16, 0x09, 0xe6, 0x0e, 0x11, 0xfe, 0x0c, 0xe1, 0xeb, 0x10, 0x0b, 0xe5,
  0x01, 0x0c, 0xfe, 0xf5, 0x0a, 0xed, 0x05, 0xf6, 0xfb, 0xfc, 0x03, 0xdc,
  0xfc, 0xef, 0x02, 0x07, 0x04, 0xee, 0x11, 0x0f, 0xf0, 0x07, 0x0e, 0xf7,
  0x1b, 0x1e, 0xea, 0x0b, 0x0c, 0xfa, 0x01, 0x00, 0xf6, 0x03, 0x02, 0xe4,
  0x3d, 0xfc, 0x35, 0xdb, 0x0f, 0xc4, 0x2f, 0x44, 0x33, 0xe0, 0xea, 0xda,
  0x3d, 0x4d, 0x28, 0xd4, 0x03, 0xd0, 0x2e, 0x39, 0x08, 0xe2, 0xe7, 0xfb,
  0x36, 0x0f, 0x10, 0xb8, 0xee, 0xf2, 0x10, 0x2a, 0xfb, 0xba, 0xf1, 0x13,
  0x2f, 0x12, 0x01, 0xbf, 0xd4, 0x11, 0x23, 0x1e, 0xf5, 0x98, 0xe9, 0xf9,
  0x1f, 0x19, 0x12, 0xa0, 0xe9, 0x06, 0x20, 0x2a, 0x09, 0xa3, 0xe0, 0x0f,
  0x18, 0x2e, 0xee, 0xac, 0xfb, 0x0b, 0x11, 0x34, 0xf3, 0xbd, 0xf4, 0x06,
  0x26, 0x19, 0xdf, 0xc9, 0xfb, 0x10, 0xff, 0x4c, 0xee, 0xec, 0x04, 0xee,
  0x20, 0x3e, 0xe7, 0xec, 0x07, 0xf4, 0x35, 0x47, 0xda, 0xf0, 0x14, 0x05,
  0x17, 0x1d, 0xd0, 0x02, 0xfa, 0xea, 0x36, 0x11, 0xf4, 0xf1, 0xfa, 0xff,
  0x1c, 0x0d, 0xfd, 0x0c, 0x0f, 0xf1, 0x44, 0xff, 0xf2, 0x04, 0x00, 0x0a,
  0x1f, 0xf0, 0xe9, 0x16, 0xf0, 0x1b, 0x2b, 0xf8, 0xd2, 0xf9, 0x0d, 0x13,
  0x2a, 0x15, 0xff, 0x07, 0xee, 0xf1, 0x46, 0x0d, 0xee, 0xe8, 0xef, 0xef,
  0x3d, 0x02, 0xf2, 0x13, 0xf3, 0xfd, 0x36, 0x05, 0xe3, 0xee, 0x0c, 0x15,
  0x2a, 0x0f, 0xf3, 0xff, 0xfc, 0xf3, 0x32, 0x0b, 0x03, 0xf6, 0xf8, 0x0e,
  0x36, 0x0b, 0x0b, 0x00, 0xef, 0x00, 0x4e, 0x11, 0xfe, 0x0c, 0xee, 0x02,
  0xca, 0xfd, 0xff, 0xff, 0x04, 0x00, 0x00, 0x00, 0x40, 0x00, 0x00, 0x00,
  0x00, 0x00, 0x00, 0x00, 0x17, 0x0d, 0x00, 0x00, 0x97, 0xfe, 0xff, 0xff,
  0xae, 0x15, 0x00, 0x00, 0xfa, 0xff, 0xff, 0xff, 0x08, 0xf6, 0xff, 0xff,
  0x00, 0x00, 0x00, 0x00, 0xe4, 0xfe, 0xff, 0xff, 0x00, 0x00, 0x00, 0x00,
  0x85, 0x0b, 0x00, 0x00, 0x00, 0x00, 0x00, 0x00, 0x53, 0x15, 0x00, 0x00,
  0x53, 0x00, 0x00, 0x00, 0x00, 0x00, 0x00, 0x00, 0x8c, 0xf8, 0xff, 0xff,
  0xb0, 0xf8, 0xff, 0xff, 0x16, 0xfe, 0xff, 0xff, 0x04, 0x00, 0x00, 0x00,
  0x80, 0x00, 0x00, 0x00, 0xe5, 0xff, 0x18, 0xdb, 0x25, 0x28, 0x07, 0x23,
  0xe0, 0xda, 0xe3, 0xd1, 0xda, 0x03, 0x14, 0xd1, 0xec, 0xda, 0x26, 0x18,
  0x95, 0xbc, 0xe4, 0x00, 0x2a, 0x11, 0xdd, 0xec, 0x5b, 0xdd, 0x49, 0x20,
  0xde, 0x62, 0xdb, 0x21, 0xf7, 0xd8, 0x0e, 0xfd, 0xe7, 0xd9, 0x27, 0x06,
  0x81, 0x01, 0x68, 0x5d, 0x17, 0xb0, 0x14, 0x5a, 0x1b, 0xbd, 0xd9, 0xe3,
  0xe1, 0xca, 0xd6, 0x4e, 0x1a, 0xf1, 0x00, 0xb6, 0x19, 0x5d, 0x1e, 0x1d,
  0x07, 0x96, 0xe0, 0xe0, 0x14, 0x3f, 0x0d, 0x0c, 0xf8, 0xed, 0xca, 0xd5,
  0x14, 0xb9, 0x08, 0x11, 0x41, 0x74, 0xf7, 0x18, 0x0e, 0x3b, 0xf4, 0xf2,
  0x38, 0x0f, 0xf8, 0x11, 0x18, 0xd3, 0xea, 0xe1, 0x11, 0xd2, 0xd7, 0xea,
  0xdc, 0x15, 0xd7, 0x0c, 0xe6, 0x16, 0x0a, 0xd8, 0x2a, 0x4c, 0xee, 0xe5,
  0x28, 0x59, 0xda, 0x0f, 0xe5, 0x6b, 0x0d, 0x06, 0xd9, 0x21, 0x2e, 0x45,
  0xa2, 0xfe, 0xff, 0xff, 0x04, 0x00, 0x00, 0x00, 0x20, 0x00, 0x00, 0x00,
  0xed, 0xff, 0xff, 0xff, 0x4f, 0x00, 0x00, 0x00, 0x52, 0x00, 0x00, 0x00,
  0x5e, 0x02, 0x00, 0x00, 0xa8, 0x01, 0x00, 0x00, 0x33, 0x00, 0x00, 0x00,
  0x00, 0x00, 0x00, 0x00, 0x74, 0x00, 0x00, 0x00, 0xce, 0xfe, 0xff, 0xff,
  0x04, 0x00, 0x00, 0x00, 0x40, 0x00, 0x00, 0x00, 0xf8, 0x0f, 0x0f, 0x02,
  0x07, 0xed, 0x12, 0xe6, 0xf7, 0xdb, 0xc9, 0x36, 0x29, 0xc9, 0x02, 0x9b,
  0x06, 0x4a, 0xc8, 0xf6, 0xd9, 0x15, 0xf3, 0xea, 0x0a, 0xf3, 0x1f, 0xef,
  0x81, 0x01, 0xee, 0x0f, 0xed, 0x15, 0x16, 0x8d, 0x37, 0xcf, 0xfd, 0x22,
  0x18, 0xc6, 0xbe, 0x1b, 0xff, 0x14, 0x02, 0xf2, 0xf1, 0xc5, 0x8e, 0xee,
  0xfa, 0x21, 0xf7, 0x20, 0xe2, 0xd8, 0x00, 0xdf, 0xf9, 0x0c, 0xec, 0x29,
  0x1a, 0xff, 0xff, 0xff, 0x04, 0x00, 0x00, 0x00, 0x20, 0x00, 0x00, 0x00,
  0xab, 0xff, 0xff, 0xff, 0xdd, 0xff, 0xff, 0xff, 0xf5, 0xff, 0xff, 0xff,
  0xc2, 0xff, 0xff, 0xff, 0xda, 0xff, 0xff, 0xff, 0x51, 0x00, 0x00, 0x00,
  0xa9, 0xff, 0xff, 0xff, 0x42, 0x00, 0x00, 0x00, 0xb8, 0xf7, 0xff, 0xff,
  0xbc, 0xf7, 0xff, 0xff, 0x0f, 0x00, 0x00, 0x00, 0x4d, 0x4c, 0x49, 0x52,
  0x20, 0x43, 0x6f, 0x6e, 0x76, 0x65, 0x72, 0x74, 0x65, 0x64, 0x2e, 0x00,
  0x01, 0x00, 0x00, 0x00, 0x14, 0x00, 0x00, 0x00, 0x00, 0x00, 0x0e, 0x00,
  0x18, 0x00, 0x14, 0x00, 0x10, 0x00, 0x0c, 0x00, 0x08, 0x00, 0x04, 0x00,
  0x0e, 0x00, 0x00, 0x00, 0x14, 0x00, 0x00, 0x00, 0x1c, 0x00, 0x00, 0x00,
  0x7c, 0x01, 0x00, 0x00, 0x80, 0x01, 0x00, 0x00, 0x84, 0x01, 0x00, 0x00,
  0x04, 0x00, 0x00, 0x00, 0x6d, 0x61, 0x69, 0x6e, 0x00, 0x00, 0x00, 0x00,
  0x06, 0x00, 0x00, 0x00, 0x44, 0x01, 0x00, 0x00, 0xf4, 0x00, 0x00, 0x00,
  0xa8, 0x00, 0x00, 0x00, 0x70, 0x00, 0x00, 0x00, 0x34, 0x00, 0x00, 0x00,
  0x10, 0x00, 0x00, 0x00, 0x00, 0x00, 0x0a, 0x00, 0x10, 0x00, 0x0c, 0x00,
  0x08, 0x00, 0x04, 0x00, 0x0a, 0x00, 0x00, 0x00, 0x0c, 0x00, 0x00, 0x00,
  0x10, 0x00, 0x00, 0x00, 0x03, 0x00, 0x00, 0x00, 0x01, 0x00, 0x00, 0x00,
  0x0c, 0x00, 0x00, 0x00, 0x01, 0x00, 0x00, 0x00, 0x0b, 0x00, 0x00, 0x00,
  0x5a, 0xff, 0xff, 0xff, 0x1c, 0x00, 0x00, 0x00, 0x00, 0x00, 0x00, 0x09,
  0x1c, 0x00, 0x00, 0x00, 0x20, 0x00, 0x00, 0x00, 0x02, 0x00, 0x00, 0x00,
  0x00, 0x00, 0x06, 0x00, 0x08, 0x00, 0x04, 0x00, 0x06, 0x00, 0x00, 0x00,
  0x00, 0x00, 0x80, 0x3f, 0x01, 0x00, 0x00, 0x00, 0x0b, 0x00, 0x00, 0x00,
  0x01, 0x00, 0x00, 0x00, 0x0a, 0x00, 0x00, 0x00, 0x92, 0xff, 0xff, 0xff,
  0x14, 0x00, 0x00, 0x00, 0x00, 0x00, 0x00, 0x08, 0x10, 0x00, 0x00, 0x00,
  0x14, 0x00, 0x00, 0x00, 0x01, 0x00, 0x00, 0x00, 0xa8, 0xf8, 0xff, 0xff,
  0x01, 0x00, 0x00, 0x00, 0x0a, 0x00, 0x00, 0x00, 0x03, 0x00, 0x00, 0x00,
  0x09, 0x00, 0x00, 0x00, 0x02, 0x00, 0x00, 0x00, 0x01, 0x00, 0x00, 0x00,
  0xc6, 0xff, 0xff, 0xff, 0x14, 0x00, 0x00, 0x00, 0x00, 0x00, 0x00, 0x08,
  0x14, 0x00, 0x00, 0x00, 0x18, 0x00, 0x00, 0x00, 0x01, 0x00, 0x00, 0x00,
  0xb6, 0xff, 0xff, 0xff, 0x00, 0x00, 0x00, 0x01, 0x01, 0x00, 0x00, 0x00,
  0x09, 0x00, 0x00, 0x00, 0x03, 0x00, 0x00, 0x00, 0x08, 0x00, 0x00, 0x00,
  0x04, 0x00, 0x00, 0x00, 0x03, 0x00, 0x00, 0x00, 0x00, 0x00, 0x0e, 0x00,
  0x1a, 0x00, 0x14, 0x00, 0x10, 0x00, 0x0c, 0x00, 0x0b, 0x00, 0x04, 0x00,
  0x0e, 0x00, 0x00, 0x00, 0x1c, 0x00, 0x00, 0x00, 0x00, 0x00, 0x00, 0x08,
  0x1c, 0x00, 0x00, 0x00, 0x20, 0x00, 0x00, 0x00, 0x01, 0x00, 0x00, 0x00,
  0x00, 0x00, 0x06, 0x00, 0x08, 0x00, 0x07, 0x00, 0x06, 0x00, 0x00, 0x00,
  0x00, 0x00, 0x00, 0x01, 0x01, 0x00, 0x00, 0x00, 0x08, 0x00, 0x00, 0x00,
  0x03, 0x00, 0x00, 0x00, 0x07, 0x00, 0x00, 0x00, 0x06, 0x00, 0x00, 0x00,
  0x05, 0x00, 0x00, 0x00, 0x00, 0x00, 0x0a, 0x00, 0x0c, 0x00, 0x00, 0x00,
  0x08, 0x00, 0x04, 0x00, 0x0a, 0x00, 0x00, 0x00, 0x08, 0x00, 0x00, 0x00,
  0x0c, 0x00, 0x00, 0x00, 0x01, 0x00, 0x00, 0x00, 0x07, 0x00, 0x00, 0x00,
  0x01, 0x00, 0x00, 0x00, 0x00, 0x00, 0x00, 0x00, 0x01, 0x00, 0x00, 0x00,
  0x0c, 0x00, 0x00, 0x00, 0x01, 0x00, 0x00, 0x00, 0x00, 0x00, 0x00, 0x00,
  0x0d, 0x00, 0x00, 0x00, 0x50, 0x06, 0x00, 0x00, 0xb4, 0x05, 0x00, 0x00,
  0x2c, 0x05, 0x00, 0x00, 0xb0, 0x04, 0x00, 0x00, 0x44, 0x04, 0x00, 0x00,
  0xd0, 0x03, 0x00, 0x00, 0x64, 0x03, 0x00, 0x00, 0xf0, 0x02, 0x00, 0x00,
  0x2c, 0x02, 0x00, 0x00, 0x78, 0x01, 0x00, 0x00, 0xdc, 0x00, 0x00, 0x00,
  0x60, 0x00, 0x00, 0x00, 0x04, 0x00, 0x00, 0x00, 0xfa, 0xf9, 0xff, 0xff,
  0x00, 0x00, 0x00, 0x01, 0x14, 0x00, 0x00, 0x00, 0x1c, 0x00, 0x00, 0x00,
  0x1c, 0x00, 0x00, 0x00, 0x0d, 0x00, 0x00, 0x00, 0x34, 0x00, 0x00, 0x00,
  0x02, 0x00, 0x00, 0x00, 0xff, 0xff, 0xff, 0xff, 0x08, 0x00, 0x00, 0x00,
  0xe4, 0xf9, 0xff, 0xff, 0x19, 0x00, 0x00, 0x00, 0x53, 0x74, 0x61, 0x74,
  0x65, 0x66, 0x75, 0x6c, 0x50, 0x61, 0x72, 0x74, 0x69, 0x74, 0x69, 0x6f,
  0x6e, 0x65, 0x64, 0x43, 0x61, 0x6c, 0x6c, 0x3a, 0x30, 0x00, 0x00, 0x00,
  0x02, 0x00, 0x00, 0x00, 0x01, 0x00, 0x00, 0x00, 0x08, 0x00, 0x00, 0x00,
  0x96, 0xfd, 0xff, 0xff, 0x00, 0x00, 0x00, 0x01, 0x18, 0x00, 0x00, 0x00,
  0x20, 0x00, 0x00, 0x00, 0x3c, 0x00, 0x00, 0x00, 0x0c, 0x00, 0x00, 0x00,
  0x00, 0x00, 0x00, 0x09, 0x50, 0x00, 0x00, 0x00, 0x02, 0x00, 0x00, 0x00,
  0xff, 0xff, 0xff, 0xff, 0x08, 0x00, 0x00, 0x00, 0xe4, 0xfa, 0xff, 0xff,
  0x08, 0x00, 0x00, 0x00, 0x10, 0x00, 0x00, 0x00, 0x01, 0x00, 0x00, 0x00,
  0x80, 0xff, 0xff, 0xff, 0xff, 0xff, 0xff, 0xff, 0x01, 0x00, 0x00, 0x00,
  0x00, 0x00, 0x80, 0x3b, 0x1a, 0x00, 0x00, 0x00, 0x53, 0x74, 0x61, 0x74,
  0x65, 0x66, 0x75, 0x6c, 0x50, 0x61, 0x72, 0x74, 0x69, 0x74, 0x69, 0x6f,
  0x6e, 0x65, 0x64, 0x43, 0x61, 0x6c, 0x6c, 0x3a, 0x30, 0x31, 0x00, 0x00,
  0x02, 0x00, 0x00, 0x00, 0x01, 0x00, 0x00, 0x00, 0x08, 0x00, 0x00, 0x00,
  0x0e, 0xfe, 0xff, 0xff, 0x00, 0x00, 0x00, 0x01, 0x18, 0x00, 0x00, 0x00,
  0x20, 0x00, 0x00, 0x00, 0x40, 0x00, 0x00, 0x00, 0x0b, 0x00, 0x00, 0x00,
  0x00, 0x00, 0x00, 0x09, 0x70, 0x00, 0x00, 0x00, 0x02, 0x00, 0x00, 0x00,
  0xff, 0xff, 0xff, 0xff, 0x08, 0x00, 0x00, 0x00, 0x5c, 0xfb, 0xff, 0xff,
  0x08, 0x00, 0x00, 0x00, 0x14, 0x00, 0x00, 0x00, 0x01, 0x00, 0x00, 0x00,
  0x32, 0x00, 0x00, 0x00, 0x00, 0x00, 0x00, 0x00, 0x00, 0x00, 0x00, 0x00,
  0x01, 0x00, 0x00, 0x00, 0xa5, 0x46, 0xa0, 0x3e, 0x34, 0x00, 0x00, 0x00,
  0x73, 0x65, 0x71, 0x75, 0x65, 0x6e, 0x74, 0x69, 0x61, 0x6c, 0x2f, 0x64,
  0x65, 0x6e, 0x73, 0x65, 0x5f, 0x32, 0x2f, 0x4d, 0x61, 0x74, 0x4d, 0x75,
  0x6c, 0x3b, 0x73, 0x65, 0x71, 0x75, 0x65, 0x6e, 0x74, 0x69, 0x61, 0x6c,
  0x2f, 0x64, 0x65, 0x6e, 0x73, 0x65, 0x5f, 0x32, 0x2f, 0x42, 0x69, 0x61,
  0x73, 0x41, 0x64, 0x64, 0x00, 0x00, 0x00, 0x00, 0x02, 0x00, 0x00, 0x00,
  0x01, 0x00, 0x00, 0x00, 0x08, 0x00, 0x00, 0x00, 0xa6, 0xfe, 0xff, 0xff,
  0x00, 0x00, 0x00, 0x01, 0x18, 0x00, 0x00, 0x00, 0x20, 0x00, 0x00, 0x00,
  0x40, 0x00, 0x00, 0x00, 0x0a, 0x00, 0x00, 0x00, 0x00, 0x00, 0x00, 0x09,
  0x88, 0x00, 0x00, 0x00, 0x02, 0x00, 0x00, 0x00, 0xff, 0xff, 0xff, 0xff,
  0x08, 0x00, 0x00, 0x00, 0xf4, 0xfb, 0xff, 0xff, 0x08, 0x00, 0x00, 0x00,
  0x14, 0x00, 0x00, 0x00, 0x01, 0x00, 0x00, 0x00, 0x80, 0xff, 0xff, 0xff,
  0xff, 0xff, 0xff, 0xff, 0x00, 0x00, 0x00, 0x00, 0x01, 0x00, 0x00, 0x00,
  0x9b, 0xc5, 0x8c, 0x3d, 0x4c, 0x00, 0x00, 0x00, 0x73, 0x65, 0x71, 0x75,
  0x65, 0x6e, 0x74, 0x69, 0x61, 0x6c, 0x2f, 0x64, 0x65, 0x6e, 0x73, 0x65,
  0x5f, 0x31, 0x2f, 0x4d, 0x61, 0x74, 0x4d, 0x75, 0x6c, 0x3b, 0x73, 0x65,
  0x71, 0x75, 0x65, 0x6e, 0x74, 0x69, 0x61, 0x6c, 0x2f, 0x64, 0x65, 0x6e,
  0x73, 0x65, 0x5f, 0x31, 0x2f, 0x52, 0x65, 0x6c, 0x75, 0x3b, 0x73, 0x65,
  0x71, 0x75, 0x65, 0x6e, 0x74, 0x69, 0x61, 0x6c, 0x2f, 0x64, 0x65, 0x6e,
  0x73, 0x65, 0x5f, 0x31, 0x2f, 0x42, 0x69, 0x61, 0x73, 0x41, 0x64, 0x64,
  0x00, 0x00, 0x00, 0x00, 0x02, 0x00, 0x00, 0x00, 0x01, 0x00, 0x00, 0x00,
  0x08, 0x00, 0x00, 0x00, 0x56, 0xff, 0xff, 0xff, 0x00, 0x00, 0x00, 0x01,
  0x18, 0x00, 0x00, 0x00, 0x20, 0x00, 0x00, 0x00, 0x40, 0x00, 0x00, 0x00,
  0x09, 0x00, 0x00, 0x00, 0x00, 0x00, 0x00, 0x09, 0x80, 0x00, 0x00, 0x00,
  0x02, 0x00, 0x00, 0x00, 0xff, 0xff, 0xff, 0xff, 0x10, 0x00, 0x00, 0x00,
  0xa4, 0xfc, 0xff, 0xff, 0x08, 0x00, 0x00, 0x00, 0x14, 0x00, 0x00, 0x00,
  0x01, 0x00, 0x00, 0x00, 0x80, 0xff, 0xff, 0xff, 0xff, 0xff, 0xff, 0xff,
  0x00, 0x00, 0x00, 0x00, 0x01, 0x00, 0x00, 0x00, 0x2d, 0x0e, 0x32, 0x3d,
  0x46, 0x00, 0x00, 0x00, 0x73, 0x65, 0x71, 0x75, 0x65, 0x6e, 0x74, 0x69,
  0x61, 0x6c, 0x2f, 0x64, 0x65, 0x6e, 0x73, 0x65, 0x2f, 0x4d, 0x61, 0x74,
  0x4d, 0x75, 0x6c, 0x3b, 0x73, 0x65, 0x71, 0x75, 0x65, 0x6e, 0x74, 0x69,
  0x61, 0x6c, 0x2f, 0x64, 0x65, 0x6e, 0x73, 0x65, 0x2f, 0x52, 0x65, 0x6c,
  0x75, 0x3b, 0x73, 0x65, 0x71, 0x75, 0x65, 0x6e, 0x74, 0x69, 0x61, 0x6c,
  0x2f, 0x64, 0x65, 0x6e, 0x73, 0x65, 0x2f, 0x42, 0x69, 0x61, 0x73, 0x41,
  0x64, 0x64, 0x00, 0x00, 0x02, 0x00, 0x00, 0x00, 0x01, 0x00, 0x00, 0x00,
  0x10, 0x00, 0x00, 0x00, 0x00, 0x00, 0x16, 0x00, 0x20, 0x00, 0x1c, 0x00,
  0x1b, 0x00, 0x14, 0x00, 0x10, 0x00, 0x0c, 0x00, 0x00, 0x00, 0x00, 0x00,
  0x08, 0x00, 0x07, 0x00, 0x16, 0x00, 0x00, 0x00, 0x00, 0x00, 0x00, 0x01,
  0x18, 0x00, 0x00, 0x00, 0x20, 0x00, 0x00, 0x00, 0x40, 0x00, 0x00, 0x00,
  0x08, 0x00, 0x00, 0x00, 0x00, 0x00, 0x00, 0x09, 0x48, 0x00, 0x00, 0x00,
  0x02, 0x00, 0x00, 0x00, 0xff, 0xff, 0xff, 0xff, 0xb4, 0x00, 0x00, 0x00,
  0x64, 0xfd, 0xff, 0xff, 0x08, 0x00, 0x00, 0x00, 0x14, 0x00, 0x00, 0x00,
  0x01, 0x00, 0x00, 0x00, 0x80, 0xff, 0xff, 0xff, 0xff, 0xff, 0xff, 0xff,
  0x00, 0x00, 0x00, 0x00, 0x01, 0x00, 0x00, 0x00, 0x81, 0x80, 0x80, 0x3b,
  0x0c, 0x00, 0x00, 0x00, 0x74, 0x66, 0x6c, 0x2e, 0x71, 0x75, 0x61, 0x6e,
  0x74, 0x69, 0x7a, 0x65, 0x00, 0x00, 0x00, 0x00, 0x02, 0x00, 0x00, 0x00,
  0x01, 0x00, 0x00, 0x00, 0xb4, 0x00, 0x00, 0x00, 0xda, 0xfd, 0xff, 0xff,
  0x00, 0x00, 0x00, 0x01, 0x14, 0x00, 0x00, 0x00, 0x34, 0x00, 0x00, 0x00,
  0x07, 0x00, 0x00, 0x00, 0x00, 0x00, 0x00, 0x09, 0x44, 0x00, 0x00, 0x00,
  0xc4, 0xfd, 0xff, 0xff, 0x08, 0x00, 0x00, 0x00, 0x14, 0x00, 0x00, 0x00,
  0x01, 0x00, 0x00, 0x00, 0x00, 0x00, 0x00, 0x00, 0x00, 0x00, 0x00, 0x00,
  0x00, 0x00, 0x00, 0x00, 0x01, 0x00, 0x00, 0x00, 0x20, 0x65, 0xf7, 0x3b,
  0x17, 0x00, 0x00, 0x00, 0x73, 0x65, 0x71, 0x75, 0x65, 0x6e, 0x74, 0x69,
  0x61, 0x6c, 0x2f, 0x64, 0x65, 0x6e, 0x73, 0x65, 0x2f, 0x4d, 0x61, 0x74,
  0x4d, 0x75, 0x6c, 0x00, 0x02, 0x00, 0x00, 0x00, 0x10, 0x00, 0x00, 0x00,
  0xb4, 0x00, 0x00, 0x00, 0x42, 0xfe, 0xff, 0xff, 0x00, 0x00, 0x00, 0x01,
  0x14, 0x00, 0x00, 0x00, 0x30, 0x00, 0x00, 0x00, 0x06, 0x00, 0x00, 0x00,
  0x00, 0x00, 0x00, 0x02, 0x50, 0x00, 0x00, 0x00, 0x2c, 0xfe, 0xff, 0xff,
  0x08, 0x00, 0x00, 0x00, 0x10, 0x00, 0x00, 0x00, 0x01, 0x00, 0x00, 0x00,
  0x00, 0x00, 0x00, 0x00, 0x00, 0x00, 0x00, 0x00, 0x01, 0x00, 0x00, 0x00,
  0x7e, 0x5d, 0xf8, 0x37, 0x27, 0x00, 0x00, 0x00, 0x73, 0x65, 0x71, 0x75,
  0x65, 0x6e, 0x74, 0x69, 0x61, 0x6c, 0x2f, 0x64, 0x65, 0x6e, 0x73, 0x65,
  0x2f, 0x42, 0x69, 0x61, 0x73, 0x41, 0x64, 0x64, 0x2f, 0x52, 0x65, 0x61,
  0x64, 0x56, 0x61, 0x72, 0x69, 0x61, 0x62, 0x6c, 0x65, 0x4f, 0x70, 0x00,
  0x01, 0x00, 0x00, 0x00, 0x10, 0x00, 0x00, 0x00, 0xb2, 0xfe, 0xff, 0xff,
  0x00, 0x00, 0x00, 0x01, 0x14, 0x00, 0x00, 0x00, 0x30, 0x00, 0x00, 0x00,
  0x05, 0x00, 0x00, 0x00, 0x00, 0x00, 0x00, 0x09, 0x44, 0x00, 0x00, 0x00,
  0x9c, 0xfe, 0xff, 0xff, 0x08, 0x00, 0x00, 0x00, 0x10, 0x00, 0x00, 0x00,
  0x01, 0x00, 0x00, 0x00, 0x00, 0x00, 0x00, 0x00, 0x00, 0x00, 0x00, 0x00,
  0x01, 0x00, 0x00, 0x00, 0x75, 0x24, 0x32, 0x3c, 0x19, 0x00, 0x00, 0x00,
  0x73, 0x65, 0x71, 0x75, 0x65, 0x6e, 0x74, 0x69, 0x61, 0x6c, 0x2f, 0x64,
  0x65, 0x6e, 0x73, 0x65, 0x5f, 0x31, 0x2f, 0x4d, 0x61, 0x74, 0x4d, 0x75,
  0x6c, 0x00, 0x00, 0x00, 0x02, 0x00, 0x00, 0x00, 0x08, 0x00, 0x00, 0x00,
  0x10, 0x00, 0x00, 0x00, 0x1a, 0xff, 0xff, 0xff, 0x00, 0x00, 0x00, 0x01,
  0x14, 0x00, 0x00, 0x00, 0x34, 0x00, 0x00, 0x00, 0x04, 0x00, 0x00, 0x00,
  0x00, 0x00, 0x00, 0x02, 0x58, 0x00, 0x00, 0x00, 0x04, 0xff, 0xff, 0xff,
  0x08, 0x00, 0x00, 0x00, 0x14, 0x00, 0x00, 0x00, 0x01, 0x00, 0x00, 0x00,
  0x00, 0x00, 0x00, 0x00, 0x00, 0x00, 0x00, 0x00, 0x00, 0x00, 0x00, 0x00,
  0x01, 0x00, 0x00, 0x00, 0x6d, 0xce, 0xf7, 0x39, 0x29, 0x00, 0x00, 0x00,
  0x73, 0x65, 0x71, 0x75, 0x65, 0x6e, 0x74, 0x69, 0x61, 0x6c, 0x2f, 0x64,
  0x65, 0x6e, 0x73, 0x65, 0x5f, 0x31, 0x2f, 0x42, 0x69, 0x61, 0x73, 0x41,
  0x64, 0x64, 0x2f, 0x52, 0x65, 0x61, 0x64, 0x56, 0x61, 0x72, 0x69, 0x61,
  0x62, 0x6c, 0x65, 0x4f, 0x70, 0x00, 0x00, 0x00, 0x01, 0x00, 0x00, 0x00,
  0x08, 0x00, 0x00, 0x00, 0x92, 0xff, 0xff, 0xff, 0x00, 0x00, 0x00, 0x01,
  0x14, 0x00, 0x00, 0x00, 0x34, 0x00, 0x00, 0x00, 0x03, 0x00, 0x00, 0x00,
  0x00, 0x00, 0x00, 0x09, 0x48, 0x00, 0x00, 0x00, 0x7c, 0xff, 0xff, 0xff,
  0x08, 0x00, 0x00, 0x00, 0x14, 0x00, 0x00, 0x00, 0x01, 0x00, 0x00, 0x00,
  0x00, 0x00, 0x00, 0x00, 0x00, 0x00, 0x00, 0x00, 0x00, 0x00, 0x00, 0x00,
  0x01, 0x00, 0x00, 0x00, 0x67, 0x2a, 0xa7, 0x3c, 0x19, 0x00, 0x00, 0x00,
  0x73, 0x65, 0x71, 0x75, 0x65, 0x6e, 0x74, 0x69, 0x61, 0x6c, 0x2f, 0x64,
  0x65, 0x6e, 0x73, 0x65, 0x5f, 0x32, 0x2f, 0x4d, 0x61, 0x74, 0x4d, 0x75,
  0x6c, 0x00, 0x00, 0x00, 0x02, 0x00, 0x00, 0x00, 0x08, 0x00, 0x00, 0x00,
  0x08, 0x00, 0x00, 0x00, 0x00, 0x00, 0x16, 0x00, 0x1c, 0x00, 0x18, 0x00,
  0x17, 0x00, 0x10, 0x00, 0x0c, 0x00, 0x08, 0x00, 0x00, 0x00, 0x00, 0x00,
  0x00, 0x00, 0x07, 0x00, 0x16, 0x00, 0x00, 0x00, 0x00, 0x00, 0x00, 0x01,
  0x20, 0x00, 0x00, 0x00, 0x3c, 0x00, 0x00, 0x00, 0x02, 0x00, 0x00, 0x00,
  0x00, 0x00, 0x00, 0x02, 0x60, 0x00, 0x00, 0x00, 0x0c, 0x00, 0x0c, 0x00,
  0x00, 0x00, 0x00, 0x00, 0x08, 0x00, 0x04, 0x00, 0x0c, 0x00, 0x00, 0x00,
  0x08, 0x00, 0x00, 0x00, 0x10, 0x00, 0x00, 0x00, 0x01, 0x00, 0x00, 0x00,
  0x00, 0x00, 0x00, 0x00, 0x00, 0x00, 0x00, 0x00, 0x01, 0x00, 0x00, 0x00,
  0x72, 0xd8, 0xb7, 0x3a, 0x29, 0x00, 0x00, 0x00, 0x73, 0x65, 0x71, 0x75,
  0x65, 0x6e, 0x74, 0x69, 0x61, 0x6c, 0x2f, 0x64, 0x65, 0x6e, 0x73, 0x65,
  0x5f, 0x32, 0x2f, 0x42, 0x69, 0x61, 0x73, 0x41, 0x64, 0x64, 0x2f, 0x52,
  0x65, 0x61, 0x64, 0x56, 0x61, 0x72, 0x69, 0x61, 0x62, 0x6c, 0x65, 0x4f,
  0x70, 0x00, 0x00, 0x00, 0x01, 0x00, 0x00, 0x00, 0x08, 0x00, 0x00, 0x00,
  0x00, 0x00, 0x16, 0x00, 0x1c, 0x00, 0x18, 0x00, 0x00, 0x00, 0x14, 0x00,
  0x10, 0x00, 0x0c, 0x00, 0x00, 0x00, 0x00, 0x00, 0x08, 0x00, 0x07, 0x00,
  0x16, 0x00, 0x00, 0x00, 0x00, 0x00, 0x00, 0x01, 0x14, 0x00, 0x00, 0x00,
  0x20, 0x00, 0x00, 0x00, 0x20, 0x00, 0x00, 0x00, 0x01, 0x00, 0x00, 0x00,
  0x3c, 0x00, 0x00, 0x00, 0x02, 0x00, 0x00, 0x00, 0xff, 0xff, 0xff, 0xff,
  0xb4, 0x00, 0x00, 0x00, 0x04, 0x00, 0x04, 0x00, 0x04, 0x00, 0x00, 0x00,
  0x1d, 0x00, 0x00, 0x00, 0x73, 0x65, 0x72, 0x76, 0x69, 0x6e, 0x67, 0x5f,
  0x64, 0x65, 0x66, 0x61, 0x75, 0x6c, 0x74, 0x5f, 0x64, 0x65, 0x6e, 0x73,
  0x65, 0x5f, 0x69, 0x6e, 0x70, 0x75, 0x74, 0x3a, 0x30, 0x00, 0x00, 0x00,
  0x02, 0x00, 0x00, 0x00, 0x01, 0x00, 0x00, 0x00, 0xb4, 0x00, 0x00, 0x00,
  0x04, 0x00, 0x00, 0x00, 0x58, 0x00, 0x00, 0x00, 0x38, 0x00, 0x00, 0x00,
  0x18, 0x00, 0x00, 0x00, 0x04, 0x00, 0x00, 0x00, 0xe0, 0xff, 0xff, 0xff,
  0x06, 0x00, 0x00, 0x00, 0x02, 0x00, 0x00, 0x00, 0x00, 0x00, 0x00, 0x06,
  0xf0, 0xff, 0xff, 0xff, 0x19, 0x00, 0x00, 0x00, 0x02, 0x00, 0x00, 0x00,
  0x00, 0x00, 0x00, 0x19, 0x0c, 0x00, 0x10, 0x00, 0x0f, 0x00, 0x00, 0x00,
  0x08, 0x00, 0x04, 0x00, 0x0c, 0x00, 0x00, 0x00, 0x09, 0x00, 0x00, 0x00,
  0x04, 0x00, 0x00, 0x00, 0x00, 0x00, 0x00, 0x09, 0x0c, 0x00, 0x0c, 0x00,
  0x0b, 0x00, 0x00, 0x00, 0x00, 0x00, 0x04, 0x00, 0x0c, 0x00, 0x00, 0x00,
  0x72, 0x00, 0x00, 0x00, 0x00, 0x00, 0x00, 0x72
}; 
