const unsigned char gesture_model [] = {  
  0x1c, 0x00, 0x00, 0x00, 0x54, 0x46, 0x4c, 0x33, 0x14, 0x00, 0x20, 0x00,
  0x1c, 0x00, 0x18, 0x00, 0x14, 0x00, 0x10, 0x00, 0x0c, 0x00, 0x00, 0x00,
  0x08, 0x00, 0x04, 0x00, 0x14, 0x00, 0x00, 0x00, 0x1c, 0x00, 0x00, 0x00,
  0x94, 0x00, 0x00, 0x00, 0xec, 0x00, 0x00, 0x00, 0x80, 0x23, 0x00, 0x00,
  0x90, 0x23, 0x00, 0x00, 0x68, 0x29, 0x00, 0x00, 0x03, 0x00, 0x00, 0x00,
  0x01, 0x00, 0x00, 0x00, 0x10, 0x00, 0x00, 0x00, 0x00, 0x00, 0x0a, 0x00,
  0x10, 0x00, 0x0c, 0x00, 0x08, 0x00, 0x04, 0x00, 0x0a, 0x00, 0x00, 0x00,
  0x0c, 0x00, 0x00, 0x00, 0x1c, 0x00, 0x00, 0x00, 0x38, 0x00, 0x00, 0x00,
  0x0f, 0x00, 0x00, 0x00, 0x73, 0x65, 0x72, 0x76, 0x69, 0x6e, 0x67, 0x5f,
  0x64, 0x65, 0x66, 0x61, 0x75, 0x6c, 0x74, 0x00, 0x01, 0x00, 0x00, 0x00,
  0x04, 0x00, 0x00, 0x00, 0x94, 0xff, 0xff, 0xff, 0x0a, 0x00, 0x00, 0x00,
  0x04, 0x00, 0x00, 0x00, 0x07, 0x00, 0x00, 0x00, 0x64, 0x65, 0x6e, 0x73,
  0x65, 0x5f, 0x35, 0x00, 0x01, 0x00, 0x00, 0x00, 0x04, 0x00, 0x00, 0x00,
  0x62, 0xdc, 0xff, 0xff, 0x04, 0x00, 0x00, 0x00, 0x0d, 0x00, 0x00, 0x00,
  0x64, 0x65, 0x6e, 0x73, 0x65, 0x5f, 0x33, 0x5f, 0x69, 0x6e, 0x70, 0x75,
  0x74, 0x00, 0x00, 0x00, 0x02, 0x00, 0x00, 0x00, 0x34, 0x00, 0x00, 0x00,
  0x04, 0x00, 0x00, 0x00, 0xdc, 0xff, 0xff, 0xff, 0x0d, 0x00, 0x00, 0x00,
  0x04, 0x00, 0x00, 0x00, 0x13, 0x00, 0x00, 0x00, 0x43, 0x4f, 0x4e, 0x56,
  0x45, 0x52, 0x53, 0x49, 0x4f, 0x4e, 0x5f, 0x4d, 0x45, 0x54, 0x41, 0x44,
  0x41, 0x54, 0x41, 0x00, 0x08, 0x00, 0x0c, 0x00, 0x08, 0x00, 0x04, 0x00,
  0x08, 0x00, 0x00, 0x00, 0x0c, 0x00, 0x00, 0x00, 0x04, 0x00, 0x00, 0x00,
  0x13, 0x00, 0x00, 0x00, 0x6d, 0x69, 0x6e, 0x5f, 0x72, 0x75, 0x6e, 0x74,
  0x69, 0x6d, 0x65, 0x5f, 0x76, 0x65, 0x72, 0x73, 0x69, 0x6f, 0x6e, 0x00,
  0x0e, 0x00, 0x00, 0x00, 0x90, 0x22, 0x00, 0x00, 0x88, 0x22, 0x00, 0x00,
  0x58, 0x22, 0x00, 0x00, 0x28, 0x22, 0x00, 0x00, 0xd8, 0x21, 0x00, 0x00,
  0xc8, 0x03, 0x00, 0x00, 0xb8, 0x01, 0x00, 0x00, 0xa8, 0x00, 0x00, 0x00,
  0xa0, 0x00, 0x00, 0x00, 0x98, 0x00, 0x00, 0x00, 0x90, 0x00, 0x00, 0x00,
  0x88, 0x00, 0x00, 0x00, 0x68, 0x00, 0x00, 0x00, 0x04, 0x00, 0x00, 0x00,
  0x16, 0xdd, 0xff, 0xff, 0x04, 0x00, 0x00, 0x00, 0x54, 0x00, 0x00, 0x00,
  0x0c, 0x00, 0x00, 0x00, 0x08, 0x00, 0x0e, 0x00, 0x08, 0x00, 0x04, 0x00,
  0x08, 0x00, 0x00, 0x00, 0x10, 0x00, 0x00, 0x00, 0x24, 0x00, 0x00, 0x00,
  0x00, 0x00, 0x06, 0x00, 0x08, 0x00, 0x04, 0x00, 0x06, 0x00, 0x00, 0x00,
  0x04, 0x00, 0x00, 0x00, 0x00, 0x00, 0x00, 0x00, 0x00, 0x00, 0x0a, 0x00,
  0x10, 0x00, 0x0c, 0x00, 0x08, 0x00, 0x04, 0x00, 0x0a, 0x00, 0x00, 0x00,
  0x02, 0x00, 0x00, 0x00, 0x02, 0x00, 0x00, 0x00, 0x04, 0x00, 0x00, 0x00,
  0x06, 0x00, 0x00, 0x00, 0x32, 0x2e, 0x31, 0x30, 0x2e, 0x30, 0x00, 0x00,
  0x76, 0xdd, 0xff, 0xff, 0x04, 0x00, 0x00, 0x00, 0x10, 0x00, 0x00, 0x00,
  0x31, 0x2e, 0x35, 0x2e, 0x30, 0x00, 0x00, 0x00, 0x00, 0x00, 0x00, 0x00,
  0x00, 0x00, 0x00, 0x00, 0x68, 0xd8, 0xff, 0xff, 0x6c, 0xd8, 0xff, 0xff,
  0x70, 0xd8, 0xff, 0xff, 0x74, 0xd8, 0xff, 0xff, 0xa2, 0xdd, 0xff, 0xff,
  0x04, 0x00, 0x00, 0x00, 0x00, 0x01, 0x00, 0x00, 0xca, 0xcc, 0x05, 0x3f,
  0x12, 0x04, 0xb4, 0x3e, 0xdc, 0xa4, 0x4a, 0x3e, 0xce, 0xbb, 0x7a, 0xbf,
  0x47, 0x7d, 0x11, 0x3f, 0xe0, 0xce, 0x8f, 0xbe, 0xc1, 0x7c, 0xc6, 0x3e,
  0xe6, 0xc6, 0x38, 0xbf, 0x65, 0x72, 0x15, 0x3f, 0x3b, 0x87, 0x09, 0xbf,
  0x59, 0x6f, 0x7e, 0xbf, 0x3f, 0x1e, 0x2b, 0x3d, 0x54, 0xc8, 0x18, 0xc0,
  0x40, 0x88, 0xf9, 0xbd, 0xff, 0xb1, 0x81, 0xbd, 0x88, 0x18, 0xd6, 0x3f,
  0x28, 0x2f, 0x99, 0x3f, 0xb0, 0x1c, 0xeb, 0x3e, 0x0f, 0x5c, 0x97, 0xbc,
  0x8a, 0xc2, 0x43, 0x3e, 0xd7, 0x01, 0xcd, 0xbf, 0x70, 0x0a, 0x97, 0x3e,
  0x02, 0xe5, 0xcc, 0x3b, 0xe1, 0x90, 0xf6, 0xbe, 0x51, 0x87, 0x4b, 0xbf,
  0xdb, 0x56, 0x36, 0xbf, 0x66, 0x3b, 0x99, 0x3e, 0x83, 0x3a, 0xc7, 0xbf,
  0x0f, 0xf1, 0xae, 0x3d, 0x22, 0xfb, 0x18, 0xbf, 0x91, 0xee, 0x79, 0xbd,
  0x7e, 0xfb, 0x40, 0x3f, 0x33, 0x6c, 0xbd, 0xbd, 0xd6, 0x56, 0x2c, 0xc0,
  0xc8, 0xca, 0x61, 0x3e, 0xcf, 0x7d, 0xa2, 0x3f, 0x11, 0xef, 0x0c, 0xbf,
  0xdc, 0x28, 0x61, 0x3e, 0x3a, 0xf4, 0x89, 0xbd, 0x46, 0x84, 0x41, 0xc0,
  0x1c, 0xee, 0x19, 0xbe, 0xf8, 0x93, 0x9e, 0x3f, 0xee, 0x70, 0x80, 0xbf,
  0x21, 0xdf, 0x36, 0xbe, 0x1b, 0x87, 0x1f, 0x3f, 0x06, 0x80, 0x57, 0xbe,
  0xca, 0xcf, 0x01, 0x3f, 0xd9, 0xde, 0x1c, 0xbc, 0x33, 0xe0, 0xd7, 0xbe,
  0x98, 0xe9, 0xb1, 0xbd, 0x0a, 0xc3, 0x0a, 0xc0, 0x72, 0x14, 0x10, 0x3f,
  0x52, 0xcc, 0x1e, 0x3f, 0x10, 0x3d, 0x8d, 0xbd, 0x14, 0x1d, 0x11, 0x3f,
  0x91, 0x2f, 0x63, 0x3d, 0x08, 0x99, 0x2d, 0xbf, 0xd1, 0x2c, 0x83, 0xbf,
  0x47, 0x64, 0x3b, 0xbd, 0x93, 0x08, 0xd7, 0x3e, 0x8c, 0xfc, 0xa3, 0x3d,
  0x71, 0x7c, 0xba, 0xbe, 0x5e, 0x70, 0x3f, 0xbe, 0x13, 0x6c, 0xf1, 0x3e,
  0xae, 0xde, 0xff, 0xff, 0x04, 0x00, 0x00, 0x00, 0x00, 0x02, 0x00, 0x00,
  0x3c, 0x39, 0xd8, 0x3f, 0x93, 0xf8, 0xd7, 0xbd, 0x10, 0xe4, 0x85, 0xba,
  0xf4, 0x40, 0xfb, 0x3e, 0xe8, 0x72, 0x85, 0xbe, 0xce, 0xd1, 0x80, 0x3e,
  0xd8, 0x98, 0x2e, 0xbe, 0xcf, 0xcd, 0xf7, 0x3d, 0xd8, 0xe2, 0x83, 0x3e,
  0x9a, 0x8c, 0xb6, 0xbd, 0x80, 0x90, 0xde, 0xbe, 0x34, 0x99, 0x0b, 0x3f,
  0x98, 0xf4, 0x64, 0x3e, 0x17, 0x02, 0xce, 0x3c, 0xd0, 0xd1, 0xcd, 0x3e,
  0x73, 0xa8, 0xe3, 0x3d, 0x05, 0x64, 0xae, 0x3f, 0x11, 0x8c, 0x50, 0x3f,
  0x53, 0x42, 0x21, 0xbe, 0x48, 0x70, 0xf8, 0x3e, 0x08, 0xd7, 0xfa, 0xbe,
  0x54, 0x43, 0xf7, 0xbe, 0x3d, 0x3c, 0xa1, 0xbd, 0xe5, 0xfa, 0x9d, 0x3e,
  0x0c, 0xc4, 0x4d, 0x3f, 0x80, 0x62, 0xe8, 0x3e, 0x18, 0xe7, 0x3e, 0x3e,
  0x8a, 0x83, 0xff, 0x3e, 0xd0, 0xc4, 0x8a, 0xbe, 0x60, 0x66, 0x84, 0xbe,
  0x34, 0xa4, 0xce, 0x3e, 0x85, 0xce, 0x07, 0xbe, 0x15, 0x4e, 0x8e, 0x3c,
  0x47, 0xb5, 0x78, 0x3f, 0xe7, 0x9b, 0x27, 0x3f, 0xa0, 0xa4, 0xd5, 0x3e,
  0xb6, 0x3e, 0x11, 0x3e, 0xeb, 0xd6, 0xb2, 0x3f, 0x23, 0x4c, 0xa8, 0x3d,
  0xd8, 0xe6, 0x23, 0xbf, 0x7d, 0x98, 0x64, 0xbf, 0xee, 0x87, 0xd6, 0xbd,
  0xb0, 0xa3, 0xdd, 0xbe, 0xeb, 0x6e, 0x28, 0x3e, 0x50, 0x30, 0x94, 0x3e,
  0xcf, 0xf3, 0x5e, 0x3e, 0x80, 0x17, 0x0b, 0xbd, 0x44, 0xb1, 0x9d, 0x3e,
  0xba, 0x8f, 0xf2, 0x3e, 0xcb, 0x20, 0xbf, 0xbf, 0x3b, 0x51, 0x3a, 0x3f,
  0x50, 0xa0, 0x61, 0xbe, 0xcb, 0x87, 0xf7, 0xbe, 0xfd, 0xbc, 0x8f, 0xbe,
  0x87, 0x50, 0x2e, 0x3f, 0x11, 0x20, 0x81, 0x3f, 0x0f, 0x77, 0x23, 0xbf,
  0xd8, 0xca, 0x00, 0xbe, 0x70, 0xaf, 0xca, 0xbe, 0x0f, 0xa9, 0x3b, 0xbf,
  0xd0, 0xaa, 0xd2, 0xbe, 0x80, 0x48, 0xed, 0xbd, 0xb0, 0xb2, 0xf4, 0x3e,
  0x27, 0xd0, 0x6b, 0x3e, 0x48, 0x84, 0x5a, 0x3c, 0x9e, 0xb4, 0xe5, 0x3f,
  0xf0, 0xf0, 0xb9, 0xbe, 0x28, 0x26, 0xec, 0xbe, 0x3a, 0xae, 0xf8, 0x3c,
  0x4b, 0x1d, 0xb3, 0xbf, 0xb1, 0x01, 0x4e, 0x3f, 0x08, 0x48, 0x80, 0x3e,
  0xb3, 0xa3, 0x29, 0x3f, 0xc0, 0x2c, 0xd0, 0x3c, 0x40, 0x24, 0xb9, 0x3d,
  0x16, 0xb2, 0x8e, 0x3d, 0x2c, 0xcd, 0x9c, 0xbe, 0x60, 0xb6, 0x73, 0xbe,
  0x48, 0xcb, 0xf5, 0x3e, 0x07, 0x95, 0xef, 0xbe, 0x00, 0x9a, 0x8f, 0x3d,
  0xb4, 0xf2, 0xea, 0xbe, 0xb0, 0xd7, 0xaa, 0xbd, 0xec, 0x2d, 0xf6, 0xbe,
  0xc8, 0x9f, 0xad, 0xbe, 0x38, 0x26, 0x55, 0xbe, 0x44, 0x80, 0xd1, 0xbe,
  0xe0, 0xfd, 0xf2, 0xbe, 0xb8, 0xe6, 0xd2, 0xbe, 0x20, 0xf5, 0x21, 0x3d,
  0x30, 0x87, 0x33, 0xbe, 0xa4, 0x1c, 0xea, 0xbe, 0xa8, 0x55, 0x86, 0xbe,
  0x90, 0x23, 0xbb, 0x3e, 0x74, 0xa8, 0xce, 0xbe, 0x40, 0xea, 0x2d, 0xbd,
  0x5f, 0xa4, 0xdc, 0xbe, 0x0a, 0xca, 0x1f, 0x3e, 0xff, 0x12, 0x41, 0xbe,
  0x80, 0x7a, 0x0e, 0xbe, 0x55, 0x70, 0x43, 0xbe, 0xde, 0x2e, 0x3e, 0xbe,
  0x35, 0xc8, 0xda, 0xbe, 0x07, 0xc0, 0xb9, 0xbe, 0x68, 0xc7, 0x56, 0x3e,
  0x10, 0x21, 0xd7, 0x3e, 0x00, 0xde, 0x96, 0x3b, 0xc0, 0xcd, 0x01, 0x3e,
  0x08, 0x4d, 0x43, 0xbe, 0x10, 0x78, 0x95, 0xbd, 0x80, 0x3b, 0x3c, 0xbc,
  0x50, 0xbf, 0xef, 0x3e, 0xc8, 0xbd, 0xb5, 0xbf, 0x3a, 0xe1, 0x24, 0xbe,
  0x1a, 0x3b, 0x9b, 0xbe, 0x98, 0x7e, 0x8b, 0xbe, 0xeb, 0x6c, 0x8e, 0x3e,
  0x01, 0xf2, 0x42, 0x3f, 0xca, 0x3f, 0x57, 0x3e, 0x18, 0xbf, 0x7c, 0x3f,
  0x7f, 0x99, 0x72, 0xbe, 0x83, 0xa3, 0xb1, 0x3e, 0x20, 0x2d, 0x5d, 0xbd,
  0x9e, 0xce, 0x7f, 0x3f, 0xa8, 0xe3, 0xd2, 0x3e, 0x60, 0x97, 0x6a, 0xbd,
  0x14, 0x36, 0xdb, 0x3e, 0x6b, 0x59, 0x4a, 0x3e, 0xba, 0xe0, 0xff, 0xff,
  0x04, 0x00, 0x00, 0x00, 0x00, 0x1e, 0x00, 0x00, 0xdf, 0x8a, 0x10, 0xbf,
  0xf9, 0x1a, 0x01, 0x3e, 0x64, 0x77, 0xf5, 0xbe, 0xdb, 0x29, 0x67, 0x3d,
  0x32, 0x78, 0x44, 0x3e, 0xaf, 0xf0, 0x72, 0x3e, 0x3b, 0x60, 0x4f, 0xbf,
  0x6a, 0xe1, 0xe1, 0x3c, 0xa9, 0x5c, 0x16, 0xbf, 0xde, 0x5d, 0x32, 0xbe,
  0xa9, 0x30, 0xf9, 0x3d, 0x51, 0xcd, 0xdf, 0xbd, 0x6d, 0x80, 0x14, 0xbf,
  0x2c, 0x11, 0xa7, 0xbe, 0xb9, 0x09, 0x02, 0xbf, 0x47, 0x96, 0x81, 0xbe,
  0xde, 0xf2, 0xff, 0x3e, 0x39, 0xc4, 0xb5, 0x3d, 0x9c, 0x3c, 0x26, 0xbf,
  0x1c, 0x67, 0xa2, 0xbe, 0x49, 0x59, 0x1b, 0xbe, 0x60, 0xd9, 0x2d, 0xbd,
  0xc6, 0xad, 0x0f, 0x3f, 0xf3, 0x69, 0x36, 0x3e, 0xad, 0xb3, 0x3f, 0xbe,
  0x85, 0x62, 0x61, 0xbe, 0xfc, 0x0d, 0x76, 0xbe, 0xe7, 0xd1, 0x91, 0xbe,
  0x3c, 0x17, 0x99, 0x3e, 0xe8, 0xde, 0x43, 0xbe, 0xc8, 0x79, 0x4f, 0xbe,
  0x34, 0xc9, 0xe7, 0xbd, 0x32, 0xdf, 0xb1, 0xbd, 0x58, 0xf8, 0xb9, 0xbd,
  0xb4, 0x58, 0x0c, 0x3f, 0x64, 0xbf, 0x04, 0xbd, 0x56, 0x6c, 0x35, 0xbe,
  0x78, 0xd5, 0x6d, 0x3e, 0x16, 0x24, 0x8c, 0x3d, 0x1f, 0xe2, 0x00, 0xbe,
  0xe4, 0xd3, 0xc6, 0x3e, 0x75, 0x96, 0x19, 0xbe, 0x08, 0xb8, 0xe7, 0xbd,
  0x63, 0x93, 0xe3, 0x3c, 0x42, 0x65, 0x47, 0x3e, 0x7f, 0x9f, 0x01, 0xbd,
  0x87, 0x59, 0xbb, 0x3e, 0x81, 0x1e, 0x8f, 0x3d, 0xb1, 0x4c, 0x45, 0xbe,
  0x8a, 0x0c, 0x2f, 0xbe, 0x2c, 0xd0, 0x99, 0x3e, 0xed, 0x42, 0x15, 0xbe,
  0x7d, 0xdb, 0x10, 0x3f, 0xb0, 0x1e, 0x54, 0x3c, 0x74, 0x72, 0x84, 0x3c,
  0xa0, 0x6b, 0x74, 0xbe, 0x8e, 0x31, 0xa8, 0x3e, 0x97, 0x63, 0x3e, 0x3e,
  0x85, 0xb5, 0xdf, 0x3e, 0xda, 0xdf, 0x0b, 0xbe, 0xda, 0xe8, 0x68, 0xbe,
  0x9b, 0xaa, 0x9a, 0x3c, 0x63, 0x0a, 0x8b, 0x3e, 0x80, 0x9c, 0x5b, 0x3d,
  0x64, 0xb9, 0xe1, 0x3e, 0xa1, 0xde, 0xc2, 0x3d, 0xd6, 0x20, 0xec, 0xbd,
  0xd9, 0xf5, 0x4c, 0xbe, 0x88, 0x28, 0x04, 0x3f, 0x83, 0xd1, 0x7c, 0xbd,
  0x99, 0x0b, 0x1b, 0x3f, 0xa3, 0x42, 0x0b, 0xbe, 0x1b, 0xb6, 0xae, 0xbe,
  0xf6, 0xad, 0xdd, 0xbd, 0x95, 0xab, 0xd4, 0x3e, 0x3d, 0x55, 0x2b, 0xbe,
  0x50, 0x8c, 0xe1, 0x3e, 0x9f, 0x91, 0x9d, 0x3d, 0x43, 0xb8, 0x05, 0xbf,
  0x27, 0xe1, 0x22, 0xbc, 0x11, 0x32, 0x14, 0x3f, 0x1a, 0x20, 0x30, 0x3e,
  0x7a, 0x88, 0xa8, 0x3e, 0x34, 0xfa, 0x45, 0xbd, 0x92, 0x2c, 0x09, 0xbf,
  0x5c, 0xd6, 0xf2, 0x3d, 0x5d, 0x53, 0x39, 0x3f, 0xf4, 0xbc, 0x03, 0xbe,
  0x0e, 0x0b, 0xbe, 0x3e, 0xdc, 0xab, 0x32, 0xbe, 0xa9, 0xa5, 0x9e, 0xbe,
  0xaa, 0x7c, 0x31, 0x3e, 0x7c, 0xd2, 0x32, 0x3f, 0xb8, 0x89, 0x0e, 0x3e,
  0x73, 0x7f, 0xe5, 0x3d, 0x6a, 0x86, 0xd2, 0x3c, 0x7f, 0x69, 0x19, 0xbf,
  0x0d, 0x6d, 0x40, 0xbe, 0xfb, 0x45, 0x1a, 0x3f, 0x32, 0x6b, 0xa9, 0x3e,
  0x77, 0x5c, 0xcf, 0x3e, 0xb7, 0xe0, 0x7c, 0x3e, 0x6d, 0x9c, 0x19, 0xbf,
  0x5a, 0x1d, 0x6c, 0xbe, 0x39, 0xc9, 0x33, 0x3f, 0xaa, 0x77, 0x43, 0x3e,
  0x64, 0x47, 0x66, 0x3e, 0x19, 0x6a, 0xc0, 0x3d, 0x48, 0xa6, 0x07, 0xbf,
  0xf7, 0xb4, 0xfa, 0xbe, 0x8b, 0x7c, 0x85, 0x3e, 0xfe, 0xdd, 0x89, 0x3e,
  0xa1, 0x16, 0xf3, 0xbc, 0x28, 0x6c, 0x42, 0x3e, 0x15, 0xaa, 0x15, 0xbf,
  0xbf, 0xf1, 0x87, 0xbe, 0x17, 0xbf, 0x87, 0x3e, 0x1c, 0x0b, 0x22, 0x3d,
  0x6b, 0xc7, 0x24, 0x3e, 0xc0, 0x3a, 0x8a, 0xbd, 0x6a, 0x48, 0x48, 0x3f,
  0x0a, 0xf4, 0xf8, 0x3d, 0x07, 0x27, 0xbc, 0x3e, 0x2e, 0x5b, 0xa0, 0x3e,
  0x0b, 0xd1, 0x4e, 0x3e, 0x34, 0x98, 0x10, 0xbf, 0x0d, 0xee, 0xfa, 0x3e,
  0xa0, 0xf6, 0x06, 0x3e, 0x77, 0x4a, 0x16, 0x3f, 0xb7, 0x0c, 0x81, 0x3d,
  0xf9, 0x5d, 0x6e, 0x3e, 0xd4, 0x03, 0x2a, 0xbf, 0xb4, 0xa6, 0x88, 0x3e,
  0x8b, 0x4a, 0xf9, 0x3e, 0x63, 0x4d, 0x40, 0x3f, 0x7b, 0xb3, 0xb4, 0x3e,
  0x97, 0x96, 0x57, 0x3e, 0x64, 0xec, 0x0c, 0xbf, 0xd6, 0x50, 0xce, 0x3d,
  0x52, 0x3b, 0xaa, 0x3e, 0xf8, 0xbf, 0x13, 0x3f, 0xfe, 0x6e, 0x9f, 0x3e,
  0x6d, 0x71, 0xfa, 0x3d, 0xb0, 0xe3, 0x2d, 0xbf, 0xbb, 0x9c, 0x55, 0x3d,
  0x8c, 0x15, 0xfa, 0x3d, 0x2a, 0x63, 0x50, 0x3f, 0xab, 0xab, 0x95, 0x3d,
  0x63, 0x7e, 0xf9, 0x3d, 0x02, 0x6c, 0x26, 0xbf, 0x58, 0x03, 0xd5, 0xbd,
  0xb1, 0xf1, 0x1e, 0xbd, 0xa1, 0x7c, 0x86, 0x3f, 0x12, 0x19, 0xbd, 0x3d,
  0xc3, 0xbe, 0xdb, 0x3d, 0x36, 0xa8, 0xe1, 0xbe, 0x91, 0x9a, 0xab, 0xbe,
  0xb0, 0x7b, 0xdb, 0x3d, 0xda, 0x26, 0x59, 0x3f, 0x8d, 0xe4, 0x72, 0x3e,
  0x1a, 0x6e, 0xe5, 0x3d, 0x58, 0xd7, 0x82, 0xbe, 0xb1, 0x17, 0xf7, 0xbe,
  0x7f, 0xe4, 0x97, 0x3e, 0xca, 0xf5, 0x19, 0x3f, 0x29, 0xe0, 0x3b, 0xbe,
  0xf0, 0x3d, 0x86, 0x3d, 0x26, 0x98, 0xc1, 0xbc, 0x3e, 0x00, 0x82, 0xbe,
  0x64, 0xc9, 0x31, 0x3e, 0xaf, 0xfd, 0xa2, 0x3e, 0x9c, 0xdf, 0x22, 0x3c,
  0xcb, 0x01, 0x3b, 0xbe, 0x91, 0x7c, 0x2c, 0x3d, 0x96, 0x95, 0xc7, 0xbe,
  0x90, 0x70, 0x81, 0x3e, 0x83, 0x1b, 0xbd, 0x3e, 0x75, 0x1b, 0xe9, 0xbd,
  0xfc, 0x1e, 0xc6, 0x3d, 0x94, 0xc6, 0x9b, 0x3d, 0xb3, 0xa0, 0xc1, 0xbe,
  0x96, 0xc0, 0xff, 0x3b, 0x1d, 0xda, 0x6f, 0x3e, 0xf3, 0xe8, 0xba, 0xbc,
  0x99, 0x51, 0x2a, 0x3e, 0x60, 0x35, 0x02, 0xbe, 0x6d, 0x42, 0x1d, 0xbf,
  0xb9, 0xd3, 0x8a, 0x3e, 0x23, 0x7b, 0x19, 0x3e, 0x77, 0x05, 0xd0, 0x3d,
  0x24, 0xb0, 0x89, 0x3e, 0xe5, 0xe6, 0x96, 0xbe, 0x35, 0x39, 0xdb, 0xbe,
  0x5b, 0xd4, 0x72, 0x3e, 0xdc, 0x27, 0x3f, 0xbd, 0xaa, 0x89, 0xc3, 0xbd,
  0x12, 0x2c, 0xbf, 0x3a, 0x20, 0xf1, 0xae, 0x3c, 0x0a, 0x45, 0x4e, 0xbf,
  0x3c, 0x7d, 0x92, 0x3e, 0xb7, 0x34, 0x43, 0x3d, 0xcf, 0x3a, 0x9d, 0xbc,
  0x5f, 0x34, 0x94, 0xbc, 0xda, 0x58, 0xfc, 0xbd, 0x79, 0x04, 0x56, 0xbf,
  0xef, 0xe9, 0x25, 0x3e, 0x35, 0x16, 0xa5, 0x3d, 0x26, 0x32, 0xa2, 0xbd,
  0x3a, 0x08, 0x5a, 0x3d, 0x07, 0x60, 0xf9, 0xbd, 0xaf, 0xfe, 0x3c, 0xbf,
  0x07, 0xf1, 0x48, 0x3e, 0x19, 0xed, 0xfa, 0x3d, 0x11, 0x2b, 0x8f, 0x3e,
  0x68, 0xec, 0x41, 0x3e, 0x01, 0xf5, 0x6d, 0xbe, 0x4b, 0x75, 0x37, 0xbf,
  0x83, 0xc8, 0x8f, 0x3e, 0x3c, 0x16, 0x15, 0xbe, 0x48, 0xf4, 0xe1, 0x3d,
  0x53, 0x26, 0x12, 0x3e, 0xfa, 0xce, 0x97, 0xbe, 0xaf, 0x1d, 0x36, 0xbf,
  0x88, 0xd3, 0x65, 0x3e, 0x6e, 0xd0, 0x09, 0xbe, 0x7b, 0xcc, 0xa1, 0x3e,
  0xc0, 0xe7, 0xb7, 0x3d, 0xe8, 0xd3, 0x68, 0xbe, 0x96, 0xb3, 0x3e, 0xbf,
  0x59, 0xac, 0xec, 0x3c, 0x3e, 0x51, 0x19, 0xbe, 0xd6, 0x75, 0x8a, 0x3d,
  0x24, 0x2f, 0x45, 0x3e, 0x0b, 0x4b, 0x84, 0x3c, 0x4c, 0xcf, 0xbe, 0xbe,
  0x9b, 0x16, 0x9c, 0x3e, 0xba, 0x13, 0x7b, 0xbe, 0x96, 0x60, 0x7a, 0x3e,
  0x4a, 0x87, 0x85, 0xbd, 0x4f, 0xa9, 0x6a, 0xbc, 0x58, 0xce, 0xbc, 0xbe,
  0x3c, 0x15, 0x9a, 0xbd, 0x8c, 0xed, 0x8f, 0xbe, 0xaa, 0xfd, 0x94, 0xbe,
  0xf1, 0xfe, 0x33, 0x3e, 0xeb, 0x79, 0x8b, 0x3d, 0xc2, 0xf5, 0xa5, 0xbe,
  0x19, 0xca, 0x45, 0xbe, 0x78, 0xfa, 0x7e, 0xbd, 0x0a, 0xe9, 0xb9, 0xbe,
  0xcf, 0x3f, 0x88, 0x3e, 0x78, 0x09, 0xc7, 0x3e, 0x90, 0x39, 0xe2, 0xbe,
  0xb2, 0x3d, 0x0a, 0xbd, 0x81, 0x88, 0xa5, 0xbc, 0x09, 0xe1, 0xa5, 0xbe,
  0xa7, 0xd9, 0x80, 0xbd, 0x10, 0x0b, 0x94, 0x3e, 0x91, 0xd9, 0x47, 0xbe,
  0xe8, 0x94, 0x63, 0x3e, 0x84, 0xd7, 0x7c, 0xbe, 0xaa, 0x8a, 0xb3, 0xbe,
  0x55, 0x7a, 0x53, 0x3e, 0xb1, 0xf0, 0x8e, 0x3d, 0x19, 0x2e, 0x41, 0xbe,
  0xc4, 0x6d, 0x5e, 0x3e, 0x43, 0xae, 0xdd, 0xbe, 0x20, 0x2a, 0x5b, 0xbe,
  0x28, 0x64, 0x0b, 0x3e, 0xb6, 0xa1, 0x91, 0x3e, 0x87, 0x7c, 0x35, 0x3d,
  0xb3, 0xa5, 0x89, 0x3e, 0x01, 0x6d, 0xa6, 0xbe, 0xd3, 0x4c, 0xd0, 0xbe,
  0xc4, 0x84, 0xa8, 0x3e, 0x82, 0xee, 0x1b, 0x3e, 0x95, 0x29, 0x8a, 0x3d,
  0x05, 0xc0, 0x6d, 0x3e, 0xb7, 0xc9, 0xd9, 0xbe, 0x15, 0xa9, 0xf7, 0xbd,
  0x25, 0xd3, 0xb7, 0x3e, 0xc4, 0xea, 0x53, 0xbc, 0xd0, 0x99, 0xf3, 0x3d,
  0x92, 0x8f, 0x6c, 0x3e, 0x85, 0x01, 0xdb, 0xbc, 0xae, 0x21, 0xab, 0xbe,
  0x69, 0xaa, 0x8c, 0x3d, 0xaf, 0x57, 0x91, 0xbd, 0x37, 0x0f, 0xa9, 0x3e,
  0x6a, 0x73, 0x54, 0x3e, 0x84, 0xf0, 0x8c, 0xbe, 0x00, 0x40, 0x84, 0xbe,
  0x57, 0x3a, 0xda, 0x3b, 0xa8, 0xbc, 0x8c, 0xbc, 0x04, 0x9a, 0xb8, 0x3e,
  0xb3, 0x0d, 0xd6, 0x3e, 0xa6, 0xa6, 0xf7, 0xbd, 0x33, 0xb5, 0x00, 0x3d,
  0x57, 0x4f, 0x4a, 0xbd, 0xe2, 0xec, 0x2a, 0xbe, 0xbe, 0x7d, 0x91, 0x3e,
  0x44, 0x11, 0x15, 0x3f, 0x89, 0xe9, 0x7f, 0x3d, 0x72, 0x6f, 0x10, 0x3d,
  0xeb, 0x1d, 0x04, 0xbd, 0x7f, 0x36, 0x1a, 0xbe, 0x25, 0x7b, 0x91, 0x3e,
  0x5f, 0xcb, 0xe2, 0x3e, 0x0f, 0x2c, 0x3b, 0x3e, 0xda, 0xf2, 0x94, 0xbd,
  0x8e, 0x83, 0xe3, 0x3d, 0x67, 0xcf, 0x40, 0xbe, 0x56, 0xa5, 0x53, 0x3e,
  0x3a, 0x34, 0x7b, 0x3e, 0xdb, 0x74, 0xa7, 0x3d, 0x0f, 0xeb, 0x23, 0x3e,
  0x4d, 0x8e, 0x12, 0x3e, 0xd0, 0xc5, 0x21, 0x3e, 0x57, 0xfc, 0xfa, 0x3e,
  0x2e, 0xa5, 0xdc, 0x3e, 0x92, 0x01, 0x70, 0xbd, 0xe3, 0x63, 0x1b, 0x3e,
  0xe3, 0x2d, 0x1d, 0xbe, 0x8a, 0x0f, 0x52, 0x3e, 0x11, 0xc1, 0xe9, 0x3e,
  0x44, 0x49, 0x40, 0x3e, 0x88, 0xa8, 0xc1, 0x3d, 0xa1, 0x94, 0x51, 0x3d,
  0x32, 0x29, 0x0e, 0x3e, 0x8b, 0x5d, 0x9b, 0x3d, 0x6b, 0x92, 0x84, 0x3e,
  0xff, 0x3c, 0x36, 0x3d, 0xfa, 0x99, 0x69, 0xbd, 0xdc, 0xef, 0x47, 0x3e,
  0x2e, 0x3f, 0x30, 0xbb, 0xac, 0x38, 0x87, 0x3e, 0xa2, 0xd4, 0x0e, 0x3f,
  0x20, 0x94, 0xa7, 0x3e, 0x41, 0x10, 0x8c, 0x3d, 0x2d, 0xc1, 0x8b, 0x3d,
  0xf0, 0x5e, 0xe0, 0xbd, 0xa4, 0x37, 0x46, 0x3e, 0x70, 0x5e, 0x22, 0x3f,
  0xf9, 0xd5, 0x21, 0x3e, 0x91, 0xeb, 0x58, 0x3e, 0xc0, 0x55, 0x46, 0x3e,
  0x8b, 0x26, 0x0c, 0xbe, 0x67, 0x19, 0x88, 0xbb, 0x03, 0x6b, 0xdb, 0x3e,
  0x9c, 0xfd, 0x0b, 0x3e, 0x8d, 0x68, 0x9a, 0xbd, 0x41, 0x7a, 0x9f, 0x3e,
  0x0a, 0x21, 0x08, 0x3e, 0x10, 0x27, 0x49, 0xbc, 0x71, 0x1e, 0xf9, 0x3e,
  0xd9, 0x1f, 0x1d, 0xbe, 0x78, 0x62, 0x0e, 0xbd, 0xcf, 0x11, 0x95, 0x3e,
  0x86, 0xd3, 0x14, 0x3e, 0xad, 0x52, 0xec, 0x3d, 0xe0, 0xc6, 0xa2, 0xbc,
  0xac, 0xb7, 0x6d, 0x3d, 0xa0, 0x46, 0x81, 0x3b, 0x60, 0x71, 0x84, 0xbb,
  0x1c, 0xfb, 0xd1, 0xbd, 0x54, 0xff, 0x6a, 0x3d, 0xd4, 0x7d, 0x48, 0x3d,
  0xd6, 0x98, 0x34, 0xbe, 0xdf, 0xe7, 0x23, 0xbe, 0xf8, 0x21, 0x23, 0xbe,
  0xbb, 0xf7, 0xde, 0xbd, 0xec, 0x5b, 0x2e, 0x3d, 0x0c, 0x35, 0x4c, 0x3d,
  0x42, 0x9e, 0xa8, 0xbd, 0x10, 0xb1, 0x96, 0x3c, 0x2a, 0x6e, 0xc1, 0x3d,
  0xce, 0x66, 0xde, 0x3d, 0xcc, 0x1c, 0x26, 0xbd, 0x22, 0x1a, 0xa0, 0x3d,
  0x7d, 0x81, 0x3e, 0x3e, 0x3e, 0xb5, 0xa7, 0xbd, 0xa3, 0x14, 0x25, 0xbe,
  0xa2, 0xdd, 0xd7, 0xbd, 0x8e, 0x20, 0xcf, 0x3d, 0xa4, 0x43, 0x14, 0x3d,
  0xd4, 0x57, 0x40, 0x3d, 0xe2, 0x8a, 0x0b, 0xbe, 0xa5, 0xfa, 0x56, 0x3e,
  0x1a, 0x82, 0xb9, 0x3d, 0xc6, 0xa1, 0x10, 0xbe, 0xa6, 0x67, 0xc9, 0x3d,
  0x77, 0x4d, 0x00, 0xbe, 0x2b, 0x42, 0x3c, 0xbe, 0xc4, 0xb8, 0x6f, 0xbd,
  0xd2, 0xa6, 0x38, 0xbe, 0x3c, 0x6d, 0x51, 0x3d, 0x3c, 0x2a, 0x35, 0xbe,
  0x14, 0xdb, 0x02, 0xbe, 0x43, 0x19, 0x10, 0x3e, 0xc4, 0x95, 0x2b, 0xbd,
  0xd8, 0x6b, 0xba, 0xbc, 0xca, 0x35, 0x19, 0xbe, 0x0d, 0x6f, 0x35, 0xbe,
  0x72, 0x9a, 0xb4, 0x3d, 0xfc, 0xed, 0x70, 0x3d, 0x72, 0x84, 0x94, 0x3d,
  0x0b, 0x0e, 0x21, 0x3e, 0x94, 0x0d, 0xfd, 0xbd, 0x18, 0x24, 0x11, 0xbe,
  0x70, 0xf4, 0x69, 0xbc, 0x32, 0x9f, 0x92, 0x3d, 0x60, 0xcc, 0xc8, 0x3b,
  0x00, 0xc6, 0x12, 0x3d, 0x10, 0x35, 0xd8, 0xbd, 0x05, 0x58, 0xde, 0xbd,
  0x85, 0x2b, 0x2d, 0x3e, 0xd8, 0x42, 0xbb, 0x3c, 0x98, 0xd3, 0x17, 0xbe,
  0xe3, 0x05, 0x36, 0x3e, 0x40, 0x88, 0xb8, 0xbc, 0x90, 0xf2, 0x50, 0xbd,
  0x00, 0xc5, 0x77, 0x3a, 0xb4, 0x32, 0x4e, 0xbd, 0x3c, 0x19, 0x41, 0xbd,
  0xa6, 0x67, 0x9a, 0xbd, 0x1b, 0x60, 0x49, 0x3e, 0xe1, 0xa9, 0x2f, 0x3e,
  0x55, 0x03, 0xe4, 0xbd, 0x59, 0x4b, 0x54, 0xbe, 0x00, 0x51, 0xc5, 0xbb,
  0xfe, 0x41, 0x83, 0x3d, 0x2c, 0x12, 0x71, 0x3d, 0x41, 0xf6, 0x18, 0x3e,
  0x1a, 0xef, 0x8e, 0xbd, 0x86, 0xb4, 0x93, 0x3d, 0x92, 0x7f, 0x87, 0x3d,
  0xe0, 0xa2, 0xc9, 0xbd, 0xa8, 0x89, 0x1c, 0xbd, 0x28, 0x16, 0xfa, 0x3c,
  0x5c, 0xb9, 0x19, 0xbd, 0x77, 0x40, 0x13, 0x3e, 0x2d, 0x97, 0x1d, 0x3e,
  0xd4, 0x9f, 0x66, 0x3d, 0x80, 0x0b, 0xdf, 0xbc, 0x06, 0xb4, 0xd0, 0x3d,
  0xd9, 0xbf, 0xed, 0xbd, 0xa4, 0x4b, 0x1e, 0xbe, 0xd4, 0x89, 0x3f, 0xbd,
  0x50, 0x80, 0x29, 0xbd, 0xfb, 0xad, 0x50, 0xbe, 0x7e, 0xde, 0xed, 0x3d,
  0x24, 0x50, 0x39, 0xbe, 0x2e, 0x91, 0xe0, 0x3d, 0x33, 0xbe, 0x21, 0xbe,
  0xa0, 0xfd, 0x35, 0xbc, 0xbe, 0x64, 0xff, 0x3d, 0x85, 0x42, 0x0a, 0x3e,
  0x32, 0xb2, 0xcf, 0x3d, 0xa6, 0x50, 0xcd, 0x3d, 0x2c, 0xcf, 0xe7, 0xbd,
  0xec, 0x34, 0x53, 0x3d, 0x26, 0xf5, 0x8e, 0x3d, 0xa8, 0x81, 0x55, 0xbd,
  0x40, 0x6a, 0x93, 0xbb, 0x46, 0x69, 0x01, 0xbe, 0x73, 0x05, 0x0e, 0x3e,
  0xc1, 0xb4, 0x43, 0x3e, 0xe4, 0xa8, 0x38, 0xbd, 0x8b, 0xfd, 0x3a, 0x3e,
  0xa2, 0x0d, 0xac, 0x3d, 0x45, 0xfd, 0x32, 0xbe, 0x78, 0x74, 0x82, 0xbd,
  0x42, 0x12, 0x48, 0xbe, 0xec, 0xbe, 0x83, 0xbd, 0x76, 0x3b, 0xcd, 0x3d,
  0xf6, 0x45, 0x81, 0xbd, 0x78, 0xfc, 0xc7, 0xbc, 0x64, 0x41, 0x46, 0xbd,
  0x2e, 0xa4, 0x94, 0xbd, 0x16, 0x4b, 0xb6, 0x3d, 0x91, 0x24, 0x33, 0x3c,
  0xac, 0xa0, 0x37, 0xbe, 0x59, 0x15, 0xd0, 0xbd, 0x38, 0x0f, 0xe1, 0xbd,
  0xe5, 0x03, 0x48, 0x3e, 0xa9, 0x47, 0x18, 0xbc, 0x46, 0xec, 0x7f, 0xbd,
  0x72, 0xd0, 0x14, 0xbe, 0xc4, 0x93, 0x8b, 0xbd, 0xd2, 0x91, 0xbc, 0x3c,
  0x13, 0xe2, 0xf7, 0xbd, 0x2e, 0xf7, 0x22, 0x3e, 0x87, 0x10, 0xb6, 0x3d,
  0x11, 0x06, 0xa4, 0xbc, 0x7f, 0xd0, 0x2a, 0xbe, 0x8d, 0x7a, 0xcc, 0xbd,
  0xe3, 0x85, 0x35, 0xbd, 0x57, 0xdd, 0xf7, 0xbc, 0xe7, 0xe6, 0x57, 0xbe,
  0x2c, 0x94, 0x39, 0x3d, 0xe8, 0x8a, 0x43, 0x3e, 0x18, 0x62, 0x4b, 0xbe,
  0x9e, 0xcd, 0x7a, 0xbc, 0xe4, 0x0a, 0xac, 0x3d, 0xb5, 0x86, 0x38, 0xbe,
  0x55, 0x24, 0x1b, 0xbe, 0x4d, 0xfb, 0x2c, 0xbe, 0x58, 0xa6, 0x25, 0x3d,
  0xff, 0x3e, 0x3e, 0xbe, 0xce, 0x0a, 0x13, 0x3e, 0x1e, 0x5c, 0x42, 0xbe,
  0x92, 0x43, 0x3d, 0x3e, 0x01, 0x15, 0xea, 0x3d, 0xc1, 0x06, 0xfc, 0x3d,
  0x5c, 0xd8, 0x22, 0xbc, 0x28, 0xaf, 0xa7, 0x3d, 0xf1, 0x2d, 0x6d, 0xbd,
  0xec, 0xc7, 0x34, 0xbd, 0x3f, 0x86, 0x81, 0x3d, 0x17, 0x63, 0x1a, 0xbe,
  0xe5, 0x4c, 0x3b, 0x3e, 0xee, 0xef, 0xb8, 0x3d, 0xf3, 0x84, 0x2d, 0xbe,
  0x4e, 0x08, 0x57, 0xbc, 0x38, 0x31, 0x35, 0x3e, 0x33, 0xe6, 0x27, 0xbe,
  0x90, 0x32, 0xd5, 0xba, 0x96, 0x2a, 0x6c, 0xbd, 0x6a, 0x08, 0xc9, 0xbb,
  0xab, 0xee, 0xa4, 0x3d, 0xbd, 0xfe, 0xe1, 0xbc, 0xe3, 0x9e, 0x3c, 0xbe,
  0x3a, 0x20, 0x2b, 0xbe, 0x3e, 0xdb, 0x2b, 0x3d, 0x05, 0xf5, 0xd2, 0x3d,
  0x8c, 0x06, 0x84, 0x3d, 0xaa, 0x16, 0x11, 0xbe, 0xef, 0x5b, 0x5e, 0xbe,
  0x0f, 0xfb, 0xf8, 0xbd, 0x23, 0x73, 0xfe, 0xbd, 0x46, 0xc8, 0xf0, 0x3d,
  0x84, 0x6b, 0x8d, 0xbd, 0xe2, 0x03, 0x77, 0x3d, 0x4b, 0xa6, 0x2d, 0xbe,
  0x7e, 0x46, 0x2d, 0xbc, 0x06, 0x55, 0x32, 0x3e, 0xbe, 0x5b, 0x6e, 0xbd,
  0x1d, 0x81, 0x1d, 0x3d, 0x5c, 0x14, 0x33, 0x3e, 0x7c, 0x8e, 0xea, 0x3d,
  0x0d, 0xda, 0xb3, 0xbb, 0xfe, 0x3e, 0x0d, 0xbe, 0x29, 0x6b, 0x35, 0x3d,
  0xba, 0x4a, 0x94, 0x3d, 0xc7, 0xc4, 0x2c, 0xbe, 0xa0, 0x0f, 0x29, 0x3e,
  0xb6, 0x09, 0x33, 0x3e, 0x8c, 0xb7, 0x36, 0x3e, 0xf9, 0x37, 0xa9, 0x3d,
  0x1f, 0x63, 0x04, 0x3a, 0x35, 0xc6, 0xfd, 0x3d, 0xab, 0x85, 0x38, 0x3e,
  0xa9, 0xe3, 0x72, 0x3d, 0xa3, 0x85, 0x36, 0xbc, 0xa4, 0x3f, 0x08, 0xbe,
  0x04, 0x2f, 0xfa, 0x3d, 0xfc, 0x55, 0x99, 0xbc, 0xcc, 0x9c, 0x61, 0xbe,
  0x9f, 0x13, 0x42, 0xbe, 0x5d, 0xf0, 0x67, 0xbc, 0x14, 0x3a, 0x4d, 0xbe,
  0x1d, 0xbd, 0xf1, 0xbd, 0x67, 0xb9, 0xed, 0xbd, 0xdf, 0x3f, 0x9e, 0x3d,
  0x44, 0x42, 0x11, 0xbc, 0x99, 0xfc, 0x16, 0xbe, 0x15, 0x37, 0xf1, 0x3d,
  0xc7, 0x51, 0x22, 0xbe, 0xbb, 0x14, 0x42, 0xbe, 0x1e, 0x35, 0x40, 0xbd,
  0xfd, 0xd4, 0xb4, 0x3d, 0x83, 0x5d, 0xbb, 0x3d, 0x12, 0x09, 0xad, 0xbd,
  0x14, 0x41, 0x2c, 0x3e, 0x86, 0x7b, 0x73, 0x3d, 0xd6, 0x5b, 0x57, 0xbd,
  0x61, 0xcc, 0xa5, 0x3d, 0xa8, 0x44, 0xd1, 0xbd, 0x54, 0x4f, 0x29, 0x3e,
  0xa7, 0x49, 0x21, 0x39, 0x44, 0xed, 0x1a, 0x3d, 0x38, 0xfd, 0xc4, 0xbc,
  0xf5, 0x50, 0x14, 0xbd, 0x0c, 0x49, 0x27, 0x3e, 0x26, 0x99, 0x30, 0x3a,
  0x67, 0xc4, 0xba, 0xbb, 0x5e, 0x7d, 0x42, 0x3e, 0xdc, 0x03, 0x0a, 0x3e,
  0x5c, 0xa0, 0x0d, 0xbe, 0x24, 0x38, 0x5f, 0xbe, 0x08, 0xbf, 0x10, 0xbe,
  0x88, 0x03, 0xbf, 0x3e, 0x7b, 0xa7, 0x7e, 0xbe, 0x5b, 0x68, 0xc4, 0x3c,
  0x6f, 0x63, 0x1c, 0xbe, 0x8a, 0x93, 0x26, 0xbf, 0x3f, 0x2b, 0xa7, 0xbd,
  0xe6, 0x37, 0x30, 0x3f, 0xd6, 0xda, 0x99, 0xbe, 0xaa, 0xb0, 0x0b, 0xbe,
  0x3b, 0xb1, 0xe6, 0xbd, 0x21, 0x1e, 0x29, 0xbf, 0x50, 0x9e, 0x41, 0x3e,
  0x16, 0xa0, 0x55, 0x3f, 0x8c, 0xe1, 0x8e, 0xbe, 0x7e, 0xbe, 0x38, 0x3e,
  0x75, 0x69, 0x44, 0x3d, 0x72, 0x92, 0x19, 0xbf, 0xc1, 0x56, 0xea, 0xbd,
  0x49, 0x85, 0x14, 0x3f, 0x24, 0x2e, 0x2c, 0xbe, 0xb6, 0x45, 0x93, 0x3e,
  0xf1, 0x4f, 0x2a, 0x3e, 0x5d, 0x85, 0x33, 0xbf, 0x24, 0x74, 0x26, 0xbc,
  0xa8, 0x29, 0xf1, 0x3e, 0x84, 0x4d, 0x09, 0xbf, 0x3a, 0xda, 0x1f, 0x3e,
  0x7b, 0x8d, 0x67, 0xbd, 0x78, 0x3f, 0x07, 0xbf, 0xf1, 0x94, 0x38, 0xbd,
  0xdd, 0xcb, 0x18, 0x3f, 0x60, 0x0e, 0x1b, 0xbf, 0x5a, 0x21, 0x42, 0x3e,
  0x3c, 0xc7, 0x75, 0x3e, 0xca, 0x51, 0x4d, 0xbe, 0xef, 0xb2, 0x06, 0xbe,
  0x53, 0x5a, 0x48, 0x3f, 0xc0, 0xfe, 0x86, 0xbe, 0xd2, 0xd1, 0x94, 0x3e,
  0x8b, 0xbb, 0xb4, 0x3b, 0x85, 0x1c, 0xc1, 0xbe, 0xbb, 0x8f, 0x7c, 0x3e,
  0x27, 0x3c, 0x13, 0x3f, 0x53, 0x0a, 0xf2, 0xbe, 0x51, 0x7e, 0x11, 0x3e,
  0x5a, 0x02, 0xf4, 0xbd, 0x19, 0x62, 0xd6, 0xbd, 0x62, 0x53, 0xc9, 0x3e,
  0xba, 0xe7, 0x64, 0x3f, 0x13, 0x9d, 0xd4, 0xbe, 0x69, 0x10, 0x66, 0x3e,
  0x3b, 0xfd, 0xa9, 0xbc, 0x84, 0xbe, 0xf5, 0xbe, 0xa5, 0xb9, 0xf1, 0x3e,
  0x18, 0x07, 0x38, 0x3f, 0xa6, 0x1e, 0xe6, 0xbe, 0x54, 0x5a, 0xd9, 0x3e,
  0xb9, 0x93, 0x1c, 0xbe, 0xd3, 0x84, 0xab, 0xbe, 0x40, 0xea, 0x5a, 0x3e,
  0xf7, 0xe4, 0x13, 0x3f, 0x56, 0xaf, 0x95, 0xbd, 0xb7, 0xaf, 0x6f, 0x3e,
  0x34, 0xa5, 0x24, 0xbe, 0x48, 0x41, 0x2c, 0xbe, 0x1d, 0x5f, 0xc6, 0x3e,
  0xc3, 0xad, 0x15, 0x3f, 0x84, 0x63, 0xf5, 0xbd, 0x08, 0x09, 0x4d, 0x3e,
  0x95, 0xea, 0x3f, 0xbd, 0xd7, 0x8d, 0x98, 0xbe, 0x49, 0x82, 0xc2, 0x3e,
  0x8b, 0xca, 0xf1, 0x3e, 0x7b, 0xa1, 0xb3, 0x3d, 0xdb, 0xe7, 0x56, 0x3e,
  0x96, 0x6f, 0xc4, 0x3d, 0x49, 0x8b, 0xfa, 0xbd, 0x63, 0x19, 0x2d, 0x3f,
  0xa4, 0xf0, 0x9a, 0x3e, 0x2f, 0x07, 0x1b, 0x3c, 0xf4, 0x1b, 0x4a, 0x3d,
  0x2b, 0x0c, 0x19, 0xbe, 0xe9, 0x7c, 0xa4, 0xbe, 0x66, 0xf9, 0x10, 0x3f,
  0x76, 0xc2, 0x66, 0x3d, 0x27, 0x3b, 0x42, 0x3e, 0x12, 0x0d, 0x23, 0x3e,
  0xa7, 0x5b, 0xb2, 0xbe, 0x3e, 0xde, 0xc3, 0x3d, 0x82, 0x08, 0x9b, 0x3e,
  0x66, 0xd6, 0x86, 0x3e, 0x60, 0x38, 0x1d, 0xbe, 0x13, 0x38, 0xa8, 0x3d,
  0x9b, 0x2a, 0x3e, 0x3c, 0xb3, 0x06, 0xaa, 0x3d, 0x24, 0x98, 0xfe, 0x3e,
  0xf1, 0xa5, 0x69, 0x3e, 0x05, 0xd5, 0x07, 0xbe, 0x0c, 0x55, 0xfb, 0xbc,
  0x0c, 0x86, 0xd8, 0xbd, 0xce, 0x6c, 0x4e, 0xbe, 0xd3, 0x3f, 0x74, 0x3e,
  0xd6, 0xa5, 0xf5, 0x3d, 0x44, 0x22, 0x1e, 0x3e, 0x7b, 0x5a, 0x93, 0xbe,
  0x36, 0x2d, 0x28, 0xbe, 0xdf, 0x06, 0xa2, 0x3d, 0x39, 0x9f, 0xad, 0x3e,
  0xaa, 0x5b, 0x31, 0x3e, 0xef, 0x2f, 0x45, 0x3e, 0xa4, 0xd3, 0x44, 0xbd,
  0xb7, 0x8e, 0x62, 0xbe, 0xb5, 0xc2, 0xe4, 0x3d, 0xbd, 0x14, 0x8c, 0x3e,
  0xb0, 0x2c, 0x79, 0x3e, 0xb8, 0x6d, 0xc7, 0x3c, 0x5b, 0x9a, 0x1d, 0xbd,
  0xf8, 0xab, 0xa1, 0xbe, 0x6a, 0x26, 0xe6, 0x3b, 0x28, 0xfa, 0xda, 0x3e,
  0x5c, 0x1b, 0x48, 0xbd, 0x53, 0xeb, 0x3e, 0x3f, 0xdd, 0xee, 0x91, 0x3e,
  0x83, 0xd6, 0x94, 0xbd, 0x1d, 0x16, 0x8e, 0x3f, 0xd6, 0xd4, 0x71, 0x3e,
  0xee, 0x6b, 0x41, 0xbe, 0x00, 0xca, 0x5b, 0x3f, 0x57, 0xf9, 0xde, 0x3c,
  0xcd, 0xae, 0xc9, 0x3d, 0x52, 0xd3, 0x41, 0x3f, 0x2b, 0x25, 0xf5, 0x3e,
  0x6e, 0xbf, 0xe3, 0xbe, 0x37, 0xfd, 0xcf, 0x3e, 0x4b, 0x0b, 0x94, 0x3e,
  0x69, 0x62, 0x28, 0xbe, 0x33, 0xc1, 0x5c, 0x3f, 0x8e, 0xe7, 0x2d, 0x3d,
  0x89, 0xd6, 0x01, 0xbe, 0x7f, 0x00, 0x03, 0x3f, 0x3f, 0x2c, 0x0f, 0x3d,
  0xb7, 0x67, 0x1b, 0x3d, 0x11, 0xb5, 0x34, 0x3f, 0xde, 0xbf, 0xbe, 0xbd,
  0x1d, 0xde, 0x6d, 0xbe, 0x44, 0xc3, 0x23, 0x3e, 0x03, 0xee, 0x31, 0x3d,
  0xbb, 0x7a, 0x39, 0x3d, 0x16, 0x19, 0x51, 0x3f, 0xb0, 0xc4, 0x13, 0xbe,
  0x97, 0xf2, 0x08, 0xbe, 0xbe, 0xf7, 0xb7, 0x3d, 0x44, 0x09, 0x73, 0x3e,
  0xd3, 0x31, 0xa8, 0xbe, 0x3a, 0x76, 0x29, 0x3f, 0x5c, 0x22, 0x0c, 0x3e,
  0x8a, 0x60, 0xe6, 0xbc, 0x66, 0xf1, 0x07, 0x3e, 0x2d, 0x20, 0x6b, 0x3e,
  0x75, 0x08, 0x8f, 0xbe, 0xda, 0x05, 0xac, 0x3e, 0x22, 0x72, 0xfc, 0xbd,
  0xd7, 0x40, 0xae, 0x3c, 0xd4, 0x31, 0x88, 0xbc, 0x97, 0x25, 0xa9, 0x3e,
  0xc1, 0x11, 0xeb, 0xbc, 0x08, 0x8e, 0xc4, 0x3e, 0xd2, 0x3d, 0x78, 0xbd,
  0x41, 0xac, 0xed, 0xbd, 0x35, 0xbf, 0x78, 0x3e, 0x86, 0xe4, 0xa1, 0x3e,
  0xa1, 0x83, 0x53, 0xbe, 0xd0, 0xd2, 0xe5, 0x3e, 0x85, 0xe6, 0x9b, 0xbd,
  0x23, 0xc2, 0xdf, 0x3b, 0x91, 0xee, 0x05, 0xbe, 0x55, 0x86, 0xe6, 0x3c,
  0x91, 0x70, 0xf3, 0x3c, 0x57, 0x49, 0x77, 0x3e, 0xc7, 0x9f, 0x18, 0x3e,
  0x8e, 0x9d, 0x38, 0x3e, 0x38, 0x44, 0x83, 0x3e, 0x07, 0x3f, 0x1c, 0x3e,
  0x2b, 0xc0, 0xe0, 0x3c, 0x69, 0xc0, 0x12, 0x3f, 0x58, 0x0b, 0x0a, 0x3e,
  0x01, 0x79, 0xbd, 0x3e, 0x32, 0x00, 0x58, 0xbd, 0x5a, 0x8c, 0x90, 0x3e,
  0x70, 0xf0, 0x58, 0xbe, 0xbd, 0x32, 0x17, 0x3f, 0x9e, 0xf6, 0x50, 0x3e,
  0x63, 0x4b, 0x1f, 0x3e, 0xec, 0x1b, 0xfd, 0x3b, 0x04, 0xb5, 0x30, 0x3e,
  0xbc, 0x42, 0x41, 0xbd, 0x52, 0x6b, 0x0d, 0x3f, 0x87, 0x15, 0x26, 0x3e,
  0x62, 0x7e, 0x05, 0x3e, 0x58, 0x9b, 0x6c, 0x3d, 0x6b, 0xc2, 0x83, 0x3e,
  0x31, 0x79, 0x2b, 0x3e, 0xc8, 0x1e, 0x5f, 0x3e, 0x75, 0xe6, 0x61, 0x3d,
  0x1d, 0x0e, 0x04, 0xbd, 0xa7, 0xe8, 0x01, 0xbe, 0x48, 0xc8, 0x51, 0x3b,
  0xa4, 0x76, 0x01, 0x3e, 0xba, 0xb1, 0x8d, 0x3e, 0x6d, 0x96, 0x58, 0x3e,
  0xc8, 0x2e, 0x18, 0x3e, 0xe7, 0x65, 0x9f, 0xbe, 0x52, 0x21, 0x1d, 0x3e,
  0x20, 0x44, 0x43, 0x3d, 0xd7, 0x6b, 0x48, 0x3e, 0xe5, 0xf3, 0x88, 0x3e,
  0x3c, 0x6d, 0x95, 0xbd, 0xc9, 0xa6, 0xc4, 0xbd, 0x1b, 0x17, 0x11, 0x3e,
  0xe4, 0xe3, 0x76, 0x3e, 0xfc, 0x0f, 0xe6, 0x3e, 0x21, 0xd6, 0xe4, 0x3e,
  0x22, 0x66, 0x83, 0x3e, 0x23, 0x73, 0x1e, 0xbe, 0xab, 0x77, 0xaf, 0x3e,
  0x18, 0xc5, 0x9a, 0x3e, 0x7f, 0xa4, 0x56, 0x3e, 0xe8, 0x89, 0x6c, 0x3e,
  0x2c, 0x81, 0x63, 0x3e, 0xbc, 0x18, 0xa4, 0xbe, 0xca, 0xe9, 0x7b, 0x3e,
  0xb9, 0xec, 0x6d, 0x3e, 0xf5, 0xdf, 0xa2, 0x3e, 0xbc, 0x79, 0x04, 0x3f,
  0xc8, 0x27, 0x15, 0xbd, 0x33, 0x2d, 0x1b, 0xbe, 0x97, 0x2b, 0xe8, 0x3c,
  0x8d, 0x47, 0xb8, 0x3e, 0x8f, 0xc4, 0x78, 0x3e, 0x7f, 0xc9, 0xd8, 0x3d,
  0x7e, 0x60, 0x81, 0xbc, 0x06, 0x9a, 0x45, 0x3d, 0x0f, 0x3d, 0x94, 0x3e,
  0x77, 0xe5, 0x85, 0xbe, 0x30, 0xdc, 0x58, 0x3f, 0x9c, 0xa5, 0xb0, 0x3e,
  0x25, 0xe7, 0x76, 0x3c, 0x64, 0x58, 0x33, 0xbe, 0xd6, 0x35, 0x0d, 0x3f,
  0x63, 0x3d, 0x4c, 0xbd, 0x54, 0x6b, 0x26, 0x3f, 0x12, 0xf9, 0x0a, 0x3e,
  0x34, 0x90, 0x0c, 0xbe, 0x36, 0x68, 0xc2, 0xbd, 0x0f, 0xfe, 0xb2, 0x3e,
  0xc8, 0x67, 0x83, 0xbd, 0x48, 0xa1, 0xe0, 0x3e, 0x36, 0xf1, 0x35, 0xbd,
  0xdf, 0xcf, 0xca, 0xbd, 0x71, 0x10, 0x60, 0xbe, 0x8b, 0xf3, 0x71, 0x3e,
  0x02, 0xf3, 0x68, 0xbe, 0x89, 0x1b, 0x13, 0x3f, 0xa1, 0x82, 0x51, 0x3b,
  0xfb, 0x5d, 0xca, 0x3d, 0x87, 0xea, 0x9e, 0xbe, 0x84, 0x16, 0xa4, 0x3e,
  0x35, 0x8e, 0x2c, 0xbe, 0xfd, 0xb5, 0x4f, 0x3e, 0x31, 0x0b, 0x37, 0x3d,
  0x5e, 0xe8, 0x40, 0x3e, 0x93, 0xdc, 0xa6, 0xbe, 0x7e, 0x9e, 0xe5, 0x3e,
  0x49, 0x9d, 0xaf, 0xbd, 0x73, 0x3c, 0x03, 0x3f, 0xb4, 0x00, 0xa6, 0xbd,
  0xf1, 0x0b, 0x89, 0x3b, 0xaa, 0x83, 0x09, 0xbe, 0xd9, 0xe3, 0x44, 0x3f,
  0x69, 0x71, 0x76, 0xbe, 0x05, 0xdc, 0xf3, 0x3e, 0xf5, 0x23, 0x76, 0x3e,
  0x01, 0xbd, 0x87, 0xbe, 0x5a, 0x4f, 0x83, 0xbd, 0xeb, 0xd9, 0x47, 0x3f,
  0xcc, 0x48, 0x35, 0xbe, 0x85, 0xba, 0x1e, 0x3e, 0x02, 0x44, 0x7d, 0x3d,
  0x9c, 0x73, 0x26, 0xbe, 0xcc, 0x4b, 0x20, 0xbe, 0xbb, 0x2b, 0xea, 0x3e,
  0x8b, 0xaf, 0x37, 0xbd, 0x18, 0xd5, 0x8d, 0x3e, 0xeb, 0xf6, 0xe8, 0x3d,
  0x3d, 0x38, 0xa2, 0xbe, 0x4a, 0xf5, 0x63, 0x3d, 0x66, 0x6b, 0xb3, 0x3e,
  0x7e, 0xf7, 0xb2, 0x3d, 0x29, 0xbf, 0xb8, 0x3e, 0x82, 0x99, 0xf1, 0x3d,
  0x8a, 0x4d, 0xe4, 0xbe, 0xd8, 0x8f, 0x50, 0xbd, 0x15, 0xeb, 0x9a, 0x3e,
  0xa4, 0x37, 0xf1, 0xbb, 0x28, 0xa7, 0xe5, 0x3e, 0xf2, 0x1c, 0xad, 0xbd,
  0x63, 0x31, 0xe5, 0xbe, 0x2d, 0xf3, 0x79, 0xbe, 0xf5, 0x73, 0x4f, 0x3e,
  0x17, 0x73, 0x89, 0xbe, 0x7b, 0x75, 0xbd, 0x3e, 0xff, 0x67, 0x84, 0x3c,
  0x17, 0x4f, 0x0c, 0xbf, 0x7b, 0x6c, 0x15, 0x3e, 0x40, 0x41, 0xa3, 0x3e,
  0xe7, 0x73, 0x90, 0x3d, 0xaf, 0xe0, 0xb1, 0x3e, 0xc9, 0x75, 0x91, 0xbd,
  0x42, 0xad, 0x60, 0xbf, 0xb7, 0xdf, 0xf1, 0x3d, 0x99, 0xd5, 0xab, 0x3e,
  0x5c, 0x80, 0x26, 0xbe, 0x5b, 0x5e, 0xe9, 0x3e, 0x49, 0x78, 0xe0, 0x3d,
  0xe0, 0xb8, 0x21, 0xbf, 0xde, 0x38, 0x07, 0x3e, 0x51, 0x61, 0xb8, 0xbd,
  0xa5, 0x11, 0x0f, 0xbd, 0x7e, 0x39, 0x0d, 0x3e, 0x37, 0xe6, 0x19, 0xbe,
  0xea, 0xdb, 0x2e, 0xbf, 0xe0, 0x16, 0x4a, 0xbe, 0xfe, 0xa9, 0xc5, 0xbc,
  0xac, 0x24, 0x9b, 0xbe, 0xd0, 0x50, 0x6a, 0x3e, 0x4e, 0xef, 0x04, 0xbe,
  0xac, 0xb3, 0xd7, 0xbe, 0x7a, 0xff, 0xeb, 0xbd, 0xb6, 0x76, 0x54, 0xbe,
  0xf6, 0x69, 0xaa, 0x3c, 0x24, 0xad, 0xc2, 0x3d, 0x04, 0xfb, 0x0b, 0x3c,
  0x86, 0xff, 0x9f, 0xbd, 0x5b, 0x7e, 0x4f, 0xbe, 0x45, 0x2f, 0x9b, 0x3d,
  0x5a, 0x48, 0x83, 0xbe, 0xec, 0xe5, 0x24, 0x3e, 0xa6, 0xd0, 0x2d, 0xbe,
  0x2a, 0xae, 0x97, 0x3e, 0x66, 0x45, 0x34, 0x3d, 0x62, 0x10, 0x08, 0xbe,
  0x55, 0xd8, 0x04, 0x3d, 0x04, 0x26, 0x83, 0x3d, 0xe7, 0x3f, 0x0b, 0x3e,
  0x5f, 0xcb, 0x3a, 0x3e, 0x80, 0x47, 0x3f, 0x3e, 0xd1, 0x7c, 0x21, 0xbe,
  0x54, 0x9f, 0x1a, 0x3e, 0x18, 0x61, 0x06, 0x3e, 0x54, 0x0d, 0xe7, 0x3e,
  0xea, 0x5c, 0xd1, 0x3e, 0xea, 0xf8, 0xe5, 0x3d, 0xdf, 0x22, 0xa7, 0x3c,
  0x3e, 0x6c, 0x07, 0x3e, 0x3e, 0xe1, 0x2b, 0x3e, 0x39, 0xe6, 0xb4, 0x3d,
  0x76, 0x9d, 0xac, 0x3e, 0xda, 0xd3, 0x89, 0x3d, 0x2e, 0xd6, 0x3b, 0x3e,
  0xd3, 0xdd, 0xa3, 0x3d, 0x3a, 0x67, 0xff, 0x3d, 0x3e, 0xc4, 0x80, 0x3e,
  0x04, 0x84, 0x47, 0x3e, 0x93, 0xd3, 0x8d, 0xbd, 0xc2, 0x1c, 0x82, 0x3e,
  0x0e, 0x39, 0x33, 0xbe, 0xcd, 0x75, 0x47, 0x3c, 0xd4, 0x51, 0xe1, 0x3d,
  0x44, 0xfc, 0x80, 0x3e, 0x6b, 0xbf, 0x0e, 0x3e, 0x8b, 0x89, 0xd5, 0x3e,
  0xd0, 0xb6, 0x12, 0x3e, 0xa7, 0xab, 0xa7, 0xbd, 0x79, 0xcd, 0x0d, 0xbe,
  0x98, 0x74, 0x67, 0x3e, 0xee, 0x87, 0x41, 0x3d, 0xc7, 0xfd, 0xef, 0x3d,
  0x80, 0x85, 0x8b, 0x3d, 0xb0, 0x5f, 0xab, 0xbd, 0xa7, 0xce, 0xfa, 0x3d,
  0x9d, 0x7d, 0xc5, 0x3d, 0x31, 0x27, 0xd5, 0x3e, 0x80, 0xc7, 0x51, 0x3c,
  0x7c, 0x61, 0x2f, 0xbe, 0xce, 0x8f, 0x10, 0xbe, 0x92, 0x35, 0x3f, 0x3d,
  0xf7, 0xd1, 0x1e, 0xbc, 0x71, 0xcd, 0xd3, 0x3d, 0x8a, 0x51, 0xbe, 0x3e,
  0x67, 0xad, 0x06, 0x3e, 0xcf, 0xc1, 0xda, 0xbd, 0x8e, 0xbb, 0x68, 0xbe,
  0x79, 0xae, 0x93, 0xbe, 0xd4, 0x66, 0x8c, 0x3d, 0x5c, 0x8c, 0x82, 0x3d,
  0x02, 0xb6, 0x79, 0x3e, 0x39, 0x3b, 0x64, 0x3d, 0x64, 0xd2, 0x3d, 0xbe,
  0xe8, 0x76, 0x84, 0xbe, 0x76, 0x44, 0x85, 0x3e, 0x4e, 0x18, 0x76, 0xbd,
  0x6e, 0xfb, 0x0d, 0x3e, 0x33, 0x47, 0xba, 0x3d, 0xb4, 0xa0, 0x1d, 0xbe,
  0x4d, 0xca, 0x12, 0xbe, 0xfd, 0xba, 0x3d, 0x3e, 0x6a, 0xd8, 0xd8, 0x3d,
  0xc9, 0x4d, 0x4c, 0x3e, 0x3c, 0xeb, 0x85, 0x3e, 0xcc, 0x31, 0x8c, 0x3c,
  0x2d, 0xf2, 0xf7, 0xbe, 0xa9, 0x6d, 0x5d, 0xbe, 0x89, 0x8e, 0x92, 0x3c,
  0xe7, 0x6f, 0xce, 0x3d, 0x47, 0x4a, 0x02, 0x3e, 0x1a, 0x93, 0xd1, 0xbe,
  0xd6, 0xd5, 0x32, 0xbf, 0x60, 0x6f, 0xa5, 0x3d, 0x7c, 0xa8, 0x43, 0xbe,
  0x10, 0x68, 0x99, 0x3e, 0x1b, 0x29, 0xcf, 0x3d, 0x1f, 0xaf, 0x07, 0xbf,
  0x5c, 0x66, 0x1d, 0xbf, 0xd9, 0x0b, 0xae, 0xbd, 0x46, 0x87, 0x27, 0x3e,
  0x81, 0x2f, 0xb0, 0x3e, 0x2c, 0x15, 0xa2, 0xbd, 0x3e, 0xf6, 0x5d, 0xbe,
  0x6d, 0xbe, 0x16, 0xbf, 0xe3, 0x89, 0x3c, 0x3e, 0xf4, 0x5c, 0x8e, 0xbd,
  0x6f, 0x8b, 0xd8, 0xbc, 0x23, 0x74, 0x23, 0xbd, 0x7e, 0x64, 0x70, 0xbe,
  0x05, 0xca, 0xbd, 0xbe, 0xd1, 0x78, 0x4a, 0x3e, 0xf3, 0x38, 0x5b, 0xbe,
  0x96, 0xa0, 0x6c, 0x3e, 0xbf, 0xc4, 0xb2, 0xbd, 0x83, 0xa2, 0xe9, 0xbe,
  0x9f, 0xa1, 0xcb, 0xbe, 0x82, 0x2c, 0x80, 0x3c, 0x74, 0xcb, 0xa9, 0xbd,
  0x1b, 0xa2, 0x1f, 0x3e, 0xc3, 0x3a, 0x85, 0xbd, 0xa6, 0xa1, 0x90, 0xbe,
  0xc4, 0x45, 0x88, 0xbe, 0x3c, 0xd5, 0x32, 0x3d, 0x9b, 0xd9, 0xe8, 0xbd,
  0xed, 0x9a, 0xaf, 0xbc, 0xe0, 0x2c, 0x13, 0xbe, 0x57, 0x12, 0xe7, 0xbe,
  0xd9, 0x24, 0x22, 0x3e, 0x75, 0xd7, 0x8d, 0x3e, 0xa4, 0x4f, 0xba, 0xbd,
  0xce, 0xe0, 0xda, 0xbd, 0x25, 0xdc, 0xc2, 0x3d, 0x74, 0xe9, 0x2a, 0xbf,
  0xe1, 0xd5, 0x46, 0x3d, 0x64, 0xf8, 0xee, 0x3d, 0xda, 0xab, 0xa2, 0x3c,
  0x1d, 0x08, 0xd7, 0x3d, 0x55, 0x5b, 0x87, 0x3d, 0x1e, 0x1e, 0x24, 0xbf,
  0x59, 0x76, 0xa2, 0x3e, 0xfa, 0x80, 0x2d, 0xbc, 0x72, 0xb5, 0x16, 0xbe,
  0x6a, 0x99, 0x1a, 0x3d, 0xe5, 0xa6, 0x26, 0x3d, 0x63, 0xbc, 0x25, 0x3e,
  0xa4, 0xc1, 0x49, 0xbe, 0x14, 0x9b, 0xe2, 0x3b, 0xc5, 0x3d, 0x32, 0xbe,
  0x6b, 0x41, 0x3b, 0xbe, 0xa7, 0x1b, 0x95, 0x3d, 0xb0, 0x39, 0x53, 0xbe,
  0x31, 0x54, 0xa1, 0xbd, 0xfb, 0xc7, 0xae, 0x3d, 0xc9, 0x99, 0x3a, 0xbe,
  0x82, 0x1a, 0x29, 0xbe, 0x4f, 0xe0, 0x2f, 0x3e, 0x0a, 0x7c, 0x1f, 0xbd,
  0x14, 0x2c, 0xc8, 0x3d, 0x92, 0xef, 0xfc, 0x3d, 0x7e, 0x35, 0xee, 0xbd,
  0xc0, 0x6f, 0x2f, 0xbe, 0x89, 0xc5, 0xc7, 0x3d, 0x5b, 0x11, 0x13, 0xbe,
  0x88, 0x70, 0x21, 0xbc, 0x9d, 0x9e, 0x7f, 0xbd, 0xc4, 0x83, 0x5a, 0xbd,
  0xe2, 0x71, 0x2e, 0x3b, 0xe0, 0x91, 0x5c, 0xbe, 0x83, 0xd6, 0x8c, 0x3c,
  0xfb, 0xac, 0x0e, 0x3d, 0x27, 0xab, 0x0f, 0xbe, 0xd5, 0x62, 0x96, 0x3d,
  0x7c, 0x47, 0x10, 0xbe, 0xd6, 0x2f, 0x6e, 0xbc, 0xfe, 0x5a, 0x26, 0x3e,
  0x36, 0xd3, 0x10, 0xbd, 0x2d, 0x2b, 0x23, 0xbe, 0x3a, 0xb1, 0x93, 0xbd,
  0x27, 0x38, 0x01, 0xbd, 0xbe, 0x6e, 0x3f, 0x3e, 0xea, 0xdd, 0x23, 0xbe,
  0x79, 0x53, 0x24, 0xbe, 0xbf, 0xb4, 0xf6, 0xbd, 0x89, 0x05, 0xf1, 0xbd,
  0x65, 0x60, 0x99, 0x3d, 0x41, 0x3e, 0x1f, 0x3e, 0x0d, 0x7a, 0x32, 0xbe,
  0xdc, 0xa9, 0x1c, 0x3e, 0x0f, 0xa3, 0xbb, 0x3d, 0xc8, 0xec, 0x33, 0x3e,
  0xd7, 0x94, 0xe3, 0xbd, 0x6e, 0x82, 0xc6, 0xbd, 0xb5, 0x1c, 0x34, 0xbd,
  0xff, 0x6c, 0x03, 0x3e, 0x05, 0xae, 0xae, 0xbc, 0xc3, 0x47, 0xbd, 0x3d,
  0x62, 0xea, 0x23, 0x3e, 0x12, 0xd1, 0x37, 0x3d, 0x7b, 0xbf, 0x9e, 0xbd,
  0x83, 0x7c, 0x99, 0x3d, 0xb5, 0xad, 0xcb, 0xbd, 0x70, 0xad, 0x09, 0x3e,
  0x4a, 0x0a, 0x37, 0xbd, 0x16, 0x29, 0x14, 0xbe, 0x45, 0x9c, 0x97, 0x3d,
  0x4b, 0xe9, 0x3d, 0xbe, 0x7f, 0x2b, 0x1b, 0x3e, 0x60, 0x66, 0x0e, 0xbd,
  0xc2, 0xde, 0x22, 0x3d, 0xf1, 0x76, 0x06, 0x3e, 0xb2, 0xa1, 0x0b, 0xbe,
  0x7f, 0xd6, 0x3b, 0x3d, 0xb8, 0xd2, 0x89, 0xbd, 0x76, 0xcb, 0xdc, 0xbd,
  0x57, 0x81, 0x3d, 0xbe, 0xbb, 0xfb, 0xe0, 0xbc, 0x08, 0xca, 0x93, 0x3d,
  0xf8, 0x1d, 0x02, 0xbb, 0x81, 0x53, 0x18, 0xbd, 0xf0, 0x14, 0x32, 0xbe,
  0xff, 0x6b, 0xd5, 0x3d, 0xc6, 0xd6, 0x8a, 0xbc, 0x88, 0xfd, 0xa1, 0x3d,
  0xc7, 0x4f, 0xf1, 0x3d, 0xb3, 0x37, 0x33, 0xbe, 0x06, 0xeb, 0x72, 0xbb,
  0xc1, 0xef, 0x51, 0xbe, 0xe2, 0xeb, 0x06, 0xbb, 0xf1, 0x4e, 0x5a, 0xbe,
  0x52, 0xfd, 0x11, 0xbe, 0x15, 0x76, 0xdc, 0xbd, 0xf8, 0x07, 0xf8, 0x3d,
  0x18, 0x4b, 0x49, 0xbe, 0xce, 0xb8, 0xd5, 0xbd, 0xcd, 0xcd, 0xea, 0xbd,
  0x1d, 0x67, 0xc7, 0x3d, 0x6d, 0xdf, 0x84, 0x3d, 0xe6, 0x4e, 0x49, 0xbd,
  0x10, 0x71, 0x85, 0x3d, 0xcf, 0xb4, 0xc2, 0x3b, 0x1b, 0xb5, 0xd2, 0x3c,
  0x6c, 0x48, 0x33, 0xbe, 0xaf, 0xf8, 0x0f, 0x3e, 0x26, 0x3d, 0xdc, 0x3d,
  0x86, 0x21, 0x33, 0xbe, 0x90, 0x0b, 0xfd, 0x3d, 0x9e, 0x19, 0x3d, 0xbd,
  0xd9, 0x03, 0x4a, 0xbc, 0x51, 0x90, 0x2c, 0x3c, 0xd0, 0x00, 0x26, 0x3e,
  0x85, 0xcb, 0x9c, 0x3d, 0x6e, 0x9f, 0x8c, 0x3d, 0x44, 0x4b, 0x32, 0x3e,
  0x3e, 0x1c, 0x97, 0x3c, 0xd3, 0xea, 0xc1, 0x3c, 0xe5, 0x4f, 0x06, 0x3b,
  0x49, 0x2e, 0x0b, 0xbe, 0x24, 0xad, 0xed, 0x3d, 0x2d, 0x1d, 0xf2, 0x3d,
  0x9b, 0xb1, 0x4d, 0x3e, 0x73, 0x1b, 0x43, 0x3e, 0x79, 0x8c, 0x04, 0x3e,
  0xf4, 0xd5, 0x90, 0x3c, 0x73, 0xca, 0x30, 0x3e, 0xbb, 0xe5, 0x06, 0xbe,
  0xd8, 0x50, 0x32, 0xbd, 0x94, 0x96, 0x17, 0x3d, 0xe4, 0x44, 0x0c, 0xbd,
  0x24, 0xd0, 0x64, 0x3d, 0xda, 0x07, 0x9c, 0x3d, 0x47, 0x17, 0x2d, 0x3e,
  0x45, 0xad, 0x41, 0x3e, 0x00, 0x1a, 0x1b, 0x3a, 0xd3, 0xe9, 0x19, 0x3e,
  0xeb, 0xc3, 0x18, 0x3e, 0x9a, 0x2a, 0xc9, 0x3d, 0xc3, 0x46, 0x53, 0x3e,
  0x0e, 0xa9, 0x24, 0xbe, 0x75, 0x40, 0x0a, 0x3e, 0x52, 0x17, 0xf4, 0x3d,
  0xfd, 0x8f, 0x03, 0x3e, 0xd4, 0xdd, 0xeb, 0xbd, 0x0a, 0x0f, 0xbd, 0x3d,
  0x68, 0x17, 0xdb, 0xbc, 0x4a, 0xb2, 0xad, 0xbd, 0xb4, 0x88, 0x98, 0xbd,
  0x17, 0x4b, 0x50, 0xbe, 0x9c, 0x57, 0xcd, 0xbd, 0x00, 0x73, 0x0c, 0x3b,
  0x44, 0x56, 0x61, 0x3d, 0x0e, 0xda, 0xa0, 0xbd, 0x68, 0x2b, 0xe1, 0xbd,
  0x74, 0xe3, 0x5d, 0xbd, 0xb4, 0x8b, 0xfb, 0xbd, 0xfc, 0x93, 0x51, 0xbd,
  0x54, 0x64, 0xef, 0xbd, 0x40, 0x60, 0x5d, 0x3c, 0x49, 0x75, 0x52, 0xbe,
  0x1c, 0x3f, 0x1a, 0xbe, 0x40, 0x58, 0x09, 0xbd, 0x52, 0x1e, 0xa8, 0xbd,
  0x88, 0x06, 0xbd, 0xbc, 0x93, 0x9b, 0x1d, 0x3e, 0xb2, 0x58, 0xe5, 0x3d,
  0x5f, 0x92, 0xdd, 0xbd, 0x87, 0xff, 0x2a, 0x3e, 0x8a, 0x99, 0xd6, 0xbd,
  0xc0, 0x0c, 0x08, 0x3d, 0x00, 0x6f, 0x14, 0xbb, 0xf4, 0xe1, 0x48, 0xbd,
  0x76, 0xb4, 0xf4, 0x3d, 0x80, 0x5d, 0x84, 0xba, 0x97, 0xb2, 0x17, 0xbe,
  0xc1, 0x4a, 0x3d, 0x3e, 0x0f, 0x6e, 0x23, 0xbe, 0x40, 0x40, 0x09, 0x3d,
  0x30, 0x48, 0x50, 0x3c, 0xed, 0x90, 0x46, 0xbe, 0x5a, 0xf8, 0x17, 0xbe,
  0x58, 0xa8, 0x94, 0x3c, 0x21, 0x45, 0x50, 0x3e, 0x21, 0x12, 0x1f, 0x3e,
  0x01, 0x24, 0xc5, 0xbd, 0x20, 0x95, 0x0e, 0xbc, 0xbc, 0x38, 0x24, 0xbe,
  0x70, 0xe7, 0x46, 0xbd, 0x8d, 0x83, 0x4f, 0xbe, 0x5e, 0xad, 0xd1, 0xbd,
  0x2c, 0x21, 0x1c, 0xbe, 0x70, 0x64, 0x0f, 0xbc, 0x7b, 0x9b, 0x0d, 0xbe,
  0x80, 0xb2, 0x6a, 0x3c, 0x99, 0xab, 0x13, 0x3e, 0x1c, 0xc3, 0x99, 0xbd,
  0x64, 0x06, 0x04, 0x3d, 0x8b, 0xa1, 0x2a, 0x3e, 0xfb, 0xfe, 0x0a, 0x3e,
  0xeb, 0xa2, 0x04, 0x3e, 0x40, 0x85, 0x25, 0xbd, 0x7a, 0xb4, 0xa3, 0x3d,
  0xc3, 0xf6, 0xd7, 0xbd, 0xf3, 0xe6, 0x4e, 0x3e, 0xc0, 0xe0, 0xf7, 0x3c,
  0x6a, 0xfd, 0x99, 0x3d, 0xb5, 0x07, 0x02, 0xbe, 0x10, 0x72, 0x71, 0xbd,
  0x10, 0xb8, 0x10, 0x3c, 0xeb, 0xd6, 0x05, 0x3e, 0xe0, 0xa0, 0x0e, 0xbc,
  0x3f, 0x52, 0xf5, 0xbd, 0x52, 0xd2, 0xad, 0xbd, 0x97, 0xe9, 0x40, 0xbe,
  0x7a, 0xc6, 0xbd, 0x3d, 0x76, 0xd4, 0xb3, 0x3d, 0xce, 0x80, 0xdb, 0xbd,
  0xb4, 0x7d, 0x35, 0x3d, 0x00, 0x0b, 0x9b, 0x3c, 0xdb, 0x74, 0x4c, 0xbe,
  0xd0, 0xf1, 0x15, 0x3c, 0x28, 0x44, 0x0c, 0x3d, 0xb3, 0x08, 0x1b, 0xbe,
  0xcd, 0x19, 0x4b, 0xbe, 0x44, 0x85, 0x52, 0xbd, 0x5a, 0x9d, 0xc3, 0x3d,
  0xba, 0x52, 0xad, 0x3d, 0xc8, 0xc4, 0x3c, 0xbd, 0x18, 0xaa, 0xec, 0xbc,
  0x8a, 0x74, 0xe9, 0x3d, 0x68, 0x8b, 0x52, 0xbd, 0xf7, 0xd9, 0x4e, 0x3e,
  0xe0, 0x06, 0x45, 0xbc, 0x5c, 0x14, 0x00, 0xbe, 0x9f, 0xb1, 0xe1, 0xbd,
  0x6f, 0x68, 0x2c, 0x3e, 0x92, 0xe9, 0xd8, 0xbd, 0x3c, 0x03, 0xcc, 0xbd,
  0x73, 0x91, 0x15, 0x3e, 0x09, 0x20, 0x35, 0xbe, 0xf0, 0xaf, 0xf4, 0xbd,
  0x4a, 0x64, 0x91, 0x3d, 0xe5, 0xe5, 0x03, 0xbe, 0xfd, 0xd6, 0x45, 0x3e,
  0xa0, 0xa4, 0x81, 0xbc, 0xde, 0xf4, 0x8b, 0x3d, 0x30, 0xe7, 0x7a, 0x3e,
  0x09, 0xdd, 0xd3, 0x3d, 0xed, 0xaa, 0xbb, 0xbe, 0x8c, 0xff, 0xb0, 0x3e,
  0xc8, 0x54, 0x06, 0x3e, 0xa0, 0xb3, 0x0e, 0xbf, 0x86, 0x27, 0xa9, 0x3e,
  0x47, 0x16, 0xef, 0x3c, 0xd3, 0x69, 0x4a, 0x3a, 0xe0, 0x24, 0xba, 0x3e,
  0x7a, 0x40, 0xa8, 0xbc, 0x68, 0x00, 0x01, 0xbf, 0xcc, 0xdc, 0x1f, 0x3d,
  0x47, 0x24, 0x8d, 0x3e, 0xda, 0x67, 0x5b, 0xbe, 0xcc, 0xb6, 0x86, 0x3e,
  0x7b, 0x3f, 0xc4, 0x3d, 0x37, 0xee, 0x4b, 0xbf, 0xff, 0x36, 0x72, 0xbe,
  0x85, 0x6b, 0x6f, 0x3e, 0xb5, 0xa5, 0x0b, 0xbe, 0x72, 0xfc, 0x27, 0x3f,
  0x8a, 0x18, 0xf5, 0x39, 0x10, 0xb3, 0x35, 0xbf, 0xe5, 0x72, 0x38, 0xbe,
  0xb7, 0xa2, 0x15, 0x3e, 0x97, 0x00, 0xf9, 0x3d, 0x48, 0xcc, 0x26, 0x3f,
  0x38, 0xff, 0xc2, 0x3d, 0xb7, 0x3e, 0x37, 0xbf, 0xb4, 0x04, 0xe7, 0x3d,
  0x7f, 0xb0, 0x8d, 0x3e, 0x9f, 0xd0, 0x4a, 0x3e, 0x45, 0x9f, 0x1d, 0x3f,
  0xa5, 0x3f, 0xc4, 0x3d, 0x5e, 0x70, 0xa8, 0xbe, 0xd9, 0x8a, 0xe0, 0xbd,
  0xc3, 0x87, 0xb2, 0x3e, 0xb7, 0xfe, 0x8b, 0x3e, 0x78, 0x82, 0xaa, 0x3e,
  0x69, 0xe0, 0x8d, 0x3d, 0xdd, 0x37, 0x1b, 0xbe, 0x1f, 0x04, 0xc5, 0xbd,
  0x19, 0xa0, 0x35, 0x3e, 0xa3, 0xee, 0xde, 0xbd, 0xef, 0x60, 0x8b, 0x3e,
  0x7a, 0xeb, 0x72, 0x3d, 0x7b, 0xe1, 0x9c, 0xbe, 0x82, 0xa7, 0xa8, 0x3d,
  0x82, 0x57, 0x20, 0x3e, 0x58, 0x36, 0x9b, 0xbd, 0x37, 0xc1, 0xf6, 0x3e,
  0x8c, 0x95, 0x8c, 0x3e, 0x59, 0x75, 0x8d, 0xbe, 0xe3, 0xf9, 0x33, 0xbe,
  0x8f, 0x7d, 0x58, 0xbd, 0xe8, 0x6e, 0x1b, 0x3e, 0xcd, 0xac, 0x34, 0x3e,
  0x73, 0x26, 0x47, 0x3e, 0xba, 0x3a, 0xbf, 0xbe, 0xef, 0xc6, 0x3b, 0x3e,
  0x88, 0x49, 0x5b, 0x3d, 0x86, 0xd3, 0x2f, 0xbe, 0x52, 0x78, 0x4b, 0x3e,
  0xd6, 0x69, 0x5a, 0x3e, 0x6f, 0x3b, 0x86, 0x3c, 0x97, 0xfa, 0x4b, 0x3e,
  0x49, 0x57, 0x07, 0xbe, 0xb9, 0xf1, 0xf3, 0xbd, 0xab, 0x29, 0xdb, 0x3e,
  0x7a, 0x6d, 0x77, 0x3e, 0xc2, 0x59, 0x8e, 0xbe, 0x70, 0x39, 0x3c, 0xbe,
  0xf9, 0xb8, 0x00, 0xbe, 0x48, 0x47, 0x25, 0x3d, 0x7d, 0xab, 0x8f, 0xbb,
  0x89, 0x54, 0x58, 0x3e, 0x8c, 0x11, 0x9c, 0xbd, 0x26, 0x1a, 0x0e, 0xbe,
  0x3f, 0xf0, 0x1f, 0xbe, 0xee, 0x80, 0x2b, 0x3e, 0x45, 0x6b, 0xcc, 0x3d,
  0x2e, 0xee, 0x27, 0x3c, 0xf8, 0xc3, 0x79, 0xbe, 0x82, 0xb0, 0x81, 0xbe,
  0xc6, 0x1f, 0x01, 0x3e, 0x13, 0xdf, 0xe9, 0x3e, 0x79, 0x9c, 0x3b, 0x3d,
  0xf5, 0x06, 0x88, 0x3e, 0x79, 0x75, 0x03, 0x3d, 0xa7, 0xce, 0x9f, 0xbc,
  0x1d, 0xee, 0x64, 0x3c, 0xce, 0xf9, 0xc2, 0x3e, 0xa5, 0x5d, 0xea, 0xbd,
  0x4c, 0x71, 0xa3, 0x3e, 0xa2, 0x3f, 0xe3, 0x3c, 0x15, 0xa4, 0x7b, 0xbe,
  0x8d, 0x70, 0x86, 0x3c, 0x3c, 0x00, 0xa2, 0x3d, 0x8b, 0x67, 0x93, 0xbd,
  0xb4, 0x7f, 0x8a, 0x3d, 0x98, 0x04, 0x2e, 0xbe, 0xc7, 0xbe, 0xa2, 0xbe,
  0x45, 0x6a, 0x72, 0x3e, 0xa1, 0x70, 0xee, 0x3d, 0x19, 0xd5, 0xa8, 0x3c,
  0x2e, 0xc9, 0xc7, 0x3d, 0xa4, 0x00, 0x75, 0xbe, 0x22, 0x55, 0xa7, 0xbe,
  0x89, 0x80, 0x93, 0x3e, 0xc8, 0xdb, 0x6b, 0xbd, 0x73, 0x58, 0x80, 0xbe,
  0x3f, 0x97, 0x16, 0xbe, 0xb7, 0x5e, 0xe9, 0xbd, 0x4e, 0x3c, 0x4d, 0xbe,
  0xea, 0x76, 0x3c, 0x3e, 0x74, 0xbd, 0x18, 0x3e, 0xd6, 0x93, 0x8e, 0xbd,
  0xc8, 0xfe, 0x11, 0xbe, 0x30, 0xab, 0x4b, 0xbe, 0x8a, 0x65, 0xde, 0x3d,
  0xef, 0xed, 0x0b, 0x3e, 0x6b, 0xb4, 0x45, 0x3e, 0x97, 0xd7, 0xea, 0xbd,
  0x5d, 0x6b, 0x4a, 0x3e, 0x54, 0x8e, 0x2e, 0xbd, 0x56, 0x98, 0x19, 0xbe,
  0x26, 0x0e, 0xfd, 0x3d, 0x3d, 0x45, 0x27, 0x3e, 0x9e, 0x97, 0xe9, 0x3d,
  0xe4, 0x1e, 0x46, 0x3d, 0x08, 0x45, 0x4d, 0xbe, 0x13, 0x1e, 0xc0, 0xbd,
  0xdf, 0x42, 0x23, 0x3e, 0x38, 0x2f, 0xfe, 0x3c, 0xec, 0x74, 0x84, 0xbd,
  0x40, 0x69, 0x1e, 0xbc, 0xcb, 0xda, 0x1a, 0x3e, 0x0c, 0x5c, 0x4c, 0x3d,
  0x6c, 0x75, 0xbe, 0xbd, 0xd7, 0xdd, 0x31, 0xbe, 0x3f, 0x4f, 0x1a, 0xbe,
  0x71, 0x14, 0x51, 0xbe, 0xa0, 0x05, 0xb2, 0xbb, 0x7c, 0xfa, 0xa2, 0xbd,
  0xd2, 0xf1, 0x92, 0x3d, 0x61, 0x1e, 0x4f, 0x3e, 0x98, 0x1c, 0xf3, 0x3c,
  0x3f, 0x0a, 0x03, 0x3e, 0xe5, 0x0a, 0x47, 0x3e, 0x30, 0x7c, 0x34, 0xbc,
  0x5d, 0x5c, 0x31, 0xbe, 0x20, 0x2c, 0x1f, 0xbc, 0x97, 0x91, 0x3d, 0x3e,
  0x45, 0x04, 0x0f, 0x3e, 0x04, 0x0a, 0x8f, 0xbd, 0xaf, 0x6e, 0x43, 0xbe,
  0x0a, 0x5e, 0xe2, 0xbd, 0xea, 0x1b, 0x8b, 0xbd, 0xd3, 0xfc, 0xde, 0xbd,
  0x27, 0x0a, 0x53, 0xbe, 0x9b, 0xdf, 0x2e, 0xbe, 0xc0, 0x3d, 0xb5, 0x3c,
  0xf0, 0xde, 0x3a, 0xbc, 0x2c, 0x8f, 0x0a, 0xbe, 0x46, 0x8a, 0x49, 0xbe,
  0xcc, 0x6c, 0x3a, 0xbd, 0x98, 0x57, 0xff, 0x3c, 0x20, 0xd6, 0x01, 0xbe,
  0xaa, 0xee, 0x8b, 0x3d, 0x00, 0xff, 0x22, 0xbb, 0xa3, 0xf7, 0x56, 0xbe,
  0x20, 0xb2, 0xa9, 0xbd, 0xf8, 0x70, 0x1c, 0xbd, 0xe4, 0xf2, 0x09, 0xbd,
  0x31, 0xa7, 0x32, 0xbe, 0x34, 0x3e, 0x19, 0xbe, 0xa4, 0x36, 0x1f, 0xbe,
  0xfc, 0x0e, 0x4a, 0x3d, 0x1c, 0x41, 0x2a, 0xbe, 0x2b, 0x50, 0x56, 0x3e,
  0xe8, 0x44, 0xf2, 0xbc, 0xe6, 0x7b, 0x39, 0xbe, 0xca, 0xd6, 0x9e, 0x3d,
  0x68, 0xec, 0x99, 0x3c, 0x52, 0x0b, 0x3d, 0xbe, 0x14, 0x24, 0x5f, 0x3d,
  0x0a, 0xd7, 0xd5, 0x3d, 0x23, 0xa2, 0x24, 0x3e, 0x22, 0xea, 0x0f, 0xbe,
  0x17, 0x23, 0x50, 0xbe, 0x0e, 0xb0, 0x98, 0xbd, 0x6a, 0x6e, 0xd3, 0x3d,
  0x02, 0x8f, 0x3e, 0xbe, 0xb5, 0x08, 0x25, 0x3e, 0x3c, 0x63, 0x98, 0xbd,
  0xc5, 0xae, 0x56, 0x3e, 0xe7, 0xd7, 0x11, 0x3e, 0x3b, 0xb1, 0x55, 0x3e,
  0x50, 0x1e, 0x71, 0x3c, 0x6f, 0x43, 0x32, 0x3e, 0xa2, 0x70, 0xa1, 0x3d,
  0x9c, 0x61, 0x83, 0xbd, 0x64, 0x88, 0x4a, 0x3d, 0x0c, 0x63, 0x81, 0xbd,
  0x58, 0x8f, 0xcb, 0xbd, 0x32, 0xb4, 0xbe, 0x3d, 0x2d, 0x2b, 0x31, 0x3e,
  0x52, 0xbb, 0xcd, 0x3d, 0x7c, 0x76, 0x25, 0x3d, 0xe7, 0x34, 0x00, 0xbe,
  0xa2, 0x13, 0x1b, 0xbe, 0x1c, 0xd6, 0x58, 0x3d, 0xb8, 0x51, 0xab, 0x3c,
  0x4b, 0x05, 0x51, 0xbe, 0x52, 0x89, 0xe6, 0x3d, 0xb0, 0xe2, 0x7b, 0xbd,
  0x6c, 0x91, 0x45, 0xbe, 0x1a, 0xff, 0x4b, 0xbe, 0x01, 0xb5, 0x3a, 0xbe,
  0x16, 0xb5, 0x34, 0xbe, 0xc4, 0x8a, 0x53, 0xbd, 0xc9, 0x23, 0x49, 0x3e,
  0xc4, 0x18, 0x04, 0x3d, 0x50, 0x5a, 0xa3, 0xbc, 0x12, 0x21, 0xdb, 0x3d,
  0xda, 0x96, 0xd7, 0x3d, 0xf0, 0xd0, 0xe4, 0xbc, 0x2a, 0xdd, 0x93, 0x3d,
  0xa9, 0x33, 0x26, 0xbe, 0x3e, 0x9c, 0x9c, 0xbd, 0x37, 0xaa, 0x51, 0xbe,
  0xf6, 0x49, 0xba, 0xbd, 0x55, 0xc3, 0x53, 0x3e, 0x02, 0x67, 0x45, 0xbe,
  0x7d, 0x6e, 0xe8, 0xbd, 0xa0, 0x12, 0x16, 0x3d, 0xbc, 0xec, 0x01, 0xbd,
  0xe5, 0xa9, 0xbf, 0xbd, 0x95, 0x19, 0x53, 0x3e, 0xe4, 0xaa, 0x79, 0x3d,
  0x32, 0x7f, 0xcc, 0xbd, 0x1a, 0x2a, 0xed, 0x3d, 0x1f, 0xae, 0xd4, 0xbd,
  0x3d, 0xaf, 0x48, 0x3d, 0x1d, 0x5a, 0xb3, 0x3c, 0x65, 0xf4, 0x5b, 0xbe,
  0x46, 0xea, 0x4a, 0xbd, 0x4b, 0x7c, 0x36, 0xbe, 0xcd, 0x53, 0x10, 0xbe,
  0xcf, 0x10, 0x15, 0xbe, 0xf7, 0x0f, 0x92, 0xbd, 0xe1, 0x21, 0x96, 0xbd,
  0xd6, 0x1a, 0xab, 0xbd, 0x42, 0x94, 0x24, 0x3e, 0xf4, 0x23, 0x07, 0xbe,
  0xc9, 0x38, 0x2d, 0x3c, 0x0a, 0xce, 0x06, 0x3e, 0x0c, 0x4c, 0x3a, 0xbd,
  0x02, 0xf8, 0xd8, 0x3c, 0x34, 0xe8, 0x26, 0x3e, 0x31, 0xc6, 0x91, 0xbd,
  0x28, 0xd6, 0x0c, 0x3e, 0x14, 0x56, 0x09, 0x3e, 0x77, 0xbc, 0x2a, 0xbe,
  0xbd, 0x86, 0x17, 0xbe, 0x96, 0xfd, 0x54, 0xbe, 0xaf, 0xec, 0x47, 0x3e,
  0xa3, 0x17, 0x37, 0x3e, 0xec, 0xb5, 0x96, 0xbd, 0x23, 0xc2, 0xaf, 0x3d,
  0x7b, 0x46, 0x29, 0x3e, 0x64, 0x50, 0x2d, 0xbe, 0x04, 0xe3, 0x34, 0x3e,
  0x4a, 0x5d, 0x24, 0x3e, 0xeb, 0x0b, 0x43, 0x3e, 0x4f, 0x9f, 0x05, 0xbe,
  0x64, 0x66, 0xbc, 0x3d, 0xde, 0xb4, 0x64, 0xbd, 0x57, 0xf6, 0x87, 0xbd,
  0xff, 0x31, 0x67, 0xbd, 0x1e, 0xa5, 0x38, 0x3e, 0xdc, 0x51, 0xcc, 0x3d,
  0xcc, 0x6e, 0x80, 0xbd, 0x96, 0x3b, 0x22, 0xbd, 0xe5, 0x69, 0x0f, 0xbe,
  0x10, 0x0b, 0xb3, 0x3d, 0xa9, 0x31, 0x42, 0x3e, 0x3b, 0x37, 0xf1, 0x3d,
  0x95, 0x7c, 0xf1, 0xbc, 0x09, 0xdc, 0x10, 0x3e, 0x72, 0x4c, 0x37, 0x3d,
  0x19, 0xf3, 0x47, 0xbe, 0x3a, 0x41, 0x41, 0xbe, 0x22, 0x47, 0x82, 0xbd,
  0x87, 0x02, 0xc5, 0x3d, 0x0c, 0xe9, 0x1f, 0xbe, 0x3c, 0xb4, 0xa0, 0x3d,
  0xcf, 0x20, 0x30, 0xbe, 0x41, 0x88, 0x0d, 0xbd, 0x92, 0xc5, 0x0f, 0x3a,
  0x35, 0x08, 0xb0, 0xbd, 0x5d, 0xc8, 0x2c, 0xbd, 0x35, 0x32, 0xb4, 0x3c,
  0x6d, 0xad, 0x3a, 0xbe, 0x1a, 0x77, 0x46, 0x3d, 0x1d, 0x23, 0x98, 0xbc,
  0x28, 0x42, 0x92, 0x3d, 0x56, 0x7b, 0xfe, 0xbd, 0x0f, 0x0d, 0x8c, 0x3c,
  0xa1, 0xc2, 0x26, 0xbe, 0x42, 0xaa, 0x2c, 0xbe, 0x9b, 0x58, 0x07, 0x3e,
  0xf3, 0x4e, 0x1f, 0x3e, 0x5b, 0xe8, 0xd8, 0xbd, 0x33, 0x46, 0x08, 0x3e,
  0x21, 0x0a, 0x44, 0xbe, 0x24, 0xc0, 0x4a, 0x3d, 0xed, 0x0a, 0x87, 0x3d,
  0x4f, 0x5a, 0xae, 0xbc, 0xa1, 0xf8, 0x44, 0xbe, 0x3a, 0x5c, 0xca, 0x3d,
  0x55, 0x59, 0x3a, 0xbd, 0x0d, 0x31, 0x89, 0x3c, 0x30, 0x32, 0x78, 0x3b,
  0xe6, 0xe2, 0x3b, 0xbd, 0xfa, 0x25, 0x59, 0x3a, 0x97, 0x0c, 0x10, 0xbd,
  0x3c, 0x52, 0x0d, 0xbd, 0xc1, 0xfd, 0x04, 0xbe, 0x91, 0x82, 0x07, 0x3e,
  0x60, 0x9f, 0x43, 0x3d, 0x6c, 0x16, 0xc4, 0xbd, 0xff, 0xb1, 0xe8, 0x3d,
  0x9b, 0xeb, 0xb7, 0x3d, 0x18, 0x0e, 0xb1, 0x3d, 0x1f, 0x9b, 0x57, 0x3d,
  0x59, 0xbb, 0x27, 0xbe, 0x6a, 0x8a, 0x25, 0x3d, 0x7a, 0x59, 0x5a, 0xbe,
  0x71, 0xd3, 0x3b, 0xbe, 0x8c, 0x1e, 0x41, 0xbe, 0xc4, 0x05, 0xd5, 0x3d,
  0x41, 0x92, 0x6d, 0xbc, 0x94, 0x31, 0x3a, 0x3e, 0xd6, 0xe8, 0x51, 0xbc,
  0xeb, 0x2c, 0x41, 0xbe, 0xb7, 0x94, 0xf1, 0xbd, 0x4b, 0xa2, 0x88, 0x3d,
  0x1e, 0x8b, 0xe1, 0x3d, 0xf0, 0x1d, 0x21, 0xbe, 0x4f, 0x23, 0x49, 0x3d,
  0x81, 0x25, 0x4b, 0xbe, 0x4d, 0x5d, 0xfc, 0x3d, 0x10, 0x71, 0x9e, 0x3d,
  0x9f, 0xeb, 0x23, 0xbe, 0x25, 0xe8, 0xb2, 0xbd, 0x1e, 0xb3, 0x10, 0xbe,
  0xde, 0x70, 0x94, 0x3c, 0x1e, 0x37, 0x26, 0xbe, 0x2a, 0x71, 0x28, 0xbe,
  0x50, 0x3a, 0x4f, 0xbe, 0xca, 0x15, 0xb8, 0x3d, 0xd0, 0xce, 0x7d, 0x3c,
  0x21, 0x25, 0x11, 0xbe, 0x24, 0x72, 0x00, 0xbe, 0xb1, 0x2f, 0x39, 0xbe,
  0x42, 0x07, 0xfa, 0xbd, 0x22, 0xe1, 0xd6, 0x3d, 0x64, 0x6f, 0x6f, 0x3d,
  0xb5, 0xd2, 0x2a, 0xbe, 0xd4, 0x8f, 0x82, 0xbd, 0x00, 0xbf, 0x25, 0xbd,
  0x09, 0x53, 0x3c, 0xbe, 0x75, 0x2f, 0x47, 0x3e, 0xde, 0x16, 0xdf, 0x3d,
  0x80, 0x85, 0x00, 0xbd, 0xf5, 0x6b, 0x38, 0x3e, 0xe4, 0x28, 0x16, 0x3d,
  0x32, 0x51, 0x2d, 0xbe, 0x8b, 0xac, 0x4c, 0xbe, 0x6e, 0x43, 0xa2, 0xbd,
  0xe9, 0xbd, 0x36, 0x3e, 0xbb, 0x5a, 0x1a, 0xbe, 0x5e, 0xc2, 0xf6, 0x3d,
  0x1a, 0x07, 0xdc, 0x3d, 0xc2, 0x9d, 0xa8, 0x3d, 0x16, 0x5e, 0x85, 0x3d,
  0xca, 0xf1, 0x13, 0xbe, 0x90, 0xc2, 0x34, 0x3c, 0x70, 0xe5, 0x0e, 0xbd,
  0xee, 0x23, 0x9b, 0x3d, 0xcf, 0x97, 0x2b, 0x3e, 0x60, 0xd9, 0x84, 0x3c,
  0x4a, 0x39, 0x8c, 0x3d, 0x21, 0x7f, 0x26, 0x3e, 0x53, 0x37, 0xca, 0xbd,
  0x1a, 0x0d, 0xda, 0x3d, 0x7c, 0xf5, 0x7a, 0x3d, 0x8c, 0x76, 0xca, 0xbd,
  0x49, 0x09, 0xcb, 0xbd, 0x42, 0xff, 0xd1, 0x3d, 0xc4, 0x7e, 0x3d, 0x3d,
  0x3c, 0xf4, 0x5f, 0xbd, 0x60, 0x0a, 0xc0, 0xbb, 0xf4, 0x42, 0x30, 0xbd,
  0x47, 0xdc, 0x36, 0x3e, 0xa4, 0x47, 0x01, 0x3d, 0xbe, 0x70, 0xb8, 0x3d,
  0x78, 0xa0, 0xb2, 0x3c, 0x24, 0xd3, 0x85, 0xbd, 0x8d, 0xc0, 0x53, 0x3e,
  0x89, 0xe2, 0xd3, 0xbd, 0x9b, 0x4f, 0x56, 0xbe, 0x65, 0xc0, 0x4d, 0xbe,
  0x20, 0xe8, 0xdc, 0xbc, 0x8c, 0x64, 0x2d, 0xbd, 0xda, 0xac, 0xa8, 0x3d,
  0x7e, 0x9f, 0x4a, 0xbe, 0x69, 0x59, 0x1c, 0x3e, 0xd4, 0x05, 0x0c, 0x3d,
  0x81, 0xeb, 0x3e, 0xbe, 0x8c, 0x31, 0x51, 0xbe, 0xa2, 0xcb, 0x9c, 0xbd,
  0xa0, 0x15, 0x7e, 0x3c, 0xef, 0xe8, 0x3f, 0xbe, 0x34, 0xb4, 0x66, 0x3d,
  0x4d, 0xe3, 0x1c, 0x3e, 0x4a, 0x92, 0xf0, 0x3d, 0xeb, 0x6b, 0x1a, 0x3e,
  0xc2, 0x28, 0x0e, 0xbe, 0x10, 0x91, 0xe1, 0x3c, 0x30, 0xf2, 0x51, 0xbd,
  0xb8, 0xaa, 0xea, 0xbd, 0x78, 0xc0, 0x20, 0xbe, 0xf6, 0x74, 0xed, 0x3d,
  0x4e, 0x7f, 0xa1, 0x3d, 0x40, 0x62, 0xac, 0xbd, 0x70, 0xad, 0x48, 0xbd,
  0xc2, 0x7d, 0xac, 0x3d, 0xba, 0x6e, 0x9e, 0x3d, 0x42, 0xcc, 0x36, 0xbe,
  0x5c, 0x31, 0xa5, 0xbd, 0x50, 0x05, 0x4d, 0xbc, 0xa1, 0x14, 0x22, 0x3e,
  0x72, 0x23, 0xe8, 0x3d, 0x86, 0x59, 0xd9, 0x3d, 0x2e, 0x34, 0xad, 0x3d,
  0x82, 0x4e, 0xc7, 0x3d, 0x5e, 0x72, 0xa5, 0x3d, 0xc0, 0x38, 0xeb, 0xbc,
  0xb3, 0x9a, 0xfd, 0xbd, 0x8e, 0x73, 0xb0, 0x3d, 0x6a, 0xd9, 0xbf, 0xbd,
  0x38, 0x9d, 0x0b, 0xbd, 0x68, 0x29, 0xa6, 0xbc, 0xd8, 0xd5, 0x97, 0xbc,
  0x04, 0xb6, 0x25, 0x3d, 0x89, 0xb4, 0x12, 0x3e, 0x00, 0x1a, 0x6d, 0xbd,
  0x88, 0xc9, 0x07, 0x3d, 0x4a, 0x49, 0xb2, 0x3d, 0x28, 0x8f, 0xc7, 0x3c,
  0x48, 0x58, 0xe3, 0xbd, 0xfc, 0xce, 0x08, 0x3d, 0xf4, 0x29, 0x7b, 0xbd,
  0x96, 0x7b, 0xdd, 0x3d, 0x28, 0x9b, 0x8f, 0xbd, 0xb6, 0x53, 0x8f, 0xbd,
  0x40, 0x27, 0x21, 0x3d, 0xf0, 0x7b, 0x5e, 0xbd, 0x50, 0xe0, 0x04, 0xbc,
  0x63, 0x52, 0x4f, 0xbe, 0x60, 0x13, 0x15, 0x3d, 0xdc, 0xd9, 0xbd, 0xbd,
  0x51, 0xeb, 0xc4, 0xbd, 0x6e, 0x3c, 0x88, 0x3d, 0xe6, 0x61, 0xe2, 0xbd,
  0x83, 0x90, 0xed, 0xbd, 0x75, 0x4a, 0x0d, 0x3e, 0x8f, 0x13, 0x8e, 0x3d,
  0x33, 0xa6, 0x82, 0xbd, 0x89, 0x86, 0xe3, 0x3c, 0x53, 0x25, 0x89, 0x3d,
  0x5b, 0xea, 0x40, 0xbe, 0x54, 0xf9, 0xc9, 0xbd, 0x7e, 0xcd, 0x39, 0x3d,
  0x74, 0x86, 0x25, 0x3e, 0x9c, 0xcb, 0x1a, 0xbd, 0x64, 0x4d, 0x06, 0xbe,
  0x9c, 0x32, 0x12, 0xbe, 0x10, 0xf3, 0x41, 0xbe, 0xb9, 0x13, 0xee, 0xbc,
  0xef, 0x7b, 0x6a, 0xbe, 0x57, 0x0a, 0x01, 0xbd, 0xfc, 0xa7, 0x26, 0xbb,
  0x32, 0x0f, 0x02, 0xbd, 0x32, 0xc1, 0x15, 0x3e, 0x89, 0xa5, 0x32, 0x3b,
  0xc6, 0x0f, 0xc8, 0x3d, 0x25, 0x8a, 0x34, 0x3c, 0x7e, 0xfc, 0x35, 0xbe,
  0xbd, 0x06, 0x3e, 0x3d, 0x94, 0x25, 0x19, 0x3e, 0x65, 0x58, 0xce, 0x3d,
  0xc9, 0xd3, 0x35, 0xbd, 0xb9, 0x45, 0x9c, 0x3d, 0xf6, 0xef, 0x1c, 0xbb,
  0x69, 0x2f, 0x9a, 0x3d, 0x42, 0x58, 0x8a, 0x3d, 0xfd, 0x7b, 0x91, 0xbd,
  0x16, 0xaa, 0x19, 0x3d, 0x9c, 0x45, 0xcd, 0xbd, 0x4b, 0x13, 0xd1, 0x3b,
  0xc7, 0x1d, 0xd9, 0x3d, 0x48, 0xf5, 0x84, 0xbc, 0x3c, 0x22, 0xa5, 0xbd,
  0x88, 0xd7, 0x30, 0x3e, 0x77, 0xb5, 0x06, 0x3e, 0xf1, 0x35, 0x36, 0xbe,
  0xda, 0x4a, 0x93, 0xbd, 0x61, 0xf0, 0x44, 0x3d, 0xfc, 0xae, 0x3a, 0x3c,
  0x53, 0x46, 0xb2, 0x3d, 0xbe, 0xae, 0x0d, 0xbe, 0xd2, 0xc3, 0xc5, 0x3d,
  0xfd, 0x8e, 0xa4, 0x3d, 0x07, 0x2e, 0x09, 0xbe, 0xed, 0x85, 0x37, 0xbb,
  0xe5, 0x40, 0xfc, 0xbc, 0x4f, 0xc3, 0x41, 0xbb, 0x2c, 0xb6, 0xe4, 0xbd,
  0x57, 0xbc, 0x2b, 0x3e, 0x10, 0x36, 0x65, 0xbd, 0x11, 0x4c, 0x53, 0xbd,
  0x66, 0xf2, 0x0a, 0xbe, 0xa0, 0x9a, 0x57, 0xbd, 0xdf, 0xd5, 0xcc, 0xbd,
  0x42, 0x09, 0x9f, 0xbd, 0x0c, 0x54, 0x89, 0xbd, 0x75, 0x8e, 0x32, 0xbe,
  0x56, 0x6e, 0x06, 0x3d, 0xc0, 0x19, 0xf7, 0x3d, 0xe4, 0xf9, 0x61, 0xbc,
  0x66, 0xa4, 0x8b, 0xbd, 0xed, 0x6c, 0x33, 0x3e, 0xe9, 0x64, 0xf1, 0xbd,
  0x24, 0xfc, 0x51, 0x3d, 0xb8, 0x33, 0xc4, 0xbc, 0x3d, 0xb3, 0x29, 0xbe,
  0x80, 0xe2, 0xd5, 0x3d, 0x85, 0x84, 0xf8, 0xbd, 0x4e, 0xef, 0x0b, 0xbe,
  0x96, 0xbf, 0x5b, 0x3d, 0x42, 0x3c, 0xfb, 0xbd, 0x2b, 0x87, 0x25, 0xbc,
  0xd7, 0x9d, 0x53, 0x3c, 0x67, 0xec, 0x36, 0x3e, 0xc0, 0x03, 0x2d, 0xbe,
  0xce, 0x67, 0x39, 0x3d, 0x40, 0x22, 0x9c, 0x3d, 0x47, 0xad, 0x25, 0xbe,
  0x87, 0x2f, 0xa3, 0xbd, 0x9c, 0xa7, 0xee, 0x3d, 0xaa, 0xa5, 0xdf, 0xbd,
  0xc2, 0x64, 0x7e, 0xbd, 0x5c, 0xc8, 0x3b, 0x3e, 0xf4, 0xb0, 0xa5, 0x3d,
  0x32, 0xc2, 0xe5, 0x3c, 0x91, 0xc3, 0xbc, 0xbd, 0x7d, 0xdb, 0xba, 0xbb,
  0xf7, 0x21, 0xc3, 0x3d, 0x79, 0xb5, 0xdc, 0xbc, 0x60, 0x28, 0x20, 0x3d,
  0xcd, 0x99, 0x33, 0x3e, 0xe4, 0xd1, 0xc1, 0xbc, 0x39, 0xf1, 0x15, 0x3e,
  0xfe, 0x03, 0x33, 0xbc, 0x55, 0x10, 0x04, 0xbe, 0x09, 0xfd, 0x24, 0x3e,
  0x54, 0x75, 0x86, 0x3d, 0x16, 0x97, 0xb7, 0x3d, 0xe7, 0x02, 0x50, 0xbe,
  0x6d, 0x4f, 0x22, 0x3e, 0x0a, 0x38, 0x61, 0x3d, 0x6c, 0x1f, 0x52, 0xbe,
  0xfe, 0x90, 0xc1, 0x3d, 0xe0, 0x60, 0x7b, 0x38, 0x72, 0x91, 0x1f, 0xbd,
  0x75, 0x48, 0x7a, 0x3c, 0x9b, 0xb5, 0xad, 0x3c, 0x3b, 0xe4, 0xd6, 0x3d,
  0x33, 0xfb, 0x25, 0x3b, 0x8d, 0x87, 0x04, 0xbe, 0x4a, 0xd1, 0xda, 0xba,
  0xda, 0x1d, 0x18, 0x3e, 0xfb, 0x61, 0xe5, 0xbc, 0x08, 0x4e, 0x53, 0xbe,
  0x31, 0x5c, 0x81, 0x3d, 0xfa, 0xb7, 0xe4, 0x3d, 0xc6, 0xfe, 0xff, 0xff,
  0x04, 0x00, 0x00, 0x00, 0x40, 0x00, 0x00, 0x00, 0x31, 0x97, 0xe7, 0x3d,
  0xc6, 0x50, 0x49, 0x3d, 0xd2, 0xea, 0x9b, 0x3d, 0x00, 0x00, 0x00, 0x00,
  0x91, 0xc1, 0x55, 0xbc, 0x6d, 0x76, 0x17, 0xbe, 0x8d, 0xd0, 0x8b, 0x3e,
  0x78, 0xb9, 0x22, 0x3d, 0x9a, 0xba, 0xde, 0x3c, 0xeb, 0xaf, 0x0a, 0xbc,
  0x00, 0x00, 0x00, 0x00, 0x20, 0x98, 0x83, 0xbd, 0x00, 0x00, 0x00, 0x00,
  0xf6, 0xbd, 0x12, 0xbc, 0x00, 0x00, 0x00, 0x00, 0x36, 0x95, 0xa1, 0xbc,
  0x12, 0xff, 0xff, 0xff, 0x04, 0x00, 0x00, 0x00, 0x20, 0x00, 0x00, 0x00,
  0x7d, 0xc3, 0x0f, 0xbe, 0x5c, 0xbf, 0x20, 0x3d, 0xdf, 0x3f, 0xa0, 0x3d,
  0x22, 0x5c, 0x4c, 0x3e, 0x66, 0xdc, 0xb1, 0x3e, 0x00, 0x00, 0x00, 0x00,
  0x8c, 0x09, 0x5e, 0xbc, 0x55, 0xd0, 0x46, 0xbe, 0x3e, 0xff, 0xff, 0xff,
  0x04, 0x00, 0x00, 0x00, 0x20, 0x00, 0x00, 0x00, 0x9e, 0x3c, 0xde, 0x3d,
  0x81, 0x50, 0x2a, 0xbf, 0x42, 0x1c, 0xee, 0xbd, 0x24, 0x97, 0x96, 0xbe,
  0x91, 0xd7, 0x25, 0x3f, 0xad, 0xfc, 0x59, 0x3d, 0xb3, 0x19, 0xe0, 0x3c,
  0x80, 0x52, 0x97, 0x3d, 0x40, 0xfa, 0xff, 0xff, 0x44, 0xfa, 0xff, 0xff,
  0x0f, 0x00, 0x00, 0x00, 0x4d, 0x4c, 0x49, 0x52, 0x20, 0x43, 0x6f, 0x6e,
  0x76, 0x65, 0x72, 0x74, 0x65, 0x64, 0x2e, 0x00, 0x01, 0x00, 0x00, 0x00,
  0x14, 0x00, 0x00, 0x00, 0x00, 0x00, 0x0e, 0x00, 0x18, 0x00, 0x14, 0x00,
  0x10, 0x00, 0x0c, 0x00, 0x08, 0x00, 0x04, 0x00, 0x0e, 0x00, 0x00, 0x00,
  0x14, 0x00, 0x00, 0x00, 0x1c, 0x00, 0x00, 0x00, 0x24, 0x01, 0x00, 0x00,
  0x28, 0x01, 0x00, 0x00, 0x2c, 0x01, 0x00, 0x00, 0x04, 0x00, 0x00, 0x00,
  0x6d, 0x61, 0x69, 0x6e, 0x00, 0x00, 0x00, 0x00, 0x04, 0x00, 0x00, 0x00,
  0xcc, 0x00, 0x00, 0x00, 0x84, 0x00, 0x00, 0x00, 0x50, 0x00, 0x00, 0x00,
  0x14, 0x00, 0x00, 0x00, 0x00, 0x00, 0x0e, 0x00, 0x1a, 0x00, 0x14, 0x00,
  0x10, 0x00, 0x0c, 0x00, 0x0b, 0x00, 0x04, 0x00, 0x0e, 0x00, 0x00, 0x00,
  0x1c, 0x00, 0x00, 0x00, 0x00, 0x00, 0x00, 0x09, 0x1c, 0x00, 0x00, 0x00,
  0x20, 0x00, 0x00, 0x00, 0x01, 0x00, 0x00, 0x00, 0x00, 0x00, 0x06, 0x00,
  0x08, 0x00, 0x04, 0x00, 0x06, 0x00, 0x00, 0x00, 0x00, 0x00, 0x80, 0x3f,
  0x01, 0x00, 0x00, 0x00, 0x0a, 0x00, 0x00, 0x00, 0x01, 0x00, 0x00, 0x00,
  0x09, 0x00, 0x00, 0x00, 0x9a, 0xff, 0xff, 0xff, 0x10, 0x00, 0x00, 0x00,
  0x00, 0x00, 0x00, 0x08, 0x0c, 0x00, 0x00, 0x00, 0x10, 0x00, 0x00, 0x00,
  0x08, 0xfb, 0xff, 0xff, 0x01, 0x00, 0x00, 0x00, 0x09, 0x00, 0x00, 0x00,
  0x03, 0x00, 0x00, 0x00, 0x08, 0x00, 0x00, 0x00, 0x06, 0x00, 0x00, 0x00,
  0x01, 0x00, 0x00, 0x00, 0xca, 0xff, 0xff, 0xff, 0x10, 0x00, 0x00, 0x00,
  0x00, 0x00, 0x00, 0x08, 0x10, 0x00, 0x00, 0x00, 0x14, 0x00, 0x00, 0x00,
  0xba, 0xff, 0xff, 0xff, 0x00, 0x00, 0x00, 0x01, 0x01, 0x00, 0x00, 0x00,
  0x08, 0x00, 0x00, 0x00, 0x03, 0x00, 0x00, 0x00, 0x07, 0x00, 0x00, 0x00,
  0x05, 0x00, 0x00, 0x00, 0x02, 0x00, 0x00, 0x00, 0x00, 0x00, 0x0e, 0x00,
  0x16, 0x00, 0x00, 0x00, 0x10, 0x00, 0x0c, 0x00, 0x0b, 0x00, 0x04, 0x00,
  0x0e, 0x00, 0x00, 0x00, 0x18, 0x00, 0x00, 0x00, 0x00, 0x00, 0x00, 0x08,
  0x18, 0x00, 0x00, 0x00, 0x1c, 0x00, 0x00, 0x00, 0x00, 0x00, 0x06, 0x00,
  0x08, 0x00, 0x07, 0x00, 0x06, 0x00, 0x00, 0x00, 0x00, 0x00, 0x00, 0x01,
  0x01, 0x00, 0x00, 0x00, 0x07, 0x00, 0x00, 0x00, 0x03, 0x00, 0x00, 0x00,
  0x00, 0x00, 0x00, 0x00, 0x04, 0x00, 0x00, 0x00, 0x03, 0x00, 0x00, 0x00,
  0x01, 0x00, 0x00, 0x00, 0x0a, 0x00, 0x00, 0x00, 0x01, 0x00, 0x00, 0x00,
  0x00, 0x00, 0x00, 0x00, 0x0b, 0x00, 0x00, 0x00, 0x20, 0x04, 0x00, 0x00,
  0xb0, 0x03, 0x00, 0x00, 0x40, 0x03, 0x00, 0x00, 0xe8, 0x02, 0x00, 0x00,
  0x9c, 0x02, 0x00, 0x00, 0x50, 0x02, 0x00, 0x00, 0x04, 0x02, 0x00, 0x00,
  0x70, 0x01, 0x00, 0x00, 0xdc, 0x00, 0x00, 0x00, 0x60, 0x00, 0x00, 0x00,
  0x04, 0x00, 0x00, 0x00, 0x22, 0xfc, 0xff, 0xff, 0x00, 0x00, 0x00, 0x01,
  0x14, 0x00, 0x00, 0x00, 0x1c, 0x00, 0x00, 0x00, 0x1c, 0x00, 0x00, 0x00,
  0x0b, 0x00, 0x00, 0x00, 0x34, 0x00, 0x00, 0x00, 0x02, 0x00, 0x00, 0x00,
  0xff, 0xff, 0xff, 0xff, 0x08, 0x00, 0x00, 0x00, 0x0c, 0xfc, 0xff, 0xff,
  0x19, 0x00, 0x00, 0x00, 0x53, 0x74, 0x61, 0x74, 0x65, 0x66, 0x75, 0x6c,
  0x50, 0x61, 0x72, 0x74, 0x69, 0x74, 0x69, 0x6f, 0x6e, 0x65, 0x64, 0x43,
  0x61, 0x6c, 0x6c, 0x3a, 0x30, 0x00, 0x00, 0x00, 0x02, 0x00, 0x00, 0x00,
  0x01, 0x00, 0x00, 0x00, 0x08, 0x00, 0x00, 0x00, 0x7a, 0xfc, 0xff, 0xff,
  0x00, 0x00, 0x00, 0x01, 0x14, 0x00, 0x00, 0x00, 0x1c, 0x00, 0x00, 0x00,
  0x1c, 0x00, 0x00, 0x00, 0x0a, 0x00, 0x00, 0x00, 0x54, 0x00, 0x00, 0x00,
  0x02, 0x00, 0x00, 0x00, 0xff, 0xff, 0xff, 0xff, 0x08, 0x00, 0x00, 0x00,
  0x64, 0xfc, 0xff, 0xff, 0x38, 0x00, 0x00, 0x00, 0x73, 0x65, 0x71, 0x75,
  0x65, 0x6e, 0x74, 0x69, 0x61, 0x6c, 0x5f, 0x31, 0x2f, 0x64, 0x65, 0x6e,
  0x73, 0x65, 0x5f, 0x35, 0x2f, 0x4d, 0x61, 0x74, 0x4d, 0x75, 0x6c, 0x3b,
  0x73, 0x65, 0x71, 0x75, 0x65, 0x6e, 0x74, 0x69, 0x61, 0x6c, 0x5f, 0x31,
  0x2f, 0x64, 0x65, 0x6e, 0x73, 0x65, 0x5f, 0x35, 0x2f, 0x42, 0x69, 0x61,
  0x73, 0x41, 0x64, 0x64, 0x00, 0x00, 0x00, 0x00, 0x02, 0x00, 0x00, 0x00,
  0x01, 0x00, 0x00, 0x00, 0x08, 0x00, 0x00, 0x00, 0xf2, 0xfc, 0xff, 0xff,
  0x00, 0x00, 0x00, 0x01, 0x14, 0x00, 0x00, 0x00, 0x1c, 0x00, 0x00, 0x00,
  0x1c, 0x00, 0x00, 0x00, 0x09, 0x00, 0x00, 0x00, 0x6c, 0x00, 0x00, 0x00,
  0x02, 0x00, 0x00, 0x00, 0xff, 0xff, 0xff, 0xff, 0x08, 0x00, 0x00, 0x00,
  0xdc, 0xfc, 0xff, 0xff, 0x52, 0x00, 0x00, 0x00, 0x73, 0x65, 0x71, 0x75,
  0x65, 0x6e, 0x74, 0x69, 0x61, 0x6c, 0x5f, 0x31, 0x2f, 0x64, 0x65, 0x6e,
  0x73, 0x65, 0x5f, 0x34, 0x2f, 0x4d, 0x61, 0x74, 0x4d, 0x75, 0x6c, 0x3b,
  0x73, 0x65, 0x71, 0x75, 0x65, 0x6e, 0x74, 0x69, 0x61, 0x6c, 0x5f, 0x31,
  0x2f, 0x64, 0x65, 0x6e, 0x73, 0x65, 0x5f, 0x34, 0x2f, 0x52, 0x65, 0x6c,
  0x75, 0x3b, 0x73, 0x65, 0x71, 0x75, 0x65, 0x6e, 0x74, 0x69, 0x61, 0x6c,
  0x5f, 0x31, 0x2f, 0x64, 0x65, 0x6e, 0x73, 0x65, 0x5f, 0x34, 0x2f, 0x42,
  0x69, 0x61, 0x73, 0x41, 0x64, 0x64, 0x00, 0x00, 0x02, 0x00, 0x00, 0x00,
  0x01, 0x00, 0x00, 0x00, 0x08, 0x00, 0x00, 0x00, 0x82, 0xfd, 0xff, 0xff,
  0x00, 0x00, 0x00, 0x01, 0x14, 0x00, 0x00, 0x00, 0x1c, 0x00, 0x00, 0x00,
  0x1c, 0x00, 0x00, 0x00, 0x08, 0x00, 0x00, 0x00, 0x6c, 0x00, 0x00, 0x00,
  0x02, 0x00, 0x00, 0x00, 0xff, 0xff, 0xff, 0xff, 0x10, 0x00, 0x00, 0x00,
  0x6c, 0xfd, 0xff, 0xff, 0x52, 0x00, 0x00, 0x00, 0x73, 0x65, 0x71, 0x75,
  0x65, 0x6e, 0x74, 0x69, 0x61, 0x6c, 0x5f, 0x31, 0x2f, 0x64, 0x65, 0x6e,
  0x73, 0x65, 0x5f, 0x33, 0x2f, 0x4d, 0x61, 0x74, 0x4d, 0x75, 0x6c, 0x3b,
  0x73, 0x65, 0x71, 0x75, 0x65, 0x6e, 0x74, 0x69, 0x61, 0x6c, 0x5f, 0x31,
  0x2f, 0x64, 0x65, 0x6e, 0x73, 0x65, 0x5f, 0x33, 0x2f, 0x52, 0x65, 0x6c,
  0x75, 0x3b, 0x73, 0x65, 0x71, 0x75, 0x65, 0x6e, 0x74, 0x69, 0x61, 0x6c,
  0x5f, 0x31, 0x2f, 0x64, 0x65, 0x6e, 0x73, 0x65, 0x5f, 0x33, 0x2f, 0x42,
  0x69, 0x61, 0x73, 0x41, 0x64, 0x64, 0x00, 0x00, 0x02, 0x00, 0x00, 0x00,
  0x01, 0x00, 0x00, 0x00, 0x10, 0x00, 0x00, 0x00, 0x7e, 0xfe, 0xff, 0xff,
  0x00, 0x00, 0x00, 0x01, 0x10, 0x00, 0x00, 0x00, 0x10, 0x00, 0x00, 0x00,
  0x07, 0x00, 0x00, 0x00, 0x28, 0x00, 0x00, 0x00, 0xec, 0xfd, 0xff, 0xff,
  0x1b, 0x00, 0x00, 0x00, 0x73, 0x65, 0x71, 0x75, 0x65, 0x6e, 0x74, 0x69,
  0x61, 0x6c, 0x5f, 0x31, 0x2f, 0x64, 0x65, 0x6e, 0x73, 0x65, 0x5f, 0x35,
  0x2f, 0x4d, 0x61, 0x74, 0x4d, 0x75, 0x6c, 0x00, 0x02, 0x00, 0x00, 0x00,
  0x08, 0x00, 0x00, 0x00, 0x08, 0x00, 0x00, 0x00, 0xc6, 0xfe, 0xff, 0xff,
  0x00, 0x00, 0x00, 0x01, 0x10, 0x00, 0x00, 0x00, 0x10, 0x00, 0x00, 0x00,
  0x06, 0x00, 0x00, 0x00, 0x28, 0x00, 0x00, 0x00, 0x34, 0xfe, 0xff, 0xff,
  0x1b, 0x00, 0x00, 0x00, 0x73, 0x65, 0x71, 0x75, 0x65, 0x6e, 0x74, 0x69,
  0x61, 0x6c, 0x5f, 0x31, 0x2f, 0x64, 0x65, 0x6e, 0x73, 0x65, 0x5f, 0x34,
  0x2f, 0x4d, 0x61, 0x74, 0x4d, 0x75, 0x6c, 0x00, 0x02, 0x00, 0x00, 0x00,
  0x08, 0x00, 0x00, 0x00, 0x10, 0x00, 0x00, 0x00, 0x0e, 0xff, 0xff, 0xff,
  0x00, 0x00, 0x00, 0x01, 0x10, 0x00, 0x00, 0x00, 0x10, 0x00, 0x00, 0x00,
  0x05, 0x00, 0x00, 0x00, 0x28, 0x00, 0x00, 0x00, 0x7c, 0xfe, 0xff, 0xff,
  0x1b, 0x00, 0x00, 0x00, 0x73, 0x65, 0x71, 0x75, 0x65, 0x6e, 0x74, 0x69,
  0x61, 0x6c, 0x5f, 0x31, 0x2f, 0x64, 0x65, 0x6e, 0x73, 0x65, 0x5f, 0x33,
  0x2f, 0x4d, 0x61, 0x74, 0x4d, 0x75, 0x6c, 0x00, 0x02, 0x00, 0x00, 0x00,
  0x10, 0x00, 0x00, 0x00, 0x78, 0x00, 0x00, 0x00, 0x56, 0xff, 0xff, 0xff,
  0x00, 0x00, 0x00, 0x01, 0x10, 0x00, 0x00, 0x00, 0x10, 0x00, 0x00, 0x00,
  0x04, 0x00, 0x00, 0x00, 0x38, 0x00, 0x00, 0x00, 0xc4, 0xfe, 0xff, 0xff,
  0x2b, 0x00, 0x00, 0x00, 0x73, 0x65, 0x71, 0x75, 0x65, 0x6e, 0x74, 0x69,
  0x61, 0x6c, 0x5f, 0x31, 0x2f, 0x64, 0x65, 0x6e, 0x73, 0x65, 0x5f, 0x33,
  0x2f, 0x42, 0x69, 0x61, 0x73, 0x41, 0x64, 0x64, 0x2f, 0x52, 0x65, 0x61,
  0x64, 0x56, 0x61, 0x72, 0x69, 0x61, 0x62, 0x6c, 0x65, 0x4f, 0x70, 0x00,
  0x01, 0x00, 0x00, 0x00, 0x10, 0x00, 0x00, 0x00, 0xaa, 0xff, 0xff, 0xff,
  0x00, 0x00, 0x00, 0x01, 0x10, 0x00, 0x00, 0x00, 0x10, 0x00, 0x00, 0x00,
  0x03, 0x00, 0x00, 0x00, 0x38, 0x00, 0x00, 0x00, 0x18, 0xff, 0xff, 0xff,
  0x2b, 0x00, 0x00, 0x00, 0x73, 0x65, 0x71, 0x75, 0x65, 0x6e, 0x74, 0x69,
  0x61, 0x6c, 0x5f, 0x31, 0x2f, 0x64, 0x65, 0x6e, 0x73, 0x65, 0x5f, 0x34,
  0x2f, 0x42, 0x69, 0x61, 0x73, 0x41, 0x64, 0x64, 0x2f, 0x52, 0x65, 0x61,
  0x64, 0x56, 0x61, 0x72, 0x69, 0x61, 0x62, 0x6c, 0x65, 0x4f, 0x70, 0x00,
  0x01, 0x00, 0x00, 0x00, 0x08, 0x00, 0x00, 0x00, 0x00, 0x00, 0x16, 0x00,
  0x18, 0x00, 0x14, 0x00, 0x00, 0x00, 0x10, 0x00, 0x0c, 0x00, 0x08, 0x00,
  0x00, 0x00, 0x00, 0x00, 0x00, 0x00, 0x07, 0x00, 0x16, 0x00, 0x00, 0x00,
  0x00, 0x00, 0x00, 0x01, 0x10, 0x00, 0x00, 0x00, 0x10, 0x00, 0x00, 0x00,
  0x02, 0x00, 0x00, 0x00, 0x38, 0x00, 0x00, 0x00, 0x84, 0xff, 0xff, 0xff,
  0x2b, 0x00, 0x00, 0x00, 0x73, 0x65, 0x71, 0x75, 0x65, 0x6e, 0x74, 0x69,
  0x61, 0x6c, 0x5f, 0x31, 0x2f, 0x64, 0x65, 0x6e, 0x73, 0x65, 0x5f, 0x35,
  0x2f, 0x42, 0x69, 0x61, 0x73, 0x41, 0x64, 0x64, 0x2f, 0x52, 0x65, 0x61,
  0x64, 0x56, 0x61, 0x72, 0x69, 0x61, 0x62, 0x6c, 0x65, 0x4f, 0x70, 0x00,
  0x01, 0x00, 0x00, 0x00, 0x08, 0x00, 0x00, 0x00, 0x00, 0x00, 0x16, 0x00,
  0x1c, 0x00, 0x18, 0x00, 0x00, 0x00, 0x14, 0x00, 0x10, 0x00, 0x0c, 0x00,
  0x00, 0x00, 0x00, 0x00, 0x08, 0x00, 0x07, 0x00, 0x16, 0x00, 0x00, 0x00,
  0x00, 0x00, 0x00, 0x01, 0x14, 0x00, 0x00, 0x00, 0x20, 0x00, 0x00, 0x00,
  0x20, 0x00, 0x00, 0x00, 0x01, 0x00, 0x00, 0x00, 0x3c, 0x00, 0x00, 0x00,
  0x02, 0x00, 0x00, 0x00, 0xff, 0xff, 0xff, 0xff, 0x78, 0x00, 0x00, 0x00,
  0x04, 0x00, 0x04, 0x00, 0x04, 0x00, 0x00, 0x00, 0x1f, 0x00, 0x00, 0x00,
  0x73, 0x65, 0x72, 0x76, 0x69, 0x6e, 0x67, 0x5f, 0x64, 0x65, 0x66, 0x61,
  0x75, 0x6c, 0x74, 0x5f, 0x64, 0x65, 0x6e, 0x73, 0x65, 0x5f, 0x33, 0x5f,
  0x69, 0x6e, 0x70, 0x75, 0x74, 0x3a, 0x30, 0x00, 0x02, 0x00, 0x00, 0x00,
  0x01, 0x00, 0x00, 0x00, 0x78, 0x00, 0x00, 0x00, 0x02, 0x00, 0x00, 0x00,
  0x20, 0x00, 0x00, 0x00, 0x04, 0x00, 0x00, 0x00, 0xf4, 0xff, 0xff, 0xff,
  0x19, 0x00, 0x00, 0x00, 0x00, 0x00, 0x00, 0x19, 0x0c, 0x00, 0x0c, 0x00,
  0x0b, 0x00, 0x00, 0x00, 0x00, 0x00, 0x04, 0x00, 0x0c, 0x00, 0x00, 0x00,
  0x09, 0x00, 0x00, 0x00, 0x00, 0x00, 0x00, 0x09
}; 
