const unsigned char gesture_model [] = {  
  0x1c, 0x00, 0x00, 0x00, 0x54, 0x46, 0x4c, 0x33, 0x14, 0x00, 0x20, 0x00,
  0x1c, 0x00, 0x18, 0x00, 0x14, 0x00, 0x10, 0x00, 0x0c, 0x00, 0x00, 0x00,
  0x08, 0x00, 0x04, 0x00, 0x14, 0x00, 0x00, 0x00, 0x1c, 0x00, 0x00, 0x00,
  0x98, 0x00, 0x00, 0x00, 0xf0, 0x00, 0x00, 0x00, 0x04, 0x07, 0x00, 0x00,
  0x14, 0x07, 0x00, 0x00, 0x10, 0x0d, 0x00, 0x00, 0x03, 0x00, 0x00, 0x00,
  0x01, 0x00, 0x00, 0x00, 0x10, 0x00, 0x00, 0x00, 0x00, 0x00, 0x0a, 0x00,
  0x10, 0x00, 0x0c, 0x00, 0x08, 0x00, 0x04, 0x00, 0x0a, 0x00, 0x00, 0x00,
  0x0c, 0x00, 0x00, 0x00, 0x1c, 0x00, 0x00, 0x00, 0x3c, 0x00, 0x00, 0x00,
  0x0f, 0x00, 0x00, 0x00, 0x73, 0x65, 0x72, 0x76, 0x69, 0x6e, 0x67, 0x5f,
  0x64, 0x65, 0x66, 0x61, 0x75, 0x6c, 0x74, 0x00, 0x01, 0x00, 0x00, 0x00,
  0x04, 0x00, 0x00, 0x00, 0x90, 0xff, 0xff, 0xff, 0x0a, 0x00, 0x00, 0x00,
  0x04, 0x00, 0x00, 0x00, 0x08, 0x00, 0x00, 0x00, 0x64, 0x65, 0x6e, 0x73,
  0x65, 0x5f, 0x32, 0x30, 0x00, 0x00, 0x00, 0x00, 0x01, 0x00, 0x00, 0x00,
  0x04, 0x00, 0x00, 0x00, 0xe2, 0xf8, 0xff, 0xff, 0x04, 0x00, 0x00, 0x00,
  0x0e, 0x00, 0x00, 0x00, 0x64, 0x65, 0x6e, 0x73, 0x65, 0x5f, 0x31, 0x38,
  0x5f, 0x69, 0x6e, 0x70, 0x75, 0x74, 0x00, 0x00, 0x02, 0x00, 0x00, 0x00,
  0x34, 0x00, 0x00, 0x00, 0x04, 0x00, 0x00, 0x00, 0xdc, 0xff, 0xff, 0xff,
  0x0d, 0x00, 0x00, 0x00, 0x04, 0x00, 0x00, 0x00, 0x13, 0x00, 0x00, 0x00,
  0x43, 0x4f, 0x4e, 0x56, 0x45, 0x52, 0x53, 0x49, 0x4f, 0x4e, 0x5f, 0x4d,
  0x45, 0x54, 0x41, 0x44, 0x41, 0x54, 0x41, 0x00, 0x08, 0x00, 0x0c, 0x00,
  0x08, 0x00, 0x04, 0x00, 0x08, 0x00, 0x00, 0x00, 0x0c, 0x00, 0x00, 0x00,
  0x04, 0x00, 0x00, 0x00, 0x13, 0x00, 0x00, 0x00, 0x6d, 0x69, 0x6e, 0x5f,
  0x72, 0x75, 0x6e, 0x74, 0x69, 0x6d, 0x65, 0x5f, 0x76, 0x65, 0x72, 0x73,
  0x69, 0x6f, 0x6e, 0x00, 0x0e, 0x00, 0x00, 0x00, 0x10, 0x06, 0x00, 0x00,
  0x08, 0x06, 0x00, 0x00, 0xd8, 0x05, 0x00, 0x00, 0xa8, 0x05, 0x00, 0x00,
  0x58, 0x05, 0x00, 0x00, 0xc8, 0x03, 0x00, 0x00, 0xb8, 0x01, 0x00, 0x00,
  0xa8, 0x00, 0x00, 0x00, 0xa0, 0x00, 0x00, 0x00, 0x98, 0x00, 0x00, 0x00,
  0x90, 0x00, 0x00, 0x00, 0x88, 0x00, 0x00, 0x00, 0x68, 0x00, 0x00, 0x00,
  0x04, 0x00, 0x00, 0x00, 0x96, 0xf9, 0xff, 0xff, 0x04, 0x00, 0x00, 0x00,
  0x54, 0x00, 0x00, 0x00, 0x0c, 0x00, 0x00, 0x00, 0x08, 0x00, 0x0e, 0x00,
  0x08, 0x00, 0x04, 0x00, 0x08, 0x00, 0x00, 0x00, 0x10, 0x00, 0x00, 0x00,
  0x24, 0x00, 0x00, 0x00, 0x00, 0x00, 0x06, 0x00, 0x08, 0x00, 0x04, 0x00,
  0x06, 0x00, 0x00, 0x00, 0x04, 0x00, 0x00, 0x00, 0x00, 0x00, 0x00, 0x00,
  0x00, 0x00, 0x0a, 0x00, 0x10, 0x00, 0x0c, 0x00, 0x08, 0x00, 0x04, 0x00,
  0x0a, 0x00, 0x00, 0x00, 0x02, 0x00, 0x00, 0x00, 0x02, 0x00, 0x00, 0x00,
  0x04, 0x00, 0x00, 0x00, 0x06, 0x00, 0x00, 0x00, 0x32, 0x2e, 0x31, 0x30,
  0x2e, 0x30, 0x00, 0x00, 0xf6, 0xf9, 0xff, 0xff, 0x04, 0x00, 0x00, 0x00,
  0x10, 0x00, 0x00, 0x00, 0x31, 0x2e, 0x35, 0x2e, 0x30, 0x00, 0x00, 0x00,
  0x00, 0x00, 0x00, 0x00, 0x00, 0x00, 0x00, 0x00, 0xc8, 0xf4, 0xff, 0xff,
  0xcc, 0xf4, 0xff, 0xff, 0xd0, 0xf4, 0xff, 0xff, 0xd4, 0xf4, 0xff, 0xff,
  0x22, 0xfa, 0xff, 0xff, 0x04, 0x00, 0x00, 0x00, 0x00, 0x01, 0x00, 0x00,
  0xe5, 0xdc, 0x90, 0xbe, 0x89, 0xa7, 0x16, 0x3f, 0xa4, 0x96, 0x0f, 0xbf,
  0x1b, 0xde, 0xb0, 0xbf, 0xe1, 0x15, 0x04, 0xbd, 0xd7, 0x86, 0xb9, 0xbf,
  0x22, 0x89, 0xc0, 0xbe, 0x23, 0x8b, 0x09, 0x3d, 0x22, 0xdf, 0xc2, 0xbe,
  0xf7, 0x6e, 0x0b, 0xbf, 0xdd, 0xca, 0x1b, 0xbf, 0xfb, 0xa8, 0x6a, 0xc0,
  0xb8, 0x4c, 0x32, 0x3e, 0x82, 0xbc, 0x9a, 0x3f, 0x16, 0xc2, 0x7e, 0xbe,
  0xf5, 0x45, 0xc0, 0x3e, 0xa0, 0x3b, 0x72, 0x3e, 0xc8, 0xd4, 0x2e, 0xc0,
  0x9e, 0x5f, 0x10, 0xbf, 0x80, 0xb3, 0xd3, 0xbc, 0xde, 0x39, 0x13, 0x3f,
  0x8a, 0x4d, 0xc0, 0x3f, 0xd2, 0xd3, 0xd9, 0xbe, 0x52, 0x55, 0xdd, 0x3e,
  0x8a, 0xa3, 0x06, 0xbf, 0xe7, 0xb1, 0x8c, 0x3f, 0x73, 0x91, 0x1a, 0x3f,
  0x84, 0xad, 0x10, 0xc0, 0xe1, 0x58, 0x00, 0xc0, 0x5c, 0x68, 0x57, 0xc0,
  0x60, 0x19, 0xa7, 0x3e, 0x1b, 0x8d, 0xa4, 0xbe, 0xdc, 0xa9, 0xdb, 0xbe,
  0x25, 0x4f, 0xf8, 0xbf, 0x1e, 0xa7, 0x64, 0xbe, 0x43, 0x4d, 0x63, 0x3f,
  0xf6, 0x0d, 0xad, 0x3f, 0x54, 0xad, 0x39, 0x3e, 0x3c, 0x90, 0xad, 0xbe,
  0x2b, 0x7c, 0xaf, 0xc0, 0x82, 0xd9, 0xa5, 0x3e, 0xb2, 0xa3, 0xc7, 0x3e,
  0x00, 0x17, 0x89, 0x3b, 0xe0, 0xe4, 0x00, 0x3e, 0x1f, 0x67, 0x95, 0xbf,
  0xa3, 0x02, 0x5f, 0xbf, 0x1e, 0xd4, 0xb3, 0x3e, 0x08, 0xac, 0xa3, 0x3f,
  0x5c, 0x08, 0x3e, 0x3e, 0x6c, 0x33, 0x5a, 0x3e, 0xc8, 0x0f, 0xcd, 0x3d,
  0xc9, 0x89, 0xb1, 0x3f, 0xc3, 0xbb, 0x48, 0xbf, 0x62, 0xb0, 0x06, 0xbf,
  0x58, 0xa3, 0x2c, 0xbe, 0x49, 0xd8, 0xe4, 0x3e, 0xd0, 0x1c, 0x5a, 0xbe,
  0xfd, 0x20, 0x49, 0x3f, 0x24, 0x92, 0xcd, 0xbe, 0xae, 0xd1, 0xf8, 0xbe,
  0x91, 0x55, 0x6e, 0xbf, 0xf8, 0xd9, 0x39, 0xbe, 0xbe, 0x50, 0x83, 0xbe,
  0xd6, 0xe6, 0x49, 0xbf, 0x2e, 0xfb, 0xff, 0xff, 0x04, 0x00, 0x00, 0x00,
  0x00, 0x02, 0x00, 0x00, 0xf8, 0x03, 0x2c, 0x3e, 0x34, 0x85, 0xe7, 0xbe,
  0xa0, 0xe9, 0xc9, 0xbd, 0x40, 0x5c, 0x2c, 0x3d, 0x44, 0xa2, 0xdc, 0xbe,
  0x68, 0x1d, 0xa3, 0x3e, 0x40, 0x82, 0xd5, 0xbd, 0xa0, 0x6e, 0xde, 0x3e,
  0x90, 0x80, 0xc7, 0x3e, 0x90, 0x38, 0xe6, 0xbd, 0xa4, 0x24, 0x98, 0x3e,
  0x00, 0x86, 0x4c, 0xbb, 0x18, 0xc5, 0x36, 0xbe, 0x90, 0x65, 0x65, 0xbe,
  0x58, 0x40, 0x33, 0xbe, 0x08, 0x44, 0xb6, 0xbe, 0x48, 0x96, 0xb3, 0xbe,
  0x35, 0x21, 0xd8, 0xbf, 0x9e, 0x80, 0xd0, 0x3f, 0xc0, 0x7c, 0xf1, 0xbc,
  0x1e, 0x32, 0xa5, 0xbf, 0x00, 0x1e, 0xdc, 0x3b, 0x4a, 0x85, 0x0a, 0x40,
  0x28, 0x60, 0x99, 0xbd, 0x00, 0x7e, 0xf1, 0x3e, 0x38, 0x22, 0x55, 0xbe,
  0xe9, 0x6b, 0xfb, 0x3f, 0xa4, 0x60, 0x89, 0x3f, 0x70, 0x56, 0x45, 0xbf,
  0xe9, 0xd2, 0x0e, 0x3e, 0x5d, 0x73, 0x11, 0x3f, 0x22, 0xcb, 0xfd, 0x3f,
  0xa0, 0x4b, 0x66, 0xbe, 0x20, 0x4f, 0xe7, 0xbd, 0xe0, 0x67, 0x50, 0xbe,
  0xc4, 0x95, 0xef, 0x3e, 0xac, 0xbd, 0xf4, 0xbe, 0x0c, 0x34, 0xdb, 0xbe,
  0x10, 0xbb, 0x94, 0x3d, 0xa0, 0xed, 0x79, 0x3e, 0x58, 0x52, 0xb7, 0x3e,
  0x28, 0x76, 0x0a, 0xbe, 0x68, 0xf2, 0x55, 0xbe, 0x00, 0x78, 0x04, 0xba,
  0x78, 0x1c, 0xa0, 0x3e, 0xfc, 0x08, 0xfa, 0xbe, 0xec, 0x9e, 0xa4, 0xbe,
  0xac, 0xa4, 0xdb, 0x3e, 0xd8, 0x23, 0x8d, 0xbe, 0x87, 0x03, 0x9e, 0x3f,
  0x27, 0x2a, 0x37, 0x3f, 0x34, 0xa9, 0x97, 0xbe, 0x0a, 0x83, 0x6c, 0xbf,
  0x48, 0xde, 0x52, 0xbe, 0x60, 0x8a, 0xed, 0x3e, 0x9c, 0xaa, 0xc6, 0x3e,
  0x30, 0xe6, 0x63, 0x3e, 0xf8, 0x58, 0x6e, 0xbe, 0x83, 0x34, 0xea, 0xbf,
  0x57, 0x74, 0xf1, 0xbe, 0x28, 0xba, 0x5d, 0x3f, 0xe1, 0x31, 0xef, 0xbd,
  0xb7, 0x0f, 0xcf, 0x3e, 0x4e, 0x98, 0xd4, 0x3f, 0xa0, 0x73, 0x68, 0x3e,
  0xa4, 0x61, 0xb3, 0x3f, 0x4c, 0x02, 0x5d, 0xbd, 0x30, 0x73, 0xd3, 0x3e,
  0x36, 0x27, 0x95, 0x3f, 0x18, 0xa5, 0x87, 0x3e, 0xd1, 0xa2, 0xb8, 0xbf,
  0xa2, 0xc3, 0xd5, 0x3e, 0x1c, 0x3b, 0xd2, 0x3e, 0x34, 0xc5, 0xf4, 0x3e,
  0x2c, 0x64, 0xe2, 0xbe, 0x11, 0xae, 0xa5, 0x3d, 0xf9, 0xfd, 0x82, 0x3f,
  0xa2, 0x08, 0x04, 0x3f, 0xc3, 0x8c, 0x5a, 0x3e, 0x13, 0x8c, 0x96, 0xbf,
  0xa8, 0x02, 0x2c, 0x3e, 0x02, 0x60, 0xc7, 0x3f, 0x05, 0xe5, 0x24, 0xc0,
  0x40, 0x75, 0xc0, 0x3e, 0xeb, 0x52, 0x9d, 0x3f, 0x04, 0x45, 0x88, 0xbe,
  0x4c, 0xfc, 0xe7, 0xbf, 0x14, 0xe4, 0xf0, 0xbe, 0x68, 0xe8, 0xf7, 0x3e,
  0x40, 0x2d, 0xa8, 0xbc, 0x0d, 0x98, 0x03, 0x3d, 0x23, 0x64, 0x38, 0x3e,
  0xcd, 0xab, 0x92, 0x3f, 0xc5, 0xb4, 0x8b, 0x3f, 0x3b, 0xf3, 0x10, 0x3e,
  0x46, 0x64, 0xc2, 0x3e, 0x10, 0xef, 0x65, 0xbe, 0x3c, 0x95, 0xd0, 0xbe,
  0xd0, 0xe9, 0x14, 0xbe, 0xa0, 0xaa, 0x19, 0x3e, 0x40, 0x66, 0x99, 0x3e,
  0xc0, 0x4e, 0xcb, 0xbc, 0xc0, 0x27, 0x6a, 0x3e, 0x24, 0x00, 0xd0, 0xbe,
  0x0c, 0x08, 0xbd, 0x3e, 0x90, 0xac, 0x57, 0xbe, 0x10, 0x87, 0x10, 0xbe,
  0x20, 0xba, 0x8b, 0xbe, 0xa4, 0x4f, 0xc7, 0xbe, 0x14, 0x31, 0x8b, 0x3e,
  0x60, 0xa4, 0x72, 0x3e, 0x70, 0x77, 0xd6, 0xbd, 0x60, 0x9b, 0xeb, 0x3d,
  0x50, 0xc1, 0x02, 0x3f, 0x1b, 0x9c, 0x80, 0xbf, 0x10, 0x0e, 0xd3, 0xbd,
  0x0d, 0x42, 0x55, 0xbe, 0x28, 0xf6, 0xea, 0xbe, 0xbc, 0xc5, 0x52, 0xbf,
  0xe2, 0x50, 0x28, 0x3e, 0xf0, 0x51, 0xfa, 0x3e, 0x80, 0x86, 0x3d, 0x3e,
  0xe1, 0xc4, 0x6b, 0x3f, 0x5f, 0xc2, 0x75, 0xbe, 0x10, 0xd4, 0x7d, 0x3d,
  0x9e, 0x71, 0x5d, 0x3f, 0xd8, 0xc0, 0x3f, 0x3b, 0xf7, 0x3d, 0x28, 0x40,
  0x3a, 0xfd, 0xff, 0xff, 0x04, 0x00, 0x00, 0x00, 0x80, 0x01, 0x00, 0x00,
  0x00, 0x4d, 0x0c, 0x3b, 0x86, 0xe5, 0x90, 0x3e, 0x55, 0x8f, 0x01, 0xbf,
  0xef, 0x3f, 0xe1, 0xbe, 0x46, 0x40, 0x95, 0xbe, 0xe8, 0xf1, 0xab, 0xbe,
  0xc2, 0xba, 0xb5, 0xbd, 0x56, 0x19, 0xb1, 0x3e, 0x4a, 0x35, 0xaa, 0xbf,
  0x02, 0xf5, 0xa7, 0xbe, 0xe7, 0xdf, 0xff, 0x3e, 0xe9, 0x42, 0x95, 0x3f,
  0xa2, 0x08, 0x88, 0x3f, 0x14, 0x7b, 0x43, 0xbe, 0x03, 0xf1, 0xf5, 0x3f,
  0xf5, 0x8a, 0x60, 0xbf, 0x72, 0xb1, 0xdc, 0x3d, 0xda, 0xf0, 0xee, 0xbd,
  0x1c, 0xc0, 0xb8, 0xbe, 0x68, 0xc0, 0x25, 0x3e, 0x72, 0xb9, 0x8d, 0x3e,
  0xfa, 0xa8, 0x39, 0xbe, 0x52, 0xca, 0xa0, 0xbe, 0x6c, 0x68, 0xdf, 0xbe,
  0x61, 0x59, 0x48, 0xbf, 0xcb, 0x2a, 0x98, 0xbd, 0xc1, 0x42, 0x21, 0xbf,
  0xbf, 0x6f, 0x13, 0x3f, 0x41, 0x24, 0x07, 0x3f, 0x4e, 0x79, 0x95, 0x3e,
  0x8b, 0xae, 0x81, 0xbe, 0x7a, 0xb2, 0x35, 0xbe, 0x60, 0x4c, 0x57, 0x3e,
  0x84, 0xa7, 0x4c, 0xbe, 0xe6, 0xf7, 0xd6, 0xbe, 0x30, 0xef, 0x97, 0x3d,
  0x6f, 0x01, 0x92, 0x3f, 0xd3, 0x57, 0xa7, 0xbe, 0xa0, 0xb5, 0x7a, 0x3f,
  0xb1, 0x6e, 0xf4, 0xbd, 0x9b, 0xfb, 0x85, 0xbe, 0x26, 0xab, 0x83, 0xbe,
  0x8a, 0x67, 0x10, 0xbc, 0x37, 0x11, 0xfc, 0xbe, 0xd8, 0xaf, 0xd7, 0x3d,
  0x6b, 0x1e, 0x30, 0x3e, 0x59, 0x4f, 0x52, 0xbe, 0xaa, 0x36, 0x8d, 0xbc,
  0x40, 0x22, 0x3b, 0xbd, 0x84, 0xc0, 0x23, 0x3e, 0xd0, 0x68, 0xd3, 0x3e,
  0xe0, 0x0c, 0x88, 0xbe, 0xb4, 0x4e, 0xd9, 0xbe, 0xe0, 0x4d, 0xf9, 0xbe,
  0xe7, 0xd8, 0xeb, 0xbe, 0x82, 0xe1, 0xa0, 0xbe, 0xd0, 0x59, 0xc6, 0xbd,
  0x04, 0x37, 0xa6, 0x3e, 0x42, 0x11, 0x8f, 0x3e, 0x5a, 0x1f, 0xb5, 0xbe,
  0xbe, 0x5b, 0xe1, 0x3e, 0x52, 0x7a, 0x65, 0x3f, 0x2e, 0xeb, 0xcb, 0x3e,
  0xde, 0xeb, 0x89, 0x3f, 0x0c, 0x1b, 0x6d, 0x3e, 0xf7, 0x81, 0xc1, 0xbf,
  0xe1, 0xde, 0x59, 0x3f, 0xe2, 0x0b, 0x19, 0x3e, 0x5a, 0xa0, 0x87, 0x3f,
  0xb5, 0x6d, 0x8a, 0x3f, 0xd4, 0x6e, 0x50, 0x3e, 0xe7, 0x8f, 0xe5, 0xbe,
  0x76, 0xa4, 0x65, 0xbe, 0xb9, 0x75, 0xf2, 0x3d, 0x83, 0xcc, 0x3d, 0xbf,
  0x95, 0x52, 0x4f, 0x3e, 0x4e, 0x61, 0x0e, 0x3f, 0x88, 0x6d, 0x9c, 0x3f,
  0x6c, 0xd8, 0x9b, 0xbe, 0x9d, 0x64, 0x7b, 0x3f, 0xdb, 0x11, 0x62, 0xbf,
  0xf6, 0xbc, 0x8f, 0x3f, 0x66, 0xa8, 0xa9, 0x3e, 0xa7, 0xc1, 0xe4, 0x3d,
  0xd4, 0x7c, 0xac, 0x3f, 0xeb, 0x9f, 0xa4, 0x3e, 0x35, 0x22, 0x91, 0x3f,
  0xb2, 0xda, 0xbb, 0x3e, 0x76, 0xc4, 0xb3, 0xbd, 0x1d, 0xdd, 0x9d, 0x3f,
  0x5a, 0x16, 0x5e, 0x3f, 0xe0, 0xd8, 0x8b, 0x3f, 0xd5, 0xed, 0x51, 0xbf,
  0x12, 0x23, 0x16, 0xbd, 0xa8, 0x0c, 0x57, 0xbf, 0xa1, 0x12, 0x22, 0x3f,
  0xc6, 0xfe, 0xff, 0xff, 0x04, 0x00, 0x00, 0x00, 0x40, 0x00, 0x00, 0x00,
  0x00, 0x00, 0x00, 0x00, 0xfe, 0x31, 0x54, 0x3e, 0x53, 0x82, 0x84, 0xbd,
  0x00, 0x00, 0x00, 0x00, 0x4f, 0xc6, 0xbb, 0x3e, 0x00, 0x00, 0x00, 0x00,
  0x9c, 0xbd, 0xe6, 0xbd, 0x5e, 0x75, 0x03, 0xbd, 0x00, 0x00, 0x00, 0x00,
  0x00, 0x00, 0x00, 0x00, 0xdc, 0x8b, 0x1d, 0xbe, 0xd8, 0x0e, 0x24, 0xbd,
  0xd2, 0x02, 0x4e, 0x3e, 0x88, 0x00, 0x86, 0x3d, 0x34, 0xc9, 0x4f, 0xbe,
  0xc0, 0xc6, 0x38, 0xbe, 0x12, 0xff, 0xff, 0xff, 0x04, 0x00, 0x00, 0x00,
  0x20, 0x00, 0x00, 0x00, 0x00, 0x00, 0x00, 0x00, 0xca, 0x2a, 0x0a, 0xbe,
  0x00, 0x00, 0x00, 0x00, 0x57, 0xc2, 0xa0, 0x3c, 0x82, 0xc5, 0xf1, 0x3e,
  0xfb, 0x9c, 0xa7, 0x3c, 0x00, 0x00, 0x00, 0x00, 0x23, 0x30, 0x38, 0xbe,
  0x3e, 0xff, 0xff, 0xff, 0x04, 0x00, 0x00, 0x00, 0x20, 0x00, 0x00, 0x00,
  0x03, 0xb7, 0x2f, 0x3f, 0x73, 0x03, 0x78, 0xbf, 0x43, 0xad, 0x98, 0x3d,
  0xcb, 0x0e, 0x99, 0x3e, 0xfd, 0x74, 0x3a, 0x3f, 0xbe, 0x28, 0xc8, 0xbe,
  0x81, 0xf1, 0x18, 0xbf, 0x5f, 0x36, 0xbe, 0x3d, 0x20, 0xfa, 0xff, 0xff,
  0x24, 0xfa, 0xff, 0xff, 0x0f, 0x00, 0x00, 0x00, 0x4d, 0x4c, 0x49, 0x52,
  0x20, 0x43, 0x6f, 0x6e, 0x76, 0x65, 0x72, 0x74, 0x65, 0x64, 0x2e, 0x00,
  0x01, 0x00, 0x00, 0x00, 0x14, 0x00, 0x00, 0x00, 0x00, 0x00, 0x0e, 0x00,
  0x18, 0x00, 0x14, 0x00, 0x10, 0x00, 0x0c, 0x00, 0x08, 0x00, 0x04, 0x00,
  0x0e, 0x00, 0x00, 0x00, 0x14, 0x00, 0x00, 0x00, 0x1c, 0x00, 0x00, 0x00,
  0x24, 0x01, 0x00, 0x00, 0x28, 0x01, 0x00, 0x00, 0x2c, 0x01, 0x00, 0x00,
  0x04, 0x00, 0x00, 0x00, 0x6d, 0x61, 0x69, 0x6e, 0x00, 0x00, 0x00, 0x00,
  0x04, 0x00, 0x00, 0x00, 0xcc, 0x00, 0x00, 0x00, 0x84, 0x00, 0x00, 0x00,
  0x50, 0x00, 0x00, 0x00, 0x14, 0x00, 0x00, 0x00, 0x00, 0x00, 0x0e, 0x00,
  0x1a, 0x00, 0x14, 0x00, 0x10, 0x00, 0x0c, 0x00, 0x0b, 0x00, 0x04, 0x00,
  0x0e, 0x00, 0x00, 0x00, 0x1c, 0x00, 0x00, 0x00, 0x00, 0x00, 0x00, 0x09,
  0x1c, 0x00, 0x00, 0x00, 0x20, 0x00, 0x00, 0x00, 0x01, 0x00, 0x00, 0x00,
  0x00, 0x00, 0x06, 0x00, 0x08, 0x00, 0x04, 0x00, 0x06, 0x00, 0x00, 0x00,
  0x00, 0x00, 0x80, 0x3f, 0x01, 0x00, 0x00, 0x00, 0x0a, 0x00, 0x00, 0x00,
  0x01, 0x00, 0x00, 0x00, 0x09, 0x00, 0x00, 0x00, 0x9a, 0xff, 0xff, 0xff,
  0x10, 0x00, 0x00, 0x00, 0x00, 0x00, 0x00, 0x08, 0x0c, 0x00, 0x00, 0x00,
  0x10, 0x00, 0x00, 0x00, 0xe8, 0xfa, 0xff, 0xff, 0x01, 0x00, 0x00, 0x00,
  0x09, 0x00, 0x00, 0x00, 0x03, 0x00, 0x00, 0x00, 0x08, 0x00, 0x00, 0x00,
  0x06, 0x00, 0x00, 0x00, 0x01, 0x00, 0x00, 0x00, 0xca, 0xff, 0xff, 0xff,
  0x10, 0x00, 0x00, 0x00, 0x00, 0x00, 0x00, 0x08, 0x10, 0x00, 0x00, 0x00,
  0x14, 0x00, 0x00, 0x00, 0xba, 0xff, 0xff, 0xff, 0x00, 0x00, 0x00, 0x01,
  0x01, 0x00, 0x00, 0x00, 0x08, 0x00, 0x00, 0x00, 0x03, 0x00, 0x00, 0x00,
  0x07, 0x00, 0x00, 0x00, 0x05, 0x00, 0x00, 0x00, 0x02, 0x00, 0x00, 0x00,
  0x00, 0x00, 0x0e, 0x00, 0x16, 0x00, 0x00, 0x00, 0x10, 0x00, 0x0c, 0x00,
  0x0b, 0x00, 0x04, 0x00, 0x0e, 0x00, 0x00, 0x00, 0x18, 0x00, 0x00, 0x00,
  0x00, 0x00, 0x00, 0x08, 0x18, 0x00, 0x00, 0x00, 0x1c, 0x00, 0x00, 0x00,
  0x00, 0x00, 0x06, 0x00, 0x08, 0x00, 0x07, 0x00, 0x06, 0x00, 0x00, 0x00,
  0x00, 0x00, 0x00, 0x01, 0x01, 0x00, 0x00, 0x00, 0x07, 0x00, 0x00, 0x00,
  0x03, 0x00, 0x00, 0x00, 0x00, 0x00, 0x00, 0x00, 0x04, 0x00, 0x00, 0x00,
  0x03, 0x00, 0x00, 0x00, 0x01, 0x00, 0x00, 0x00, 0x0a, 0x00, 0x00, 0x00,
  0x01, 0x00, 0x00, 0x00, 0x00, 0x00, 0x00, 0x00, 0x0b, 0x00, 0x00, 0x00,
  0x40, 0x04, 0x00, 0x00, 0xcc, 0x03, 0x00, 0x00, 0x58, 0x03, 0x00, 0x00,
  0xfc, 0x02, 0x00, 0x00, 0xac, 0x02, 0x00, 0x00, 0x5c, 0x02, 0x00, 0x00,
  0x0c, 0x02, 0x00, 0x00, 0x74, 0x01, 0x00, 0x00, 0xdc, 0x00, 0x00, 0x00,
  0x60, 0x00, 0x00, 0x00, 0x04, 0x00, 0x00, 0x00, 0x02, 0xfc, 0xff, 0xff,
  0x00, 0x00, 0x00, 0x01, 0x14, 0x00, 0x00, 0x00, 0x1c, 0x00, 0x00, 0x00,
  0x1c, 0x00, 0x00, 0x00, 0x0b, 0x00, 0x00, 0x00, 0x34, 0x00, 0x00, 0x00,
  0x02, 0x00, 0x00, 0x00, 0xff, 0xff, 0xff, 0xff, 0x08, 0x00, 0x00, 0x00,
  0xec, 0xfb, 0xff, 0xff, 0x19, 0x00, 0x00, 0x00, 0x53, 0x74, 0x61, 0x74,
  0x65, 0x66, 0x75, 0x6c, 0x50, 0x61, 0x72, 0x74, 0x69, 0x74, 0x69, 0x6f,
  0x6e, 0x65, 0x64, 0x43, 0x61, 0x6c, 0x6c, 0x3a, 0x30, 0x00, 0x00, 0x00,
  0x02, 0x00, 0x00, 0x00, 0x01, 0x00, 0x00, 0x00, 0x08, 0x00, 0x00, 0x00,
  0x5a, 0xfc, 0xff, 0xff, 0x00, 0x00, 0x00, 0x01, 0x14, 0x00, 0x00, 0x00,
  0x1c, 0x00, 0x00, 0x00, 0x1c, 0x00, 0x00, 0x00, 0x0a, 0x00, 0x00, 0x00,
  0x54, 0x00, 0x00, 0x00, 0x02, 0x00, 0x00, 0x00, 0xff, 0xff, 0xff, 0xff,
  0x08, 0x00, 0x00, 0x00, 0x44, 0xfc, 0xff, 0xff, 0x3a, 0x00, 0x00, 0x00,
  0x73, 0x65, 0x71, 0x75, 0x65, 0x6e, 0x74, 0x69, 0x61, 0x6c, 0x5f, 0x36,
  0x2f, 0x64, 0x65, 0x6e, 0x73, 0x65, 0x5f, 0x32, 0x30, 0x2f, 0x4d, 0x61,
  0x74, 0x4d, 0x75, 0x6c, 0x3b, 0x73, 0x65, 0x71, 0x75, 0x65, 0x6e, 0x74,
  0x69, 0x61, 0x6c, 0x5f, 0x36, 0x2f, 0x64, 0x65, 0x6e, 0x73, 0x65, 0x5f,
  0x32, 0x30, 0x2f, 0x42, 0x69, 0x61, 0x73, 0x41, 0x64, 0x64, 0x00, 0x00,
  0x02, 0x00, 0x00, 0x00, 0x01, 0x00, 0x00, 0x00, 0x08, 0x00, 0x00, 0x00,
  0xd2, 0xfc, 0xff, 0xff, 0x00, 0x00, 0x00, 0x01, 0x14, 0x00, 0x00, 0x00,
  0x1c, 0x00, 0x00, 0x00, 0x1c, 0x00, 0x00, 0x00, 0x09, 0x00, 0x00, 0x00,
  0x70, 0x00, 0x00, 0x00, 0x02, 0x00, 0x00, 0x00, 0xff, 0xff, 0xff, 0xff,
  0x08, 0x00, 0x00, 0x00, 0xbc, 0xfc, 0xff, 0xff, 0x55, 0x00, 0x00, 0x00,
  0x73, 0x65, 0x71, 0x75, 0x65, 0x6e, 0x74, 0x69, 0x61, 0x6c, 0x5f, 0x36,
  0x2f, 0x64, 0x65, 0x6e, 0x73, 0x65, 0x5f, 0x31, 0x39, 0x2f, 0x4d, 0x61,
  0x74, 0x4d, 0x75, 0x6c, 0x3b, 0x73, 0x65, 0x71, 0x75, 0x65, 0x6e, 0x74,
  0x69, 0x61, 0x6c, 0x5f, 0x36, 0x2f, 0x64, 0x65, 0x6e, 0x73, 0x65, 0x5f,
  0x31, 0x39, 0x2f, 0x52, 0x65, 0x6c, 0x75, 0x3b, 0x73, 0x65, 0x71, 0x75,
  0x65, 0x6e, 0x74, 0x69, 0x61, 0x6c, 0x5f, 0x36, 0x2f, 0x64, 0x65, 0x6e,
  0x73, 0x65, 0x5f, 0x31, 0x39, 0x2f, 0x42, 0x69, 0x61, 0x73, 0x41, 0x64,
  0x64, 0x00, 0x00, 0x00, 0x02, 0x00, 0x00, 0x00, 0x01, 0x00, 0x00, 0x00,
  0x08, 0x00, 0x00, 0x00, 0x66, 0xfd, 0xff, 0xff, 0x00, 0x00, 0x00, 0x01,
  0x14, 0x00, 0x00, 0x00, 0x1c, 0x00, 0x00, 0x00, 0x1c, 0x00, 0x00, 0x00,
  0x08, 0x00, 0x00, 0x00, 0x70, 0x00, 0x00, 0x00, 0x02, 0x00, 0x00, 0x00,
  0xff, 0xff, 0xff, 0xff, 0x10, 0x00, 0x00, 0x00, 0x50, 0xfd, 0xff, 0xff,
  0x55, 0x00, 0x00, 0x00, 0x73, 0x65, 0x71, 0x75, 0x65, 0x6e, 0x74, 0x69,
  0x61, 0x6c, 0x5f, 0x36, 0x2f, 0x64, 0x65, 0x6e, 0x73, 0x65, 0x5f, 0x31,
  0x38, 0x2f, 0x4d, 0x61, 0x74, 0x4d, 0x75, 0x6c, 0x3b, 0x73, 0x65, 0x71,
  0x75, 0x65, 0x6e, 0x74, 0x69, 0x61, 0x6c, 0x5f, 0x36, 0x2f, 0x64, 0x65,
  0x6e, 0x73, 0x65, 0x5f, 0x31, 0x38, 0x2f, 0x52, 0x65, 0x6c, 0x75, 0x3b,
  0x73, 0x65, 0x71, 0x75, 0x65, 0x6e, 0x74, 0x69, 0x61, 0x6c, 0x5f, 0x36,
  0x2f, 0x64, 0x65, 0x6e, 0x73, 0x65, 0x5f, 0x31, 0x38, 0x2f, 0x42, 0x69,
  0x61, 0x73, 0x41, 0x64, 0x64, 0x00, 0x00, 0x00, 0x02, 0x00, 0x00, 0x00,
  0x01, 0x00, 0x00, 0x00, 0x10, 0x00, 0x00, 0x00, 0x6a, 0xfe, 0xff, 0xff,
  0x00, 0x00, 0x00, 0x01, 0x10, 0x00, 0x00, 0x00, 0x10, 0x00, 0x00, 0x00,
  0x07, 0x00, 0x00, 0x00, 0x2c, 0x00, 0x00, 0x00, 0xd4, 0xfd, 0xff, 0xff,
  0x1c, 0x00, 0x00, 0x00, 0x73, 0x65, 0x71, 0x75, 0x65, 0x6e, 0x74, 0x69,
  0x61, 0x6c, 0x5f, 0x36, 0x2f, 0x64, 0x65, 0x6e, 0x73, 0x65, 0x5f, 0x32,
  0x30, 0x2f, 0x4d, 0x61, 0x74, 0x4d, 0x75, 0x6c, 0x00, 0x00, 0x00, 0x00,
  0x02, 0x00, 0x00, 0x00, 0x08, 0x00, 0x00, 0x00, 0x08, 0x00, 0x00, 0x00,
  0xb6, 0xfe, 0xff, 0xff, 0x00, 0x00, 0x00, 0x01, 0x10, 0x00, 0x00, 0x00,
  0x10, 0x00, 0x00, 0x00, 0x06, 0x00, 0x00, 0x00, 0x2c, 0x00, 0x00, 0x00,
  0x20, 0xfe, 0xff, 0xff, 0x1c, 0x00, 0x00, 0x00, 0x73, 0x65, 0x71, 0x75,
  0x65, 0x6e, 0x74, 0x69, 0x61, 0x6c, 0x5f, 0x36, 0x2f, 0x64, 0x65, 0x6e,
  0x73, 0x65, 0x5f, 0x31, 0x39, 0x2f, 0x4d, 0x61, 0x74, 0x4d, 0x75, 0x6c,
  0x00, 0x00, 0x00, 0x00, 0x02, 0x00, 0x00, 0x00, 0x08, 0x00, 0x00, 0x00,
  0x10, 0x00, 0x00, 0x00, 0x02, 0xff, 0xff, 0xff, 0x00, 0x00, 0x00, 0x01,
  0x10, 0x00, 0x00, 0x00, 0x10, 0x00, 0x00, 0x00, 0x05, 0x00, 0x00, 0x00,
  0x2c, 0x00, 0x00, 0x00, 0x6c, 0xfe, 0xff, 0xff, 0x1c, 0x00, 0x00, 0x00,
  0x73, 0x65, 0x71, 0x75, 0x65, 0x6e, 0x74, 0x69, 0x61, 0x6c, 0x5f, 0x36,
  0x2f, 0x64, 0x65, 0x6e, 0x73, 0x65, 0x5f, 0x31, 0x38, 0x2f, 0x4d, 0x61,
  0x74, 0x4d, 0x75, 0x6c, 0x00, 0x00, 0x00, 0x00, 0x02, 0x00, 0x00, 0x00,
  0x10, 0x00, 0x00, 0x00, 0x06, 0x00, 0x00, 0x00, 0x4e, 0xff, 0xff, 0xff,
  0x00, 0x00, 0x00, 0x01, 0x10, 0x00, 0x00, 0x00, 0x10, 0x00, 0x00, 0x00,
  0x04, 0x00, 0x00, 0x00, 0x3c, 0x00, 0x00, 0x00, 0xb8, 0xfe, 0xff, 0xff,
  0x2c, 0x00, 0x00, 0x00, 0x73, 0x65, 0x71, 0x75, 0x65, 0x6e, 0x74, 0x69,
  0x61, 0x6c, 0x5f, 0x36, 0x2f, 0x64, 0x65, 0x6e, 0x73, 0x65, 0x5f, 0x31,
  0x38, 0x2f, 0x42, 0x69, 0x61, 0x73, 0x41, 0x64, 0x64, 0x2f, 0x52, 0x65,
  0x61, 0x64, 0x56, 0x61, 0x72, 0x69, 0x61, 0x62, 0x6c, 0x65, 0x4f, 0x70,
  0x00, 0x00, 0x00, 0x00, 0x01, 0x00, 0x00, 0x00, 0x10, 0x00, 0x00, 0x00,
  0xa6, 0xff, 0xff, 0xff, 0x00, 0x00, 0x00, 0x01, 0x10, 0x00, 0x00, 0x00,
  0x10, 0x00, 0x00, 0x00, 0x03, 0x00, 0x00, 0x00, 0x3c, 0x00, 0x00, 0x00,
  0x10, 0xff, 0xff, 0xff, 0x2c, 0x00, 0x00, 0x00, 0x73, 0x65, 0x71, 0x75,
  0x65, 0x6e, 0x74, 0x69, 0x61, 0x6c, 0x5f, 0x36, 0x2f, 0x64, 0x65, 0x6e,
  0x73, 0x65, 0x5f, 0x31, 0x39, 0x2f, 0x42, 0x69, 0x61, 0x73, 0x41, 0x64,
  0x64, 0x2f, 0x52, 0x65, 0x61, 0x64, 0x56, 0x61, 0x72, 0x69, 0x61, 0x62,
  0x6c, 0x65, 0x4f, 0x70, 0x00, 0x00, 0x00, 0x00, 0x01, 0x00, 0x00, 0x00,
  0x08, 0x00, 0x00, 0x00, 0x00, 0x00, 0x16, 0x00, 0x18, 0x00, 0x14, 0x00,
  0x00, 0x00, 0x10, 0x00, 0x0c, 0x00, 0x08, 0x00, 0x00, 0x00, 0x00, 0x00,
  0x00, 0x00, 0x07, 0x00, 0x16, 0x00, 0x00, 0x00, 0x00, 0x00, 0x00, 0x01,
  0x10, 0x00, 0x00, 0x00, 0x10, 0x00, 0x00, 0x00, 0x02, 0x00, 0x00, 0x00,
  0x3c, 0x00, 0x00, 0x00, 0x80, 0xff, 0xff, 0xff, 0x2c, 0x00, 0x00, 0x00,
  0x73, 0x65, 0x71, 0x75, 0x65, 0x6e, 0x74, 0x69, 0x61, 0x6c, 0x5f, 0x36,
  0x2f, 0x64, 0x65, 0x6e, 0x73, 0x65, 0x5f, 0x32, 0x30, 0x2f, 0x42, 0x69,
  0x61, 0x73, 0x41, 0x64, 0x64, 0x2f, 0x52, 0x65, 0x61, 0x64, 0x56, 0x61,
  0x72, 0x69, 0x61, 0x62, 0x6c, 0x65, 0x4f, 0x70, 0x00, 0x00, 0x00, 0x00,
  0x01, 0x00, 0x00, 0x00, 0x08, 0x00, 0x00, 0x00, 0x00, 0x00, 0x16, 0x00,
  0x1c, 0x00, 0x18, 0x00, 0x00, 0x00, 0x14, 0x00, 0x10, 0x00, 0x0c, 0x00,
  0x00, 0x00, 0x00, 0x00, 0x08, 0x00, 0x07, 0x00, 0x16, 0x00, 0x00, 0x00,
  0x00, 0x00, 0x00, 0x01, 0x14, 0x00, 0x00, 0x00, 0x20, 0x00, 0x00, 0x00,
  0x20, 0x00, 0x00, 0x00, 0x01, 0x00, 0x00, 0x00, 0x40, 0x00, 0x00, 0x00,
  0x02, 0x00, 0x00, 0x00, 0xff, 0xff, 0xff, 0xff, 0x06, 0x00, 0x00, 0x00,
  0x04, 0x00, 0x04, 0x00, 0x04, 0x00, 0x00, 0x00, 0x20, 0x00, 0x00, 0x00,
  0x73, 0x65, 0x72, 0x76, 0x69, 0x6e, 0x67, 0x5f, 0x64, 0x65, 0x66, 0x61,
  0x75, 0x6c, 0x74, 0x5f, 0x64, 0x65, 0x6e, 0x73, 0x65, 0x5f, 0x31, 0x38,
  0x5f, 0x69, 0x6e, 0x70, 0x75, 0x74, 0x3a, 0x30, 0x00, 0x00, 0x00, 0x00,
  0x02, 0x00, 0x00, 0x00, 0x01, 0x00, 0x00, 0x00, 0x06, 0x00, 0x00, 0x00,
  0x02, 0x00, 0x00, 0x00, 0x20, 0x00, 0x00, 0x00, 0x04, 0x00, 0x00, 0x00,
  0xf4, 0xff, 0xff, 0xff, 0x19, 0x00, 0x00, 0x00, 0x00, 0x00, 0x00, 0x19,
  0x0c, 0x00, 0x0c, 0x00, 0x0b, 0x00, 0x00, 0x00, 0x00, 0x00, 0x04, 0x00,
  0x0c, 0x00, 0x00, 0x00, 0x09, 0x00, 0x00, 0x00, 0x00, 0x00, 0x00, 0x09
}; 
